<unk>	0
<s>	0
</s>	0
▁the	-2.69105
,	-3.06291
.	-3.36213
▁of	-3.43798
▁to	-3.51007
▁and	-3.66949
▁in	-3.84963
▁that	-4.11775
▁a	-4.18628
▁is	-4.20131
▁for	-4.5659
▁we	-4.5795
▁i	-4.61535
▁this	-4.64323
▁on	-4.69589
▁it	-4.7818
▁be	-4.83039
▁are	-5.01238
▁have	-5.06327
▁as	-5.06589
▁not	-5.1105
▁with	-5.15171
▁which	-5.21751
▁european	-5.25686
s	-5.35484
▁will	-5.36116
▁by	-5.36967
-	-5.41821
▁has	-5.49613
'	-5.6017
▁mr	-5.65889
▁at	-5.72648
▁commission	-5.75358
▁an	-5.78834
▁would	-5.81139
▁also	-5.82425
▁all	-5.83164
▁should	-5.87172
▁but	-5.8736
▁our	-5.89166
▁from	-5.90303
▁president	-5.90672
▁-	-5.91775
▁must	-5.96314
▁there	-6.02638
▁been	-6.04205
▁union	-6.05846
▁you	-6.06946
▁parliament	-6.11572
▁can	-6.15546
▁states	-6.15913
▁member	-6.17659
▁more	-6.20632
▁was	-6.20917
▁report	-6.22838
▁or	-6.25057
▁these	-6.25955
▁its	-6.26102
▁they	-6.26544
▁do	-6.28554
▁their	-6.28573
▁council	-6.29275
▁like	-6.29902
▁what	-6.32409
▁very	-6.34346
▁one	-6.35596
▁if	-6.36252
▁europe	-6.36618
▁so	-6.36682
▁eu	-6.40562
▁countries	-6.47991
▁who	-6.49877
▁us	-6.50121
▁my	-6.50367
▁(	-6.51471
▁no	-6.51907
▁other	-6.53963
▁about	-6.54289
▁people	-6.55441
▁need	-6.57716
▁only	-6.60104
▁policy	-6.60208
▁important	-6.61037
▁new	-6.62236
▁time	-6.64028
:	-6.64803
▁because	-6.65472
)	-6.65493
▁now	-6.71405
▁such	-6.76322
▁rights	-6.77788
▁up	-6.7841
▁am	-6.78676
▁therefore	-6.79196
▁support	-6.79227
?	-6.79858
▁out	-6.80865
▁when	-6.80914
▁those	-6.82562
▁however	-6.82835
▁take	-6.83737
▁make	-6.84481
▁between	-6.86536
▁into	-6.86759
▁work	-6.87465
▁some	-6.87892
▁committee	-6.91726
▁economic	-6.9317
▁any	-6.94783
▁being	-6.96409
▁political	-6.97821
▁them	-6.99081
▁made	-7.00304
▁were	-7.00911
▁first	-7.0124
▁many	-7.02036
▁than	-7.02977
▁way	-7.03284
▁commissioner	-7.03758
▁believe	-7.04339
▁social	-7.04699
▁development	-7.05877
▁say	-7.08723
▁against	-7.09293
▁market	-7.0961
;	-7.09825
▁proposal	-7.09981
▁fact	-7.11583
▁human	-7.13507
▁debate	-7.15241
▁group	-7.16179
▁just	-7.1678
▁well	-7.17404
▁question	-7.17906
▁think	-7.18174
▁even	-7.19316
▁today	-7.19747
▁agreement	-7.20009
▁here	-7.20855
▁issue	-7.21371
▁point	-7.21677
▁	-7.2237
▁years	-7.22742
▁does	-7.23325
▁citizens	-7.23336
▁two	-7.23354
’	-7.23666
▁public	-7.25261
▁future	-7.25322
▁situation	-7.25358
▁right	-7.25399
▁order	-7.25407
▁community	-7.25702
▁country	-7.26909
▁how	-7.2701
▁cannot	-7.27502
▁'	-7.27773
▁could	-7.28279
▁measures	-7.28462
▁want	-7.28483
▁same	-7.28692
▁had	-7.289
▁possible	-7.29508
▁most	-7.29517
▁world	-7.30578
▁part	-7.30784
▁financial	-7.31331
▁where	-7.31696
▁international	-7.31967
▁directive	-7.32119
▁national	-7.32668
▁said	-7.3281
▁state	-7.3299
▁much	-7.3356
▁good	-7.3587
▁already	-7.35917
▁me	-7.3692
▁within	-7.36932
▁common	-7.37108
▁clear	-7.37114
▁too	-7.37914
▁year	-7.38025
▁both	-7.38073
▁cooperation	-7.38669
▁–	-7.3879
▁over	-7.39095
▁under	-7.39573
▁vote	-7.3968
▁still	-7.40372
▁may	-7.40424
▁know	-7.40855
▁members	-7.41066
▁why	-7.41265
▁see	-7.42612
▁particular	-7.42711
▁use	-7.42763
▁your	-7.43721
▁mrs	-7.43992
▁energy	-7.45065
▁system	-7.45901
▁view	-7.46548
▁he	-7.46853
▁course	-7.46996
▁then	-7.48292
▁hope	-7.4838
▁action	-7.48523
▁taken	-7.48624
▁level	-7.49018
▁his	-7.49032
▁area	-7.49177
▁ensure	-7.4961
▁thank	-7.50242
▁own	-7.50291
▁case	-7.50608
▁able	-7.5082
▁last	-7.51145
▁process	-7.52692
▁security	-7.528
▁place	-7.53543
▁without	-7.53898
▁information	-7.54418
▁put	-7.55626
▁rapporteur	-7.56022
▁house	-7.57048
▁treaty	-7.57435
▁number	-7.57716
▁through	-7.58156
▁government	-7.58198
▁problem	-7.58459
▁means	-7.58588
▁example	-7.58649
▁protection	-7.58752
▁before	-7.59484
▁given	-7.59931
▁gentlemen	-7.59973
▁since	-7.60346
▁ladies	-7.60532
▁legal	-7.61204
▁budget	-7.61747
▁amendments	-7.6195
▁problems	-7.63044
▁programme	-7.63726
▁great	-7.63907
▁women	-7.6415
▁rules	-7.65012
▁particularly	-7.65047
▁madam	-7.65307
ing	-7.65754
▁resolution	-7.65813
▁necessary	-7.65946
▁trade	-7.66282
▁give	-7.66737
▁long	-7.67312
▁end	-7.67559
▁health	-7.67757
▁issues	-7.68261
▁far	-7.68647
▁law	-7.68885
▁united	-7.69414
▁respect	-7.69949
▁presidency	-7.70159
▁position	-7.70453
▁regard	-7.70702
▁areas	-7.71137
▁decision	-7.71476
▁matter	-7.72065
▁whether	-7.72389
▁again	-7.73559
▁after	-7.73743
▁further	-7.75711
▁sector	-7.75825
▁framework	-7.76068
▁set	-7.77262
▁services	-7.78123
▁role	-7.78215
▁next	-7.78705
▁favour	-7.78969
▁let	-7.79395
▁amendment	-7.79909
▁regulation	-7.80141
▁basis	-7.80466
▁proposals	-7.80774
▁certain	-7.80915
▁terms	-7.80924
▁behalf	-7.81988
▁aid	-7.83343
▁come	-7.84133
▁done	-7.84135
▁crisis	-7.84469
▁better	-7.847
▁legislation	-7.85206
▁different	-7.85655
▁adopted	-7.85912
▁help	-7.86569
▁agree	-7.8684
▁present	-7.87689
▁strategy	-7.87842
▁change	-7.89067
▁needs	-7.89253
▁subject	-7.90216
▁institutions	-7.90217
▁continue	-7.90277
▁opinion	-7.90645
▁progress	-7.90756
▁ask	-7.9266
▁working	-7.93242
▁wish	-7.93836
▁employment	-7.9411
▁transport	-7.94112
▁three	-7.94397
▁general	-7.94408
▁concerned	-7.94483
▁s	-7.94756
▁result	-7.95477
▁another	-7.95486
▁high	-7.95708
▁going	-7.95724
▁during	-7.96246
▁welcome	-7.96755
▁whole	-7.96766
▁environment	-7.96884
▁something	-7.97045
▁towards	-7.97316
▁forward	-7.97397
▁few	-7.97552
▁approach	-7.98166
▁voted	-7.98166
▁research	-7.98592
▁safety	-7.99581
▁second	-7.99853
▁industry	-7.99961
▁every	-8.00405
▁current	-8.00829
▁clearly	-8.00913
▁conditions	-8.01437
▁principle	-8.01447
▁resources	-8.02118
▁together	-8.02351
▁go	-8.02641
▁procedure	-8.02777
▁including	-8.02951
▁finally	-8.03062
▁fundamental	-8.03099
▁did	-8.03972
▁importance	-8.04149
▁opportunity	-8.04182
▁once	-8.04861
▁proposed	-8.05071
▁really	-8.05385
▁shall	-8.05515
▁while	-8.05562
▁yet	-8.05784
▁authorities	-8.05858
▁provide	-8.05933
▁million	-8.06005
▁specific	-8.06287
▁especially	-8.06568
▁quite	-8.06717
▁policies	-8.0701
▁third	-8.07179
▁increase	-8.07246
▁affairs	-8.07252
▁used	-8.0739
▁funds	-8.07864
▁environmental	-8.08141
▁rather	-8.08257
▁internal	-8.08758
▁greater	-8.09244
▁find	-8.09351
▁negotiations	-8.09555
▁account	-8.09808
▁small	-8.10222
▁responsibility	-8.10497
▁democracy	-8.10667
▁become	-8.11266
▁products	-8.11293
▁itself	-8.11329
▁down	-8.11767
▁serious	-8.11926
▁least	-8.12384
▁democratic	-8.13469
▁indeed	-8.14001
▁freedom	-8.14509
▁regions	-8.15249
▁reason	-8.15984
▁making	-8.16252
▁always	-8.16516
▁effective	-8.16602
▁attention	-8.16959
▁free	-8.16968
▁call	-8.17037
▁control	-8.17123
▁real	-8.17215
▁difficult	-8.17358
▁essential	-8.17385
▁having	-8.17389
▁society	-8.17631
▁access	-8.17797
▁taking	-8.17837
▁things	-8.17838
▁growth	-8.18065
▁food	-8.18316
▁based	-8.18332
▁deal	-8.1845
▁allow	-8.18484
▁major	-8.18734
▁each	-8.18767
▁implementation	-8.19059
▁single	-8.19453
▁achieve	-8.19611
▁interests	-8.20102
▁economy	-8.20693
▁efforts	-8.21356
▁although	-8.21367
▁various	-8.21493
▁money	-8.21564
▁large	-8.21862
▁get	-8.21959
▁positive	-8.22806
▁following	-8.24292
▁words	-8.24815
▁reform	-8.25224
▁hand	-8.2544
▁region	-8.25934
▁court	-8.26379
▁points	-8.26408
▁workers	-8.26576
▁back	-8.26665
▁children	-8.26814
▁competition	-8.27029
▁peace	-8.2751
▁look	-8.27776
▁less	-8.27941
▁euro	-8.28093
▁consider	-8.28524
▁involved	-8.28941
▁foreign	-8.2898
▁full	-8.29101
▁global	-8.29468
▁agreements	-8.30043
▁concerns	-8.30478
▁regional	-8.30899
▁certainly	-8.309
▁companies	-8.31211
▁power	-8.31825
▁article	-8.32681
▁step	-8.3281
▁quality	-8.32837
▁objectives	-8.32893
▁relations	-8.32904
▁programmes	-8.33172
▁agricultural	-8.33512
▁recent	-8.33891
▁lisbon	-8.34046
▁standards	-8.34308
▁fully	-8.34349
▁interest	-8.3438
▁objective	-8.34445
▁best	-8.34634
▁solution	-8.34781
▁dialogue	-8.34866
▁eur	-8.35293
▁majority	-8.35323
▁often	-8.35413
▁her	-8.35414
▁simply	-8.35511
▁justice	-8.35766
in	-8.3583
▁decisions	-8.35864
▁initiative	-8.37275
▁force	-8.37354
▁bring	-8.37455
▁questions	-8.37618
▁production	-8.37789
▁extremely	-8.38129
▁concern	-8.38216
▁groups	-8.38398
▁turkey	-8.38585
▁aware	-8.38596
▁education	-8.38718
▁life	-8.39294
▁party	-8.39794
▁perhaps	-8.39948
▁accept	-8.4017
▁main	-8.40192
▁enlargement	-8.40762
▁climate	-8.41255
▁concerning	-8.41351
▁text	-8.41402
▁ago	-8.41422
▁create	-8.41466
▁actually	-8.41758
▁non	-8.41946
▁context	-8.42182
▁risk	-8.42231
▁agenda	-8.42289
▁might	-8.42541
▁period	-8.43055
▁fund	-8.43067
▁form	-8.43149
▁joint	-8.434
▁fight	-8.435
▁developing	-8.43537
▁jobs	-8.43773
▁currently	-8.43857
▁mentioned	-8.4413
▁available	-8.45088
▁improve	-8.45278
▁plan	-8.45373
ed	-8.45387
▁meeting	-8.45422
▁consumers	-8.45435
▁consumer	-8.4549
▁convention	-8.45669
▁start	-8.4574
▁impact	-8.45971
▁results	-8.46879
▁open	-8.47177
▁appropriate	-8.4779
▁stability	-8.47858
▁conference	-8.48091
▁others	-8.48253
▁field	-8.48359
▁data	-8.48444
▁day	-8.48549
▁russia	-8.48565
▁secondly	-8.48876
▁management	-8.49149
▁understand	-8.49309
▁act	-8.49875
▁writing	-8.49961
▁responsible	-8.50066
▁labour	-8.50211
▁rule	-8.50556
▁doing	-8.51184
a	-8.51319
▁summit	-8.51322
▁themselves	-8.51459
▁firstly	-8.51946
▁central	-8.5217
▁cases	-8.52257
▁months	-8.52316
▁among	-8.52503
▁needed	-8.52785
▁thing	-8.53096
▁key	-8.53677
▁systems	-8.53719
▁reasons	-8.53908
▁civil	-8.53994
▁matters	-8.54078
▁regarding	-8.54358
▁enough	-8.5471
!	-8.54798
▁individual	-8.54842
▁solidarity	-8.55007
▁special	-8.55212
▁parties	-8.5576
▁principles	-8.55897
▁above	-8.55913
▁kind	-8.55933
▁compromise	-8.56202
▁costs	-8.56319
▁though	-8.56438
▁tax	-8.57081
▁longer	-8.57089
▁unfortunately	-8.571
▁regards	-8.57149
▁activities	-8.57357
▁projects	-8.57693
/	-8.5798
▁nothing	-8.58036
▁governments	-8.58544
▁priority	-8.58731
▁1	-8.59013
▁achieved	-8.59117
▁feel	-8.59146
▁funding	-8.59302
▁local	-8.59565
▁nuclear	-8.59662
▁investment	-8.59701
▁significant	-8.59788
▁true	-8.59912
▁commitment	-8.60026
▁due	-8.60056
▁lack	-8.60145
▁legislative	-8.60252
▁sustainable	-8.60367
▁idea	-8.60442
▁aim	-8.60462
▁draft	-8.60622
▁past	-8.60958
▁little	-8.61312
▁promote	-8.61332
▁minister	-8.61572
▁reports	-8.61635
▁young	-8.61754
▁structural	-8.61853
▁agriculture	-8.61971
▁thus	-8.62266
▁mean	-8.62359
▁sure	-8.62387
▁strong	-8.62604
▁congratulate	-8.62637
▁several	-8.62765
▁final	-8.62853
▁provided	-8.62955
▁line	-8.62974
▁service	-8.63
▁un	-8.63071
▁excellent	-8.63722
▁nations	-8.63941
▁guarantee	-8.64255
▁effect	-8.6439
▁prevent	-8.64584
de	-8.64687
▁lead	-8.6491
office	-8.65491
▁cohesion	-8.6554
▁transparency	-8.65613
▁include	-8.65634
▁fisheries	-8.65674
▁markets	-8.65704
▁communication	-8.6603
▁agreed	-8.66504
▁external	-8.66757
▁project	-8.66835
▁integration	-8.66984
▁aspects	-8.67194
▁budgetary	-8.67282
▁tomorrow	-8.67566
▁remain	-8.67743
▁play	-8.67864
▁seen	-8.68036
▁war	-8.68162
▁everyone	-8.68297
▁moment	-8.6838
▁business	-8.68561
▁response	-8.69371
▁terrorism	-8.69766
▁until	-8.69826
▁relation	-8.70345
▁technical	-8.70558
▁accession	-8.70579
▁contribution	-8.70902
▁makes	-8.70933
▁comes	-8.71025
▁addition	-8.71173
▁pay	-8.71335
▁apply	-8.71362
▁benefit	-8.71395
▁voting	-8.715
▁discussion	-8.71631
▁colleagues	-8.71807
▁population	-8.72089
▁actions	-8.72309
▁upon	-8.72426
▁speak	-8.72509
▁move	-8.72703
▁values	-8.72952
▁short	-8.73004
▁share	-8.73476
▁elections	-8.73793
▁she	-8.73949
▁him	-8.74132
▁existing	-8.74185
▁answer	-8.74288
▁despite	-8.74425
▁criteria	-8.74451
▁practice	-8.74506
▁violence	-8.7472
▁seems	-8.74867
▁provisions	-8.74894
▁poverty	-8.75028
▁000	-8.75083
▁assistance	-8.75284
▁procedures	-8.7548
▁pleased	-8.75845
▁regulations	-8.75862
▁changes	-8.76002
▁equal	-8.76177
▁china	-8.76426
▁soon	-8.77281
term	-8.77401
▁statement	-8.77429
▁according	-8.77457
▁farmers	-8.77713
▁never	-8.77977
▁‘	-8.78101
▁everything	-8.78256
▁ourselves	-8.78463
▁success	-8.78685
se	-8.78726
▁basic	-8.78825
▁express	-8.79101
▁mind	-8.79531
▁creation	-8.79668
▁cultural	-8.79728
▁crucial	-8.79881
▁carried	-8.80246
▁consequences	-8.8029
▁left	-8.80393
▁adopt	-8.80521
▁saying	-8.80579
▁military	-8.80603
▁asked	-8.80827
▁increased	-8.809
▁opportunities	-8.80929
▁instead	-8.81272
▁training	-8.81322
▁fishing	-8.81352
▁increasing	-8.81622
▁item	-8.81935
▁term	-8.82068
▁monetary	-8.82078
▁off	-8.82159
▁held	-8.82309
▁sense	-8.82467
▁balance	-8.8254
▁protect	-8.82595
▁application	-8.82771
▁reduce	-8.82816
▁close	-8.82869
▁relating	-8.82932
▁tabled	-8.83085
▁organisations	-8.83118
▁throughout	-8.8325
m	-8.83311
▁namely	-8.83333
▁parliamentary	-8.83446
▁request	-8.83464
▁requirements	-8.83649
▁develop	-8.83654
▁nor	-8.83768
▁show	-8.83785
▁times	-8.84148
▁either	-8.84192
▁meet	-8.84645
▁draw	-8.84767
▁job	-8.85253
▁presented	-8.85315
▁instruments	-8.85571
▁monitoring	-8.85802
the	-8.85941
▁value	-8.86204
▁instrument	-8.86632
▁partnership	-8.86854
▁nature	-8.86942
▁required	-8.86965
▁around	-8.87024
▁cost	-8.87128
▁movement	-8.8722
▁closed	-8.87245
▁week	-8.87502
▁stage	-8.87558
▁road	-8.87771
▁five	-8.87859
▁priorities	-8.87871
▁mention	-8.88427
▁bank	-8.88477
▁initiatives	-8.88494
▁face	-8.8861
▁constitution	-8.88641
▁demand	-8.89249
▁keep	-8.89265
d	-8.89268
▁tell	-8.8949
▁thanks	-8.8952
▁conflict	-8.8963
▁called	-8.89843
▁water	-8.89952
▁furthermore	-8.90224
▁culture	-8.90289
▁across	-8.90359
▁previous	-8.90666
▁using	-8.90743
▁pressure	-8.9089
▁four	-8.90988
▁reach	-8.91154
▁task	-8.91173
▁recently	-8.91297
▁potential	-8.91551
▁illegal	-8.91598
▁immigration	-8.91817
▁experience	-8.91846
▁decided	-8.91895
▁address	-8.92044
▁prepared	-8.92427
▁minutes	-8.92555
▁package	-8.9273
▁challenges	-8.92875
▁borders	-8.93038
▁talking	-8.93062
▁waste	-8.93154
▁reading	-8.93356
▁review	-8.93486
▁reached	-8.9375
▁ireland	-8.93809
▁conclusion	-8.93829
▁powers	-8.94078
▁defence	-8.94161
▁fair	-8.94282
▁raised	-8.94485
▁try	-8.94512
▁effort	-8.94615
▁implemented	-8.94695
▁expressed	-8.94698
▁direction	-8.94765
▁nevertheless	-8.95067
▁rural	-8.95067
▁establish	-8.95076
▁fellow	-8.95083
▁east	-8.95317
▁medium	-8.9533
▁levels	-8.95452
▁coming	-8.95632
▁ever	-8.95738
▁included	-8.95997
▁absolutely	-8.96178
▁crime	-8.96223
▁focus	-8.96314
▁implement	-8.96441
▁billion	-8.96491
▁partners	-8.9659
▁victims	-8.96594
▁doubt	-8.96666
▁vital	-8.9713
▁private	-8.97185
▁organisation	-8.97428
▁established	-8.97605
▁quickly	-8.97699
▁outside	-8.97954
▁home	-8.98062
▁enable	-8.98149
▁ministers	-8.98201
▁talk	-8.98555
▁sectors	-8.98607
▁effects	-8.98761
▁giving	-8.99212
▁reality	-8.99232
▁supported	-8.99487
▁unemployment	-8.99589
▁reduction	-8.99775
▁almost	-8.99881
▁sea	-8.99885
▁completely	-8.99907
▁air	-8.99973
▁emissions	-9.00008
▁note	-9.00088
▁representatives	-9.00125
▁along	-9.00246
▁motion	-9.00297
▁businesses	-9.00585
▁coordination	-9.00643
▁list	-9.00909
▁criminal	-9.01134
▁additional	-9.01246
▁moreover	-9.01544
▁prices	-9.0163
▁found	-9.01727
e	-9.01801
▁authority	-9.01832
▁reforms	-9.0194
▁live	-9.01968
▁price	-9.01985
▁france	-9.02026
▁french	-9.02166
▁brought	-9.02378
▁competitiveness	-9.02398
▁africa	-9.02411
▁received	-9.02496
▁encourage	-9.02855
▁extent	-9.0291
▁document	-9.03025
▁stress	-9.0303
▁light	-9.03255
▁ensuring	-9.03284
▁agency	-9.03338
▁december	-9.03356
▁direct	-9.03396
▁amount	-9.03467
▁cross	-9.03504
▁cause	-9.03608
▁republic	-9.03669
▁took	-9.03685
▁democrats	-9.03704
▁heard	-9.03994
▁paper	-9.04056
▁living	-9.04073
▁south	-9.04129
▁co	-9.04208
▁natural	-9.04259
▁model	-9.04273
▁men	-9.04279
▁applied	-9.04325
▁assessment	-9.04454
▁discussed	-9.04598
▁creating	-9.04705
▁approved	-9.04728
▁behind	-9.04885
▁possibility	-9.04976
▁treatment	-9.05257
▁confidence	-9.05268
▁relevant	-9.05449
▁follow	-9.05459
▁events	-9.05712
▁away	-9.05735
▁adoption	-9.06232
▁discussions	-9.06511
▁innovation	-9.06563
▁obviously	-9.06611
ly	-9.06862
▁guidelines	-9.07201
▁british	-9.07531
▁practical	-9.07648
▁strengthen	-9.07705
▁proper	-9.08023
▁care	-9.08119
▁offer	-9.08214
▁six	-9.08348
▁media	-9.08351
▁unacceptable	-9.08372
▁de	-9.08434
▁add	-9.08874
▁begin	-9.08887
▁10	-9.08952
▁technology	-9.09013
▁asylum	-9.09069
▁remains	-9.09095
▁honourable	-9.09202
▁knowledge	-9.09275
▁days	-9.09301
▁turn	-9.09361
▁discuss	-9.09466
▁expect	-9.09671
▁precisely	-9.09871
▁discrimination	-9.09994
▁capacity	-9.10134
▁lot	-9.1019
▁humanitarian	-9.10266
▁considered	-9.10431
▁solutions	-9.10477
▁family	-9.10863
▁old	-9.11076
▁effectively	-9.11239
▁scope	-9.11364
▁reference	-9.11537
▁takes	-9.1165
▁affected	-9.11744
▁avoid	-9.11799
▁rate	-9.11957
▁sitting	-9.11966
▁goods	-9.12307
▁administrative	-9.12356
▁independent	-9.12366
▁stop	-9.12676
▁side	-9.12765
▁difficulties	-9.12866
▁june	-9.12924
▁trying	-9.1296
▁aimed	-9.13038
▁developed	-9.13075
▁industrial	-9.1323
▁efficiency	-9.13358
▁contribute	-9.13469
▁green	-9.13959
▁shown	-9.13977
▁equality	-9.14113
▁carry	-9.14122
▁conclusions	-9.14145
▁improving	-9.14348
▁huge	-9.14476
▁overall	-9.14854
▁remind	-9.15052
▁active	-9.15164
▁connection	-9.15265
▁message	-9.15487
▁challenge	-9.15534
▁institutional	-9.15678
▁20	-9.15753
▁%	-9.15767
▁yesterday	-9.15814
▁forces	-9.15958
▁15	-9.1599
▁specifically	-9.1606
▁circumstances	-9.16352
▁accordance	-9.16443
▁providing	-9.16626
▁scientific	-9.16686
▁speech	-9.167
▁regime	-9.1671
▁capital	-9.16796
▁combat	-9.168
▁status	-9.16912
▁re	-9.16928
▁committed	-9.17015
▁consideration	-9.17062
▁date	-9.17073
▁half	-9.17118
▁allowed	-9.17196
▁duty	-9.1722
▁personal	-9.1729
▁minimum	-9.17404
▁beginning	-9.17415
▁implementing	-9.17462
▁enterprises	-9.17537
▁total	-9.17601
▁paragraph	-9.17681
▁created	-9.17721
▁considerable	-9.17904
▁hard	-9.18418
▁germany	-9.18714
▁self	-9.18726
▁comments	-9.18752
▁rightly	-9.18889
▁oil	-9.19186
▁benefits	-9.19271
▁propose	-9.19284
▁return	-9.19386
▁accepted	-9.19401
▁promoting	-9.1946
▁successful	-9.19617
▁provides	-9.19633
▁stand	-9.19636
▁supply	-9.19665
▁brussels	-9.19691
▁history	-9.19753
▁participation	-9.19775
▁goes	-9.19884
▁beyond	-9.20217
▁strategic	-9.20259
▁stated	-9.20263
▁death	-9.20385
▁provision	-9.20613
▁receive	-9.2084
▁purpose	-9.21025
▁2000	-9.21032
▁anti	-9.21077
▁content	-9.2111
▁lives	-9.21142
▁seriously	-9.21399
▁wto	-9.21624
▁calls	-9.21645
▁forms	-9.21753
▁dealing	-9.21802
▁referred	-9.21837
▁closely	-9.22176
▁plans	-9.22196
▁colleague	-9.22361
▁urgent	-9.22364
▁kosovo	-9.22418
▁12	-9.22631
▁police	-9.23001
▁israel	-9.23064
▁introduction	-9.23112
▁decide	-9.23132
t	-9.23187
▁exchange	-9.23555
▁views	-9.23578
▁per	-9.23713
▁speaking	-9.23937
▁wanted	-9.23937
▁steps	-9.23948
▁constitutional	-9.24354
▁ban	-9.24398
▁financing	-9.24497
▁2	-9.24511
▁representative	-9.24754
▁tourism	-9.24824
european	-9.24996
▁irish	-9.25
▁pact	-9.25026
▁leave	-9.25221
▁"	-9.25282
▁happen	-9.25287
▁produce	-9.25338
▁setting	-9.25474
▁measure	-9.25633
▁mediterranean	-9.25687
▁low	-9.257
▁animal	-9.25939
▁prime	-9.26029
▁requires	-9.26221
▁annual	-9.26242
▁complete	-9.26515
▁directly	-9.26646
▁january	-9.26677
▁commitments	-9.26866
sized	-9.26878
▁anything	-9.26948
▁expenditure	-9.2705
▁ten	-9.27107
▁activity	-9.2713
▁maintain	-9.27686
▁looking	-9.27718
▁supporting	-9.27873
▁wrong	-9.27906
▁similar	-9.27912
▁entire	-9.27936
▁myself	-9.27949
▁3	-9.27967
▁intended	-9.28009
▁german	-9.28094
▁middle	-9.28176
▁poor	-9.2825
▁efficient	-9.28354
▁highly	-9.28448
▁ways	-9.28633
▁sometimes	-9.28687
▁gas	-9.28774
▁demands	-9.28868
▁border	-9.28948
▁office	-9.28987
▁event	-9.29055
▁product	-9.29066
▁internet	-9.29374
▁exist	-9.29415
▁establishing	-9.29442
▁bodies	-9.29443
▁eastern	-9.29448
▁aspect	-9.29556
▁paid	-9.29701
▁sufficient	-9.29713
▁former	-9.29722
▁greece	-9.29745
▁perspective	-9.29953
▁competitive	-9.3034
▁properly	-9.30365
▁increasingly	-9.30369
▁type	-9.30402
▁higher	-9.30466
▁alone	-9.30492
▁represent	-9.3054
▁known	-9.30914
▁early	-9.31197
▁weeks	-9.31236
▁led	-9.31258
▁budgets	-9.31262
▁join	-9.31292
▁combating	-9.31322
▁iraq	-9.31381
▁discussing	-9.31468
▁animals	-9.31525
▁shows	-9.31571
▁statements	-9.31644
▁limited	-9.31738
▁achieving	-9.31859
▁study	-9.32026
▁risks	-9.32031
▁strengthening	-9.32038
▁opposition	-9.32097
▁calling	-9.32246
▁later	-9.3232
▁delegation	-9.32394
▁conclude	-9.32452
▁respond	-9.32466
▁ambitious	-9.32492
▁north	-9.32679
▁genuine	-9.32683
▁march	-9.32759
▁caused	-9.3276
▁reducing	-9.32814
▁c	-9.32831
▁improved	-9.32966
▁refer	-9.32968
▁prevention	-9.33201
▁language	-9.33552
▁happened	-9.33849
▁documents	-9.3388
▁represents	-9.33897
up	-9.33912
▁whom	-9.34002
▁aims	-9.34316
▁remember	-9.34317
▁threat	-9.34452
▁earlier	-9.34506
▁urge	-9.34513
▁contrary	-9.34579
▁produced	-9.3484
▁name	-9.34968
border	-9.35278
▁hear	-9.3545
▁emphasise	-9.35458
▁currency	-9.35535
▁infrastructure	-9.35561
▁manner	-9.35734
▁convinced	-9.35736
▁producers	-9.35758
▁broad	-9.35836
▁developments	-9.36033
▁limit	-9.36037
▁outcome	-9.36208
called	-9.36619
▁network	-9.36738
▁rise	-9.36752
▁candidate	-9.36806
▁useful	-9.3684
▁require	-9.36992
▁declaration	-9.37032
▁otherwise	-9.37051
fr	-9.37111
▁gives	-9.37137
▁comprehensive	-9.37188
▁recognise	-9.37725
▁regret	-9.37762
▁charter	-9.37776
▁hold	-9.37988
▁analysis	-9.3808
▁building	-9.38194
▁11	-9.38199
▁spanish	-9.38308
▁italy	-9.38308
▁balanced	-9.38337
▁thinking	-9.38658
▁influence	-9.38692
▁staff	-9.38697
▁opening	-9.38756
▁concrete	-9.38779
▁thought	-9.38811
▁recognition	-9.39122
▁cut	-9.39149
▁elements	-9.39241
responsibilities	-9.39351
▁consensus	-9.39505
▁dimension	-9.39577
▁reduced	-9.39709
▁comment	-9.39765
▁acceptable	-9.39846
▁becoming	-9.39871
▁spirit	-9.39897
▁refugees	-9.39953
▁company	-9.39968
▁5	-9.40163
▁damage	-9.40184
▁pointed	-9.40335
▁flexibility	-9.40432
▁origin	-9.40452
▁concept	-9.40499
▁directives	-9.40634
▁introduce	-9.40704
▁facing	-9.4077
▁entirely	-9.40912
2	-9.40992
▁thirdly	-9.41098
▁added	-9.41124
▁wants	-9.41137
▁american	-9.41291
▁25	-9.41294
▁liberalisation	-9.41343
▁globalisation	-9.41375
▁sources	-9.41382
▁word	-9.41461
▁naturally	-9.41463
▁asking	-9.41535
▁negative	-9.41566
▁differences	-9.41576
▁introduced	-9.41617
▁alternative	-9.41649
▁relationship	-9.41661
▁recommendations	-9.41776
▁rest	-9.41914
▁romania	-9.42149
▁press	-9.42289
making	-9.42382
▁september	-9.42524
▁commercial	-9.42589
▁probably	-9.42656
▁rapporteurs	-9.42738
▁networks	-9.42781
▁morning	-9.4292
▁spain	-9.43054
▁raise	-9.43104
▁establishment	-9.43121
▁else	-9.43215
▁met	-9.43273
▁failure	-9.43332
▁forget	-9.43346
▁mechanism	-9.43358
▁dangerous	-9.43575
▁closer	-9.43646
▁treaties	-9.43693
▁administration	-9.44003
▁body	-9.44015
▁uk	-9.4415
▁practices	-9.442
▁strongly	-9.442
▁exactly	-9.44257
▁laws	-9.44359
▁parts	-9.44787
▁says	-9.4479
▁fraud	-9.448
▁methods	-9.44938
▁sanctions	-9.44943
▁applies	-9.45011
es	-9.45051
▁integrated	-9.4507
▁america	-9.4516
▁trust	-9.45184
▁agencies	-9.45255
▁institution	-9.45271
y	-9.45479
▁governance	-9.45718
▁bear	-9.45719
▁attempt	-9.45728
▁chance	-9.45742
▁ideas	-9.46051
▁november	-9.46101
▁child	-9.46265
▁happy	-9.46292
▁meps	-9.46661
▁putting	-9.47181
▁chamber	-9.47206
▁intervention	-9.47814
▁palestinian	-9.47822
▁gender	-9.47869
▁dealt	-9.47904
▁reply	-9.48016
▁improvement	-9.48045
▁critical	-9.48054
▁finance	-9.48086
▁laid	-9.48231
▁drawn	-9.4827
▁person	-9.48347
▁submitted	-9.48371
▁constructive	-9.48472
▁big	-9.48486
▁sort	-9.48536
▁western	-9.48764
▁immediately	-9.48802
▁recommendation	-9.48888
▁ukraine	-9.48935
▁whilst	-9.49045
▁operation	-9.49076
▁correct	-9.4909
▁obligations	-9.49171
▁targets	-9.49287
▁growing	-9.49406
▁30	-9.49545
▁anyone	-9.49582
▁addressed	-9.49676
▁association	-9.49711
▁informed	-9.49786
▁written	-9.49868
▁seek	-9.49981
▁kingdom	-9.50037
▁p	-9.50078
▁mandate	-9.50156
▁enormous	-9.50225
▁italian	-9.50257
▁thousands	-9.50296
▁choice	-9.50398
▁read	-9.50419
▁ground	-9.50488
▁communities	-9.50494
▁mutual	-9.50596
▁ahead	-9.5061
▁method	-9.50771
▁unable	-9.50815
▁managed	-9.50934
▁send	-9.5097
▁transparent	-9.51
▁fall	-9.51038
▁understanding	-9.51292
▁organised	-9.51391
▁mainly	-9.51419
▁october	-9.51732
▁independence	-9.51743
▁consultation	-9.51874
▁persons	-9.51896
▁faced	-9.52019
pl	-9.52051
▁age	-9.5214
▁build	-9.52141
▁burden	-9.52174
tergovernmental	-9.52223
▁simple	-9.52335
▁resolutions	-9.52383
▁discharge	-9.52533
▁seem	-9.52586
▁contains	-9.527
▁iran	-9.52841
▁merely	-9.52874
▁rejected	-9.52886
it	-9.52914
▁definition	-9.52928
▁sensitive	-9.52975
▁turkish	-9.53015
▁leaders	-9.53083
▁russian	-9.53152
▁protocol	-9.53282
▁continuing	-9.53308
▁easy	-9.53367
▁neither	-9.53396
▁centre	-9.53536
▁signed	-9.53947
▁fear	-9.5412
▁leading	-9.54132
▁official	-9.54162
▁membership	-9.54176
▁instance	-9.54202
▁trafficking	-9.54257
▁mechanisms	-9.5427
▁goals	-9.54423
▁told	-9.54564
▁4	-9.54633
▁exercise	-9.54668
▁evidence	-9.54687
▁renewable	-9.54863
▁technologies	-9.5494
▁complex	-9.54985
▁figures	-9.54999
▁run	-9.55195
▁resolve	-9.55361
▁subsidiarity	-9.5563
▁freedoms	-9.55648
▁payments	-9.55842
▁drugs	-9.55863
▁lost	-9.55901
▁elected	-9.55969
▁please	-9.55999
▁disaster	-9.56008
▁socialist	-9.5632
▁adequate	-9.56375
▁came	-9.56396
▁board	-9.56426
▁round	-9.56465
▁worked	-9.56513
▁debates	-9.56516
▁approval	-9.56561
▁land	-9.56643
▁impossible	-9.56689
▁traffic	-9.56751
▁guarantees	-9.56832
▁positions	-9.56833
▁totally	-9.57164
▁substantial	-9.57167
▁speakers	-9.57173
▁income	-9.57413
▁intention	-9.57419
▁attitude	-9.57508
▁repeat	-9.57595
▁fish	-9.57767
▁wishes	-9.57955
▁amsterdam	-9.58007
▁economies	-9.58069
▁extend	-9.58276
▁ought	-9.58501
▁includes	-9.58506
▁promotion	-9.5859
▁degree	-9.58593
▁bringing	-9.58659
▁related	-9.58698
▁desire	-9.58861
▁smes	-9.58907
▁europeans	-9.58995
▁parliaments	-9.5905
▁expression	-9.59095
▁failed	-9.5914
▁schengen	-9.59155
▁disease	-9.59186
▁structure	-9.59205
▁obvious	-9.5933
▁intend	-9.59369
▁families	-9.59373
▁secure	-9.59599
▁conduct	-9.59608
▁table	-9.59647
▁cover	-9.59676
▁grateful	-9.59906
▁protecting	-9.60039
▁involvement	-9.60096
▁acts	-9.60147
▁territory	-9.60189
▁opposed	-9.60259
▁getting	-9.60446
▁weapons	-9.60647
▁immediate	-9.60842
▁cyprus	-9.60885
▁talks	-9.60963
▁rates	-9.61013
▁happening	-9.61016
▁goal	-9.61139
▁plenary	-9.61586
▁election	-9.61635
▁6	-9.61668
▁sound	-9.61672
▁controls	-9.62097
▁actual	-9.6212
▁linked	-9.62214
▁customs	-9.62224
▁forced	-9.62468
▁involving	-9.62623
▁appeal	-9.62628
▁adopting	-9.62883
▁portugal	-9.62938
▁highlight	-9.62954
▁starting	-9.6296
▁original	-9.62996
▁ready	-9.63303
▁personally	-9.63314
▁poland	-9.63327
▁votes	-9.63334
▁lines	-9.63365
▁mobility	-9.63392
▁travel	-9.63446
▁situations	-9.63484
▁northern	-9.63686
▁diversity	-9.63751
▁enter	-9.63783
▁greatest	-9.63897
▁defend	-9.64125
▁arms	-9.64329
▁consequently	-9.6444
▁vice	-9.64626
▁evaluation	-9.64633
▁advantage	-9.64649
▁auditors	-9.64725
▁substances	-9.64763
▁heart	-9.64768
▁recognised	-9.65051
▁sides	-9.65071
▁followed	-9.65203
▁2007	-9.65305
▁july	-9.65398
▁truly	-9.65497
▁maritime	-9.65531
▁bad	-9.65716
▁minorities	-9.65763
▁credit	-9.65841
b	-9.65884
▁appear	-9.65962
▁oral	-9.65987
▁tackle	-9.66018
▁peoples	-9.6622
▁pollution	-9.66333
▁interesting	-9.66395
▁meetings	-9.66624
▁ones	-9.66642
▁granted	-9.6668
▁safe	-9.66752
▁shared	-9.66904
▁2004	-9.6693
▁vehicles	-9.67067
▁recovery	-9.67074
▁detailed	-9.67159
▁assembly	-9.67207
▁seeking	-9.67265
▁danger	-9.67383
▁supports	-9.67448
▁subsidies	-9.67512
▁equally	-9.6771
▁floor	-9.67716
▁amongst	-9.67726
▁van	-9.67813
▁involve	-9.67846
▁voice	-9.67847
▁judicial	-9.67853
▁comply	-9.67873
▁explain	-9.67963
▁suffering	-9.68021
▁barroso	-9.6809
▁ability	-9.682
▁sign	-9.68247
▁element	-9.68271
▁export	-9.68363
▁african	-9.6839
▁bilateral	-9.68521
▁carefully	-9.68576
▁sweden	-9.68775
▁committees	-9.6879
▁designed	-9.68816
▁changed	-9.68822
▁covered	-9.68901
▁criticism	-9.68928
▁target	-9.68997
▁reject	-9.69099
▁swedish	-9.69119
▁generally	-9.69149
▁range	-9.69178
▁presence	-9.69187
▁competence	-9.69272
▁harmonisation	-9.69326
▁belarus	-9.69394
▁rail	-9.69531
▁thereby	-9.6954
▁serve	-9.69663
▁proposing	-9.69671
▁minority	-9.69811
▁spent	-9.69984
▁emphasis	-9.70001
▁hours	-9.70079
▁delay	-9.7011
▁structures	-9.70157
▁standard	-9.70244
▁8	-9.70502
▁planning	-9.70648
▁taxation	-9.70686
▁binding	-9.70689
▁continues	-9.70821
▁improvements	-9.70883
▁7	-9.71046
▁consumption	-9.71279
▁heads	-9.71368
▁session	-9.71379
▁27	-9.71401
▁50	-9.71704
▁politicians	-9.71706
▁consistent	-9.71726
▁lower	-9.71792
▁late	-9.71823
▁campaign	-9.71832
▁2009	-9.71898
▁moving	-9.72022
▁employees	-9.72126
▁rapid	-9.72186
▁expected	-9.72238
▁causes	-9.72273
▁immigrants	-9.7233
▁1999	-9.72382
▁series	-9.72697
▁credibility	-9.72769
▁b	-9.73009
▁detail	-9.73021
▁reasonable	-9.73032
▁conciliation	-9.73199
▁bulgaria	-9.73301
▁entry	-9.73416
▁acp	-9.73451
▁regulatory	-9.73669
▁april	-9.73883
▁experts	-9.73895
▁2005	-9.74174
▁2020	-9.74198
▁terrorist	-9.74401
▁limits	-9.74423
▁affect	-9.74581
▁migration	-9.74755
▁yes	-9.74861
▁worth	-9.74959
▁encouraging	-9.74973
pt	-9.75072
▁permanent	-9.75073
▁participate	-9.75078
▁monitor	-9.75097
▁unless	-9.75269
▁factor	-9.75423
▁greek	-9.75423
▁commissioners	-9.75503
▁signal	-9.75552
▁compensation	-9.75561
▁arrangements	-9.75624
▁politics	-9.75673
▁domestic	-9.75706
▁tobacco	-9.75891
▁speaker	-9.75955
▁initial	-9.75989
▁attacks	-9.7604
▁whatever	-9.76092
▁g	-9.76097
▁religious	-9.76214
▁factors	-9.76219
▁languages	-9.76237
▁alliance	-9.76275
▁easier	-9.76335
▁maximum	-9.7652
▁citizen	-9.76609
▁ppe	-9.76672
▁ultimately	-9.76709
▁gave	-9.76739
▁source	-9.76784
▁obtain	-9.76876
▁banks	-9.7698
▁welfare	-9.77004
▁visa	-9.77028
▁nos	-9.77039
▁lies	-9.77184
▁lastly	-9.77411
▁voluntary	-9.77454
▁started	-9.77531
▁obligation	-9.77623
▁functioning	-9.77643
▁grounds	-9.77652
▁roma	-9.77661
▁transfer	-9.77758
th	-9.78186
▁temporary	-9.78507
▁professional	-9.7852
▁liberal	-9.78759
based	-9.78928
▁month	-9.78954
▁labelling	-9.78966
▁imposed	-9.79053
▁9	-9.79061
▁continent	-9.79215
▁respected	-9.79247
▁contributions	-9.79274
▁inform	-9.79374
▁debt	-9.79446
▁facilitate	-9.79474
▁fail	-9.79495
▁14	-9.79712
▁trading	-9.79767
▁code	-9.79802
▁flexible	-9.8011
▁century	-9.80112
▁capable	-9.80112
▁apart	-9.80133
▁appears	-9.80186
▁numerous	-9.80263
▁18	-9.80286
▁crimes	-9.80306
▁scheme	-9.80374
▁mission	-9.80413
▁fighting	-9.80414
▁delighted	-9.80419
▁13	-9.8045
er	-9.80453
▁conflicts	-9.80573
▁chairman	-9.80615
▁ombudsman	-9.80727
▁construction	-9.80728
▁requirement	-9.80842
▁inclusion	-9.80844
▁awareness	-9.80853
▁payment	-9.80884
n	-9.80957
▁restrictions	-9.80957
▁technological	-9.81026
▁nato	-9.81157
▁modern	-9.81184
▁proposes	-9.81399
▁sent	-9.81428
▁partner	-9.81429
▁forthcoming	-9.81465
▁compliance	-9.81475
president	-9.81701
▁endorse	-9.81726
▁helping	-9.81795
▁evening	-9.818
▁netherlands	-9.81856
▁referendum	-9.81859
▁cap	-9.82166
▁czech	-9.82253
▁spending	-9.82278
▁placed	-9.82343
▁impose	-9.82358
▁2003	-9.82431
▁operations	-9.82467
▁passengers	-9.82488
▁worse	-9.82504
▁solve	-9.82517
▁nonetheless	-9.82642
▁scale	-9.82762
▁firm	-9.82868
▁ecu	-9.83008
▁diseases	-9.83115
▁interested	-9.83131
▁allowing	-9.83201
▁investments	-9.83254
▁negotiating	-9.83275
▁link	-9.83296
▁car	-9.83341
"	-9.83392
▁copenhagen	-9.83394
▁afghanistan	-9.83434
▁likely	-9.83464
▁guaranteed	-9.83519
▁millions	-9.83841
▁defined	-9.83929
▁continued	-9.83967
▁opinions	-9.84059
▁safeguard	-9.84218
▁via	-9.8422
▁separate	-9.84222
h	-9.84229
▁learn	-9.84232
▁21	-9.84322
▁appropriations	-9.84351
▁reflect	-9.84458
▁purposes	-9.84511
ec	-9.84516
▁effectiveness	-9.84689
▁distribution	-9.84836
▁tasks	-9.84858
▁strasbourg	-9.84877
▁operators	-9.84902
▁balkans	-9.85008
▁india	-9.85029
▁resolved	-9.85217
▁officials	-9.8527
▁luxembourg	-9.8528
▁glad	-9.85394
▁letter	-9.85548
▁protected	-9.85909
▁baltic	-9.85992
▁white	-9.86019
▁demonstrated	-9.86066
▁disasters	-9.86153
▁traditional	-9.86168
▁average	-9.86217
▁operate	-9.86309
▁statistics	-9.86319
▁associated	-9.86547
▁peaceful	-9.8666
▁corruption	-9.8667
▁demonstrate	-9.86762
▁primarily	-9.86873
▁base	-9.86966
▁existence	-9.87001
▁exists	-9.87168
▁remarks	-9.87279
▁option	-9.87356
▁works	-9.87356
▁man	-9.87415
▁strict	-9.8743
▁occasions	-9.87534
▁examples	-9.87908
to	-9.87954
▁post	-9.8807
▁top	-9.88132
▁assure	-9.88278
▁path	-9.88323
▁portuguese	-9.8845
▁sexual	-9.8848
▁approve	-9.88639
▁wide	-9.88676
▁usa	-9.88696
▁justified	-9.88871
▁manage	-9.88885
▁speed	-9.89055
▁contained	-9.8939
▁truth	-9.89413
▁individuals	-9.89478
▁entitled	-9.89585
▁attack	-9.89597
▁collective	-9.89616
▁tried	-9.89713
▁suggest	-9.89768
▁2002	-9.89923
▁legitimate	-9.9038
▁difference	-9.90436
▁ii	-9.90467
▁chinese	-9.90477
▁operational	-9.9055
▁space	-9.90565
▁pre	-9.9059
▁considering	-9.90671
▁cooperate	-9.9068
▁undoubtedly	-9.90733
▁examine	-9.90815
▁austria	-9.90856
▁concluded	-9.90886
▁realise	-9.91029
▁surely	-9.91031
▁overcome	-9.91077
▁southern	-9.91162
▁dignity	-9.91334
▁amounts	-9.91512
▁substance	-9.91556
▁imports	-9.91572
▁played	-9.91665
▁passed	-9.91914
▁dutch	-9.91981
▁sport	-9.92032
▁planned	-9.9207
▁compared	-9.92072
▁loss	-9.92147
▁involves	-9.92274
▁violations	-9.9247
▁allocated	-9.92506
i	-9.92552
▁material	-9.92641
▁insurance	-9.92678
▁emergency	-9.92721
▁electronic	-9.92733
general	-9.92778
▁excessive	-9.92797
▁vulnerable	-9.92808
▁revision	-9.92951
▁hence	-9.93028
▁visit	-9.93059
▁clause	-9.93085
▁got	-9.93099
▁february	-9.9329
▁firmly	-9.93346
▁extended	-9.93363
no	-9.9338
▁treated	-9.93391
▁ethnic	-9.93514
▁contact	-9.93549
▁farming	-9.93575
▁pension	-9.93604
▁mass	-9.93635
▁abuse	-9.93887
▁taxes	-9.93937
▁vision	-9.94014
▁requested	-9.94014
▁preventing	-9.94033
▁fishermen	-9.94039
▁property	-9.94039
▁hands	-9.94051
▁noted	-9.94055
▁supervision	-9.94172
▁decisive	-9.94247
▁industries	-9.9426
▁studies	-9.94304
▁100	-9.94461
▁proceed	-9.94479
ro	-9.94525
▁knows	-9.94728
▁obstacles	-9.94796
▁croatia	-9.94866
▁universal	-9.95004
▁quotas	-9.95171
▁lose	-9.95262
▁statute	-9.954
▁confirm	-9.9551
▁exclusion	-9.95535
▁happens	-9.95644
▁pillar	-9.95809
▁youth	-9.95895
▁somewhat	-9.95924
▁impression	-9.95942
▁gone	-9.96099
▁spoke	-9.96178
▁record	-9.96183
▁fuel	-9.96203
▁lay	-9.96354
▁preparing	-9.9641
▁highest	-9.96653
▁urgently	-9.9666
▁relates	-9.96834
▁appreciate	-9.97066
▁processes	-9.97091
▁keeping	-9.97103
▁nice	-9.97145
▁behaviour	-9.97178
▁latter	-9.97365
el	-9.97365
▁constantly	-9.97374
▁spoken	-9.97508
▁seven	-9.97547
▁exploitation	-9.97551
▁2001	-9.97564
▁ratification	-9.97586
▁introducing	-9.97595
▁drawing	-9.97648
▁offers	-9.97691
▁extension	-9.97816
▁details	-9.97871
▁phase	-9.97941
c	-9.97993
▁pursue	-9.98172
▁prepare	-9.98172
▁israeli	-9.98198
▁stronger	-9.98213
▁applying	-9.98405
▁stocks	-9.98498
▁proceedings	-9.98514
▁latest	-9.98566
▁prodi	-9.98607
▁gain	-9.98661
▁described	-9.98751
▁announced	-9.98842
▁coordinated	-9.98848
▁ngos	-9.98898
▁prosperity	-9.98932
▁allows	-9.98936
▁aviation	-9.99025
▁penalty	-9.99025
▁welcomed	-9.99034
▁duties	-9.99071
▁fiscal	-9.99117
▁brief	-9.99178
▁16	-9.99232
▁prove	-9.99424
▁patients	-9.99483
▁occasion	-9.99531
▁equipment	-9.99584
▁wonder	-9.99609
▁strengthened	-9.99637
▁accounts	-9.99706
▁expectations	-9.99848
▁confirmed	-9.99887
▁convergence	-9.99913
▁politically	-9.99957
▁courage	-9.99958
▁amending	-10.0004
▁precise	-10.0014
▁sensible	-10.0019
▁types	-10.0038
▁operating	-10.0043
▁asia	-10.0046
▁largest	-10.0055
▁fulfil	-10.0056
▁e	-10.0059
▁west	-10.0061
▁maintaining	-10.0067
▁submit	-10.0076
▁barriers	-10.0086
▁places	-10.0099
▁codecision	-10.01
▁clarify	-10.0128
▁normal	-10.0155
▁cars	-10.0157
▁represented	-10.0161
▁arguments	-10.0163
▁strategies	-10.0195
▁intends	-10.0204
▁urban	-10.0204
al	-10.0206
▁historic	-10.0228
nl	-10.0237
▁briefly	-10.0239
▁pass	-10.0241
▁tool	-10.0246
▁finding	-10.0253
▁drug	-10.0298
▁function	-10.0303
▁serbia	-10.031
▁determined	-10.031
▁materials	-10.0338
▁unfair	-10.0348
▁willing	-10.0354
▁leadership	-10.0354
▁significantly	-10.0369
▁debating	-10.0369
▁innovative	-10.0383
▁kept	-10.0383
▁territorial	-10.0384
▁1998	-10.0413
▁sovereignty	-10.0417
▁electricity	-10.0418
▁succeed	-10.0428
▁largely	-10.0429
▁17	-10.0432
▁published	-10.0457
▁ongoing	-10.0459
▁learning	-10.0468
▁transition	-10.048
▁offered	-10.0482
▁fine	-10.0491
▁contracts	-10.0516
▁d	-10.0529
▁changing	-10.0541
▁follows	-10.0544
▁urgency	-10.0546
▁waiting	-10.0555
▁facts	-10.0562
▁legally	-10.0564
▁near	-10.0569
▁insist	-10.0572
terinstitutional	-10.0572
▁fields	-10.0577
▁head	-10.0587
▁identity	-10.0595
▁realistic	-10.061
▁dependent	-10.0611
▁condemn	-10.0616
▁careful	-10.0624
▁trans	-10.0625
▁answers	-10.0625
▁perfectly	-10.0626
▁wine	-10.0643
▁suffer	-10.0651
▁brings	-10.0663
▁test	-10.0675
▁argument	-10.0679
▁stable	-10.0696
▁nation	-10.0698
▁reconstruction	-10.071
▁absence	-10.0726
▁someone	-10.0731
▁acknowledge	-10.0733
▁advance	-10.0738
▁40	-10.0741
▁accidents	-10.0744
▁medical	-10.075
year	-10.0773
▁significance	-10.0781
▁felt	-10.0786
▁1997	-10.0787
▁difficulty	-10.0792
▁vessels	-10.0793
▁define	-10.0799
▁school	-10.0801
▁driving	-10.0807
▁understood	-10.0817
▁undertaken	-10.0822
▁seeing	-10.0823
▁wait	-10.0831
▁restructuring	-10.0836
▁determination	-10.084
▁exports	-10.0861
▁hungarian	-10.0893
▁referring	-10.0894
▁choose	-10.0898
▁resulting	-10.0913
▁proved	-10.0916
l	-10.0918
▁sustainability	-10.093
▁qualified	-10.093
▁television	-10.0945
▁front	-10.0955
▁holding	-10.096
8	-10.0964
▁coherent	-10.097
▁shadow	-10.0976
▁invest	-10.0979
▁2006	-10.0982
▁valuable	-10.0986
▁assess	-10.1
▁petitions	-10.1021
▁highlighted	-10.1026
▁zone	-10.1028
▁figure	-10.1039
▁socialists	-10.1052
▁medicines	-10.1055
▁beings	-10.106
▁amended	-10.1072
▁genuinely	-10.1093
▁georgia	-10.1095
▁milk	-10.1122
▁neighbours	-10.1124
▁counter	-10.1142
▁negotiation	-10.1144
▁deficit	-10.1149
1	-10.1164
▁disposal	-10.1175
▁meat	-10.1192
▁vat	-10.1196
▁primary	-10.1206
▁satisfactory	-10.1217
▁europol	-10.1217
▁remove	-10.1226
▁inter	-10.1227
▁actively	-10.123
▁users	-10.1232
▁investigation	-10.1234
▁preparation	-10.1239
▁claim	-10.1243
▁regular	-10.1252
▁absolute	-10.1264
▁condition	-10.128
▁friends	-10.1289
▁built	-10.1292
▁leads	-10.1304
o	-10.1305
▁extra	-10.1318
▁identify	-10.1324
▁elsewhere	-10.1334
▁speeches	-10.1336
▁room	-10.1341
▁partly	-10.1348
▁previously	-10.1349
▁britain	-10.135
▁possibly	-10.135
▁waters	-10.135
▁forum	-10.1352
▁latin	-10.1362
▁deliver	-10.1366
▁daily	-10.1366
▁suggested	-10.1374
▁finland	-10.1377
▁plants	-10.1386
▁transitional	-10.139
▁turning	-10.1401
▁thursday	-10.1415
▁enforcement	-10.1415
▁listen	-10.1416
▁formal	-10.1429
▁enjoy	-10.1431
▁assume	-10.1432
▁playing	-10.1435
▁destruction	-10.1442
▁saw	-10.1442
▁neighbouring	-10.1444
▁2008	-10.1465
▁greens	-10.1488
▁belgian	-10.1521
▁constitute	-10.1525
▁plant	-10.1537
▁opposite	-10.1546
▁species	-10.1557
▁wider	-10.1557
▁grant	-10.1569
▁gdp	-10.159
▁honour	-10.1602
▁stands	-10.1602
christian	-10.1604
▁governing	-10.1607
▁indicated	-10.1608
▁multilateral	-10.161
▁believes	-10.1614
▁requests	-10.1617
▁identified	-10.1623
▁concentrate	-10.163
▁inadequate	-10.163
▁deep	-10.1632
▁sufficiently	-10.1636
▁black	-10.1637
▁satisfied	-10.165
▁topic	-10.1652
▁compulsory	-10.1667
▁19	-10.1675
▁maintained	-10.1678
▁secretary	-10.1678
▁running	-10.1678
7	-10.1685
▁interpretation	-10.1687
▁double	-10.1688
▁meant	-10.1695
▁attempts	-10.1701
▁links	-10.1721
▁societies	-10.1728
▁version	-10.1737
▁release	-10.1758
▁guaranteeing	-10.1761
▁check	-10.1764
▁1996	-10.1773
▁essentially	-10.1776
▁obliged	-10.1779
▁greatly	-10.1793
▁schools	-10.1796
▁hundreds	-10.18
▁considers	-10.1802
▁sugar	-10.1806
▁pakistan	-10.182
▁deserves	-10.1822
▁whereas	-10.1822
▁launched	-10.1825
▁possibilities	-10.1835
▁cities	-10.1835
▁proportion	-10.1835
▁contain	-10.1842
com	-10.1844
▁afternoon	-10.1852
▁options	-10.1876
▁prisoners	-10.1879
▁proof	-10.1886
▁thanking	-10.1898
▁bse	-10.1903
▁neighbourhood	-10.1907
▁issued	-10.1912
▁conducted	-10.1918
▁tragic	-10.1919
▁suffered	-10.1922
▁completed	-10.1929
▁worldwide	-10.193
▁500	-10.1932
▁carrying	-10.1933
▁becomes	-10.1935
▁himself	-10.1937
▁affects	-10.1947
▁kyoto	-10.1971
▁implications	-10.1974
▁hearing	-10.1975
▁timetable	-10.1981
▁leader	-10.1995
▁sorry	-10.2
▁helped	-10.2004
▁numbers	-10.2005
on	-10.2017
▁advertising	-10.2022
▁diplomatic	-10.2028
▁facilities	-10.2028
▁definitely	-10.2029
▁complicated	-10.2034
▁uniform	-10.2038
▁gap	-10.2039
▁debated	-10.204
▁ratified	-10.204
▁seeks	-10.2042
▁assist	-10.2051
▁chosen	-10.2051
▁eight	-10.2057
▁passenger	-10.2068
▁spite	-10.2074
▁etc	-10.2074
▁exception	-10.2079
▁24	-10.2107
▁schemes	-10.2121
▁went	-10.213
▁none	-10.2132
▁purely	-10.2132
▁feed	-10.2135
▁nobody	-10.2144
▁moral	-10.2151
▁news	-10.2155
▁austrian	-10.2156
▁belgium	-10.2161
▁bearing	-10.2172
▁centres	-10.2178
▁texts	-10.2182
▁massive	-10.2184
▁competent	-10.2195
▁danish	-10.2196
▁whereby	-10.2206
▁successfully	-10.2211
▁heritage	-10.2214
▁poorest	-10.2232
▁extensive	-10.2248
▁prior	-10.2254
▁addressing	-10.226
▁tragedy	-10.2261
▁openness	-10.2268
▁spread	-10.2268
▁prospects	-10.2271
▁racism	-10.2273
▁hungary	-10.2279
▁red	-10.2281
free	-10.229
▁heavy	-10.2296
▁generation	-10.2297
▁heading	-10.2302
▁constant	-10.2307
▁save	-10.2308
▁mistake	-10.2314
▁everybody	-10.2338
▁taxpayers	-10.234
▁healthy	-10.2348
▁adapt	-10.2348
▁phenomenon	-10.2349
▁imagine	-10.2366
▁intentions	-10.2369
▁dispute	-10.2385
▁japan	-10.2391
▁korea	-10.2397
▁bit	-10.2403
▁transatlantic	-10.2409
▁section	-10.2429
▁ports	-10.2434
▁extending	-10.2442
▁polish	-10.2443
▁crises	-10.2451
▁sets	-10.2452
▁foremost	-10.2463
▁demanding	-10.2463
▁threats	-10.247
▁pensions	-10.2473
▁worst	-10.2475
▁considerations	-10.251
▁bosnia	-10.251
▁savings	-10.2512
▁achievement	-10.2525
▁correctly	-10.2526
▁2010	-10.2528
▁depend	-10.253
scale	-10.2541
▁depends	-10.2546
▁solely	-10.2548
▁easily	-10.2553
▁opened	-10.256
▁intellectual	-10.256
▁category	-10.2566
▁rapidly	-10.2567
▁producing	-10.2573
▁accordingly	-10.2589
▁stressed	-10.2591
▁stake	-10.2592
▁skills	-10.2592
▁players	-10.2599
▁determine	-10.2609
▁quote	-10.2615
▁remaining	-10.2625
▁unanimously	-10.2627
▁acting	-10.2629
▁barcelona	-10.2639
▁island	-10.264
▁stock	-10.2642
▁manufacturers	-10.2643
out	-10.2647
▁city	-10.2658
▁accident	-10.2659
▁promised	-10.267
▁background	-10.2671
▁enabling	-10.2681
▁advice	-10.2688
▁charges	-10.2698
▁tools	-10.27
▁deals	-10.2706
▁environmentally	-10.2711
▁focused	-10.272
▁claims	-10.2729
▁granting	-10.273
▁profits	-10.2735
▁extreme	-10.2738
▁clarity	-10.2743
st	-10.2751
▁reliable	-10.2761
▁spend	-10.2772
▁patent	-10.2775
▁strength	-10.2777
▁bureaucracy	-10.278
▁geographical	-10.2791
▁airlines	-10.28
▁harmful	-10.2811
▁paying	-10.2821
▁considerably	-10.2824
▁worrying	-10.283
▁beef	-10.2839
▁cuts	-10.2857
▁reaction	-10.2858
▁federal	-10.2859
▁suitable	-10.2874
▁arrest	-10.2876
▁decades	-10.2892
▁emphasised	-10.2912
▁declared	-10.2912
▁increases	-10.2919
▁healthcare	-10.2937
▁railway	-10.2946
▁core	-10.2955
▁oppose	-10.2957
▁regrettable	-10.2968
economic	-10.2971
▁23	-10.2978
▁size	-10.2987
▁recall	-10.299
▁proud	-10.2992
▁encouraged	-10.2998
▁biggest	-10.2999
▁performance	-10.3016
▁rich	-10.3017
▁refers	-10.3021
▁communications	-10.3025
▁mark	-10.3027
▁doubts	-10.3044
▁enhance	-10.3047
▁twenty	-10.3057
▁undertakings	-10.3062
▁supplementary	-10.3063
▁removed	-10.3065
▁favourable	-10.3066
▁spring	-10.3074
▁launch	-10.3094
▁wealth	-10.3094
▁sum	-10.3098
▁legitimacy	-10.3108
▁unnecessary	-10.3108
related	-10.3109
▁advantages	-10.3115
▁powerful	-10.312
▁carbon	-10.3122
▁feeling	-10.3126
▁entered	-10.3137
and	-10.3139
▁replace	-10.3143
5	-10.3146
▁reflected	-10.315
▁aside	-10.3154
▁te	-10.3155
▁...	-10.3163
▁willingness	-10.3166
▁certainty	-10.3166
▁modified	-10.3166
▁violation	-10.317
▁historical	-10.3178
▁succeeded	-10.3181
▁courts	-10.3188
▁applicable	-10.3191
▁regarded	-10.3201
▁contributed	-10.3209
▁arise	-10.3222
▁experienced	-10.3249
▁break	-10.3258
▁leaving	-10.3263
▁adjustment	-10.3268
▁thorough	-10.3274
session	-10.328
▁supposed	-10.3288
r	-10.329
▁1995	-10.3293
▁competences	-10.3299
▁constitutes	-10.3305
▁fourth	-10.3309
▁summer	-10.3315
▁citizenship	-10.3315
▁ships	-10.3324
▁sake	-10.3328
▁basically	-10.3335
▁port	-10.3344
parliament	-10.3353
▁respects	-10.3354
▁firms	-10.3359
▁foundation	-10.336
▁raising	-10.3362
▁restore	-10.3366
▁science	-10.3367
▁targeted	-10.3371
▁retain	-10.3373
relatively	-10.3389
▁applications	-10.3394
▁26	-10.3412
▁consequence	-10.3419
▁affecting	-10.3422
▁fairly	-10.3424
▁dynamic	-10.3426
▁tests	-10.3429
▁negotiated	-10.3441
▁radical	-10.3451
▁nearly	-10.3454
▁christian	-10.3455
▁deeply	-10.3461
▁nationals	-10.3464
▁cuba	-10.3465
▁employers	-10.3478
▁smaller	-10.3478
▁explanation	-10.348
▁reaching	-10.3491
▁applicant	-10.3499
▁simplification	-10.3499
▁greenhouse	-10.35
▁engage	-10.3505
▁cancer	-10.3507
▁denmark	-10.3513
▁army	-10.352
▁hopes	-10.3525
▁intervene	-10.3531
▁200	-10.3538
▁afraid	-10.3553
▁armed	-10.3554
▁ordinary	-10.356
▁electoral	-10.3566
▁liberties	-10.3573
▁weak	-10.3583
▁noon	-10.3588
▁utmost	-10.3593
▁31	-10.36
▁reservations	-10.3611
▁piece	-10.3614
▁sought	-10.3627
▁reiterate	-10.3633
▁incorporated	-10.3635
▁fruit	-10.3644
▁ecb	-10.3648
▁ec	-10.3658
▁maastricht	-10.3667
▁eliminate	-10.3673
▁22	-10.3674
▁religion	-10.3682
▁marketing	-10.3683
▁islands	-10.3706
▁presenting	-10.3717
▁20%	-10.3735
▁negotiate	-10.3742
▁undertaking	-10.3758
▁buildings	-10.3766
▁settlement	-10.3771
▁meaning	-10.3782
▁millennium	-10.379
▁complaints	-10.3792
▁combined	-10.3798
▁excluded	-10.3825
▁tonnes	-10.3831
▁bureau	-10.3838
▁disabled	-10.3838
▁berlin	-10.3839
▁fleet	-10.384
▁commit	-10.3844
▁unity	-10.3847
▁multi	-10.385
▁burma	-10.3866
▁deserve	-10.3866
▁importantly	-10.3867
3	-10.3872
▁bureaucratic	-10.3873
▁obtained	-10.3877
▁jointly	-10.3881
▁showing	-10.3881
▁vast	-10.3885
▁tackling	-10.3886
▁declarations	-10.3891
▁representation	-10.3903
▁prospect	-10.3909
▁profit	-10.3912
▁congratulations	-10.3915
▁checks	-10.3931
▁eye	-10.3938
▁shortcomings	-10.3939
▁slovakia	-10.3948
▁communist	-10.3959
▁terrible	-10.3963
▁incentives	-10.3967
▁suggestions	-10.3985
▁charge	-10.3985
▁hardly	-10.3995
▁preparations	-10.4003
▁60	-10.4006
▁eyes	-10.401
▁surprised	-10.4013
▁repeatedly	-10.402
▁creates	-10.4023
▁economically	-10.4023
▁fewer	-10.4032
▁organization	-10.4044
▁educational	-10.4059
▁shape	-10.406
▁trend	-10.4071
▁credible	-10.4075
▁examined	-10.4078
▁clean	-10.4087
▁necessarily	-10.4089
▁chapter	-10.4092
▁students	-10.4095
▁ambition	-10.4099
▁underline	-10.4114
▁losses	-10.4133
▁wording	-10.4133
▁alongside	-10.4139
lecommunications	-10.414
▁justify	-10.4142
▁drafting	-10.4146
▁admit	-10.4156
▁liability	-10.416
6	-10.4163
▁delays	-10.4163
▁expressing	-10.417
▁revised	-10.4182
▁regardless	-10.4183
▁procurement	-10.4189
▁airports	-10.421
▁foundations	-10.4218
▁import	-10.422
▁widespread	-10.4224
▁candidates	-10.423
4	-10.4238
▁hit	-10.4241
▁resulted	-10.4242
▁albania	-10.4245
▁pleasure	-10.4253
▁articles	-10.4275
▁reflects	-10.4279
▁physical	-10.4281
▁forest	-10.4286
▁transactions	-10.4289
▁honest	-10.4302
▁yugoslavia	-10.4303
▁quota	-10.4309
▁qualifications	-10.4313
▁28	-10.4313
▁below	-10.4315
▁suspended	-10.4319
▁unfortunate	-10.4324
▁inflation	-10.4329
▁repeated	-10.4329
▁stance	-10.434
▁lasting	-10.4348
▁exceptional	-10.4354
▁deadline	-10.4358
▁outstanding	-10.4371
▁picture	-10.4373
▁arab	-10.4386
▁became	-10.4392
or	-10.4404
▁enhanced	-10.4407
▁gaza	-10.4413
▁extraordinary	-10.442
sv	-10.4422
▁undermine	-10.4423
▁unemployed	-10.4443
▁broader	-10.4443
▁alcohol	-10.4449
▁author	-10.4453
▁penalties	-10.4456
▁preserve	-10.4459
wide	-10.4464
▁m	-10.4464
▁executive	-10.4468
▁macedonia	-10.447
▁widely	-10.4473
▁parents	-10.4486
▁morocco	-10.4486
▁prison	-10.449
▁falls	-10.4495
▁pse	-10.4512
▁terrorists	-10.4514
▁relate	-10.4519
▁standing	-10.4519
▁belief	-10.452
▁subjects	-10.4537
▁aircraft	-10.4537
▁conventions	-10.4541
▁drafted	-10.4543
▁amend	-10.4544
▁territories	-10.4545
▁permit	-10.4557
▁demographic	-10.4564
▁warmly	-10.4568
▁expense	-10.4572
▁invite	-10.4573
▁fast	-10.4574
▁fresh	-10.4574
▁boost	-10.458
▁allocation	-10.4602
▁periods	-10.4602
▁lithuania	-10.4603
▁annex	-10.4608
▁digital	-10.4611
▁lessons	-10.4617
▁turned	-10.462
▁condemned	-10.4629
▁banking	-10.4634
▁civilian	-10.464
eu	-10.4641
▁larger	-10.4652
▁regulate	-10.4653
▁stay	-10.4656
▁kinds	-10.4656
▁indicators	-10.466
▁gradually	-10.4672
▁offering	-10.4675
▁expensive	-10.4679
▁satisfaction	-10.4679
▁raw	-10.4686
▁emu	-10.4693
▁islamic	-10.4694
▁secret	-10.4698
▁marine	-10.4709
▁abolition	-10.4728
▁welcomes	-10.473
▁insufficient	-10.4735
▁regulated	-10.474
▁fifth	-10.4746
▁uncertainty	-10.4746
▁declare	-10.4758
▁ethical	-10.476
▁withdraw	-10.4762
▁similarly	-10.4773
▁register	-10.4776
▁collaboration	-10.4776
▁explained	-10.4789
▁reserve	-10.4789
▁unanimous	-10.479
▁acquis	-10.4792
▁drivers	-10.4792
▁interim	-10.4799
▁door	-10.4801
▁biodiversity	-10.4807
▁pursuan	-10.4814
▁approximately	-10.4815
▁buy	-10.4815
▁freely	-10.4818
▁zimbabwe	-10.4822
▁elderly	-10.4822
▁indicate	-10.4827
▁palestinians	-10.4828
▁bound	-10.483
▁processing	-10.4844
▁ecological	-10.4851
▁team	-10.4852
▁causing	-10.4852
▁began	-10.4856
▁covers	-10.4859
▁geneva	-10.486
▁occurred	-10.4868
level	-10.4868
▁restricted	-10.4877
▁suggestion	-10.489
▁promises	-10.489
▁journalists	-10.4892
hu	-10.4892
▁chain	-10.4897
▁outset	-10.4899
▁warning	-10.49
▁informal	-10.4907
▁shares	-10.4908
▁recommend	-10.4921
▁presentation	-10.4922
▁minute	-10.4928
▁night	-10.4936
▁motions	-10.4952
▁tribute	-10.496
▁deaths	-10.496
▁couple	-10.4966
▁lie	-10.4971
▁finances	-10.4981
▁shortly	-10.499
▁receiving	-10.4991
▁ignore	-10.4997
▁noise	-10.501
▁belong	-10.502
▁coordinate	-10.5028
▁battle	-10.5029
▁english	-10.5029
▁killed	-10.5046
▁listened	-10.5048
▁torture	-10.5059
▁frequently	-10.5061
▁populations	-10.5066
▁inquiry	-10.5068
▁trial	-10.5069
▁strike	-10.5107
▁viable	-10.5107
▁contract	-10.5108
▁observed	-10.5108
▁contacts	-10.5112
g	-10.5118
▁pro	-10.5121
▁promise	-10.5138
▁faith	-10.5139
▁undertake	-10.515
▁familiar	-10.5152
▁observation	-10.5155
▁generations	-10.5185
▁financed	-10.519
▁abstained	-10.5195
▁slow	-10.5201
▁struggle	-10.5209
▁london	-10.5209
▁sovereign	-10.5209
▁severe	-10.5215
▁sphere	-10.5218
▁sincerely	-10.5219
▁aids	-10.5225
▁division	-10.5226
▁forests	-10.5237
▁beneficial	-10.5241
▁count	-10.5249
▁engaged	-10.5251
▁dumping	-10.5251
▁looked	-10.5253
▁compatible	-10.5257
▁demonstrates	-10.5276
▁fifteen	-10.528
▁soviet	-10.5281
▁vehicle	-10.5282
▁transit	-10.5285
▁collection	-10.529
▁weight	-10.5293
▁occur	-10.5306
▁reinforce	-10.5312
▁emerging	-10.5313
▁blame	-10.5319
▁prefer	-10.532
▁institute	-10.5321
▁unique	-10.5327
▁necessity	-10.5337
▁rising	-10.5337
▁push	-10.5338
▁hopefully	-10.5345
▁associations	-10.5348
▁conservation	-10.5351
▁arising	-10.5353
▁promoted	-10.5354
▁supervisory	-10.5369
▁sending	-10.5374
▁supplies	-10.5377
▁pursued	-10.5387
▁olaf	-10.5393
▁clearer	-10.5406
▁subsequently	-10.5418
▁prevented	-10.5423
▁exclusively	-10.5434
▁harmonised	-10.5434
▁crops	-10.5435
▁clarification	-10.5443
▁rome	-10.5458
▁presidents	-10.5473
▁textile	-10.5476
▁talked	-10.5492
▁distinction	-10.5492
▁strictly	-10.5492
▁afford	-10.5498
▁rejection	-10.5498
▁grow	-10.5518
able	-10.5524
▁revenue	-10.5533
▁efficiently	-10.5543
▁egypt	-10.5547
▁igc	-10.5547
▁moved	-10.5555
▁organise	-10.5589
▁mid	-10.559
▁americans	-10.5604
▁surveillance	-10.5613
▁divided	-10.563
20	-10.5634
country	-10.5638
▁parallel	-10.5648
▁percentage	-10.5648
▁coherence	-10.5654
▁compete	-10.5662
▁wage	-10.5673
▁mere	-10.5674
▁finnish	-10.5687
▁postal	-10.5688
▁roads	-10.5692
▁canada	-10.5713
▁timely	-10.572
▁troops	-10.5721
▁alternatives	-10.5727
▁chechnya	-10.5728
▁perspectives	-10.5729
▁campaigns	-10.573
▁apparent	-10.5736
▁accompanied	-10.5762
fi	-10.5768
▁loans	-10.5778
▁begun	-10.5781
▁experiencing	-10.5787
▁reconciliation	-10.5787
▁simplify	-10.5791
▁puts	-10.5792
▁congratulating	-10.5804
▁disappointed	-10.5804
debate	-10.5812
▁progressive	-10.5821
▁choices	-10.5823
▁railways	-10.5824
▁defending	-10.5832
▁acceptance	-10.5838
▁organizations	-10.5843
▁respecting	-10.5854
▁friendly	-10.5861
▁directed	-10.5881
▁friend	-10.5882
▁ruling	-10.5892
▁reflection	-10.5892
▁explanations	-10.5897
▁atlantic	-10.5906
▁tangible	-10.5922
▁evident	-10.5922
mediterranean	-10.5931
▁tradition	-10.5934
▁unanimity	-10.5939
▁accessible	-10.5939
▁connected	-10.5939
▁judgment	-10.5943
▁stations	-10.5955
▁desirable	-10.5964
▁card	-10.5965
▁liberals	-10.5967
▁disagree	-10.5975
▁coal	-10.5976
▁mobile	-10.5981
▁items	-10.5985
▁chemical	-10.5986
▁malta	-10.599
▁route	-10.5994
▁refuse	-10.6002
▁prize	-10.6021
▁imposing	-10.6024
▁threshold	-10.6037
▁1990	-10.6038
eec	-10.6063
▁genetically	-10.6067
▁migrants	-10.6085
▁consulted	-10.6085
▁usual	-10.6101
▁judge	-10.6105
▁enlarged	-10.611
▁refugee	-10.6116
▁socio	-10.6125
▁opt	-10.6125
▁categories	-10.6128
▁replaced	-10.6129
▁net	-10.6136
▁yourself	-10.6145
▁intensive	-10.6146
ers	-10.6152
▁raises	-10.6159
▁joining	-10.6171
▁permitted	-10.6171
▁threatened	-10.6172
▁agrees	-10.6176
▁hoped	-10.6185
▁restrict	-10.6187
▁moldova	-10.6187
▁dramatic	-10.6188
▁treat	-10.6195
▁lacking	-10.6206
▁29	-10.6206
▁emission	-10.6212
▁observers	-10.6217
▁logical	-10.6223
▁soil	-10.6227
▁housing	-10.6241
▁palestine	-10.625
▁traditions	-10.6254
▁closure	-10.6255
▁react	-10.6256
▁integrity	-10.6258
▁dublin	-10.6267
▁achievements	-10.6273
▁confusion	-10.6276
▁forgotten	-10.6278
▁image	-10.6282
▁procedural	-10.6283
▁resumed	-10.6285
▁protest	-10.6301
▁contributing	-10.6302
▁solid	-10.631
▁equivalent	-10.6311
▁controversial	-10.6311
▁slightly	-10.6311
▁sales	-10.6312
▁worthy	-10.6313
▁assessments	-10.6319
▁valid	-10.6327
▁sub	-10.633
▁sharing	-10.6331
u	-10.6345
▁defining	-10.6346
▁freight	-10.6346
▁nine	-10.6347
▁preventive	-10.6347
▁echo	-10.635
▁fire	-10.6362
▁signing	-10.6367
▁highlights	-10.6368
▁keen	-10.6372
▁residence	-10.6373
▁refused	-10.6374
▁authorisation	-10.6389
▁whatsoever	-10.6391
▁helpful	-10.6403
▁listening	-10.6416
▁missing	-10.6419
▁advocate	-10.6423
▁underlying	-10.6426
▁showed	-10.643
▁ms	-10.6433
▁farms	-10.644
▁victim	-10.6442
▁blood	-10.6446
▁title	-10.645
▁cultures	-10.6451
▁joined	-10.6461
▁scrutiny	-10.6462
▁respective	-10.6464
▁characteristics	-10.6468
▁win	-10.6488
▁comparison	-10.6496
▁failing	-10.6516
▁investors	-10.6518
▁preliminary	-10.6525
▁coastal	-10.6525
▁impetus	-10.6534
▁regularly	-10.6536
▁ill	-10.6538
▁exchanges	-10.6538
▁chemicals	-10.6538
▁managing	-10.6543
▁estimated	-10.6544
▁plays	-10.6552
▁systematic	-10.6552
▁50%	-10.6552
▁universities	-10.6579
▁popular	-10.6582
▁resistance	-10.6588
▁ratify	-10.6593
▁motor	-10.66
▁surrounding	-10.6606
▁notably	-10.6615
▁eventually	-10.6616
▁notice	-10.6622
ness	-10.6622
quality	-10.6625
▁block	-10.6626
▁woman	-10.6634
▁sadly	-10.6635
▁destroyed	-10.6636
▁inhabitants	-10.6637
▁approaches	-10.6645
▁flows	-10.6657
▁observe	-10.6667
▁justification	-10.667
▁representing	-10.667
▁imported	-10.6673
▁mistakes	-10.6679
outermost	-10.6681
▁funded	-10.6682
▁thousand	-10.6687
▁tolerance	-10.6689
rule	-10.6694
▁harm	-10.6698
▁advanced	-10.6719
▁subsequent	-10.6724
▁error	-10.6725
▁reported	-10.6728
▁resource	-10.6732
yes	-10.6744
▁chair	-10.6764
▁integrate	-10.6779
▁participating	-10.6781
▁inside	-10.6794
us	-10.6795
▁brazil	-10.6799
▁track	-10.6803
▁disputes	-10.6807
▁envisaged	-10.6809
▁safeguarding	-10.6819
▁apparently	-10.6828
▁infringement	-10.6836
▁fails	-10.6838
▁conviction	-10.6845
governmental	-10.6847
▁ambitions	-10.6851
▁accounting	-10.6871
▁airport	-10.6874
▁alde	-10.6877
▁drive	-10.6891
▁appointment	-10.6892
▁losing	-10.6902
▁exceptions	-10.6912
▁bush	-10.6912
▁covering	-10.6916
▁convince	-10.6919
▁controlled	-10.6922
▁unlike	-10.6929
▁occupation	-10.6937
▁expansion	-10.6948
0	-10.6948
▁banned	-10.6949
▁lebanon	-10.6949
▁delegations	-10.6982
▁monday	-10.6986
▁gained	-10.699
▁accepting	-10.6995
▁restrictive	-10.6996
▁usually	-10.6997
▁wages	-10.7011
▁concentration	-10.7015
▁incorporate	-10.7019
▁organic	-10.7024
▁fixed	-10.7024
▁solved	-10.7027
▁providers	-10.7029
▁monitored	-10.7029
▁mandatory	-10.7034
▁registration	-10.7062
▁hundred	-10.7062
▁facility	-10.7071
▁distributed	-10.7072
▁tonight	-10.7076
▁regimes	-10.708
▁abroad	-10.7081
▁assurance	-10.7082
▁fuels	-10.7084
▁doha	-10.7088
▁maybe	-10.7093
as	-10.7093
▁humanity	-10.7096
▁pilot	-10.7125
▁pursuing	-10.7129
▁multiannual	-10.7129
▁consent	-10.7146
▁august	-10.7148
▁functions	-10.7154
▁300	-10.7155
▁decline	-10.7156
▁anniversary	-10.7157
▁female	-10.7158
▁accountability	-10.7158
▁assets	-10.7163
▁dead	-10.7166
sk	-10.7169
▁founded	-10.7171
▁stringent	-10.7176
▁tunisia	-10.7176
▁acknowledged	-10.7189
▁infrastructures	-10.7196
▁solana	-10.7196
▁examination	-10.7198
▁autonomy	-10.7206
▁ignored	-10.7207
▁confident	-10.7214
▁breach	-10.7217
▁experiences	-10.7219
▁syria	-10.7223
▁reductions	-10.7226
▁withdrawal	-10.7227
▁stakeholders	-10.7229
▁decent	-10.7229
▁containing	-10.7233
▁patten	-10.7235
▁resolving	-10.7235
▁older	-10.7247
▁consistency	-10.7264
▁ashton	-10.7273
▁abuses	-10.7279
▁movements	-10.728
▁swift	-10.7282
▁except	-10.7293
▁sentence	-10.7293
▁answered	-10.7298
▁investigations	-10.7301
▁models	-10.7302
▁initially	-10.7315
▁warm	-10.7323
ale	-10.7328
▁die	-10.733
▁falling	-10.7338
▁ideal	-10.7339
▁2009.	-10.7339
▁perfect	-10.7339
▁expertise	-10.7342
▁rely	-10.7353
▁2010.	-10.7362
▁reporting	-10.7365
▁fortunately	-10.7371
▁arrive	-10.7371
▁variety	-10.7381
▁excuse	-10.7382
▁signs	-10.7387
▁dangers	-10.7389
▁eib	-10.7401
▁violent	-10.742
▁virtually	-10.7421
one	-10.7421
▁jurisdiction	-10.7422
▁hour	-10.7424
▁criminals	-10.7427
▁sad	-10.7429
▁10%	-10.744
▁libya	-10.7448
▁gross	-10.7449
▁sympathy	-10.745
▁marked	-10.7452
▁outlined	-10.747
▁ecofin	-10.748
▁meantime	-10.7481
▁compromises	-10.7488
reaching	-10.7491
▁wednesday	-10.7499
▁fourthly	-10.7501
▁verheugen	-10.7509
▁search	-10.7512
▁liked	-10.7516
est	-10.752
▁warrant	-10.752
▁offices	-10.7522
▁visas	-10.7525
▁looks	-10.7525
▁visited	-10.7534
▁stages	-10.7535
▁fate	-10.7542
▁absurd	-10.7558
▁suggests	-10.7559
▁invited	-10.7561
▁length	-10.7561
▁revolution	-10.7562
▁iraqi	-10.7564
▁consolidation	-10.7569
▁modernisation	-10.758
▁birth	-10.7582
▁sight	-10.7589
▁voters	-10.7597
▁fears	-10.7597
▁composition	-10.7599
▁cutting	-10.7611
▁fires	-10.7622
▁safeguards	-10.7636
▁lifelong	-10.764
cs	-10.7642
▁albeit	-10.765
▁catch	-10.7656
▁backing	-10.7666
▁substantially	-10.7684
▁contrast	-10.7689
▁stabilisation	-10.769
vote	-10.7693
▁dossier	-10.7694
▁inspection	-10.7694
▁sudan	-10.77
▁denied	-10.77
▁privacy	-10.77
▁train	-10.7707
▁slovenia	-10.7709
▁renewed	-10.7711
▁actors	-10.772
▁proven	-10.7721
▁concludes	-10.7726
▁everywhere	-10.7731
time	-10.7732
▁schulz	-10.7741
▁collapse	-10.7743
▁host	-10.7744
▁pretext	-10.7755
▁appointed	-10.7762
▁commend	-10.7764
▁scientists	-10.7766
▁football	-10.7771
▁criterion	-10.7771
▁visible	-10.7771
▁entering	-10.7776
▁employed	-10.7789
▁gradual	-10.7791
▁wherever	-10.7793
▁badly	-10.7795
▁ageing	-10.7798
▁endeavour	-10.781
▁maintenance	-10.7812
▁indication	-10.7817
▁tough	-10.7817
▁galileo	-10.7823
▁names	-10.7823
▁friday	-10.7827
▁university	-10.7833
▁cope	-10.7836
▁clauses	-10.784
▁fit	-10.7843
▁santer	-10.7843
▁incentive	-10.7848
▁productivity	-10.7853
▁osce	-10.7854
▁destroy	-10.7861
▁flow	-10.7863
▁learned	-10.7869
▁adequately	-10.7878
▁autumn	-10.7884
▁vocational	-10.7884
lt	-10.7886
▁finish	-10.7887
▁sincere	-10.7887
▁argue	-10.7888
▁federation	-10.7889
▁paragraphs	-10.7901
isation	-10.7912
▁shipping	-10.7915
▁died	-10.7918
▁2000.	-10.792
▁partnerships	-10.7924
▁features	-10.7926
▁detention	-10.7931
▁scotland	-10.7936
▁presidential	-10.7937
▁game	-10.7941
▁completion	-10.7946
▁farm	-10.7948
▁consistently	-10.795
▁gmos	-10.7952
▁recognises	-10.7952
▁released	-10.7959
▁endorsed	-10.796
discrimination	-10.797
re	-10.7983
▁focusing	-10.7986
▁1994	-10.7988
▁minor	-10.8004
▁consultations	-10.801
▁devoted	-10.801
▁essence	-10.8019
▁dictatorship	-10.8025
▁unilateral	-10.8027
day	-10.803
▁borne	-10.8044
▁sites	-10.8048
▁storage	-10.8051
▁examining	-10.8051
▁ceiling	-10.8057
▁immunity	-10.8061
▁personnel	-10.8063
▁evaluate	-10.8066
▁intelligent	-10.8071
▁avoided	-10.8083
▁democrat	-10.8088
▁acted	-10.8093
▁democratically	-10.8095
▁arrived	-10.8095
▁deficits	-10.8102
▁testing	-10.8103
▁statistical	-10.8113
▁irrespective	-10.8114
▁attend	-10.8117
▁ship	-10.8121
▁disastrous	-10.8134
▁exclusive	-10.8145
▁tackled	-10.8161
▁sit	-10.8166
▁hazardous	-10.8168
ising	-10.8172
▁fundamentally	-10.8175
▁irregularities	-10.8178
▁xenophobia	-10.8188
▁damaging	-10.8188
▁leaves	-10.8188
▁observations	-10.8198
▁imperative	-10.8205
▁recommended	-10.8223
▁enterprise	-10.8227
▁productive	-10.8243
▁emerged	-10.8253
▁recital	-10.8259
▁murder	-10.8262
▁wise	-10.8272
▁brok	-10.8282
▁sections	-10.8282
▁forestry	-10.8285
▁false	-10.8285
▁micro	-10.8287
▁enables	-10.8301
▁expert	-10.8301
▁fischler	-10.8306
▁reserves	-10.8308
▁sold	-10.8309
▁80	-10.8328
▁programming	-10.8338
▁precautionary	-10.8349
▁2006,	-10.8359
▁repression	-10.836
▁sums	-10.8363
▁ensured	-10.8366
▁accused	-10.8371
▁college	-10.8378
▁rigorous	-10.8391
▁repercussions	-10.8393
▁component	-10.84
▁tibet	-10.8403
▁removal	-10.8403
▁story	-10.8403
▁[	-10.8406
▁mep	-10.8414
▁frankly	-10.8415
▁donors	-10.8421
▁exemption	-10.8433
▁conservative	-10.8433
▁wall	-10.8436
▁switzerland	-10.8436
▁originally	-10.8451
▁foot	-10.8453
▁biofuels	-10.8466
▁struck	-10.8469
▁simplified	-10.8469
for	-10.847
initiative	-10.8472
▁delivered	-10.8473
by	-10.8475
▁disabilities	-10.848
▁explicitly	-10.8492
▁inequalities	-10.8502
▁congo	-10.8502
▁broadly	-10.8507
▁seekers	-10.8508
▁responses	-10.851
▁exposed	-10.8513
▁straight	-10.8517
▁cheap	-10.8522
▁fought	-10.8524
ngl	-10.8528
▁socially	-10.8531
an	-10.8532
▁innocent	-10.8535
▁stockholm	-10.8535
▁notes	-10.8537
▁volume	-10.8543
▁meets	-10.8552
▁inevitably	-10.8557
▁hiv	-10.8558
▁satellite	-10.8565
▁director	-10.8566
▁exploit	-10.8569
▁flights	-10.8571
▁notion	-10.8572
▁enabled	-10.8577
▁harmonise	-10.8578
▁initiated	-10.858
▁corresponding	-10.858
▁foodstuffs	-10.8583
▁unit	-10.8584
▁investigate	-10.8589
▁steel	-10.859
▁speculation	-10.8601
▁shift	-10.8603
▁laying	-10.8613
▁gue	-10.8616
▁adapted	-10.8616
▁resort	-10.862
▁helps	-10.8643
▁platform	-10.8643
▁consolidate	-10.8653
▁errors	-10.8658
▁attached	-10.866
▁touch	-10.8666
▁sole	-10.8666
▁enshrined	-10.8668
▁parliamentarian	-10.8675
friendly	-10.8681
▁continuation	-10.8703
▁participants	-10.8707
▁deny	-10.8709
▁character	-10.8709
▁surprise	-10.8709
▁whenever	-10.8716
▁pace	-10.8724
▁disadvantaged	-10.8725
▁recycling	-10.8735
of	-10.8741
▁objections	-10.8742
▁preparatory	-10.8746
▁fulfilled	-10.8747
▁iranian	-10.8756
▁frontex	-10.8758
▁inspections	-10.8765
▁researchers	-10.8765
9	-10.8769
▁practically	-10.8776
▁mother	-10.8779
▁twice	-10.878
▁silence	-10.8785
▁relative	-10.8787
▁attractive	-10.8791
▁tuna	-10.8791
▁hunger	-10.8791
▁saving	-10.8803
▁ministerial	-10.8804
▁linguistic	-10.8814
▁sale	-10.8822
▁distance	-10.8824
▁logic	-10.8825
▁tampere	-10.8826
▁stricter	-10.8827
▁internationally	-10.8831
▁soldiers	-10.8866
▁2008,	-10.8879
▁potentially	-10.8879
▁sex	-10.8882
▁dependence	-10.8894
▁35	-10.8897
▁won	-10.89
▁stick	-10.8904
▁label	-10.8905
▁transferred	-10.8906
▁pressing	-10.8914
▁lists	-10.8914
▁class	-10.8916
▁closing	-10.8917
▁missions	-10.8918
▁desired	-10.8922
▁2008.	-10.8923
▁adverse	-10.8927
▁obstacle	-10.8927
▁democratisation	-10.8928
▁ownership	-10.8928
▁comitology	-10.894
▁concessions	-10.8941
▁accurate	-10.8961
▁era	-10.8973
▁embargo	-10.8973
▁planet	-10.8976
placing	-10.8983
▁rating	-10.8986
▁travelling	-10.8997
▁assessing	-10.9008
▁2010,	-10.9008
medicinal	-10.9009
▁systematically	-10.9009
▁draftsman	-10.9009
▁principal	-10.9019
▁survival	-10.902
▁posts	-10.9023
▁romanian	-10.9034
▁detriment	-10.9041
▁latvia	-10.9043
▁fallen	-10.9044
▁floods	-10.9045
▁object	-10.9047
▁serves	-10.9049
ic	-10.9054
▁transposition	-10.9055
▁comparable	-10.9055
▁civilians	-10.9058
▁games	-10.9061
▁euros	-10.9063
▁grave	-10.9064
▁feature	-10.9065
▁helsinki	-10.9067
▁handling	-10.9069
▁marks	-10.9071
▁topical	-10.9081
▁generate	-10.9088
▁persecution	-10.909
▁40%	-10.909
▁presents	-10.91
▁pharmaceutical	-10.9101
▁assured	-10.9116
▁wished	-10.9119
ism	-10.912
▁investing	-10.9124
▁horizontal	-10.9124
▁incidentally	-10.9125
▁pillars	-10.9141
▁constraints	-10.9143
▁openly	-10.915
▁discipline	-10.9159
▁deciding	-10.916
▁genocide	-10.916
▁retirement	-10.916
▁cold	-10.916
off	-10.9165
▁ended	-10.9168
▁blind	-10.9168
▁quick	-10.917
▁stopped	-10.9172
da	-10.9176
▁sell	-10.9178
▁tape	-10.918
▁hamas	-10.9183
▁homes	-10.9186
▁verts	-10.9195
▁coordinating	-10.9195
▁producer	-10.9197
▁usd	-10.9201
▁telling	-10.9207
▁zero	-10.9208
▁macro	-10.9218
▁democracies	-10.9219
▁stating	-10.9219
▁decade	-10.9219
▁congress	-10.9231
▁mexico	-10.9231
▁transfers	-10.9236
▁remained	-10.9239
▁sports	-10.924
▁constituency	-10.9242
▁normally	-10.9245
▁appreciation	-10.9254
▁characterised	-10.9255
we	-10.9259
▁map	-10.9267
▁corporate	-10.9278
▁kurdish	-10.929
▁earth	-10.929
▁subjected	-10.9298
▁audiovisual	-10.9302
▁interference	-10.9302
▁adaptation	-10.9303
▁criticised	-10.9303
▁radio	-10.9314
▁demonstration	-10.9314
▁alarming	-10.9315
▁80%	-10.9326
▁wholeheartedly	-10.9326
▁inappropriate	-10.9335
▁complied	-10.9337
▁monopoly	-10.9338
▁bases	-10.9342
▁town	-10.9347
▁minds	-10.9351
▁design	-10.9355
▁foster	-10.9355
▁estimates	-10.936
▁automatically	-10.9361
▁banana	-10.9363
▁recorded	-10.9367
▁terror	-10.9373
▁race	-10.938
▁besides	-10.9391
▁pays	-10.94
depth	-10.9402
▁avoiding	-10.9402
▁differ	-10.9404
▁bill	-10.9406
▁findings	-10.9406
▁30%	-10.9409
employed	-10.9412
▁attach	-10.9414
▁protectionism	-10.9427
▁indirect	-10.9433
▁audit	-10.9435
▁assessed	-10.9438
▁routes	-10.9439
▁mine	-10.944
▁likewise	-10.9447
▁abandon	-10.9451
▁deadlines	-10.9451
▁2007.	-10.9451
▁rational	-10.9455
▁pesticides	-10.9456
▁facilitating	-10.9458
▁guilty	-10.9458
▁seat	-10.9464
▁criticisms	-10.9465
▁book	-10.9469
▁refusal	-10.947
▁stimulate	-10.947
▁secretariat	-10.9471
▁demanded	-10.9486
▁victory	-10.9494
▁algeria	-10.9506
▁cent	-10.9509
▁1992	-10.9511
▁relief	-10.9518
▁patient	-10.9519
▁remark	-10.953
▁baroness	-10.9543
▁den	-10.9543
▁references	-10.9544
▁heavily	-10.9567
▁delicate	-10.9567
▁worried	-10.9579
▁authorised	-10.958
▁moratorium	-10.9591
▁scheduled	-10.9592
▁incidents	-10.96
▁2013	-10.96
▁empty	-10.9604
▁obtaining	-10.9607
▁realised	-10.9609
▁70	-10.961
▁offences	-10.9615
▁presidencies	-10.9616
▁appalling	-10.9639
▁atmosphere	-10.9641
▁channels	-10.9654
▁contradiction	-10.9655
▁onto	-10.9657
▁2011	-10.9658
▁wake	-10.9678
▁posed	-10.9679
▁arrested	-10.9682
▁estonia	-10.9689
▁pan	-10.9702
▁generous	-10.9714
▁tens	-10.972
▁beneficiaries	-10.9727
▁grants	-10.9733
▁lesson	-10.9736
▁unprecedented	-10.974
▁livestock	-10.974
▁arises	-10.9742
▁arrangement	-10.9743
▁foods	-10.9753
▁al	-10.9766
▁thoroughly	-10.9767
▁biological	-10.9776
▁await	-10.9776
▁withdrawn	-10.978
cod	-10.9797
▁camps	-10.9798
▁cease	-10.9803
▁sixth	-10.9805
))	-10.9808
▁ideological	-10.9813
▁workforce	-10.9828
▁addresses	-10.9846
▁asian	-10.985
▁bottom	-10.9865
▁solving	-10.9865
▁iceland	-10.9877
▁reminded	-10.9878
▁persuade	-10.9888
▁vienna	-10.989
▁timor	-10.989
▁pensioners	-10.9897
▁emphasize	-10.9905
▁everyday	-10.9906
▁towns	-10.9914
▁kinnock	-10.9928
▁identification	-10.9928
▁meanwhile	-10.9928
▁remit	-10.9928
▁praise	-10.993
▁analyse	-10.993
▁remarkable	-10.9941
▁sustained	-10.9942
▁mental	-10.9952
▁integral	-10.9953
▁passing	-10.9953
▁formally	-10.9957
▁2006.	-10.9962
▁seventh	-10.9966
▁incident	-10.9969
▁cast	-10.9973
▁contributes	-10.9974
▁incomes	-10.9982
▁punishment	-10.9983
▁exclude	-10.9994
▁attempting	-11
▁root	-11.0002
▁reverse	-11.0003
▁removing	-11.0004
▁christians	-11.0017
▁governed	-11.0018
▁indicates	-11.0019
▁consists	-11.0027
▁elimination	-11.003
▁returned	-11.003
▁stresses	-11.0035
▁illegally	-11.0039
▁creative	-11.0041
▁ultimate	-11.0042
▁dual	-11.0042
▁roll	-11.0049
▁prerequisite	-11.006
▁400	-11.0062
▁shame	-11.0066
▁recognising	-11.0068
▁arctic	-11.0068
▁smoking	-11.0069
▁devote	-11.0072
▁donor	-11.0073
▁cattle	-11.0081
▁differently	-11.0082
▁witnessed	-11.0083
▁registered	-11.0085
▁genetic	-11.0085
▁topics	-11.0087
▁translation	-11.0099
▁instability	-11.0106
▁rare	-11.0106
▁abolish	-11.0113
▁eurostat	-11.0113
▁conscience	-11.0124
▁diverse	-11.0133
▁caucasus	-11.0145
▁interventions	-11.0155
▁irresponsible	-11.0158
▁believed	-11.0165
▁olympic	-11.0176
▁patents	-11.0178
▁2004.	-11.0179
▁fashion	-11.0182
▁abolished	-11.0186
▁survive	-11.0209
▁monopolies	-11.021
▁occupied	-11.0211
▁montenegro	-11.0211
▁safer	-11.0212
▁reinforced	-11.0213
▁securing	-11.0223
▁expenses	-11.0227
▁pipeline	-11.0229
▁affair	-11.0229
▁indispensable	-11.0236
▁advisory	-11.0236
▁orientation	-11.0242
▁satisfy	-11.0258
▁born	-11.0259
▁reviewed	-11.0267
▁combination	-11.0268
▁footing	-11.0268
▁caught	-11.0276
▁hague	-11.0276
▁aspirations	-11.0276
▁flag	-11.0281
▁uses	-11.0285
▁clarified	-11.0289
▁enforce	-11.029
▁criticise	-11.0293
▁divide	-11.0293
▁wars	-11.0304
▁transnational	-11.0306
▁madrid	-11.0315
▁adding	-11.032
▁isolation	-11.0328
▁isolated	-11.0329
▁concepts	-11.0329
▁coast	-11.0334
▁precedent	-11.0334
▁condemnation	-11.0334
▁publicly	-11.0338
▁guinea	-11.034
▁quantity	-11.0341
▁manufacturing	-11.0342
▁confirms	-11.0347
▁2,	-11.0351
▁anywhere	-11.0356
▁cycle	-11.0361
▁tariff	-11.0362
▁limiting	-11.0367
▁dear	-11.038
▁strive	-11.0387
▁wonderful	-11.0393
▁drop	-11.04
▁civilisation	-11.0403
▁pointing	-11.041
▁served	-11.0413
▁licences	-11.0414
▁wind	-11.0416
▁doctors	-11.0419
▁disparities	-11.0421
▁trends	-11.0429
▁gases	-11.0439
▁messages	-11.045
▁emphasises	-11.045
▁advances	-11.0464
▁tremendous	-11.0473
▁responding	-11.0487
▁poorer	-11.0491
▁doors	-11.0495
▁inequality	-11.0509
▁saddam	-11.0515
▁veterinary	-11.0515
▁describe	-11.052
▁moves	-11.0521
▁directorate	-11.0522
▁licence	-11.0522
▁relationships	-11.0526
▁profound	-11.0527
▁modest	-11.0527
▁2005.	-11.0527
▁publication	-11.0527
▁90	-11.0534
▁sectoral	-11.0534
▁scandal	-11.0535
▁nigeria	-11.054
▁strikes	-11.0541
▁monti	-11.0555
▁kong	-11.0555
▁von	-11.0555
▁emerge	-11.0561
▁fault	-11.0561
▁warming	-11.0562
▁copyright	-11.0569
▁organized	-11.0569
▁fleets	-11.0579
▁blair	-11.0582
▁dioxide	-11.0582
▁cfsp	-11.0583
▁energies	-11.0595
▁enjoyed	-11.0601
▁announcement	-11.0603
▁burdens	-11.061
▁plus	-11.061
f	-11.0641
▁claimed	-11.0642
▁mobilisation	-11.065
▁enthusiasm	-11.065
▁cells	-11.0659
▁postponed	-11.0665
▁autonomous	-11.0676
▁interpreted	-11.0692
▁lowest	-11.0706
▁2012	-11.0714
▁hong	-11.0718
▁combine	-11.0725
▁workplace	-11.0727
▁suspension	-11.0732
▁player	-11.0732
▁entrepreneurs	-11.0737
▁inevitable	-11.0746
▁preferred	-11.0746
▁displaced	-11.0746
▁recession	-11.0746
▁computer	-11.0753
▁earmarked	-11.076
▁unions	-11.0763
▁neighbour	-11.0763
▁multinational	-11.0768
▁philosophy	-11.0773
▁encouragement	-11.0774
east	-11.0792
▁toys	-11.0794
▁preference	-11.0795
▁online	-11.0799
▁concluding	-11.0801
▁gratitude	-11.0801
▁requiring	-11.0814
▁teachers	-11.0815
▁threatening	-11.082
▁recognize	-11.0822
▁vague	-11.0827
▁harmonization	-11.0828
▁availability	-11.0828
▁abandoned	-11.0831
▁pose	-11.0834
▁watch	-11.0835
▁frontiers	-11.0843
▁faces	-11.0846
▁understandable	-11.086
ranging	-11.0863
ity	-11.0866
▁location	-11.0879
▁initiate	-11.0883
▁drinking	-11.0886
▁disadvantage	-11.0892
▁delayed	-11.0892
▁complaint	-11.0894
▁paris	-11.0898
▁dairy	-11.0898
▁taiwan	-11.0898
▁remote	-11.091
▁appeared	-11.0921
▁disappointment	-11.0921
▁strange	-11.0924
▁definitive	-11.0925
▁gulf	-11.0926
▁exploited	-11.0929
▁problematic	-11.093
▁uphold	-11.0938
▁1%	-11.0941
▁handled	-11.0942
▁attract	-11.0946
▁simplifying	-11.0948
▁frattini	-11.0954
▁quantities	-11.0954
▁banning	-11.0954
▁aiming	-11.0954
▁regulating	-11.0969
▁controlling	-11.0969
▁broken	-11.0982
▁dream	-11.0991
▁flight	-11.0992
▁selection	-11.0997
accession	-11.1003
▁brutal	-11.1009
▁guidance	-11.101
▁privatisation	-11.102
▁deregulation	-11.1025
▁focuses	-11.1031
▁medicine	-11.1034
▁pragmatic	-11.1038
▁intelligence	-11.1038
▁weaknesses	-11.1039
▁exert	-11.104
▁driven	-11.1055
▁ad	-11.1057
▁minors	-11.1059
▁promotes	-11.1063
▁conjunction	-11.1067
▁mercury	-11.1067
▁stem	-11.1077
▁expressly	-11.1078
▁colombia	-11.108
▁roots	-11.1093
▁determining	-11.1095
▁symbolic	-11.1095
▁overwhelming	-11.1108
▁input	-11.1111
▁units	-11.1113
▁1993	-11.1114
▁separation	-11.1124
▁indirectly	-11.1125
▁multinationals	-11.1129
▁girls	-11.1134
▁balkan	-11.1134
▁dedicated	-11.1138
▁remedy	-11.1148
▁enforced	-11.1154
▁coalition	-11.1163
p	-11.1166
▁milosevic	-11.1167
▁violated	-11.1167
▁consolidated	-11.1168
▁hide	-11.1173
▁guide	-11.1176
▁bananas	-11.118
▁invested	-11.1187
▁establishes	-11.1188
▁judiciary	-11.1195
▁rejecting	-11.1201
▁expand	-11.1214
▁knowing	-11.1214
▁implies	-11.1224
▁spectrum	-11.1224
▁adjustments	-11.1227
▁halt	-11.1232
▁indonesia	-11.1237
▁york	-11.1239
▁twelve	-11.1239
▁complexity	-11.1239
▁positively	-11.1245
▁administrations	-11.1245
▁agents	-11.1251
▁pluralism	-11.1253
▁preservation	-11.1253
▁nordic	-11.1256
▁convey	-11.1257
▁threaten	-11.1258
▁broadcasting	-11.1269
▁preferences	-11.1273
▁cod	-11.1278
▁dates	-11.1279
▁diplomacy	-11.1282
▁specified	-11.1282
▁traceability	-11.1282
▁reproductive	-11.1283
▁1999.	-11.1289
▁urged	-11.129
▁abortion	-11.1294
▁explicit	-11.1295
▁cloning	-11.1297
▁pity	-11.1297
▁generated	-11.1313
▁rid	-11.1315
▁signals	-11.1321
▁feasible	-11.1326
▁backed	-11.1334
▁symbol	-11.1337
▁biotechnology	-11.134
▁seas	-11.1341
▁analyses	-11.135
▁quarter	-11.1351
▁transmission	-11.1355
▁suppliers	-11.1358
▁god	-11.1361
▁belonging	-11.1364
▁feels	-11.1364
▁execution	-11.1367
▁zones	-11.1369
▁secondary	-11.1372
▁officially	-11.1375
▁prostitution	-11.1384
▁gets	-11.1397
▁continuous	-11.1398
▁telephone	-11.1399
▁radioactive	-11.1399
▁imf	-11.1399
▁prevail	-11.1404
▁depth	-11.1405
▁shortage	-11.1412
▁faster	-11.1414
wing	-11.1423
▁150	-11.1425
▁invitation	-11.1425
▁communicate	-11.1427
▁imbalances	-11.1434
▁abstain	-11.1436
▁sis	-11.1453
▁tend	-11.1454
▁airline	-11.1465
▁merit	-11.1468
▁split	-11.1469
▁approving	-11.1472
▁preserving	-11.1472
▁concentrated	-11.1476
▁perform	-11.1477
▁complement	-11.1478
▁senior	-11.1487
▁integrating	-11.1487
▁eurozone	-11.1487
▁seats	-11.15
▁circulation	-11.1502
▁fragile	-11.1502
▁eliminating	-11.1517
▁hitherto	-11.1517
▁regrettably	-11.1517
▁martin	-11.1534
▁margin	-11.1544
▁slovak	-11.1544
▁muslim	-11.1545
▁famous	-11.1547
▁suddenly	-11.1547
▁encourages	-11.1551
▁holds	-11.1554
▁residents	-11.1559
▁fishery	-11.1561
▁disability	-11.1576
▁counterfeiting	-11.158
▁postpone	-11.159
▁refrain	-11.1591
▁danube	-11.1591
▁renewal	-11.1592
▁worker	-11.1599
▁beijing	-11.1606
▁macroeconomic	-11.1607
▁runs	-11.1615
▁defended	-11.1616
▁misleading	-11.1622
▁enhancing	-11.1637
▁tensions	-11.1637
▁unified	-11.1652
▁oecd	-11.1652
▁ties	-11.1653
▁32	-11.1656
▁2003.	-11.1659
▁depending	-11.1663
▁blue	-11.1667
▁components	-11.1671
▁prosecutor	-11.168
▁tabling	-11.1682
▁deprived	-11.1683
▁lawyers	-11.1684
▁returning	-11.1685
▁exemptions	-11.1686
▁hypocrisy	-11.1712
▁ends	-11.1712
▁grown	-11.1713
▁o	-11.1714
▁4,	-11.1715
▁entails	-11.1722
▁responded	-11.1725
▁existed	-11.1725
▁explanatory	-11.1727
▁reactions	-11.1734
▁journey	-11.1741
▁derogation	-11.1741
▁convincing	-11.1741
▁unsatisfactory	-11.1742
▁mugabe	-11.1742
▁60%	-11.1742
▁mountain	-11.1755
▁tension	-11.1756
▁cofinancing	-11.1758
▁derogations	-11.1758
▁professionals	-11.1762
▁earthquake	-11.1771
▁merits	-11.1775
▁opponents	-11.178
▁match	-11.178
▁laeken	-11.1788
▁albanian	-11.1788
▁revealed	-11.1789
▁narrow	-11.1794
▁harbour	-11.1802
)).	-11.1804
▁customers	-11.1807
▁indications	-11.1812
▁channel	-11.1818
▁sheep	-11.1819
▁deliberately	-11.1819
▁acquired	-11.182
▁ending	-11.1823
▁reforming	-11.183
▁wishing	-11.1832
▁definite	-11.1832
▁fulfilling	-11.1834
▁mines	-11.1847
▁organising	-11.1849
▁inland	-11.1849
▁toxic	-11.1849
▁selling	-11.1855
▁37	-11.1861
▁chancellor	-11.1864
▁sooner	-11.187
▁undermining	-11.188
▁admittedly	-11.1881
▁formulated	-11.1881
▁48	-11.1882
▁detrimental	-11.1882
ive	-11.1888
▁reassure	-11.1894
▁sensitivity	-11.1895
▁infringements	-11.1896
▁3%	-11.1896
▁momentum	-11.1896
▁advocates	-11.1899
▁subsidy	-11.1911
ist	-11.1914
▁conservatives	-11.1915
▁lend	-11.192
▁carriers	-11.1926
▁salaries	-11.1926
▁hoping	-11.1926
known	-11.1932
▁demonstrations	-11.194
▁refusing	-11.1957
▁arisen	-11.1958
▁2002.	-11.197
▁surplus	-11.1972
▁demonstrating	-11.1972
▁intolerable	-11.1972
▁swoboda	-11.1972
▁christmas	-11.1973
▁located	-11.1973
▁accepts	-11.1974
▁noticed	-11.1975
en	-11.1984
▁owners	-11.1984
▁phrase	-11.1987
▁tourist	-11.199
▁underlined	-11.1991
▁consult	-11.1997
▁afghan	-11.2004
▁authors	-11.201
▁software	-11.2019
▁newspaper	-11.2019
▁moscow	-11.2035
▁tendency	-11.2035
▁vigilant	-11.2035
▁eligible	-11.2035
▁accountable	-11.2041
determination	-11.2042
▁tariffs	-11.2043
▁censure	-11.2049
▁eco	-11.2052
▁swiftly	-11.2052
▁learnt	-11.2054
▁sees	-11.2057
▁washington	-11.2066
▁blocked	-11.207
▁seemed	-11.2079
▁reconcile	-11.208
▁supranational	-11.2081
▁papers	-11.2081
▁hussein	-11.2082
▁electorate	-11.2082
▁breaches	-11.2083
cns	-11.2084
▁trouble	-11.2084
▁apologise	-11.2098
▁attitudes	-11.2101
▁listed	-11.2101
▁compare	-11.2112
▁arbitrary	-11.2113
▁nationality	-11.2121
▁witness	-11.2122
▁textiles	-11.2125
▁purchase	-11.2128
▁serbian	-11.2132
▁escape	-11.2144
▁courageous	-11.2144
▁pursuit	-11.2145
▁excise	-11.2146
▁dg	-11.2147
▁officers	-11.2147
▁formed	-11.2153
▁exact	-11.2155
▁barnier	-11.2161
▁awaiting	-11.2167
▁continuity	-11.2177
▁restriction	-11.2178
old	-11.2179
▁worthwhile	-11.2192
▁issuing	-11.2192
▁delivery	-11.2195
▁transportation	-11.2198
▁distortions	-11.22
▁theory	-11.2202
▁streets	-11.2203
▁identifying	-11.2206
▁packaging	-11.2208
▁propaganda	-11.2208
▁wholly	-11.2209
▁haiti	-11.2224
▁indigenous	-11.2224
▁books	-11.2233
▁ex	-11.2236
)]	-11.224
▁formula	-11.224
▁knew	-11.224
▁financially	-11.2249
▁pick	-11.225
▁bears	-11.2252
▁substantive	-11.2255
▁45	-11.2257
▁mixed	-11.2259
▁conventional	-11.2263
▁vis	-11.2264
▁suspend	-11.2265
▁poettering	-11.2272
▁wave	-11.2276
▁tuesday	-11.2288
▁mutually	-11.2295
ation	-11.2299
▁jeopardise	-11.2303
▁summary	-11.2304
▁offence	-11.2314
▁definitions	-11.2319
▁advocated	-11.2323
▁caution	-11.2329
▁pull	-11.2335
▁bolkestein	-11.2337
▁thoughts	-11.2343
▁publish	-11.2344
▁darfur	-11.2353
▁proves	-11.2353
▁anyway	-11.236
▁gaps	-11.2371
▁judges	-11.2375
▁expresses	-11.2378
▁ensures	-11.238
▁surprising	-11.2384
▁ukrainian	-11.2387
▁structured	-11.2393
▁owe	-11.2401
▁25%	-11.2401
▁lengthy	-11.2402
▁career	-11.2408
▁coins	-11.2413
▁3,	-11.242
▁partial	-11.2421
▁optimistic	-11.2434
▁scenario	-11.2436
▁update	-11.2443
▁meaningful	-11.2449
▁station	-11.245
▁weekend	-11.2452
▁operates	-11.2457
▁judgments	-11.2458
▁applaud	-11.2461
▁disarmament	-11.2466
▁reception	-11.2466
▁vietnam	-11.2466
▁allies	-11.2481
▁alleged	-11.2482
teroperability	-11.2483
▁geared	-11.2484
▁le	-11.2488
▁successes	-11.2492
k	-11.2493
▁costly	-11.2495
▁veto	-11.2497
▁compensate	-11.2498
▁yugoslav	-11.2499
▁redundancies	-11.2499
▁bigger	-11.2499
▁certification	-11.2499
▁realities	-11.25
▁agreeing	-11.2506
proliferation	-11.2508
▁mix	-11.2508
▁devastating	-11.2515
▁1,	-11.2515
▁reformed	-11.2525
▁adapting	-11.2528
▁mobilise	-11.253
▁contradictory	-11.2532
▁pending	-11.2532
▁acquire	-11.2533
▁wanting	-11.2533
▁disappointing	-11.2548
▁centuries	-11.2548
▁complementary	-11.2548
▁contamination	-11.2548
▁slowly	-11.2551
▁vitally	-11.2559
▁2007-2013	-11.2563
▁smooth	-11.2563
▁deterioration	-11.2565
▁automatic	-11.2565
▁cheaper	-11.2565
▁newly	-11.2565
▁killing	-11.2571
▁capacities	-11.2581
▁river	-11.2582
▁insecurity	-11.2582
▁5%	-11.2583
▁deliberations	-11.2588
▁rhetoric	-11.259
disproportionate	-11.259
▁com	-11.2595
▁palacio	-11.2598
▁bridge	-11.26
▁olive	-11.2601
▁departments	-11.2605
▁r	-11.2605
z	-11.2609
▁liberalization	-11.2615
▁attended	-11.2618
▁expecting	-11.2622
▁anybody	-11.2632
▁engagement	-11.2634
▁seriousness	-11.2636
▁constituents	-11.2636
▁assent	-11.2647
▁teaching	-11.265
▁tribunal	-11.265
▁restricting	-11.2656
ar	-11.2658
▁supporters	-11.266
▁frequent	-11.2663
▁redundant	-11.2664
▁clothing	-11.2664
▁norway	-11.2665
▁theme	-11.2666
▁write	-11.2667
▁survey	-11.2682
▁cooperative	-11.2683
▁poses	-11.2687
▁fill	-11.2691
▁newspapers	-11.2697
▁tolerate	-11.2713
▁condemning	-11.2713
▁privileged	-11.2715
comprehensible	-11.2724
▁voices	-11.2726
▁thinks	-11.2742
▁rescue	-11.2746
▁chernobyl	-11.2748
▁unclear	-11.2748
is	-11.2755
▁outline	-11.2758
▁cuban	-11.2771
▁undermined	-11.2784
▁iii	-11.2785
▁scandalous	-11.2797
▁speaks	-11.2807
▁billions	-11.2815
▁liberty	-11.2815
▁cooperating	-11.2815
▁profession	-11.2819
▁manoeuvre	-11.2819
call	-11.2826
▁t	-11.2827
▁fruitful	-11.2831
▁user	-11.2831
▁neutral	-11.2833
▁belongs	-11.2833
▁tested	-11.284
how	-11.285
▁maternity	-11.2866
▁technically	-11.2881
▁awarded	-11.2885
▁shoulder	-11.2886
▁permits	-11.2888
ally	-11.2889
▁camp	-11.289
▁incompatible	-11.2896
▁continually	-11.29
▁prejudice	-11.2903
▁differing	-11.2907
▁sky	-11.2918
▁throw	-11.2929
▁painful	-11.2933
▁inspectors	-11.2938
▁commerce	-11.2955
▁weakness	-11.2968
▁exposure	-11.2968
▁ridiculous	-11.2968
▁classification	-11.2973
▁competitors	-11.2976
state	-11.2977
▁thirty	-11.2986
▁recourse	-11.2986
▁jean	-11.2986
▁70%	-11.2986
▁cfp	-11.2986
▁translated	-11.2987
▁herzegovina	-11.299
▁slaughter	-11.2996
▁capabilities	-11.3003
▁cotonou	-11.3003
▁uen	-11.3003
▁viewed	-11.3014
▁adhere	-11.3023
▁excessively	-11.3024
▁moderate	-11.3025
▁san	-11.3034
▁entail	-11.3036
▁phare	-11.3037
▁interfere	-11.3041
▁forecasts	-11.3046
▁navigation	-11.3055
▁petition	-11.3057
le	-11.3069
▁exceed	-11.307
▁ep	-11.3074
▁charged	-11.3075
▁organs	-11.3077
▁church	-11.3089
▁memory	-11.3089
▁domain	-11.3096
▁33	-11.3097
▁breaking	-11.3103
▁indian	-11.3112
▁conditional	-11.3124
▁euratom	-11.3125
▁marking	-11.3125
▁dimensions	-11.3128
▁feelings	-11.3129
▁buying	-11.3135
▁immense	-11.314
▁proportionality	-11.3142
▁silent	-11.3142
▁mentioning	-11.3143
▁severely	-11.3144
▁conferences	-11.3147
▁ingredients	-11.3151
▁pack	-11.3153
▁techniques	-11.3156
▁reinforcing	-11.3159
▁entirety	-11.3159
▁countryside	-11.3161
▁dare	-11.3166
▁meda	-11.3169
▁simpler	-11.3178
▁murdered	-11.318
▁modes	-11.318
▁site	-11.3192
▁disappear	-11.3193
▁artificial	-11.3193
▁allowances	-11.3196
▁collected	-11.3196
▁recognized	-11.3196
▁proactive	-11.3211
▁weaken	-11.3211
▁street	-11.3218
▁founding	-11.3224
et	-11.3224
▁pornography	-11.3229
▁reunification	-11.3229
▁profitable	-11.323
▁suspect	-11.3233
▁la	-11.324
▁finds	-11.3241
vis	-11.3242
▁drastic	-11.3247
▁reputation	-11.3247
▁sri	-11.3249
▁posselt	-11.3265
▁pride	-11.3265
▁activists	-11.3276
▁mainstreaming	-11.3284
▁assumed	-11.3287
▁protests	-11.3288
▁prompt	-11.3298
▁opposing	-11.33
▁boundaries	-11.33
▁fairer	-11.3306
▁exempt	-11.3318
▁austerity	-11.3318
▁accusations	-11.3318
▁mothers	-11.332
▁highlighting	-11.3326
▁receives	-11.3335
x	-11.3336
▁discovered	-11.3337
regulation	-11.3339
being	-11.3342
use	-11.3342
▁launching	-11.3349
▁sentences	-11.335
▁disregard	-11.3353
▁recommends	-11.3355
▁hearings	-11.3357
▁conducting	-11.3362
▁diversification	-11.3371
▁extradition	-11.3371
▁ideology	-11.3371
▁creativity	-11.3371
▁inclusive	-11.3372
▁asks	-11.3377
▁objection	-11.3378
&	-11.3382
▁revise	-11.3388
▁referendums	-11.3388
▁psychological	-11.3388
▁incapable	-11.3389
▁debts	-11.3393
▁prisons	-11.3396
▁basque	-11.3396
▁destination	-11.3396
▁k	-11.3397
▁5,	-11.3397
▁wild	-11.3403
▁impunity	-11.3407
operation	-11.3416
▁transform	-11.3418
▁hatred	-11.3425
▁wrote	-11.3425
▁distinguish	-11.3425
▁decrease	-11.3431
▁michel	-11.3442
▁promising	-11.3443
▁allocate	-11.346
▁informing	-11.3468
▁nowadays	-11.3479
▁verification	-11.3479
▁owing	-11.3479
▁confronted	-11.3481
▁discriminatory	-11.3483
▁intense	-11.3496
▁sakharov	-11.3497
▁appropriately	-11.3499
▁insisted	-11.3505
▁ilo	-11.3508
▁instances	-11.351
▁attempted	-11.3511
▁argued	-11.3518
▁judged	-11.3518
▁ruled	-11.352
▁alter	-11.3523
▁90%	-11.3534
▁precondition	-11.3541
▁recover	-11.3544
▁el	-11.3544
▁prohibited	-11.3553
▁letters	-11.3561
▁settle	-11.3569
▁manufacture	-11.3569
▁retained	-11.3576
▁globally	-11.3576
▁n	-11.3583
▁putin	-11.3584
▁teams	-11.359
▁requesting	-11.3592
▁website	-11.3596
▁pushing	-11.3599
▁hoc	-11.3601
▁excellence	-11.3606
▁participated	-11.3613
▁slovenian	-11.3626
▁finished	-11.3629
▁underlines	-11.3636
▁contradict	-11.3641
▁fossil	-11.3643
▁confront	-11.3654
▁injured	-11.3661
▁entities	-11.3662
▁islam	-11.3668
▁supreme	-11.368
▁worry	-11.3694
▁reconsider	-11.3696
▁stood	-11.3698
▁altogether	-11.3698
▁transformation	-11.3707
▁contents	-11.3715
▁harmonising	-11.3717
▁abide	-11.3717
▁replacing	-11.3718
▁handed	-11.372
▁disagreement	-11.3726
▁relevance	-11.3735
▁600	-11.3737
▁threatens	-11.374
man	-11.3744
▁absent	-11.3754
▁tacis	-11.3754
▁guided	-11.3756
▁mentions	-11.376
▁destroying	-11.3762
▁handle	-11.3767
▁admitted	-11.3771
▁duration	-11.3772
▁cards	-11.3782
▁mostly	-11.3784
▁panel	-11.3785
▁timber	-11.3791
▁welcoming	-11.3791
▁2001.	-11.3792
▁industrialised	-11.3792
▁organisms	-11.3796
▁prosecution	-11.38
▁natura	-11.3809
▁chose	-11.3809
▁azerbaijan	-11.3809
▁totalitarian	-11.3809
▁migratory	-11.381
▁watson	-11.381
▁prestige	-11.381
▁mercosur	-11.381
▁settled	-11.3811
▁deepening	-11.3813
▁suspicion	-11.3819
▁distortion	-11.3819
▁weapon	-11.3819
▁independently	-11.382
▁airspace	-11.3828
▁accompanying	-11.3831
▁interpret	-11.3835
▁venture	-11.3836
▁quantitative	-11.3846
▁premature	-11.3846
▁dismantling	-11.3847
▁1980	-11.3847
▁erasmus	-11.3848
▁standardisation	-11.3848
▁love	-11.3863
▁supplied	-11.3866
▁punished	-11.3867
▁confedera	-11.3874
▁relocation	-11.3875
▁ineffective	-11.3882
▁cautious	-11.3884
▁league	-11.3885
▁eat	-11.3899
▁guiding	-11.3903
▁coexistence	-11.3904
▁lifting	-11.3908
▁sends	-11.3908
▁advise	-11.3921
▁plenty	-11.3922
▁laundering	-11.3924
▁measured	-11.3934
▁vary	-11.3937
▁limitations	-11.3938
▁screening	-11.3943
▁internally	-11.3972
▁lobby	-11.3974
▁afterwards	-11.3979
▁jarzembowski	-11.3979
▁departure	-11.3979
▁database	-11.399
▁outbreak	-11.399
▁chapters	-11.3991
▁typical	-11.3997
▁missed	-11.4
▁installations	-11.4
▁globalised	-11.4
▁reactors	-11.4002
▁profile	-11.401
▁spreading	-11.4013
▁forcing	-11.4015
▁calm	-11.4015
▁wallström	-11.4017
▁gothenburg	-11.4017
▁deemed	-11.4018
▁blocking	-11.4027
▁evil	-11.4028
▁england	-11.4036
▁insofar	-11.4036
▁viability	-11.4036
▁somewhere	-11.4038
▁separately	-11.4042
▁film	-11.4045
▁department	-11.4046
▁unrealistic	-11.4055
▁taliban	-11.4056
▁mining	-11.4056
▁minimal	-11.4061
▁emphasising	-11.4062
▁cambodia	-11.4073
▁precedence	-11.4075
▁thrust	-11.4075
▁deployment	-11.4075
▁partially	-11.4076
▁touched	-11.4078
▁art	-11.408
▁tunnel	-11.4085
▁exemplary	-11.4094
▁identical	-11.4094
▁attaches	-11.4095
▁supplement	-11.4098
▁formulate	-11.4103
▁j	-11.4104
▁neo	-11.4105
▁75	-11.4106
▁harsh	-11.4111
▁robust	-11.4112
▁produces	-11.4113
▁dominant	-11.4113
▁facto	-11.412
▁deplore	-11.4123
▁taxpayer	-11.4124
▁frank	-11.4131
▁transposed	-11.4133
▁strongest	-11.4136
▁lacks	-11.4136
▁schedule	-11.4142
▁adjust	-11.4145
▁bus	-11.4147
▁100%	-11.4152
▁anticipated	-11.4153
▁peripheral	-11.4153
▁exceptionally	-11.4155
▁pushed	-11.4157
▁records	-11.4158
▁exercised	-11.416
▁imbalance	-11.4161
▁academic	-11.4163
europe	-11.4169
▁sahara	-11.417
▁striking	-11.417
▁decommissioning	-11.4171
▁witnessing	-11.4177
▁appreciated	-11.4177
▁asset	-11.4192
▁linking	-11.4194
▁proliferation	-11.4199
▁en	-11.4201
▁signature	-11.4202
à	-11.4202
▁bulgarian	-11.4204
▁aquaculture	-11.421
▁ethics	-11.4213
▁inability	-11.4219
▁announce	-11.4228
▁roadmap	-11.4229
▁guard	-11.4239
▁racist	-11.4241
▁visits	-11.4242
▁qualitative	-11.4248
▁uncertain	-11.4249
▁warn	-11.4252
▁lift	-11.4254
▁restoring	-11.4268
▁cultivation	-11.4268
▁deeper	-11.427
▁parameters	-11.4276
entrepreneurship	-11.4276
▁trials	-11.4288
▁unresolved	-11.4288
▁goodwill	-11.4289
rs	-11.4291
▁repressive	-11.4307
▁dependency	-11.4308
▁reciprocity	-11.4308
▁dr	-11.4314
▁repair	-11.4317
▁plain	-11.4318
▁prohibition	-11.4318
▁delivering	-11.4325
▁exercising	-11.4327
▁cash	-11.4328
▁equipped	-11.4328
▁innovations	-11.4333
▁assurances	-11.4345
▁salary	-11.4347
▁israelis	-11.4351
▁perpetrators	-11.4354
▁fell	-11.436
▁preferential	-11.4367
▁socrates	-11.4367
▁wasted	-11.437
▁envisage	-11.4378
▁professions	-11.4382
▁reding	-11.4382
▁currencies	-11.4386
▁overcoming	-11.4387
▁processed	-11.4393
▁submitting	-11.4407
▁h	-11.4409
▁restored	-11.441
all	-11.4411
▁accord	-11.4412
▁additives	-11.4413
month	-11.4417
▁judgement	-11.4419
▁oblige	-11.4424
▁resume	-11.4424
▁paramount	-11.4426
▁eurojust	-11.4426
▁motivated	-11.4427
▁confined	-11.4427
▁stipulates	-11.4428
w	-11.4428
▁secured	-11.4434
▁vaccination	-11.4439
way	-11.4446
▁prosperous	-11.4446
▁adjourned	-11.4446
▁protectionist	-11.4453
▁alert	-11.4456
▁deliberate	-11.4465
▁jerusalem	-11.4466
▁lomé	-11.4466
▁securities	-11.4466
▁redress	-11.4473
▁complying	-11.4473
▁waiver	-11.4479
▁troika	-11.4486
▁thrown	-11.4486
▁pressures	-11.4497
▁assumption	-11.4499
▁protein	-11.4499
▁privilege	-11.4518
▁ministry	-11.4526
▁caribbean	-11.4526
▁confused	-11.4527
▁upheld	-11.4527
building	-11.4535
▁di	-11.4537
made	-11.4545
▁disappeared	-11.4548
ting	-11.4553
▁scourge	-11.4559
▁boats	-11.456
▁acute	-11.4565
▁optimism	-11.4566
▁inspired	-11.4567
▁tone	-11.4574
▁specialist	-11.4582
dem	-11.4585
▁purchasing	-11.4586
▁radiation	-11.4586
▁rigour	-11.4586
▁piracy	-11.4586
▁promptly	-11.4587
▁soft	-11.4588
▁sentenced	-11.4589
▁v	-11.4599
▁34	-11.4602
▁permission	-11.4606
▁simultaneously	-11.4607
▁affordable	-11.4607
▁occupational	-11.4611
▁vessel	-11.462
▁36	-11.4623
▁summits	-11.4624
▁ease	-11.4625
▁15%	-11.4627
▁capitalist	-11.4631
▁servants	-11.4636
▁corbett	-11.4647
▁breast	-11.4648
▁expanding	-11.4654
▁entity	-11.4667
▁recruitment	-11.4667
▁johannesburg	-11.4667
▁replacement	-11.4667
▁smuggling	-11.4667
▁gaining	-11.4667
▁edf	-11.4668
▁55	-11.4673
▁applause	-11.4674
▁signatures	-11.4675
▁safeguarded	-11.4678
▁circle	-11.4682
▁councils	-11.4682
▁assisting	-11.4684
▁opens	-11.4702
▁aggressive	-11.4707
▁precarious	-11.4708
▁oppression	-11.4708
▁machinery	-11.4708
▁erika	-11.4709
▁exceeded	-11.471
▁eliminated	-11.4712
▁employ	-11.4715
▁utterly	-11.4729
▁weaker	-11.473
▁investigated	-11.4731
drew	-11.4738
▁asean	-11.4739
▁pave	-11.4745
▁organ	-11.4745
do	-11.4754
▁250	-11.4755
speed	-11.4762
▁passport	-11.4764
▁resumption	-11.4769
▁duly	-11.477
▁nationalism	-11.4781
▁coordinator	-11.4784
▁modernise	-11.4789
▁speedy	-11.4794
▁managers	-11.4801
▁benefiting	-11.4803
▁guardian	-11.4805
▁lived	-11.4807
▁page	-11.4807
▁introduces	-11.4811
▁ferrero	-11.4811
▁disadvantages	-11.4818
▁unite	-11.4827
▁alive	-11.4829
▁legislate	-11.483
▁excess	-11.483
▁hygiene	-11.4831
▁mistaken	-11.4832
▁benefited	-11.4844
▁description	-11.4846
▁addiction	-11.4852
▁conversion	-11.4852
▁harassment	-11.4852
▁shipbuilding	-11.4852
v	-11.487
▁roth	-11.4872
▁unlikely	-11.4875
▁scene	-11.4888
▁observer	-11.4889
▁1998.	-11.4891
▁luck	-11.4893
▁gains	-11.4893
▁st	-11.4893
▁f	-11.4894
▁margins	-11.4896
▁nowhere	-11.4896
▁provisional	-11.4897
▁incorrect	-11.4898
▁earn	-11.4902
▁professor	-11.4909
▁impressive	-11.4913
la	-11.492
ini	-11.4925
▁phenomena	-11.4928
▁trialogue	-11.493
▁restoration	-11.4935
▁emphatically	-11.4935
▁142)	-11.4937
▁chances	-11.4938
▁bans	-11.4939
▁allegations	-11.4943
▁deficiencies	-11.4956
▁vigorously	-11.4957
▁regulators	-11.4972
▁award	-11.4986
▁inherent	-11.4987
russia	-11.4991
▁occurs	-11.4995
▁adults	-11.4996
waldner	-11.4998
▁sarkozy	-11.4998
▁decentralised	-11.4998
▁sporting	-11.5
▁selected	-11.5001
▁divisions	-11.5017
▁assuming	-11.5019
▁ignoring	-11.5019
▁fairness	-11.5022
co	-11.5028
▁endeavours	-11.5031
▁hospital	-11.5036
▁multiple	-11.504
▁evaluating	-11.504
▁suggesting	-11.5042
▁bold	-11.506
▁gambling	-11.5061
▁neglected	-11.5063
▁updated	-11.5064
▁draws	-11.507
▁damaged	-11.5072
▁devices	-11.5076
▁spare	-11.5082
▁cypriot	-11.51
▁conscious	-11.5103
▁groundwater	-11.5104
▁vegetables	-11.5104
▁2%	-11.5105
▁alike	-11.5107
looking	-11.5112
▁iron	-11.5119
▁barrier	-11.5121
▁lawyer	-11.5121
▁liikanen	-11.5125
▁journalist	-11.5131
▁armenia	-11.5146
▁gallery	-11.5146
▁incorporating	-11.5146
▁successive	-11.5147
▁fundamentalism	-11.5152
▁checked	-11.5154
▁maintains	-11.5157
▁completing	-11.5168
▁vitorino	-11.5168
▁wisdom	-11.5168
▁unification	-11.5168
▁concerted	-11.5168
▁crop	-11.517
▁abolishing	-11.5175
▁decides	-11.5177
▁catastrophe	-11.5185
▁miss	-11.5187
▁unjustified	-11.5189
▁japanese	-11.5189
▁emergence	-11.5189
▁obligatory	-11.519
▁individually	-11.519
date	-11.5192
▁codes	-11.5208
▁celebrate	-11.5209
▁lifted	-11.5213
▁egf	-11.5214
▁44	-11.5214
▁approaching	-11.5222
ga	-11.5228
▁tight	-11.523
▁eve	-11.5231
▁rehabilitation	-11.5232
▁120	-11.5233
▁tv	-11.5246
▁communism	-11.5254
▁imprisoned	-11.5254
▁somalia	-11.5256
os	-11.5257
▁injustice	-11.526
▁imperialist	-11.5272
na	-11.5273
▁dying	-11.5275
▁dramatically	-11.5276
▁coverage	-11.5276
ised	-11.5278
un	-11.5281
▁virtue	-11.5293
▁retention	-11.5297
▁pricing	-11.5297
▁dominated	-11.5298
aids	-11.5301
▁humane	-11.5307
terrorism	-11.5311
▁sustain	-11.5312
▁chief	-11.5314
▁settlements	-11.5315
▁rigid	-11.5317
▁challenging	-11.5319
▁weather	-11.5319
▁imprisonment	-11.5319
▁straightforward	-11.5319
▁pacific	-11.5319
▁classes	-11.532
▁costa	-11.5327
▁rape	-11.5336
▁confine	-11.5336
▁box	-11.5336
▁700	-11.5337
▁dollar	-11.5338
▁pure	-11.534
▁incredibly	-11.534
▁treating	-11.5352
▁roles	-11.5355
▁korean	-11.5361
▁formation	-11.5362
▁lukashenko	-11.5362
▁strengthens	-11.5362
▁pnr	-11.5363
▁crossing	-11.5373
▁transported	-11.5373
▁surface	-11.5383
standing	-11.5383
▁43	-11.5384
▁equitable	-11.5384
▁timing	-11.5384
▁catches	-11.5387
ce	-11.5387
oriented	-11.5397
▁corrections	-11.5398
▁39	-11.5403
▁confirmation	-11.5407
▁acknowledges	-11.5411
▁7,	-11.5413
▁anticipate	-11.5423
▁gm	-11.5426
▁seize	-11.5427
▁competing	-11.5428
▁postponement	-11.5428
▁gsp	-11.5429
▁forth	-11.5437
▁resist	-11.5443
▁politician	-11.5447
▁flying	-11.5454
▁workable	-11.5455
▁trained	-11.5456
▁prevents	-11.5459
▁appoint	-11.5465
▁legislators	-11.5467
▁fifty	-11.5472
▁incurred	-11.5472
▁grass	-11.5496
▁fees	-11.5497
▁saved	-11.5499
▁flood	-11.5507
▁contradictions	-11.5511
▁evolution	-11.5515
▁shameful	-11.5515
▁imposition	-11.5516
▁replies	-11.5516
▁800	-11.552
ia	-11.5521
▁govern	-11.5528
▁cow	-11.5531
▁compliment	-11.5533
▁intensify	-11.5533
▁wood	-11.5534
▁retail	-11.5537
▁guantánamo	-11.5538
▁hidden	-11.5538
▁disturbing	-11.5539
▁evaluated	-11.5541
▁permanently	-11.5545
applause	-11.5553
▁advocating	-11.556
▁oomen	-11.556
▁validity	-11.5561
at	-11.5569
02	-11.5575
▁cornerstone	-11.558
▁father	-11.558
▁eradication	-11.5583
▁böge	-11.5583
▁suspected	-11.5585
▁risen	-11.5587
▁gesture	-11.5603
▁consulting	-11.5612
▁frontier	-11.5627
▁burmese	-11.5627
▁quartet	-11.5627
▁visibility	-11.5628
▁perceived	-11.5628
makers	-11.5634
▁allowance	-11.5649
▁forefront	-11.565
▁stimulating	-11.565
▁barón	-11.565
▁male	-11.5661
▁counting	-11.5663
▁occurring	-11.5672
▁thematic	-11.5678
▁expects	-11.5684
▁kilometres	-11.5688
▁specify	-11.569
▁epidemic	-11.5693
▁dubious	-11.5695
▁lorries	-11.5695
▁memorandum	-11.5695
▁smart	-11.5695
▁lanka	-11.5716
▁drought	-11.5716
▁consolidating	-11.5717
▁overview	-11.5718
▁stipulated	-11.5719
▁cereals	-11.572
▁madeira	-11.573
▁assistants	-11.5732
▁sunday	-11.5738
▁hypocritical	-11.5739
▁tibetan	-11.5739
▁striving	-11.574
▁chaos	-11.574
▁reasonably	-11.5741
▁berlusconi	-11.5763
▁incredible	-11.5763
▁reserved	-11.5767
▁harder	-11.5769
▁intent	-11.5783
▁australia	-11.5784
▁modification	-11.5784
▁splendid	-11.5784
▁bangemann	-11.5785
▁mann	-11.5788
▁begins	-11.5802
▁bio	-11.5802
▁1989	-11.5803
▁curb	-11.5806
▁accelerate	-11.5807
▁migrant	-11.5807
▁radically	-11.5812
▁repeating	-11.582
▁alleviate	-11.583
ruijten	-11.5831
▁communautaire	-11.5831
▁stepping	-11.5832
▁somebody	-11.5832
▁backwards	-11.5836
▁notification	-11.5845
▁john	-11.5852
▁illness	-11.5854
▁stream	-11.5854
▁barely	-11.5854
▁1997.	-11.5859
ta	-11.586
▁lehne	-11.5877
▁replied	-11.5877
▁overseas	-11.5877
▁chad	-11.5877
▁scarcely	-11.5877
▁reiterated	-11.5881
▁mad	-11.5881
▁undermines	-11.5886
▁flags	-11.589
▁trains	-11.5891
community	-11.5892
▁claiming	-11.5897
▁admission	-11.5899
▁vegetable	-11.5899
sl	-11.59
▁driver	-11.59
▁countless	-11.59
bendit	-11.59
▁preserved	-11.5904
▁exporting	-11.5909
▁attacked	-11.5911
▁correspond	-11.5915
▁eradicate	-11.5921
▁scottish	-11.5923
▁studied	-11.5923
▁synergy	-11.5923
▁readmission	-11.5923
▁switch	-11.5939
▁collect	-11.5943
▁prominent	-11.5945
▁unambiguous	-11.5945
▁indicative	-11.5946
▁proving	-11.5946
▁cohn	-11.5946
▁lamy	-11.5946
▁liable	-11.5946
▁derived	-11.5948
▁explaining	-11.5955
te	-11.5958
▁understands	-11.5963
▁slavery	-11.5969
▁compatibility	-11.5969
▁pointless	-11.5972
▁expanded	-11.5972
▁discover	-11.5985
▁anxious	-11.5991
rate	-11.5992
▁geopolitical	-11.5993
▁analysed	-11.5995
1)	-11.5999
▁appeals	-11.6003
▁display	-11.6008
▁clarifying	-11.6015
▁excluding	-11.6016
▁deployed	-11.6017
▁upper	-11.6021
▁defeat	-11.6037
▁serbs	-11.6038
▁6,	-11.6038
▁crespo	-11.6039
▁mankind	-11.6039
▁lobbyists	-11.6044
▁38	-11.605
party	-11.6058
▁substitute	-11.6061
▁suicide	-11.6062
▁tuberculosis	-11.6062
▁illustrates	-11.6083
▁arrival	-11.6085
▁poultry	-11.6086
line	-11.6087
▁centralised	-11.6088
▁49	-11.609
▁95	-11.6098
▁42	-11.61
▁birds	-11.6104
▁shut	-11.6109
▁transaction	-11.6109
▁applicants	-11.611
▁calculated	-11.611
+	-11.611
▁fathers	-11.6111
▁blow	-11.6114
ary	-11.6115
▁poorly	-11.6121
▁contempt	-11.6133
▁taught	-11.6133
▁proceeding	-11.6134
▁unknown	-11.6135
▁quoted	-11.6138
▁electrical	-11.6147
▁virus	-11.6155
▁contractual	-11.6156
▁winter	-11.6157
▁honesty	-11.6159
▁artists	-11.6165
▁rejects	-11.6169
▁reviewing	-11.6178
▁translate	-11.6179
▁levy	-11.618
▁rehn	-11.618
▁thessaloniki	-11.618
▁holiday	-11.618
▁ambassador	-11.618
▁encountered	-11.6181
▁muslims	-11.6183
▁mergers	-11.6187
▁prevailing	-11.6187
▁bid	-11.6193
▁corrected	-11.6197
▁pieces	-11.6202
▁conform	-11.6202
▁russians	-11.6202
▁passive	-11.6203
▁tourists	-11.6204
▁aggression	-11.6204
▁serving	-11.6204
▁bar	-11.6219
right	-11.6221
▁stabilise	-11.6226
▁fly	-11.6226
▁barrot	-11.6227
▁readiness	-11.6227
▁employee	-11.6228
▁unilaterally	-11.623
▁flooding	-11.6232
regional	-11.6236
▁intolerance	-11.6239
▁sir	-11.624
▁attain	-11.6242
▁stressing	-11.6242
▁insisting	-11.625
▁proportionate	-11.625
▁patience	-11.6251
▁pretty	-11.6251
▁forgetting	-11.6255
class	-11.6268
▁gather	-11.6268
▁quo	-11.627
▁kill	-11.6271
▁eleven	-11.6274
▁chile	-11.6275
▁extremism	-11.6275
▁carries	-11.6275
▁jacques	-11.6276
▁capitalism	-11.6277
▁fines	-11.6281
▁underway	-11.6282
down	-11.6285
▁incorporation	-11.6299
▁diagnosis	-11.6299
▁herself	-11.6299
▁eldr	-11.6299
▁perception	-11.63
▁loan	-11.63
▁club	-11.63
▁blocks	-11.6302
▁visitors	-11.6304
▁coup	-11.6311
▁deadlock	-11.6321
▁transferr	-11.6321
▁beautiful	-11.6322
▁reliability	-11.6323
▁detained	-11.6323
▁weakened	-11.6326
▁connections	-11.6328
▁65	-11.6328
▁traditionally	-11.633
▁undemocratic	-11.6332
ion	-11.6334
▁alarm	-11.6338
▁havens	-11.6344
▁analysing	-11.6347
▁urging	-11.6347
▁tries	-11.6347
▁grand	-11.6347
▁farmer	-11.6351
▁complain	-11.6364
▁shipyards	-11.6368
▁2011.	-11.6371
▁indicating	-11.6371
é	-11.6372
▁occupying	-11.6374
▁shocking	-11.6375
▁collectively	-11.6377
▁watching	-11.6379
▁refunds	-11.6387
misunderstanding	-11.6389
ial	-11.6393
▁florence	-11.6395
▁sceptical	-11.6395
▁confidentiality	-11.6395
▁accessibility	-11.6396
▁distinguished	-11.6398
▁misuse	-11.6398
▁abused	-11.6403
▁enormously	-11.6405
▁behave	-11.6405
▁extremists	-11.6409
▁reaffirm	-11.6414
▁iv	-11.6417
▁commodity	-11.6419
▁uranium	-11.6419
▁capita	-11.6443
▁concentrating	-11.6444
▁swiss	-11.6444
▁crew	-11.6448
▁lesser	-11.6459
▁prohibit	-11.6463
▁architecture	-11.6468
▁offensive	-11.6468
▁voiced	-11.6478
minute	-11.6485
▁counterparts	-11.6489
▁delete	-11.6491
▁desperate	-11.6491
▁imminent	-11.6492
▁ratio	-11.6501
▁hinder	-11.6512
▁overlook	-11.6513
▁unusual	-11.6516
▁measuring	-11.6517
▁duplication	-11.6517
▁ceasefire	-11.6517
▁estimate	-11.6518
▁viewpoint	-11.6524
▁lending	-11.6524
▁legality	-11.6525
▁shareholders	-11.6526
▁exported	-11.6532
▁sme	-11.6536
—	-11.6541
▁mccreevy	-11.6541
▁biomass	-11.6541
▁committing	-11.6542
▁province	-11.6544
▁executions	-11.6546
▁donation	-11.6548
▁46	-11.6556
▁counterfeit	-11.6561
led	-11.6565
▁delors	-11.6566
▁chocolate	-11.6566
▁wines	-11.6576
▁slight	-11.659
▁illustrate	-11.6592
5-01	-11.6593
▁hostage	-11.6593
▁honestly	-11.6594
▁favoured	-11.6597
▁needless	-11.6607
▁supportive	-11.6608
▁tune	-11.6615
▁cotton	-11.6615
▁harmony	-11.6615
▁convictions	-11.6616
▁preferable	-11.6616
▁hospitals	-11.662
▁lobbying	-11.6621
▁turns	-11.663
▁reveals	-11.6635
▁engines	-11.6635
▁persist	-11.6636
▁persistent	-11.6639
▁cancún	-11.664
▁david	-11.664
▁perpetrated	-11.664
▁distant	-11.664
less	-11.6642
▁adult	-11.6643
▁symbols	-11.6645
▁instructions	-11.6653
▁diet	-11.6656
▁punish	-11.6657
▁questionable	-11.6663
▁nepal	-11.6665
▁dissemination	-11.6665
▁persecuted	-11.6665
▁dictator	-11.6668
▁sharp	-11.6676
▁failures	-11.6678
▁venezuela	-11.6688
▁methodology	-11.669
▁mouth	-11.67
▁denying	-11.67
▁boosting	-11.6706
▁vigorous	-11.6713
▁seville	-11.6715
▁lagging	-11.6715
▁charging	-11.6715
▁pages	-11.6721
▁2013.	-11.6722
▁ecosystems	-11.6725
intensive	-11.6732
▁sudden	-11.6738
▁phasing	-11.674
▁quarters	-11.6746
▁somehow	-11.6755
go	-11.6758
▁music	-11.6764
▁tragedies	-11.6765
▁capability	-11.6765
▁designated	-11.6765
▁breeding	-11.6766
▁peacekeeping	-11.6766
▁damages	-11.6767
▁predecessor	-11.6768
▁condolences	-11.6769
▁opted	-11.6771
▁secrecy	-11.679
▁discretion	-11.679
▁rarely	-11.6792
▁doctor	-11.6795
▁specifications	-11.6803
▁2020.	-11.6803
▁pain	-11.6813
▁cruel	-11.6814
▁choosing	-11.6815
▁kurds	-11.6815
5-00	-11.6816
▁sick	-11.6817
▁store	-11.6817
▁breakthrough	-11.6818
▁evidently	-11.6819
▁ocean	-11.6821
▁refuses	-11.6827
▁arrests	-11.6827
▁defenders	-11.6836
sided	-11.6838
▁unequal	-11.6839
▁underpin	-11.684
▁earliest	-11.684
▁responsibly	-11.684
▁struggling	-11.684
▁worries	-11.684
▁interconnection	-11.684
▁denounce	-11.6842
▁minimise	-11.6844
▁supposedly	-11.6845
▁frameworks	-11.6853
▁neglect	-11.6859
▁amnesty	-11.6865
▁congestion	-11.6866
▁facilitation	-11.6866
▁eligibility	-11.6866
hand	-11.6869
▁tender	-11.687
▁intra	-11.6876
▁unequivocal	-11.689
▁intercultural	-11.6891
▁suit	-11.6895
sighted	-11.6901
tic	-11.6901
▁houses	-11.6906
trade	-11.6911
ated	-11.6915
▁classified	-11.6916
▁factories	-11.6917
▁engineering	-11.6917
▁shocked	-11.6918
▁growers	-11.692
▁frustration	-11.692
▁weakening	-11.6923
▁annually	-11.6929
▁adds	-11.6935
▁feet	-11.6942
▁packages	-11.6943
▁deleted	-11.6943
▁annan	-11.6946
▁collecting	-11.6947
▁themes	-11.6949
▁starts	-11.695
▁forming	-11.6964
▁ethiopia	-11.6966
(2)	-11.6967
▁shaping	-11.6968
▁specialised	-11.697
▁performed	-11.6971
▁reacted	-11.6974
▁rose	-11.6974
▁privileges	-11.6976
▁approached	-11.6977
▁antibiotics	-11.6982
▁comparative	-11.6992
▁fabric	-11.6993
▁observatory	-11.6993
▁atomic	-11.6993
▁tied	-11.6994
▁outlook	-11.6995
▁resident	-11.6998
▁pollutants	-11.7005
▁dreadful	-11.7018
▁locally	-11.7018
▁revising	-11.7019
▁unreasonable	-11.7019
▁equity	-11.7019
▁km	-11.7023
▁par	-11.7028
▁%.	-11.7029
▁traders	-11.7032
▁influenced	-11.7032
mouth	-11.7037
▁angola	-11.7043
▁protective	-11.7047
▁catastrophic	-11.707
▁deputy	-11.707
▁malmström	-11.707
▁notwithstanding	-11.707
▁broadband	-11.707
▁inhumane	-11.7071
▁engine	-11.7075
▁directors	-11.7077
▁limitation	-11.7077
▁embark	-11.7089
▁corrupt	-11.7089
▁bought	-11.7096
▁square	-11.7098
▁reflecting	-11.7101
▁honoured	-11.7106
▁hot	-11.7109
▁2015	-11.7111
▁checking	-11.7118
▁remembered	-11.7119
▁explore	-11.7121
▁mortality	-11.7122
▁invasion	-11.7122
▁shorter	-11.7133
▁nets	-11.7134
bg	-11.7136
▁attending	-11.7146
▁embryos	-11.7146
▁robert	-11.7148
▁labelled	-11.7149
▁labels	-11.7151
▁underestimate	-11.7152
▁king	-11.7159
▁sorts	-11.7165
▁tighten	-11.7168
▁accede	-11.7173
▁reveal	-11.7173
▁selective	-11.7174
▁dark	-11.7174
▁engaging	-11.7174
▁uncontrolled	-11.7175
▁courses	-11.7182
developed	-11.7188
▁endanger	-11.7194
▁bonino	-11.7201
▁controversy	-11.7201
▁daphne	-11.7201
▁remuneration	-11.7201
▁resolutely	-11.7201
▁consist	-11.7226
▁yield	-11.7226
▁belgrade	-11.7227
▁misery	-11.7227
▁stepped	-11.7227
▁credits	-11.7228
▁warnings	-11.723
▁violate	-11.7231
▁sacrifice	-11.7231
▁premium	-11.7233
▁formulation	-11.7233
▁improves	-11.7241
um	-11.7242
▁feasibility	-11.7253
▁sharon	-11.7253
▁mediation	-11.7253
▁nonsense	-11.7253
▁childcare	-11.7253
▁student	-11.7259
▁arena	-11.7276
▁47	-11.7278
▁azores	-11.728
▁gonzález	-11.728
▁breakdown	-11.728
▁contaminated	-11.728
▁cox	-11.7281
ch	-11.7283
▁1996.	-11.7303
▁distinct	-11.7305
▁devise	-11.7305
▁investigating	-11.7306
▁josé	-11.7306
▁visiting	-11.7308
be	-11.731
▁cypriots	-11.7311
▁alia	-11.7313
▁cup	-11.7318
▁pen	-11.732
▁meal	-11.7322
democratic	-11.7322
▁grasp	-11.7326
▁headings	-11.733
▁assert	-11.7331
▁neutrality	-11.7333
▁loud	-11.7334
▁submission	-11.734
▁strip	-11.7347
▁reciprocal	-11.7358
▁arriving	-11.7359
ment	-11.7365
▁manufacturer	-11.7366
▁rio	-11.7368
▁authoritarian	-11.7374
▁contracting	-11.7376
▁renewables	-11.7376
▁bombs	-11.7379
▁clubs	-11.7385
▁bomb	-11.7386
▁fragmentation	-11.7386
▁foreseen	-11.7386
▁dollars	-11.739
▁copy	-11.7408
▁religions	-11.741
▁combining	-11.7412
▁enemy	-11.7412
▁headquarters	-11.7413
▁75%	-11.7413
▁extends	-11.7415
▁onwards	-11.7417
▁interaction	-11.7419
▁eating	-11.742
▁fostering	-11.7423
if	-11.7424
▁assigned	-11.7424
▁52	-11.7432
▁rebuild	-11.7435
(	-11.7435
▁sittings	-11.7438
▁bay	-11.7439
▁fontaine	-11.7439
▁saudi	-11.7439
▁documentation	-11.7441
▁belarusian	-11.7447
▁8,	-11.745
first	-11.7459
▁hamper	-11.7464
▁disgrace	-11.7466
▁ancient	-11.7466
▁byrne	-11.7466
▁petrol	-11.7466
age	-11.7471
▁legislator	-11.7476
▁sessions	-11.7477
board	-11.7478
]	-11.748
▁regain	-11.7486
▁arafat	-11.7493
▁cardiff	-11.7493
▁mandelson	-11.7493
▁rice	-11.7493
▁varied	-11.7493
▁smoothly	-11.7495
▁congratulated	-11.7497
▁epp	-11.7498
▁preconditions	-11.7509
▁verify	-11.7515
▁ultra	-11.752
▁conceal	-11.752
▁realize	-11.7521
▁diesel	-11.7521
▁desperately	-11.7521
▁civilised	-11.7523
▁villages	-11.7528
▁electric	-11.7531
▁renew	-11.7541
▁counts	-11.7544
ling	-11.7545
▁wogau	-11.7547
▁weakest	-11.7548
▁posting	-11.7551
▁objectively	-11.7554
▁temptation	-11.7554
▁coin	-11.7563
▁adopts	-11.7568
▁stimulus	-11.7574
▁entrusted	-11.7576
▁shock	-11.7576
▁vaccines	-11.758
▁employer	-11.7583
▁referenda	-11.7602
▁readily	-11.7602
▁149)	-11.7605
▁tongue	-11.7609
▁younger	-11.7614
ise	-11.7618
▁atrocities	-11.7629
▁licensing	-11.7629
▁oostlander	-11.7629
▁updating	-11.7629
▁legislature	-11.7637
▁performing	-11.7638
▁fed	-11.764
▁spheres	-11.7654
▁colonial	-11.7654
▁bangladesh	-11.7655
▁fragmented	-11.7657
▁da	-11.7657
rapporteur	-11.7657
▁suited	-11.766
▁calculation	-11.7665
▁standpoint	-11.7665
life	-11.7675
▁?	-11.7678
▁allocating	-11.7684
▁commendable	-11.7685
▁cure	-11.7691
▁realisation	-11.7691
▁moroccan	-11.7692
▁stone	-11.7692
▁interpreters	-11.7693
▁experiments	-11.7698
▁lama	-11.7709
law	-11.771
▁arguing	-11.7711
▁auspices	-11.7711
▁evasion	-11.7711
▁injuries	-11.7711
▁manufactured	-11.7713
▁organisational	-11.7719
▁landscape	-11.772
▁immigrant	-11.772
▁functional	-11.7725
▁negotiators	-11.7729
five	-11.7732
▁zu	-11.7732
▁51	-11.7736
▁gnp	-11.7739
▁evans	-11.7739
▁distort	-11.7741
▁novel	-11.7741
▁elite	-11.7748
▁deeds	-11.7748
▁revenues	-11.7759
▁seed	-11.7762
▁fatal	-11.7766
▁aforementioned	-11.7767
▁medina	-11.7767
▁resignation	-11.7767
▁generating	-11.7768
▁boat	-11.7777
▁130	-11.7782
▁dealings	-11.7788
▁inconsistent	-11.7793
▁unconditional	-11.7793
▁disgraceful	-11.7793
▁rothley	-11.7795
▁fulfilment	-11.7795
▁neoliberal	-11.7796
▁displayed	-11.7797
▁protects	-11.7797
▁factory	-11.7805
▁heat	-11.7811
liberal	-11.7814
▁premiums	-11.7816
▁solar	-11.7822
▁statutory	-11.7822
▁alzheimer	-11.7822
▁delegated	-11.7824
▁unequivocally	-11.7824
▁defines	-11.7828
▁cite	-11.783
▁biometric	-11.7831
▁images	-11.7831
▁reservation	-11.7831
▁spot	-11.7834
▁canary	-11.7848
▁smoke	-11.7849
▁obama	-11.785
▁temporarily	-11.785
ivoire	-11.785
▁ozone	-11.785
▁conflicting	-11.7851
▁decisively	-11.7857
▁exploiting	-11.7862
▁endorses	-11.7877
▁cologne	-11.7878
▁intimidation	-11.7878
▁reinforcement	-11.7879
▁overlooked	-11.7881
▁certificates	-11.7883
▁shop	-11.7889
aside	-11.7894
compliance	-11.7899
▁penal	-11.7906
▁adhered	-11.7909
▁passports	-11.7914
case	-11.7921
▁deprive	-11.7926
▁vi	-11.7933
▁conformity	-11.7935
▁discriminated	-11.7935
▁l	-11.7937
▁finalised	-11.7938
▁horse	-11.7945
ant	-11.795
▁automotive	-11.7963
▁insistence	-11.7963
▁cleaner	-11.7972
▁leap	-11.7972
▁operator	-11.7973
▁dictatorships	-11.7976
decision	-11.7983
▁galicia	-11.7991
▁11.30	-11.7991
▁malaria	-11.7991
▁churches	-11.7992
▁cell	-11.7993
▁warned	-11.7995
▁heating	-11.7998
▁thresholds	-11.8004
▁reaches	-11.8005
▁calculations	-11.8011
▁bulk	-11.802
▁calendar	-11.802
▁obsolete	-11.802
▁speculative	-11.802
▁lulling	-11.802
▁infected	-11.802
▁illnesses	-11.8021
▁worsening	-11.8022
▁emphasized	-11.8023
▁ce	-11.8024
▁parental	-11.8025
▁reasoning	-11.8028
▁ballot	-11.8029
▁arm	-11.8044
behrendt	-11.8048
▁incineration	-11.8049
▁correction	-11.8072
▁moments	-11.8076
▁legacy	-11.8077
▁bourlanges	-11.8077
▁cited	-11.8079
▁chaired	-11.8084
▁confrontation	-11.8087
▁dell	-11.8087
▁studying	-11.8105
▁uclaf	-11.8105
▁wondering	-11.8105
▁tsunami	-11.8106
▁relatives	-11.8106
▁personality	-11.8107
▁gathered	-11.8108
▁accorded	-11.8108
▁speeding	-11.8109
▁file	-11.8115
▁safely	-11.8115
▁window	-11.8116
▁forty	-11.8116
▁forwarded	-11.8117
▁9,	-11.8128
▁loopholes	-11.8128
▁brave	-11.8132
(1)	-11.8134
▁chairmen	-11.8135
▁sulphur	-11.8135
▁impacts	-11.814
il	-11.8142
▁expectation	-11.8147
▁explains	-11.8154
▁prerogatives	-11.8157
ten	-11.8161
▁rwanda	-11.8161
▁mauritania	-11.8162
▁uzbekistan	-11.8163
▁famine	-11.8163
▁refuge	-11.8171
▁disappearance	-11.8174
▁machine	-11.8174
▁predict	-11.8185
▁construct	-11.8185
▁inspiration	-11.8191
▁dynamism	-11.8192
▁côte	-11.8192
▁habits	-11.8194
▁subscribe	-11.8201
▁withdrawing	-11.821
▁merkel	-11.8221
▁sierra	-11.8221
▁1970	-11.8221
▁modulation	-11.8221
▁slightest	-11.8221
▁buses	-11.8222
▁principally	-11.8224
▁afforded	-11.8228
▁frame	-11.8232
▁ideals	-11.8244
▁vacuum	-11.825
▁convenience	-11.825
▁profitability	-11.825
▁skilled	-11.8253
▁cia	-11.8254
▁ecr	-11.8255
▁versions	-11.8261
▁wrongly	-11.8264
land	-11.8265
▁gathering	-11.8267
parliamentary	-11.8272
▁modify	-11.8274
▁cohesive	-11.8279
▁juncker	-11.8279
▁superfluous	-11.8279
▁friendship	-11.8279
▁mulder	-11.8279
▁destructive	-11.8279
▁holdings	-11.8281
▁gold	-11.8281
▁balances	-11.8282
minded	-11.8283
▁characteristic	-11.8291
ri	-11.8295
▁amounting	-11.8297
point	-11.8305
▁backdrop	-11.8308
▁coelho	-11.8308
▁extraordinarily	-11.8308
▁athens	-11.8308
▁urges	-11.8313
▁reads	-11.8318
▁condemns	-11.8319
▁envoy	-11.832
▁cluster	-11.832
cos	-11.8325
ian	-11.8329
▁juncture	-11.8338
▁literally	-11.8338
▁scoreboard	-11.8338
▁escalation	-11.8338
▁keeps	-11.8339
▁lowering	-11.8347
financial	-11.836
▁yemen	-11.8365
▁impartial	-11.8366
▁prudent	-11.8366
▁synergies	-11.8367
▁undesirable	-11.8367
▁nabucco	-11.8367
▁foreseeable	-11.8367
▁overdue	-11.8368
▁advised	-11.8369
▁se	-11.837
▁beliefs	-11.8377
▁verdict	-11.8379
▁constructively	-11.8379
▁drain	-11.8392
▁precious	-11.8396
▁unchanged	-11.8397
▁multilingualism	-11.8397
▁milestone	-11.8409
▁finger	-11.8409
▁brain	-11.841
▁enjoys	-11.8415
long	-11.8417
▁transpose	-11.8425
▁jordan	-11.8426
▁burundi	-11.8426
▁ankara	-11.8426
▁enforcing	-11.8426
▁garcía	-11.8426
▁dropped	-11.8426
▁maize	-11.8426
▁reduces	-11.8427
▁modifications	-11.8428
▁ages	-11.8428
ists	-11.8429
▁respectively	-11.843
▁encounter	-11.8431
▁trips	-11.8433
▁peacefully	-11.8435
▁algerian	-11.8439
▁deepen	-11.845
ized	-11.8452
▁decoupling	-11.8456
▁kazakhstan	-11.8456
▁hedge	-11.8457
▁reminding	-11.8466
▁toll	-11.8467
▁possession	-11.8468
▁marriage	-11.8468
▁ceilings	-11.8469
national	-11.847
▁web	-11.8473
▁1.5	-11.8475
▁unwilling	-11.8485
▁salmon	-11.8485
▁modernising	-11.8487
▁storm	-11.8499
▁hesitate	-11.8514
▁exacerbate	-11.8514
▁bösch	-11.8515
▁beneficiary	-11.8515
▁conferred	-11.8516
▁stopping	-11.8516
▁accelerated	-11.8517
▁tolerated	-11.8518
▁langen	-11.8518
▁exchang	-11.8522
▁continents	-11.8523
▁abandoning	-11.8527
▁extremist	-11.8529
▁relocations	-11.853
south	-11.8538
▁ally	-11.8538
▁chirac	-11.8545
▁demonstrators	-11.8545
▁yourselves	-11.8545
▁albanians	-11.8548
▁continuously	-11.8548
▁nobel	-11.8548
▁croatian	-11.8556
▁dozens	-11.8573
▁connect	-11.8573
▁dividing	-11.8575
▁florenz	-11.8575
▁observance	-11.8576
▁executed	-11.8576
▁hearts	-11.8581
▁varying	-11.8583
▁blackmail	-11.8599
▁optional	-11.8605
plath	-11.8605
▁poles	-11.862
▁restraint	-11.862
ization	-11.8621
commerce	-11.8628
▁agri	-11.863
▁imply	-11.8631
▁outrageous	-11.8634
▁mutilation	-11.8636
▁randzio	-11.8636
▁redistribution	-11.8636
▁offset	-11.8636
▁racial	-11.8636
▁54	-11.8639
▁beforehand	-11.8642
▁questioned	-11.8651
▁imposes	-11.8662
▁observing	-11.8666
▁rübig	-11.8666
▁coincidence	-11.8666
▁nielson	-11.8666
▁liberalising	-11.8668
▁reaffirmed	-11.8669
▁pupils	-11.8673
▁targeting	-11.8677
▁appearance	-11.868
▁trap	-11.8683
▁velzen	-11.8696
▁frequency	-11.8697
▁justifies	-11.8697
▁corresponds	-11.8697
▁generalised	-11.8701
▁drink	-11.8705
▁termed	-11.871
me	-11.8713
political	-11.8718
▁gear	-11.872
▁capitals	-11.8722
▁virtual	-11.8726
▁dalai	-11.8727
j	-11.8731
▁forecast	-11.8736
▁describes	-11.8742
▁publicity	-11.8742
▁rulings	-11.8743
▁53	-11.8754
▁incumbent	-11.8757
▁kyi	-11.8758
▁accomplished	-11.8759
ka	-11.876
▁historically	-11.8764
▁waterways	-11.8764
▁accommodate	-11.877
▁1991	-11.8774
▁bonds	-11.8786
ul	-11.8787
▁influx	-11.8787
▁traffickers	-11.8788
▁foreigners	-11.8801
▁mafia	-11.8803
▁odds	-11.8804
▁beg	-11.8805
▁named	-11.8806
market	-11.8812
▁tendencies	-11.8819
▁unstable	-11.8819
▁castro	-11.882
▁liberalised	-11.8821
▁grips	-11.8822
▁accurately	-11.8822
▁endless	-11.8823
▁realism	-11.8826
▁assisted	-11.883
▁odd	-11.8832
▁pledge	-11.8833
▁regrets	-11.8835
▁quest	-11.885
▁commodities	-11.885
▁frozen	-11.885
balanced	-11.8852
▁2012.	-11.8859
▁command	-11.8864
▁relaunch	-11.8874
▁asbestos	-11.8881
▁arose	-11.8881
▁leonardo	-11.8881
▁polluting	-11.8882
▁premises	-11.8888
▁plea	-11.8893
▁responds	-11.8897
▁federalist	-11.8908
▁ball	-11.891
▁quiet	-11.891
▁manipulation	-11.8912
▁sudanese	-11.8912
▁shipowners	-11.8915
▁sanction	-11.8921
▁nutrition	-11.8926
▁56	-11.8926
▁portfolio	-11.8927
▁experiment	-11.8928
he	-11.8929
▁importing	-11.8932
▁importers	-11.8933
herzegovina	-11.8936
ve	-11.8938
▁confuse	-11.8941
▁illicit	-11.8943
▁ecsc	-11.8943
▁equip	-11.8953
▁murders	-11.8954
▁recommending	-11.8962
▁exciting	-11.8974
▁suu	-11.8974
▁cancelled	-11.8974
▁hunting	-11.8977
ful	-11.8979
▁norms	-11.8979
▁circles	-11.8983
▁incomplete	-11.8984
▁reimbursement	-11.8989
▁recipient	-11.899
▁lithuanian	-11.8992
▁georgian	-11.8993
▁questioning	-11.8998
▁ind	-11.9
▁acknowledging	-11.9005
▁verhofstadt	-11.9005
▁plight	-11.9006
▁tropical	-11.9006
▁practised	-11.9007
▁specialists	-11.9018
▁unaware	-11.9018
▁indicator	-11.9022
▁herman	-11.9031
▁unlawful	-11.9036
▁ambiguous	-11.9037
▁barbaric	-11.9037
▁confidential	-11.9037
▁fyrom	-11.9038
▁penalised	-11.9038
▁persuaded	-11.904
▁tightening	-11.9043
▁don	-11.9051
▁gmo	-11.9055
thirds	-11.906
▁suppose	-11.9068
▁super	-11.9074
ies	-11.9075
▁41	-11.9083
▁hesitation	-11.9084
▁retaining	-11.9091
producing	-11.9092
▁freeze	-11.9092
▁anxiety	-11.91
▁pregnant	-11.91
▁approximation	-11.91
▁interreg	-11.91
▁lebanese	-11.91
▁supporter	-11.9111
▁prioritise	-11.9115
▁shops	-11.9121
▁rests	-11.9124
▁rush	-11.9125
efficient	-11.9133
▁hydrogen	-11.9133
▁profoundly	-11.9135
▁continental	-11.9136
▁closest	-11.914
▁proportions	-11.9141
▁comprehensible	-11.9146
▁recipients	-11.9148
▁corporations	-11.9158
▁blatant	-11.9163
▁populated	-11.9165
▁altered	-11.9167
▁fifthly	-11.9168
▁undergoing	-11.9173
ad	-11.9184
▁reminder	-11.9189
▁drift	-11.9191
▁hectares	-11.9194
▁ict	-11.9194
▁discrepancies	-11.9196
▁satisfactorily	-11.9196
▁unavoidable	-11.9196
▁prompted	-11.9199
▁aung	-11.9204
over	-11.9205
▁whoever	-11.9207
▁bloc	-11.9212
▁derive	-11.9212
▁phone	-11.9214
specific	-11.922
▁theoretical	-11.9227
▁usefulness	-11.9231
development	-11.925
▁arabia	-11.9254
▁enthusiastic	-11.9256
▁inventions	-11.9257
▁wales	-11.9258
▁secular	-11.926
▁optimum	-11.926
▁ortega	-11.926
▁exacerbated	-11.9261
▁underestimated	-11.9262
▁indonesian	-11.9263
▁58	-11.9265
▁rooted	-11.9268
new	-11.9272
▁score	-11.9276
▁concur	-11.9277
▁egyptian	-11.9278
▁homeland	-11.9278
▁bali	-11.9284
▁possess	-11.9284
▁obesity	-11.9292
▁dimas	-11.9292
▁varies	-11.9292
▁seafarers	-11.9294
▁feedingstuffs	-11.9295
▁shortages	-11.9298
▁returns	-11.93
risk	-11.9305
▁households	-11.9306
▁insists	-11.9306
▁relying	-11.9308
▁designation	-11.931
▁tactics	-11.9312
▁bombing	-11.9316
designate	-11.9318
▁reluctant	-11.9323
▁intensified	-11.9324
▁thailand	-11.9324
▁convicted	-11.9325
▁balancing	-11.9325
▁unsustainable	-11.9325
ry	-11.9336
▁shed	-11.9343
▁85	-11.9348
ability	-11.935
▁desertification	-11.9357
▁liquidity	-11.9357
▁output	-11.9359
▁tenth	-11.9365
▁winners	-11.9369
▁systemic	-11.9374
▁catholic	-11.9375
▁habitats	-11.9377
▁corridors	-11.9387
▁divorce	-11.9388
▁celebrating	-11.9389
▁sterckx	-11.9389
▁honey	-11.939
▁baby	-11.939
▁signatories	-11.939
▁delaying	-11.9401
▁champion	-11.9406
▁format	-11.9407
▁favours	-11.9412
▁pretend	-11.9417
▁expressions	-11.9422
▁undertook	-11.9422
▁unnecessarily	-11.9422
▁municipal	-11.9422
▁repatriation	-11.9422
▁consultative	-11.9422
▁orders	-11.9423
▁phased	-11.9432
▁overnight	-11.9456
▁bathing	-11.9456
▁degrees	-11.9457
▁exceeding	-11.9464
▁notified	-11.9469
▁dilemma	-11.9473
▁skill	-11.9477
annual	-11.948
▁broaden	-11.9483
▁protocols	-11.9484
pe	-11.9484
▁exhaustive	-11.9487
▁advisable	-11.9488
▁deforestation	-11.9488
▁destiny	-11.9488
▁criticising	-11.9488
▁reintegration	-11.9488
▁holders	-11.9488
▁unreservedly	-11.9488
▁originating	-11.9488
▁reap	-11.9488
▁combated	-11.9489
▁bargaining	-11.949
▁fat	-11.9495
▁operated	-11.9499
▁interpretations	-11.9502
▁endeavouring	-11.9503
▁emerges	-11.9503
▁household	-11.9507
▁ecosystem	-11.9507
food	-11.9512
▁representations	-11.9513
▁feeding	-11.9516
member	-11.9518
▁confusing	-11.9521
▁schreyer	-11.9521
▁freezing	-11.9521
▁esteem	-11.9522
▁surpluses	-11.9523
▁tougher	-11.9523
▁journeys	-11.9524
▁widening	-11.9524
▁supplying	-11.9529
▁basin	-11.9537
▁authorise	-11.9539
▁generic	-11.954
▁recalled	-11.9546
▁harmonious	-11.9553
▁baringdorf	-11.9554
▁broek	-11.9554
▁pertinent	-11.9554
▁turnover	-11.9556
▁interior	-11.9562
▁publishing	-11.9564
decentralisation	-11.9565
▁practise	-11.9572
▁outcomes	-11.9581
▁rectify	-11.9582
▁exporters	-11.9583
▁deplorable	-11.9587
▁lamfalussy	-11.9587
▁stabilising	-11.9587
▁rocard	-11.9587
▁referral	-11.9587
▁policing	-11.9587
▁drastically	-11.9587
▁devised	-11.9589
▁bloody	-11.959
▁supplemented	-11.9591
▁separated	-11.9598
needed	-11.9613
▁steady	-11.9621
▁eurodac	-11.9621
▁nationalist	-11.9621
▁detainees	-11.9623
ma	-11.9623
▁lakes	-11.9634
▁unjust	-11.9653
established	-11.9654
▁credentials	-11.9654
▁irreversible	-11.9654
▁wynn	-11.9654
▁transmitted	-11.9654
▁justifiable	-11.9655
▁endangered	-11.9657
▁travellers	-11.9663
▁upholding	-11.9666
▁insult	-11.9667
▁useless	-11.9669
▁illusion	-11.9674
▁corner	-11.9675
▁2011,	-11.9677
▁crucially	-11.9681
▁liberalise	-11.9687
▁resettlement	-11.9688
▁cigarettes	-11.9688
▁touches	-11.969
▁mobilised	-11.969
▁expulsion	-11.9708
▁passage	-11.9708
fire	-11.9711
financing	-11.9712
growing	-11.9713
▁emotional	-11.9721
▁kaliningrad	-11.9721
▁karas	-11.9724
▁hopeful	-11.9726
▁rebuilding	-11.9729
▁leone	-11.9732
▁recitals	-11.9734
▁appealing	-11.9737
▁metres	-11.9737
▁dossiers	-11.9742
2/	-11.9749
▁glass	-11.9754
▁complies	-11.9755
▁graefe	-11.9755
▁mitchell	-11.9755
▁attendance	-11.9755
▁multilateralism	-11.9756
▁outdated	-11.9756
▁fortunate	-11.9788
▁patterns	-11.9789
▁deteriorating	-11.9789
▁imagination	-11.9789
▁uncertainties	-11.9789
▁senate	-11.9789
▁exerted	-11.9794
▁disruption	-11.981
track	-11.9811
▁pockets	-11.9811
▁inefficient	-11.9812
keeping	-11.9813
▁distribute	-11.9822
▁reconciling	-11.9823
▁bankruptcy	-11.9823
▁native	-11.9823
▁noble	-11.9824
hour	-11.9825
▁seized	-11.9826
▁tends	-11.9829
men	-11.9837
evident	-11.9849
nordic	-11.985
▁oversight	-11.9857
▁stories	-11.9857
▁unfounded	-11.9858
▁adjusted	-11.9861
▁filled	-11.9862
▁cosmetics	-11.9865
▁sounds	-11.9877
▁eta	-11.9882
▁qualify	-11.9887
▁seconds	-11.9888
▁suffice	-11.989
▁berès	-11.9891
▁vigilance	-11.9891
▁impressed	-11.9892
▁grey	-11.9892
▁occasionally	-11.9893
▁confirming	-11.9893
▁scientifically	-11.9893
▁titley	-11.9894
euro	-11.9899
▁awarding	-11.9899
▁57	-11.9899
ti	-11.99
▁ratifying	-11.9909
▁winner	-11.9914
▁marginal	-11.9915
▁resolute	-11.9924
▁catalogue	-11.9926
▁compensator	-11.9926
▁seattle	-11.9926
▁violating	-11.9926
▁vigo	-11.9926
▁origins	-11.9927
▁13,	-11.9929
▁provider	-11.993
▁soya	-11.9931
):	-11.9943
▁cancellation	-11.9948
▁slogan	-11.9948
sharing	-11.9953
▁teach	-11.9956
▁ascertain	-11.9956
▁discourage	-11.9959
▁indifferent	-11.9976
".	-11.9976
▁infection	-11.9982
-03	-11.9989
▁coach	-11.9994
▁almunia	-11.9995
▁ambiguity	-11.9995
▁singapore	-11.9995
▁synthetic	-11.9995
▁voluntarily	-11.9995
▁entrepreneurial	-11.9995
▁kyrgyzstan	-11.9995
▁climatic	-11.9995
▁illustrated	-11.9997
▁educated	-11.9997
▁disregarded	-11.9999
0)	-12.0004
▁suffers	-12.0006
ur	-12.0008
ging	-12.002
▁landfill	-12.0023
▁rivers	-12.0023
west	-12.0028
▁mitigate	-12.0028
▁despair	-12.0029
▁expectancy	-12.0029
▁hautala	-12.0029
▁gatt	-12.0029
▁mobilising	-12.003
▁vain	-12.003
▁pledged	-12.0031
▁distorted	-12.0032
▁attacking	-12.0033
▁germans	-12.0043
▁edge	-12.0051
▁massacre	-12.0051
▁motivation	-12.0052
▁blockade	-12.0052
▁seeds	-12.0054
benefit	-12.0057
▁11,	-12.0059
▁lampedusa	-12.0064
▁vicious	-12.0064
▁batteries	-12.0064
▁illustration	-12.0064
▁endorsement	-12.0065
▁progressing	-12.0068
▁transformed	-12.0068
existent	-12.0069
▁facilitated	-12.0077
ns	-12.0081
▁lively	-12.0087
▁tunisian	-12.0089
increasing	-12.0092
▁blokland	-12.0099
▁generosity	-12.0099
▁interfering	-12.0099
▁unrest	-12.01
▁prescribed	-12.01
▁backs	-12.0102
▁evaluations	-12.0105
▁tickets	-12.0111
▁forgive	-12.0113
▁render	-12.0116
▁automobile	-12.0122
▁constituent	-12.0123
▁qualification	-12.0123
▁season	-12.0123
▁accessing	-12.0141
▁canadian	-12.0158
▁shot	-12.0158
▁u	-12.0169
▁oslo	-12.017
▁saturday	-12.017
▁preceded	-12.017
▁breaks	-12.0176
war	-12.0178
▁63	-12.0188
▁ticket	-12.0189
▁abkhazia	-12.02
▁hierarchy	-12.0205
▁hostile	-12.0205
▁cashman	-12.0205
▁differentiated	-12.0207
▁grassroots	-12.0208
▁master	-12.0209
▁universally	-12.0214
▁overly	-12.0215
lo	-12.0218
▁spouses	-12.0219
▁scandals	-12.0222
eastern	-12.0233
private	-12.0233
▁accommodation	-12.024
▁inquiries	-12.024
▁postponing	-12.024
▁volatility	-12.024
▁suppression	-12.024
▁catalyst	-12.024
▁jewish	-12.0241
▁preventative	-12.0241
▁unused	-12.0242
▁greenland	-12.0242
▁subsidised	-12.0242
▁rigorously	-12.0244
▁wealthy	-12.0245
▁consisting	-12.0247
▁10,	-12.0248
▁staying	-12.0263
▁merger	-12.0265
▁occurrence	-12.0265
▁rethink	-12.0271
▁waves	-12.0273
going	-12.0273
▁ordered	-12.0275
▁destined	-12.0276
▁busy	-12.0278
▁films	-12.0292
▁ford	-12.0292
lv	-12.0294
ci	-12.0298
▁penalise	-12.0299
▁acquisition	-12.03
▁ossetia	-12.0305
▁polluter	-12.0306
▁occupy	-12.0307
▁degradation	-12.0312
▁equilibrium	-12.0312
▁impasse	-12.0312
▁liberation	-12.0312
▁reluctance	-12.0312
▁makers	-12.0312
▁elles	-12.0312
▁wallis	-12.0312
▁authorising	-12.0313
▁doubtless	-12.0325
▁envisages	-12.0325
▁aged	-12.033
establish	-12.0332
▁inspire	-12.0335
▁associate	-12.0335
social	-12.0337
▁differs	-12.0344
▁donations	-12.0344
▁aznar	-12.0347
▁likelihood	-12.0347
▁steadily	-12.0347
▁gbp	-12.0348
▁repetition	-12.0348
▁allegedly	-12.035
▁exit	-12.035
▁meaningless	-12.0355
▁outright	-12.0364
style	-12.0373
▁gebhardt	-12.0383
▁happily	-12.0383
▁inadmissible	-12.0383
▁intervening	-12.0383
▁bowis	-12.0384
▁percent	-12.0384
▁intermediate	-12.0384
▁quicker	-12.0385
▁undergo	-12.0387
▁lifestyle	-12.0411
▁curious	-12.0418
▁identifies	-12.042
▁jeopardising	-12.042
▁qualities	-12.042
▁daul	-12.042
ir	-12.0421
▁embarked	-12.0423
▁fluctuations	-12.0426
2)	-12.0441
▁incidence	-12.0445
▁customer	-12.0446
▁sacrifices	-12.0448
▁violates	-12.0448
▁surrender	-12.0454
▁kenya	-12.0454
▁depleted	-12.0456
▁marginalised	-12.0456
▁presently	-12.0456
▁conditionality	-12.0457
▁ignores	-12.0457
▁sacrificed	-12.0458
▁prevails	-12.0463
▁benchmarks	-12.0464
▁watered	-12.0469
▁colour	-12.0478
fraud	-12.0484
▁kashmir	-12.0484
amount	-12.0485
▁surveys	-12.0485
▁solvit	-12.0492
▁špidla	-12.0492
▁jackson	-12.0492
▁detected	-12.0494
▁plane	-12.0497
▁350	-12.05
▁headed	-12.051
▁sun	-12.0515
▁token	-12.0516
▁chechen	-12.0518
▁village	-12.0519
which	-12.0521
▁66	-12.0521
▁alexander	-12.0529
▁fischer	-12.0529
▁ignorance	-12.0529
▁pirker	-12.0529
▁prague	-12.0529
▁haug	-12.0529
▁standardised	-12.053
▁letting	-12.0536
▁hugely	-12.0549
▁dictate	-12.0554
▁mini	-12.0555
▁outlines	-12.0557
discriminatory	-12.0558
▁contributors	-12.0558
ill	-12.056
▁dwell	-12.056
▁doctrine	-12.0565
▁influenza	-12.0565
▁injury	-12.0565
▁laudable	-12.0565
▁differentiation	-12.0565
▁stupid	-12.0566
▁theato	-12.0567
▁absorb	-12.0577
▁appearing	-12.058
▁chronic	-12.0581
▁ranging	-12.0585
▁summarise	-12.059
▁cites	-12.0591
▁denial	-12.0592
▁motives	-12.0595
▁scenarios	-12.0597
troductory	-12.0602
▁dedication	-12.0602
▁starch	-12.0603
▁distances	-12.0607
▁progressively	-12.0607
▁logistics	-12.0608
▁tortured	-12.0608
ra	-12.0613
▁2.5	-12.0621
▁challenged	-12.0627
▁detect	-12.0632
▁fulfils	-12.0635
▁rompuy	-12.0639
▁undeclared	-12.0639
▁predictable	-12.0639
▁upcoming	-12.064
▁disciplinary	-12.0643
▁ice	-12.0647
▁bonn	-12.0648
▁forever	-12.0659
▁flu	-12.0667
▁acceding	-12.0676
▁complementarity	-12.0676
▁dignified	-12.0676
▁misgivings	-12.0676
▁inclined	-12.0676
▁argentina	-12.0676
effective	-12.0677
▁chiefly	-12.0678
▁ratings	-12.0678
▁allocations	-12.0687
▁mayor	-12.0696
▁shelter	-12.0698
▁forwards	-12.07
personnel	-12.0706
▁gradin	-12.0713
▁believing	-12.0713
▁globe	-12.0713
▁lannoye	-12.0713
▁pig	-12.0714
▁4%	-12.0715
▁globalization	-12.0716
▁midst	-12.0717
▁clinical	-12.072
▁mode	-12.0721
▁computers	-12.0728
▁heed	-12.0735
▁sand	-12.0736
▁ngo	-12.074
▁forums	-12.074
▁explosive	-12.0741
▁guideline	-12.0741
▁armenian	-12.0742
▁arrange	-12.0749
▁aftermath	-12.075
▁unsafe	-12.0751
▁grain	-12.0751
▁sexes	-12.0753
ba	-12.0755
▁intensively	-12.0755
▁tant	-12.0757
▁spiral	-12.0768
▁factual	-12.0788
▁collins	-12.0788
▁unhappy	-12.0788
▁abandonment	-12.0788
▁hiding	-12.0788
▁hungarians	-12.0792
▁2015.	-12.0804
▁develops	-12.0815
saharan	-12.0818
favoured	-12.0818
▁cynical	-12.0824
roots	-12.0825
▁annum	-12.0826
▁ashamed	-12.0826
▁comprising	-12.0826
▁identities	-12.0826
▁indignation	-12.0826
▁kallas	-12.0826
▁upgrading	-12.0826
▁devastated	-12.0826
▁revolutionary	-12.0826
▁twin	-12.0826
▁triggered	-12.0828
▁richer	-12.0829
▁annexes	-12.083
▁trip	-12.083
▁syrian	-12.0833
▁databases	-12.0843
▁horror	-12.0854
▁investor	-12.0856
▁staffing	-12.0858
▁clearing	-12.0858
▁upset	-12.0858
▁accompany	-12.0859
▁conduc	-12.0862
▁unexpected	-12.0862
▁cairo	-12.0863
▁composed	-12.0863
▁detection	-12.0863
▁predicted	-12.0866
▁wisely	-12.0867
▁inhuman	-12.0868
▁coordinators	-12.0874
10	-12.0876
▁59	-12.0879
▁directions	-12.0879
▁reward	-12.0886
▁lawmaking	-12.0891
▁premise	-12.0892
dumping	-12.0893
▁civic	-12.0901
▁declining	-12.0901
▁emergencies	-12.0901
▁fantastic	-12.0901
▁feira	-12.0901
▁inviting	-12.0901
▁mckenna	-12.0901
▁allotted	-12.0901
▁heartfelt	-12.0901
▁5.30	-12.0901
▁describing	-12.0901
▁burning	-12.0903
▁communicated	-12.0905
▁1995.	-12.0911
▁wellbeing	-12.0918
▁answering	-12.0921
elected	-12.0927
▁supplier	-12.0931
▁cosmetic	-12.0931
nationalisation	-12.0936
▁cancel	-12.0939
▁advancing	-12.0939
▁erosion	-12.0939
▁denominator	-12.0939
▁attributed	-12.094
▁munitions	-12.094
▁fronts	-12.0941
▁elect	-12.0948
▁pigs	-12.0949
▁rolling	-12.0954
▁nomination	-12.0969
▁trigger	-12.097
▁mature	-12.0976
▁bitter	-12.0976
▁savary	-12.0977
▁shopping	-12.0978
▁plainly	-12.098
▁livelihoods	-12.0981
mr	-12.0983
▁platforms	-12.0985
so	-12.099
▁massacres	-12.0991
▁journal	-12.0997
▁coasts	-12.0998
▁broadcast	-12.1002
▁seal	-12.1009
▁killings	-12.1009
▁reinforces	-12.101
▁sheet	-12.1012
▁capture	-12.1014
▁appointments	-12.1016
▁tiny	-12.1016
▁intensity	-12.1016
▁scepticism	-12.1017
▁volumes	-12.1025
▁benchmark	-12.1041
▁rises	-12.1043
▁liais	-12.1046
▁vaccine	-12.1046
▁backward	-12.1046
▁pleasant	-12.1053
▁mismanagement	-12.1054
▁nassauer	-12.1054
▁cleansing	-12.1054
▁tempted	-12.1054
▁consumed	-12.1055
▁richest	-12.1056
▁stored	-12.1056
▁critics	-12.106
▁timetables	-12.1061
▁changeover	-12.1062
▁110	-12.1073
▁consume	-12.1082
▁butter	-12.1083
▁trees	-12.1086
▁reactor	-12.1086
▁waterway	-12.1087
▁fraudulent	-12.1092
▁routine	-12.1092
▁artistic	-12.1093
▁homosexuals	-12.1093
▁objects	-12.1094
▁doubtful	-12.1094
▁doubled	-12.1102
á	-12.1104
▁shores	-12.1114
mail	-12.1116
▁fits	-12.1118
▁enlarge	-12.1121
▁taste	-12.1125
▁guatemala	-12.1131
▁fundamentalist	-12.1131
▁achievable	-12.1131
▁stuck	-12.1131
▁unlimited	-12.1132
▁absorption	-12.1132
▁asem	-12.1133
▁forcefully	-12.1133
▁couples	-12.1134
▁steering	-12.1136
▁prevailed	-12.1137
▁nuts	-12.1143
▁locations	-12.1145
▁y	-12.1163
▁curtain	-12.117
▁successor	-12.1171
▁unregulated	-12.1171
▁headway	-12.1171
▁leinen	-12.1171
▁dragg	-12.1181
▁62	-12.1186
▁joy	-12.1191
▁feared	-12.1198
▁embrace	-12.12
▁insight	-12.1201
▁risky	-12.1202
▁contemporary	-12.1209
▁moderation	-12.1209
handed	-12.121
▁panic	-12.121
▁passes	-12.1216
▁civilisations	-12.123
5-02	-12.1237
▁patenting	-12.1239
ca	-12.124
▁craft	-12.124
▁lord	-12.1241
▁steer	-12.1242
▁polls	-12.1243
▁timeframe	-12.1244
▁lange	-12.1244
▁holidays	-12.1248
▁undeniable	-12.1249
izing	-12.1249
▁channelled	-12.1249
▁fao	-12.1251
io	-12.1253
▁bi	-12.1259
▁transparently	-12.1264
▁miles	-12.1265
▁establishments	-12.1271
▁avail	-12.1274
▁walls	-12.1282
▁comprises	-12.1282
▁paradox	-12.1287
▁izquierdo	-12.1288
▁junta	-12.1288
▁tripartite	-12.1288
▁unduly	-12.1288
▁motto	-12.1288
▁branch	-12.1288
▁militarisation	-12.1288
-04	-12.1288
▁fusion	-12.1289
▁coupled	-12.1295
▁anger	-12.1297
(2001)	-12.1308
▁ko	-12.1309
▁ring	-12.1309
▁stamp	-12.1314
▁seminar	-12.1319
ethnic	-12.132
▁certificate	-12.1321
speaking	-12.1321
▁dictators	-12.1323
▁elaborate	-12.1326
▁haarder	-12.1328
▁irrelevant	-12.1328
▁preamble	-12.1328
▁advantageous	-12.1328
▁acknowledgement	-12.1328
▁fitting	-12.1329
unterproductive	-12.1333
▁derivatives	-12.1338
active	-12.1343
▁shifting	-12.1344
▁provocation	-12.136
▁bridges	-12.136
▁audits	-12.1363
▁crowley	-12.1367
▁ludford	-12.1367
▁adherence	-12.1367
▁ε	-12.1368
▁bordering	-12.1369
▁administered	-12.1369
▁indifference	-12.137
▁broke	-12.1371
▁mountains	-12.1372
▁awful	-12.1373
▁helms	-12.1383
▁convert	-12.1399
▁pertain	-12.1402
▁eventual	-12.1406
▁flagrant	-12.1406
▁gene	-12.1406
▁genital	-12.1407
▁morillon	-12.1407
▁proximity	-12.1407
▁lorry	-12.1407
▁naval	-12.1407
▁situated	-12.1407
▁deaf	-12.1407
▁roughly	-12.1408
▁arranged	-12.1409
▁wipe	-12.1409
▁traps	-12.1429
▁ranks	-12.1431
▁tankers	-12.1438
raising	-12.1438
▁deploy	-12.144
▁enjoying	-12.1442
▁enemies	-12.1447
▁howitt	-12.1447
01	-12.145
▁supplements	-12.1465
▁classic	-12.1468
productive	-12.1471
▁suspects	-12.1473
▁video	-12.148
▁fix	-12.148
▁paul	-12.1486
▁crude	-12.1487
▁libraries	-12.1487
▁dührkop	-12.1487
▁remedies	-12.1487
▁categorically	-12.1488
▁utilisation	-12.1488
▁norm	-12.1494
▁employing	-12.1497
▁cows	-12.1503
▁machines	-12.1512
▁epas	-12.1518
▁clash	-12.1525
▁purchases	-12.1526
▁magnificent	-12.1526
▁distress	-12.1526
▁airbus	-12.1528
▁tajani	-12.1528
▁carcinogenic	-12.1528
▁therapeutic	-12.1528
▁generates	-12.1528
▁clashes	-12.1528
▁witnesses	-12.153
▁fingerprints	-12.1534
▁hans	-12.1546
▁concession	-12.1562
▁malaysia	-12.1567
▁mistrust	-12.1568
▁doyle	-12.1568
▁expiry	-12.1568
▁horrific	-12.1568
▁salafranca	-12.1568
▁registers	-12.1575
▁constitutions	-12.1576
china	-12.1594
▁trace	-12.1601
▁temperature	-12.1603
▁tables	-12.1604
▁breathe	-12.1606
▁incorporates	-12.1606
▁bankrupt	-12.1609
▁cocoa	-12.1609
▁unthinkable	-12.1609
▁veal	-12.1609
▁monnet	-12.1609
▁fatuzzo	-12.1609
▁esdp	-12.1609
▁travelled	-12.161
ck	-12.161
▁constructed	-12.1612
▁smallest	-12.1621
▁discards	-12.1625
▁mess	-12.1625
3)	-12.1631
▁pandemic	-12.1643
ever	-12.1645
▁clinton	-12.165
▁cargo	-12.165
▁preferably	-12.165
▁branches	-12.165
▁eminent	-12.1651
▁dayton	-12.1651
▁favourably	-12.1652
▁jews	-12.1654
▁levelled	-12.1659
▁soul	-12.1667
▁economics	-12.168
carbon	-12.1683
▁reopen	-12.1684
▁dioxin	-12.1685
▁select	-12.1685
▁turkmenistan	-12.1691
▁codification	-12.1691
▁vulnerability	-12.1691
▁subsidiary	-12.1691
▁abundantly	-12.1691
▁hake	-12.1692
▁compensated	-12.1694
you	-12.1694
▁homework	-12.1698
▁row	-12.1709
▁websites	-12.1714
▁defects	-12.1714
▁coincide	-12.1725
▁empire	-12.1726
▁motorways	-12.1726
▁scrap	-12.1731
▁sánchez	-12.1732
▁andersson	-12.1732
▁customary	-12.1732
▁cleared	-12.174
▁authorisations	-12.1742
im	-12.1745
▁berg	-12.1754
generation	-12.1762
za	-12.1763
id	-12.1764
▁institutes	-12.1767
▁gibraltar	-12.1771
▁deterrent	-12.1773
▁disclosure	-12.1773
▁pregnancy	-12.1773
▁unesco	-12.1773
▁winning	-12.1774
▁8%	-12.1775
▁6%	-12.1775
owned	-12.1777
▁interpreting	-12.1783
▁realising	-12.1784
▁fortress	-12.1784
▁rationale	-12.1786
africa	-12.1806
▁cereal	-12.1809
▁deem	-12.1816
▁maximise	-12.1816
▁eurobonds	-12.1818
▁quaestors	-12.182
ps	-12.1825
▁heated	-12.1827
▁landing	-12.1832
▁contend	-12.1851
▁napolitano	-12.1856
▁negligence	-12.1856
▁presumably	-12.1856
▁unpleasant	-12.1856
▁méndez	-12.1856
▁backbone	-12.1857
▁na	-12.1861
▁nigerian	-12.1862
▁libyan	-12.1864
▁prohibiting	-12.1864
▁diplomats	-12.1866
▁gladly	-12.1868
▁alas	-12.1872
▁posted	-12.1877
▁style	-12.1877
▁fee	-12.1881
▁files	-12.1882
▁exercises	-12.1883
▁foresee	-12.1892
▁dry	-12.1895
▁revive	-12.1897
▁buitenweg	-12.1898
▁gravity	-12.1898
▁compelled	-12.1898
▁roaming	-12.1899
▁flawed	-12.1899
cost	-12.1902
▁extensively	-12.1906
▁sticking	-12.1915
▁pledges	-12.192
ne	-12.1925
▁mail	-12.1929
▁wheel	-12.1938
▁dissatisfaction	-12.194
▁flynn	-12.194
▁initiating	-12.194
▁hughes	-12.194
▁speedily	-12.194
burton	-12.194
▁contentious	-12.1941
ac	-12.1941
▁proclaimed	-12.1942
▁hardest	-12.1944
▁recovered	-12.1945
▁stems	-12.1952
▁mortgage	-12.1956
▁listing	-12.1969
▁resign	-12.1975
▁assertion	-12.1978
▁crews	-12.1979
▁reside	-12.198
▁geographic	-12.1982
▁grossetête	-12.1982
▁totalitarianism	-12.1983
▁celebrated	-12.1985
▁benchmarking	-12.1987
▁legitimately	-12.1993
▁catching	-12.2002
▁boycott	-12.2013
▁sentiments	-12.2018
▁knock	-12.202
▁installation	-12.202
▁uganda	-12.2024
▁monies	-12.2025
▁lady	-12.2025
▁reproduction	-12.2025
▁denounced	-12.2027
▁officer	-12.2037
▁exerting	-12.2039
▁auditing	-12.2041
li	-12.2055
▁leon	-12.2056
▁worded	-12.2059
▁livelihood	-12.2063
▁commence	-12.2066
▁arrogance	-12.2067
▁rapprochement	-12.2067
▁exaggerated	-12.2068
▁basel	-12.2069
▁converted	-12.2069
▁adversely	-12.2071
▁imo	-12.2078
▁grip	-12.2084
▁notable	-12.2087
▁nutritional	-12.209
▁forge	-12.2096
ts	-12.2097
▁governmental	-12.2098
mo	-12.2101
▁explosion	-12.2106
back	-12.2108
▁obscure	-12.2108
▁distributing	-12.211
▁lamassoure	-12.211
▁martens	-12.211
▁scrapping	-12.211
▁decreasing	-12.211
▁12.00	-12.2111
▁tighter	-12.2111
▁george	-12.2112
▁fleeing	-12.2114
▁earned	-12.2115
ize	-12.2121
van	-12.2126
▁dialogues	-12.213
▁prerequisites	-12.2138
▁stipulate	-12.2148
▁assassination	-12.2149
▁subordinate	-12.2151
▁ferber	-12.2153
▁decreased	-12.2156
▁colombian	-12.2156
▁finishing	-12.2172
▁directorates	-12.2174
▁affirm	-12.2185
▁aspire	-12.2191
▁discriminate	-12.2191
▁12,	-12.2192
▁omission	-12.2192
▁concentrations	-12.2193
▁defensive	-12.2196
▁luxury	-12.2196
▁pvc	-12.2196
▁extraction	-12.2196
▁childhood	-12.2196
▁whitehead	-12.2196
▁permissible	-12.2196
▁maghreb	-12.2196
▁klaus	-12.2196
▁formulating	-12.2197
cap	-12.2209
▁proceeds	-12.2218
▁pakistani	-12.2221
cut	-12.2222
▁ro	-12.2224
▁contest	-12.2235
▁thirds	-12.2235
▁intrinsic	-12.2239
▁magnitude	-12.2239
▁flagship	-12.2239
▁nazi	-12.224
po	-12.2253
▁accords	-12.2255
▁67	-12.2263
▁ma	-12.2273
▁overhaul	-12.2276
▁valued	-12.2279
ge	-12.2281
▁disrupt	-12.2281
▁cumbersome	-12.2283
▁duisenberg	-12.2283
▁edinburgh	-12.2283
▁maltese	-12.2283
▁expelled	-12.2283
▁overriding	-12.2283
▁logically	-12.2289
▁offenders	-12.229
▁powerless	-12.2299
▁angle	-12.2306
▁walk	-12.2316
▁commented	-12.2318
catch	-12.2319
01)	-12.2319
▁habit	-12.2322
▁subcommittee	-12.2323
▁isolate	-12.2325
▁gratifying	-12.2326
▁leisure	-12.2326
▁trichet	-12.2326
▁corrective	-12.2328
▁dictated	-12.2328
▁dam	-12.2333
▁adam	-12.2341
▁volunteers	-12.2346
▁clients	-12.2347
▁precautions	-12.235
▁hate	-12.2353
▁sorted	-12.236
▁stretch	-12.2367
!'	-12.2369
▁declaring	-12.237
▁maturity	-12.237
▁corps	-12.2371
▁censorship	-12.2371
▁exhausted	-12.2372
ine	-12.2377
▁owner	-12.2385
▁68	-12.2403
▁interview	-12.2409
(3)	-12.2414
▁apologies	-12.2414
▁infectious	-12.2414
▁vested	-12.2414
▁cloned	-12.2414
▁insignificant	-12.2416
▁characterise	-12.2417
▁reversed	-12.2419
▁landmines	-12.242
aladministration	-12.2423
▁failings	-12.2423
▁turnout	-12.2432
▁opting	-12.2438
▁450	-12.2439
▁treatments	-12.244
what	-12.2441
▁shocks	-12.2446
▁hormones	-12.2455
▁rough	-12.2457
▁astonishing	-12.2457
”	-12.2458
▁breyer	-12.2458
▁judging	-12.2458
▁echelon	-12.2459
▁pronounced	-12.2459
sis	-12.246
▁confess	-12.246
▁dismissed	-12.246
▁leverage	-12.2461
▁franco	-12.2473
ous	-12.2475
▁illusions	-12.2476
am	-12.248
▁liese	-12.2482
▁pool	-12.2494
▁repeal	-12.2496
▁w	-12.2498
▁prolong	-12.2501
ov	-12.2501
▁continual	-12.2502
▁zaire	-12.2503
▁domination	-12.2503
▁sjöstedt	-12.2503
▁alpine	-12.2503
▁strain	-12.2504
▁peter	-12.251
bi	-12.2513
▁beer	-12.2519
▁fats	-12.2522
▁16,	-12.2538
▁perceive	-12.2544
▁rebate	-12.2545
▁dismantle	-12.2546
▁mercy	-12.2548
▁mozambique	-12.2548
▁correlation	-12.2548
▁minsk	-12.2548
▁nominal	-12.2548
▁lying	-12.2548
▁golden	-12.2549
▁attracted	-12.2554
▁compromised	-12.2557
▁throwing	-12.256
▁losers	-12.2562
ier	-12.257
▁exceeds	-12.2579
▁ears	-12.258
taking	-12.2582
▁spell	-12.2583
▁giant	-12.2591
▁crystal	-12.2592
▁immunities	-12.2592
▁trakatellis	-12.2592
▁consular	-12.2592
▁mentality	-12.2593
▁abilities	-12.2593
▁tightened	-12.2596
not	-12.2609
▁nitrates	-12.2615
▁proportional	-12.2618
▁incoming	-12.2623
▁remembering	-12.2634
▁teacher	-12.2637
▁habsburg	-12.2637
▁coffee	-12.2638
▁indefinitely	-12.2638
▁careers	-12.2638
▁flexicurity	-12.2639
▁sharply	-12.2639
▁fixing	-12.2644
▁lucas	-12.2645
▁140	-12.2645
▁lasted	-12.2655
▁critically	-12.2656
▁pictures	-12.2657
99	-12.2673
▁del	-12.2678
sessions	-12.268
▁populist	-12.2681
▁aspiration	-12.2681
▁accusation	-12.2681
▁restructure	-12.2681
▁paradoxical	-12.2682
▁cabotage	-12.2683
▁confederation	-12.2683
▁waged	-12.269
▁weber	-12.2695
▁abstaining	-12.2697
▁dreams	-12.2697
▁relieve	-12.2701
▁sat	-12.2701
▁indiscriminate	-12.272
▁tie	-12.2721
▁hostages	-12.2724
▁evolve	-12.2725
▁cigarette	-12.2727
▁recast	-12.2727
▁fourteen	-12.2728
▁calculating	-12.2728
▁deletion	-12.2728
▁frassoni	-12.2728
▁henceforth	-12.2728
▁invaluable	-12.2728
▁wife	-12.2728
▁standstill	-12.2728
▁tailored	-12.273
▁phases	-12.2736
▁counted	-12.274
▁instrumental	-12.2752
▁transporting	-12.2767
▁abstention	-12.2773
▁xenophobic	-12.2774
▁municipalities	-12.2774
▁unrestricted	-12.2774
▁1985	-12.2774
▁rain	-12.2775
▁69	-12.2775
▁misused	-12.2777
▁artificially	-12.2777
▁documented	-12.2784
▁appointing	-12.2784
con	-12.2796
isunderstandings	-12.28
green	-12.2808
egf	-12.2812
▁counteract	-12.2813
▁eritrea	-12.2816
▁decree	-12.2817
▁lax	-12.282
▁horrendous	-12.282
▁influential	-12.282
▁transposing	-12.282
▁undergone	-12.282
▁disposed	-12.2822
▁harms	-12.2824
▁exempted	-12.2825
▁collapsed	-12.2826
▁constructing	-12.2827
products	-12.2833
▁conception	-12.2835
▁gangs	-12.2843
stop	-12.2856
▁mainstream	-12.286
▁parent	-12.286
▁bills	-12.2861
▁flat	-12.2863
▁brittan	-12.2865
▁revival	-12.2866
▁unfavourable	-12.2866
▁bluefin	-12.2866
▁1986	-12.2866
▁philippines	-12.287
rd	-12.2874
que	-12.2875
▁monthly	-12.2882
▁joke	-12.2882
▁consequent	-12.2884
▁du	-12.2886
▁gil	-12.2893
▁stops	-12.2901
▁oceans	-12.2905
▁diversify	-12.2907
▁index	-12.2911
▁homosexual	-12.2912
▁mediator	-12.2912
▁admiration	-12.2912
▁ceremony	-12.2912
▁eradicating	-12.2912
▁schröder	-12.2912
▁passion	-12.2912
▁sophisticated	-12.2912
▁accounted	-12.2912
▁umbrella	-12.2912
▁biogas	-12.2915
▁beet	-12.2916
▁82	-12.2918
▁clock	-12.2922
▁tony	-12.2926
saving	-12.2928
▁comprehensively	-12.2933
▁eeas	-12.2944
▁district	-12.2958
▁gay	-12.2958
▁goebbels	-12.2959
▁munich	-12.2959
▁formalities	-12.2959
▁speculators	-12.296
▁earthquakes	-12.2962
▁turks	-12.2968
sa	-12.2969
▁drinks	-12.2984
▁handing	-12.2993
▁tonne	-12.2995
▁budgeting	-12.2998
military	-12.2998
▁humans	-12.2998
▁eighth	-12.3003
▁supervise	-12.3004
▁17,	-12.3005
▁piebalgs	-12.3005
▁stagnation	-12.3005
▁thyssen	-12.3005
▁tomlinson	-12.3005
▁seasonal	-12.3006
▁interrupted	-12.3007
ver	-12.3011
▁specifying	-12.3015
▁dissidents	-12.3018
▁doping	-12.3018
▁presupposes	-12.3018
▁campaigning	-12.3021
▁mps	-12.3025
▁argues	-12.303
let	-12.3039
▁groupings	-12.304
founded	-12.3044
▁fruits	-12.3049
▁acquiring	-12.3052
▁mccarthy	-12.3052
▁falsified	-12.3052
▁unhcr	-12.3053
▁variable	-12.3053
▁prosecuted	-12.3053
▁strategically	-12.3055
▁sa	-12.3057
▁annexed	-12.3066
▁commonly	-12.3068
▁mandates	-12.3069
9/	-12.3074
▁dealers	-12.3076
▁assumes	-12.3082
▁africans	-12.3084
interest	-12.309
▁jan	-12.3094
▁pattern	-12.31
▁alcoholic	-12.3101
▁qua	-12.3111
▁suspending	-12.3113
▁shipments	-12.3123
▁commissioned	-12.3128
fledged	-12.3131
▁communists	-12.3133
ter	-12.3136
▁scarce	-12.3145
▁mood	-12.3146
▁anticipation	-12.3147
▁cappato	-12.3147
▁interdependence	-12.3147
▁appraisal	-12.3147
▁eurogroup	-12.3148
▁expired	-12.3148
▁underground	-12.3148
▁recording	-12.3149
▁volunteering	-12.3149
▁matches	-12.3149
▁esf	-12.3149
▁definitively	-12.3151
▁ideally	-12.3153
▁ecologically	-12.3154
▁broadcasters	-12.3156
ja	-12.3158
▁exhaust	-12.3165
(1999)	-12.3176
atlantic	-12.3187
▁fur	-12.3191
▁belder	-12.3194
▁lancker	-12.3194
▁perverse	-12.3194
▁reassuring	-12.3194
▁settling	-12.3194
▁unwanted	-12.3194
▁divergent	-12.3194
▁evolving	-12.3195
▁transplantation	-12.3195
▁miracle	-12.3195
▁provoked	-12.3196
▁carrier	-12.3196
▁brazilian	-12.3196
▁invoked	-12.3196
▁wolf	-12.3196
▁marketed	-12.3201
▁approves	-12.3202
▁son	-12.3215
like	-12.3226
election	-12.3232
▁freed	-12.3233
sufficiency	-12.3235
(4)	-12.3239
▁bolster	-12.324
▁valencia	-12.324
▁invoke	-12.3241
▁mexican	-12.3242
▁sterling	-12.3242
▁substitution	-12.3242
▁supervisor	-12.3243
▁rendered	-12.3245
alba	-12.3247
▁paths	-12.3251
▁dire	-12.3253
▁nord	-12.3253
▁rumours	-12.3256
sea	-12.326
▁formerly	-12.3266
▁progressed	-12.3273
▁forceful	-12.3273
ke	-12.328
▁dismiss	-12.3282
loud	-12.3282
health	-12.3283
▁rebels	-12.3284
▁pope	-12.329
▁abstract	-12.329
▁discrepancy	-12.329
▁residing	-12.329
▁specifies	-12.329
▁haulage	-12.329
▁predominantly	-12.3291
▁conceived	-12.3292
▁hanging	-12.3293
▁distributors	-12.3297
▁thereof	-12.3298
▁logistical	-12.3299
▁intervened	-12.33
▁haste	-12.3307
ni	-12.3312
▁cleaning	-12.3323
▁hu	-12.3323
▁kick	-12.3332
▁improper	-12.3338
▁holocaust	-12.3339
▁inalienable	-12.3339
▁laboratory	-12.3339
▁fava	-12.3339
▁raft	-12.3339
▁transcend	-12.3339
▁slip	-12.3339
▁downturn	-12.3341
▁77	-12.3343
▁physically	-12.3346
▁900	-12.3352
(2000)	-12.3355
▁129	-12.3361
▁96	-12.3362
▁enlargements	-12.3363
cal	-12.3372
▁infringe	-12.3377
polluter	-12.338
type	-12.338
▁comfort	-12.3383
▁custody	-12.3387
▁doubling	-12.3387
▁eurobarometer	-12.3387
▁seppänen	-12.3387
▁tired	-12.3387
▁dominate	-12.3387
▁nominated	-12.3388
▁mineral	-12.3389
▁clearance	-12.3392
▁slaughtered	-12.3393
▁caring	-12.3396
▁tanks	-12.3397
▁armaments	-12.3397
▁burg	-12.3398
tech	-12.3404
▁variations	-12.3407
▁nationally	-12.3412
▁reacting	-12.3414
▁salute	-12.3414
▁owned	-12.3417
▁flee	-12.3427
terrorist	-12.3429
▁prohibits	-12.3432
▁brilliant	-12.3435
▁administer	-12.3436
▁disparity	-12.3436
▁adjournment	-12.3436
▁eurocontrol	-12.3437
▁brother	-12.3438
▁infringed	-12.3439
▁chains	-12.3447
▁disputed	-12.3448
▁weu	-12.3462
▁tyres	-12.3464
▁metals	-12.3469
▁minimis	-12.3472
▁eggs	-12.3473
02)	-12.3474
ton	-12.3475
▁actor	-12.3476
american	-12.3478
third	-12.348
▁stalin	-12.3484
▁collaborate	-12.3484
▁laboratories	-12.3485
▁renault	-12.3485
▁forbidden	-12.3485
▁zealand	-12.3485
▁scandinavian	-12.3486
▁appropriation	-12.3487
▁reassured	-12.3489
▁lawful	-12.3491
▁confronting	-12.3498
▁waited	-12.3505
▁outbreaks	-12.3508
▁clarifications	-12.3524
▁delegates	-12.3525
▁flourish	-12.3527
▁circumvent	-12.3532
▁ruin	-12.3533
▁breath	-12.3533
semitism	-12.3533
▁flesh	-12.3534
▁warsaw	-12.3534
▁relies	-12.3534
▁amazed	-12.3534
▁deteriorated	-12.3535
▁bond	-12.3536
▁underpinning	-12.3536
▁inflicted	-12.3536
▁marco	-12.3537
▁matched	-12.3541
▁conveyed	-12.3541
▁revealing	-12.3543
sector	-12.357
30	-12.3573
▁unify	-12.3579
pa	-12.358
▁devising	-12.3584
▁marín	-12.3584
▁rasmussen	-12.3584
▁spiritual	-12.3584
▁jensen	-12.3584
▁reactionary	-12.3584
▁gift	-12.3585
▁polluted	-12.3586
▁cinema	-12.3586
▁2.	-12.3586
2002	-12.3587
▁cornerstones	-12.3589
▁semi	-12.3592
▁complaining	-12.3593
▁morally	-12.3594
▁constituted	-12.3596
funded	-12.3619
▁peru	-12.3626
▁tenders	-12.3627
house	-12.3628
▁potato	-12.3633
▁alavanos	-12.3634
▁announcing	-12.3634
▁baghdad	-12.3634
▁endorsing	-12.3634
▁inconsistencies	-12.3634
▁fauna	-12.3634
▁properties	-12.3634
▁enrichment	-12.3634
▁2050	-12.3635
▁horizon	-12.3636
▁hectare	-12.3637
▁takeover	-12.3653
▁bail	-12.3656
▁ran	-12.3657
▁ra	-12.3665
nd	-12.3673
▁attentive	-12.3682
▁spectacular	-12.3682
▁istanbul	-12.3684
▁madagascar	-12.3684
▁eighteen	-12.3684
▁vigour	-12.3684
▁signatory	-12.3685
▁corridor	-12.3687
▁dozen	-12.3689
▁oldest	-12.3689
ie	-12.3698
▁rounds	-12.3701
▁ca	-12.3703
▁marriages	-12.3712
fold	-12.3713
win	-12.3714
▁bees	-12.3721
citizens	-12.373
▁superior	-12.3734
▁dupuis	-12.3734
▁embassies	-12.3734
▁genoa	-12.3734
▁ministries	-12.3734
▁unquestionably	-12.3734
▁embryonic	-12.3734
▁brown	-12.3734
▁enacted	-12.3735
▁portion	-12.3737
▁embryo	-12.3737
▁hormone	-12.3738
▁jeopardised	-12.3738
▁stereotypes	-12.3739
▁rightful	-12.3744
▁hell	-12.3749
▁bone	-12.3753
▁insecure	-12.3753
avier	-12.3766
per	-12.3776
▁brand	-12.3781
▁unscrupulous	-12.3783
▁apparatus	-12.3784
▁enquiry	-12.3784
▁justifiably	-12.3784
▁lobbies	-12.3784
▁staes	-12.3784
▁correspondence	-12.3784
▁tajikistan	-12.3784
▁solvency	-12.3785
▁flora	-12.3785
▁surrounded	-12.3786
▁bind	-12.3788
▁ta	-12.3788
ig	-12.3793
▁geographically	-12.3794
▁depriv	-12.3795
▁verit	-12.3796
▁inflexible	-12.3811
tr	-12.3817
▁deposit	-12.3817
▁expires	-12.382
▁slave	-12.3822
bc	-12.3822
undue	-12.3825
government	-12.3827
▁th	-12.383
▁con	-12.383
▁calculate	-12.3834
▁ambassadors	-12.3834
▁sympathetic	-12.3835
▁courtesy	-12.3835
▁cunha	-12.3835
▁intermediaries	-12.3835
▁katiforis	-12.3835
▁kauppi	-12.3835
▁kroes	-12.3835
▁lambert	-12.3835
▁spatial	-12.3835
▁stoning	-12.3835
▁teeth	-12.3835
▁blank	-12.3835
▁slim	-12.3835
▁offshore	-12.3836
▁alignment	-12.3836
▁oppressed	-12.3836
▁endure	-12.3836
▁downward	-12.384
▁72	-12.3846
?'	-12.3853
▁advisers	-12.3858
▁cry	-12.386
iscard	-12.3874
▁headlines	-12.3874
defined	-12.3875
▁tar	-12.3877
article	-12.3878
commercial	-12.3879
▁weigh	-12.388
human	-12.388
▁78	-12.3881
▁detract	-12.3881
▁manifest	-12.3883
ins	-12.3884
▁subsidise	-12.3885
▁discharges	-12.3885
▁gallagher	-12.3886
▁inconceivable	-12.3886
▁rectified	-12.3886
▁holland	-12.3886
▁fraga	-12.3886
▁verified	-12.3886
▁reorganisation	-12.3886
▁superstate	-12.3886
▁permitting	-12.3887
▁printed	-12.3888
▁excesses	-12.3888
▁emotion	-12.389
▁liberalism	-12.3891
▁latvian	-12.3892
▁diplomas	-12.3895
▁filling	-12.39
▁19,	-12.3911
▁x	-12.3915
▁rotat	-12.3918
▁excludes	-12.392
side	-12.3933
▁harvest	-12.3935
▁irregular	-12.3937
▁mis	-12.3937
▁clarifies	-12.3937
▁combustion	-12.3937
▁constituencies	-12.3937
▁diamantopoulou	-12.3937
▁schroedter	-12.3937
▁sensibly	-12.3937
▁lump	-12.3937
▁axis	-12.3938
▁requisite	-12.3938
▁exile	-12.3941
▁criminality	-12.3942
▁telecom	-12.3942
▁peer	-12.3943
▁finalise	-12.3943
▁manages	-12.3944
▁facilitates	-12.3949
▁opposes	-12.3959
);	-12.3961
run	-12.3968
▁exchanged	-12.3973
▁lapses	-12.3974
▁recalling	-12.3976
▁pet	-12.3984
▁entrust	-12.3987
▁peninsula	-12.3988
▁naive	-12.3988
▁misguided	-12.3989
▁rossa	-12.3989
▁sharia	-12.3989
▁ferry	-12.3989
▁intact	-12.3989
▁astonished	-12.3989
▁plunge	-12.3989
▁mundus	-12.3989
▁simplistic	-12.3989
▁convenient	-12.3989
▁dirty	-12.3989
▁compiled	-12.399
▁cadmium	-12.399
▁realistically	-12.399
▁unbalanced	-12.3992
▁invention	-12.3994
▁governor	-12.3994
▁compliments	-12.3995
▁bounds	-12.3997
▁retailers	-12.3998
▁ba	-12.3999
▁timescale	-12.4002
▁cooperated	-12.4005
▁closures	-12.4006
▁notorious	-12.4017
▁protesting	-12.4017
▁predecessors	-12.4034
▁harmonize	-12.4039
▁dis	-12.4039
▁simultaneous	-12.404
▁compel	-12.4041
weggen	-12.4041
▁brink	-12.4041
▁schuman	-12.4041
▁sellafield	-12.4041
▁ample	-12.4041
▁admissible	-12.4041
▁dictatorial	-12.4041
▁95%	-12.4041
▁12%	-12.4042
▁tide	-12.4042
▁calmly	-12.4044
▁cabinet	-12.4045
▁cutbacks	-12.4046
▁2014	-12.4052
▁adjusting	-12.4053
▁disappearing	-12.4055
▁18,	-12.4064
▁diminish	-12.4085
▁accomplish	-12.4086
▁roman	-12.4088
▁externally	-12.4088
▁accuse	-12.4089
▁solemn	-12.4091
▁transnistria	-12.4092
▁senegal	-12.4093
▁equator	-12.4093
▁aegis	-12.4093
▁efficacy	-12.4093
▁enlarging	-12.4093
▁manuel	-12.4093
▁nicholson	-12.4093
▁sacconi	-12.4093
▁simpson	-12.4093
▁employability	-12.4093
▁sixty	-12.4094
▁avian	-12.4094
▁differentiate	-12.4096
▁sweeping	-12.4096
▁tibetans	-12.4096
▁expose	-12.4098
▁costing	-12.4098
▁celebration	-12.4098
our	-12.4102
▁layer	-12.4105
▁disagreements	-12.412
▁tolls	-12.4124
▁warrants	-12.4129
more	-12.413
▁weekly	-12.4132
vi	-12.4139
▁loyal	-12.4139
ities	-12.4139
▁vertical	-12.4144
▁linkohr	-12.4145
▁unforeseen	-12.4145
▁recreational	-12.4145
▁quoting	-12.4145
▁alps	-12.4145
▁35%	-12.4146
▁maij	-12.4152
▁applauded	-12.4152
▁der	-12.4154
▁maes	-12.4166
▁drama	-12.417
▁residues	-12.4171
▁earnings	-12.4173
si	-12.4174
▁wear	-12.4185
▁notify	-12.4186
▁lip	-12.4188
▁triumph	-12.4196
▁utilise	-12.4196
▁unsuccessful	-12.4197
▁accuracy	-12.4198
▁catalan	-12.4198
▁degrading	-12.4198
▁guantanamo	-12.4198
▁ribeiro	-12.4198
▁gollnisch	-12.4198
▁essen	-12.4198
▁levies	-12.4198
▁enhancement	-12.4198
▁communicating	-12.4199
▁unpaid	-12.4199
▁tobin	-12.42
▁hauliers	-12.42
▁superpower	-12.4203
▁appliances	-12.4204
▁liquid	-12.4204
▁pesticide	-12.4204
▁shipyard	-12.4204
▁atypical	-12.4215
▁flaws	-12.4218
▁efd	-12.4222
03	-12.4225
8/	-12.4229
▁experimental	-12.424
▁admire	-12.4242
▁caudron	-12.4251
▁cyanide	-12.4251
ão	-12.4251
▁objectivity	-12.4251
▁persistence	-12.4251
▁comfortable	-12.4251
▁dating	-12.4251
▁biased	-12.4252
▁wholehearted	-12.4252
▁euromed	-12.4252
▁1987	-12.4253
▁mindful	-12.4253
▁magic	-12.4253
▁majorities	-12.4253
▁enp	-12.4255
▁reconciled	-12.4255
▁jail	-12.4256
▁nurses	-12.4258
used	-12.4262
▁orden	-12.4265
▁boards	-12.427
ted	-12.4278
ate	-12.4291
public	-12.4295
▁encompass	-12.4296
profit	-12.4297
40	-12.4299
▁tour	-12.4301
▁organize	-12.4303
▁educate	-12.4303
▁thirteen	-12.4303
▁varieties	-12.4304
▁wurtz	-12.4304
▁spokesman	-12.4304
▁0.7%	-12.4304
estaing	-12.4304
▁marginalisation	-12.4304
▁doomed	-12.4305
▁lodged	-12.4305
▁kindly	-12.4305
▁wearing	-12.4309
▁praised	-12.431
ory	-12.4313
▁missile	-12.4313
▁lu	-12.4314
▁prisoner	-12.4314
▁comparisons	-12.4315
▁markov	-12.4315
▁lifetime	-12.4316
▁ne	-12.4324
▁1988	-12.4328
▁99	-12.4335
▁boys	-12.4336
▁translations	-12.4338
▁agendas	-12.4343
binding	-12.435
/2003	-12.4351
▁prosecute	-12.4356
service	-12.4356
▁faithful	-12.4357
▁orthodox	-12.4357
▁adequacy	-12.4357
▁brenner	-12.4357
▁holistic	-12.4357
▁peijs	-12.4357
▁triangle	-12.4357
▁turmes	-12.4357
▁unpunished	-12.4357
▁uruguay	-12.4357
▁babies	-12.4357
▁abbas	-12.4357
▁duff	-12.4358
▁congolese	-12.4358
▁marketplace	-12.436
▁hampered	-12.4362
▁shield	-12.4362
▁handful	-12.4362
institutional	-12.4362
▁cop	-12.4364
▁endeavoured	-12.4368
▁restricts	-12.4377
▁strengths	-12.4387
▁custom	-12.4388
▁icc	-12.4391
▁hole	-12.4392
7-0	-12.4393
water	-12.4397
▁fierce	-12.441
▁embarrassing	-12.441
▁flanders	-12.4411
▁undeniably	-12.4411
▁vein	-12.4411
▁budapest	-12.4411
▁complicity	-12.4411
▁frustrated	-12.4412
▁pioneering	-12.4414
▁rewarded	-12.4414
▁widest	-12.4416
▁nationalities	-12.4418
▁rebel	-12.4419
▁satisfying	-12.4431
▁shoes	-12.4438
▁61	-12.4442
▁alliances	-12.4444
00	-12.4449
▁additionally	-12.4451
96	-12.4456
high	-12.4457
▁utter	-12.4463
▁mai	-12.4464
▁scrutinise	-12.4464
▁supervisors	-12.4464
▁conceivable	-12.4465
▁hänsch	-12.4465
▁jungle	-12.4465
▁wheat	-12.4465
▁cruelty	-12.4465
▁default	-12.4465
▁morgan	-12.4465
▁fascism	-12.4466
▁ebrd	-12.4466
▁broadest	-12.447
▁rotation	-12.4473
this	-12.4482
▁recognizes	-12.4486
▁designations	-12.449
▁86	-12.4493
▁pipelines	-12.4497
oil	-12.4501
,000	-12.4508
examine	-12.4511
▁bread	-12.4519
▁appendix	-12.452
▁attributable	-12.452
▁chichester	-12.452
▁varela	-12.452
▁enforceable	-12.4521
▁arable	-12.4521
▁auto	-12.4522
▁evade	-12.4536
▁prejudices	-12.456
stay	-12.4565
distance	-12.4567
▁presume	-12.4574
▁embassy	-12.4574
▁literature	-12.4574
▁nightmare	-12.4574
▁practicable	-12.4574
▁beaten	-12.4574
▁coreper	-12.4575
▁schmidt	-12.4577
▁unambiguously	-12.4577
▁utilised	-12.4577
▁defeated	-12.4579
▁healthier	-12.458
▁ceased	-12.458
▁rock	-12.4581
▁measurement	-12.4584
▁dogma	-12.4584
▁romano	-12.4605
▁2000-2006	-12.4609
▁sleep	-12.4623
▁71	-12.4624
▁revisit	-12.4627
▁streamline	-12.4628
▁guilt	-12.4628
▁diabetes	-12.4629
▁outlining	-12.4629
▁reversal	-12.4629
▁streamlining	-12.4629
▁tannock	-12.4629
▁vicinity	-12.4629
▁stolen	-12.4629
▁ramos	-12.4629
▁bovine	-12.4629
▁hezbollah	-12.4629
▁gaddafi	-12.4629
▁hatzidakis	-12.4629
▁democratization	-12.4629
▁christianity	-12.463
▁remainder	-12.463
▁counterpart	-12.4631
▁+	-12.4633
▁catering	-12.4633
▁provoke	-12.4635
▁motorway	-12.4638
ors	-12.4639
▁bin	-12.4643
▁colours	-12.4645
▁speeded	-12.4657
▁170	-12.4661
non	-12.4661
▁pressed	-12.4676
▁republics	-12.4683
▁rejoice	-12.4683
▁cyber	-12.4684
▁galeote	-12.4684
▁severity	-12.4684
▁deferred	-12.4684
▁wijsenbeek	-12.4684
▁legislating	-12.4685
▁guise	-12.4685
▁icao	-12.4685
▁encompasses	-12.4685
▁analytical	-12.4686
▁dust	-12.4686
rc	-12.4691
▁comprise	-12.4692
▁bureaucrats	-12.4693
▁valley	-12.4693
▁cat	-12.4696
continuation	-12.4733
▁multifunctional	-12.4736
▁curtail	-12.4738
▁crux	-12.474
▁heaven	-12.474
▁homophobia	-12.474
▁inconsistency	-12.474
▁naples	-12.474
▁solbes	-12.474
▁pivotal	-12.474
▁residential	-12.474
▁incitement	-12.474
▁uniformity	-12.4741
▁upgrade	-12.4742
▁carers	-12.4747
▁outrage	-12.4747
enthusiastically	-12.4747
▁toward	-12.4748
▁widen	-12.4748
▁chicken	-12.4749
▁bottlenecks	-12.475
▁distorting	-12.4751
▁scratch	-12.4762
▁agent	-12.4775
▁hazards	-12.4781
ko	-12.4783
that	-12.479
▁renounce	-12.4794
▁opportune	-12.4795
▁trivial	-12.4795
▁optimal	-12.4795
▁dissent	-12.4796
▁paasilinna	-12.4796
▁reiterating	-12.4796
▁wholesale	-12.4796
▁unbundling	-12.4796
▁accumulated	-12.4797
▁erdf	-12.4798
▁holy	-12.4798
▁halfway	-12.4799
▁additionality	-12.4801
▁anna	-12.4803
▁eit	-12.4804
▁taboo	-12.4805
▁shifted	-12.4806
▁shaped	-12.4807
▁88	-12.4816
▁skin	-12.4821
▁outgoing	-12.4822
▁aeroplanes	-12.4829
▁sentiment	-12.4831
▁64	-12.4843
4/	-12.4843
business	-12.4844
seekers	-12.4847
▁passionate	-12.4851
▁papayannakis	-12.4852
▁advent	-12.4852
▁hitler	-12.4852
▁zana	-12.4853
▁bury	-12.4854
▁wing	-12.4857
▁daughter	-12.4861
▁4.	-12.4865
▁unfairly	-12.4865
8(	-12.4865
▁noting	-12.4869
▁ha	-12.4871
va	-12.4874
smes	-12.4875
▁holder	-12.4875
▁hasty	-12.4884
care	-12.4887
▁multicultural	-12.4896
▁commensurate	-12.4908
▁cresson	-12.4908
▁geography	-12.4908
▁kabul	-12.4908
▁primacy	-12.4908
▁lagendijk	-12.4908
▁roure	-12.4908
▁saint	-12.4909
▁tolerant	-12.4909
▁rack	-12.4909
▁authorization	-12.4909
▁slowdown	-12.4909
▁prolonged	-12.4911
▁bonde	-12.4912
▁talent	-12.4916
▁blamed	-12.4918
▁abduction	-12.4918
▁corporation	-12.4918
▁recovering	-12.4923
▁phones	-12.4935
▁oversee	-12.4935
▁proceeded	-12.4935
16	-12.4936
▁beat	-12.4942
▁determines	-12.4947
▁fled	-12.4951
▁bars	-12.4958
nuclear	-12.4958
▁persists	-12.4959
▁emotions	-12.4961
▁bizarre	-12.4964
▁motivate	-12.4964
▁admirable	-12.4965
▁humiliation	-12.4965
▁semester	-12.4965
▁unhealthy	-12.4965
▁punishable	-12.4966
▁orange	-12.4966
▁duma	-12.4966
▁dynamics	-12.497
▁brutally	-12.497
▁broadening	-12.4974
▁lots	-12.4975
▁loses	-12.499
2001)	-12.4997
▁supermarkets	-12.5001
▁disorders	-12.5003
▁percentages	-12.5003
▁iraqis	-12.5004
▁conversations	-12.5007
card	-12.5012
▁enrich	-12.5015
tariff	-12.5015
▁hesitant	-12.5021
▁amazing	-12.5021
▁concise	-12.5021
▁distrust	-12.5022
▁lópez	-12.5022
▁prudence	-12.5022
▁renovation	-12.5022
▁contributor	-12.5022
▁schmid	-12.5022
▁ivory	-12.5023
▁accumulation	-12.5023
▁parity	-12.5023
▁ukip	-12.5023
▁federalism	-12.5025
▁sufferers	-12.5025
▁troubled	-12.5027
▁modernised	-12.5028
▁respectful	-12.503
▁declined	-12.5031
▁technique	-12.5033
6/	-12.5034
▁scenes	-12.5037
▁81	-12.5039
▁22,	-12.5041
▁exporter	-12.5042
▁treats	-12.5043
5-04	-12.5044
di	-12.5055
▁125	-12.5059
▁appealed	-12.506
▁compounds	-12.5061
employment	-12.5064
▁culturally	-12.5069
informed	-12.5071
▁98	-12.5072
▁nicaragua	-12.5077
▁acta	-12.5078
▁contemplate	-12.5079
▁devastation	-12.508
▁paralysis	-12.508
▁starvation	-12.508
▁1960	-12.508
▁impartiality	-12.508
▁hungry	-12.5081
▁tindemans	-12.5082
▁homeless	-12.5083
▁thors	-12.5086
▁complications	-12.5087
▁assault	-12.5088
▁inconvenience	-12.5089
▁delegate	-12.509
▁cheque	-12.509
▁uprising	-12.5091
▁entitlement	-12.5091
▁tree	-12.5091
▁imagined	-12.5093
▁defends	-12.5093
▁appreciates	-12.5094
▁factions	-12.5096
with	-12.5117
▁ride	-12.5118
▁monitors	-12.5124
▁180	-12.5134
▁bertens	-12.5138
▁davies	-12.5138
▁deprez	-12.5138
▁honduras	-12.5138
▁illiteracy	-12.5138
▁opium	-12.5138
▁suffrage	-12.5138
▁untenable	-12.5138
▁glaring	-12.5138
▁desires	-12.5138
▁1950	-12.5138
▁perry	-12.5139
▁discovery	-12.514
▁ironic	-12.5141
▁purchased	-12.5143
▁succession	-12.5143
▁recipe	-12.5149
▁prescription	-12.5149
sufficient	-12.515
▁hotel	-12.515
▁employs	-12.5155
▁withstand	-12.5172
ler	-12.5172
–	-12.5188
▁align	-12.5189
▁relocate	-12.5194
▁accelerating	-12.5196
▁meagre	-12.5196
▁miert	-12.5196
▁populism	-12.5196
▁pérez	-12.5196
▁ahern	-12.5196
▁1979	-12.5196
▁underpinned	-12.5197
▁nitrogen	-12.5197
▁cultivated	-12.5197
▁inserted	-12.5198
▁borrowing	-12.5199
ak	-12.52
▁motive	-12.5207
▁breached	-12.5209
▁amounted	-12.5212
▁symptoms	-12.5213
art	-12.5215
▁weighting	-12.523
post	-12.5234
red	-12.5241
▁networking	-12.5248
▁provinces	-12.5249
▁peak	-12.5253
▁anticipating	-12.5254
▁destabilising	-12.5254
▁reprehensible	-12.5254
▁swept	-12.5254
▁casualties	-12.5254
▁weiler	-12.5254
▁accustomed	-12.5255
▁vodka	-12.5255
▁feedback	-12.5255
▁importation	-12.5255
▁convened	-12.5256
ship	-12.5256
▁retraining	-12.5256
▁streamlined	-12.5256
▁harmonized	-12.5256
ogged	-12.5256
▁watched	-12.5263
▁punishing	-12.5265
ep	-12.5269
▁regulates	-12.527
▁italians	-12.5274
▁creditors	-12.5278
00)	-12.5279
everything	-12.5306
▁shoulders	-12.5308
▁desert	-12.5311
▁comparing	-12.5313
▁compromising	-12.5313
▁diamandouros	-12.5313
▁liechtenstein	-12.5313
▁monterrey	-12.5313
▁purvis	-12.5313
▁crazy	-12.5313
▁emigration	-12.5313
▁madness	-12.5314
▁ecj	-12.5314
▁frightening	-12.5315
▁7%	-12.5316
▁overlap	-12.5317
▁complained	-12.5318
▁attained	-12.5318
▁liberia	-12.5319
▁deadly	-12.532
▁insolvency	-12.5323
▁periodic	-12.5324
▁prescribe	-12.5324
▁intergroup	-12.5325
▁loophole	-12.5325
mer	-12.533
ex	-12.5343
german	-12.535
paragraph	-12.5365
driven	-12.5365
▁telecoms	-12.5367
▁wreck	-12.537
▁altener	-12.5372
▁footwear	-12.5372
▁müller	-12.5372
▁sacred	-12.5372
▁underlining	-12.5372
▁martínez	-12.5372
▁verge	-12.5372
▁preceding	-12.5372
▁opel	-12.5372
▁distinctive	-12.5373
▁obsession	-12.5373
▁economical	-12.5374
▁elementary	-12.5374
▁hindered	-12.5377
▁void	-12.5378
▁deportation	-12.5385
▁fascist	-12.5387
see	-12.539
▁unites	-12.5393
▁arts	-12.5399
▁tissues	-12.5401
▁suspicions	-12.5402
▁rein	-12.5411
▁destabilise	-12.543
▁random	-12.5431
▁campania	-12.5432
▁precision	-12.5432
▁sensitivities	-12.5432
▁unanswered	-12.5432
▁fabre	-12.5432
▁prevalent	-12.5432
▁midnight	-12.5432
▁lunch	-12.5433
▁avoidance	-12.5433
▁dismantled	-12.5434
▁gni	-12.5435
ring	-12.5444
▁prerogative	-12.5445
▁distinguishing	-12.5447
pre	-12.5448
▁guards	-12.5456
▁statutes	-12.5457
but	-12.5466
1999	-12.5469
▁misunderstand	-12.5473
▁deter	-12.5473
work	-12.5475
start	-12.5475
▁socialism	-12.5476
▁suits	-12.5482
legislative	-12.5484
better	-12.5484
▁avert	-12.5485
▁superficial	-12.549
▁redouble	-12.5491
aubrespy	-12.5492
▁bologna	-12.5492
▁fodder	-12.5492
▁pragmatism	-12.5492
▁spencer	-12.5492
▁terminology	-12.5492
▁vojvodina	-12.5492
▁mountainous	-12.5492
▁interregional	-12.5493
▁royal	-12.5493
▁invented	-12.5493
▁fastest	-12.5493
▁149(8))	-12.5494
▁diminished	-12.5494
▁professionalism	-12.5495
▁karl	-12.5504
▁sympathise	-12.5504
▁portal	-12.5505
▁bird	-12.5505
▁divergence	-12.5505
▁hardship	-12.5506
▁fta	-12.5508
▁needing	-12.5516
▁hall	-12.552
▁slots	-12.5523
▁rooms	-12.5534
disciplinary	-12.5545
▁lag	-12.5545
▁maps	-12.5549
▁obey	-12.555
▁authentic	-12.5551
▁equation	-12.5552
▁influencing	-12.5552
▁paternity	-12.5552
▁1967	-12.5552
▁extinction	-12.5552
▁maaten	-12.5552
▁interception	-12.5552
▁pause	-12.5552
▁fukushima	-12.5552
▁depressing	-12.5552
▁paradoxically	-12.5553
ai	-12.5554
▁suppress	-12.5555
▁scant	-12.5555
▁mainland	-12.5556
▁overwhelmingly	-12.5557
▁deserved	-12.5565
▁infections	-12.5573
nt	-12.5575
▁defender	-12.5576
em	-12.5578
▁concentrates	-12.558
▁testify	-12.558
3/	-12.5584
▁depart	-12.5606
▁borrell	-12.5613
▁buzek	-12.5613
▁gröner	-12.5613
▁pinochet	-12.5613
▁unbridled	-12.5613
▁1975	-12.5613
▁abducted	-12.5613
▁iaea	-12.5613
▁inherited	-12.5613
▁partisan	-12.5614
▁understandably	-12.5614
▁boxes	-12.5615
▁thankfully	-12.5615
▁shake	-12.5617
▁crown	-12.5618
▁behaving	-12.5625
▁dementia	-12.5626
▁biofuel	-12.5627
▁headline	-12.5628
▁kof	-12.563
▁storms	-12.5647
▁reviews	-12.5656
ol	-12.566
▁entitlements	-12.5662
▁shorten	-12.5666
▁revert	-12.5671
▁planting	-12.5672
▁eager	-12.5672
▁deteriorate	-12.5672
▁atmospheric	-12.5674
▁thomas	-12.5674
▁montreal	-12.5674
▁indebted	-12.5674
▁crossroads	-12.5674
▁elapsed	-12.5674
▁segregation	-12.5674
▁ferries	-12.5674
▁denies	-12.5674
▁skies	-12.5674
▁eures	-12.5674
▁decrees	-12.5675
▁parish	-12.5676
▁76	-12.5676
▁crossed	-12.5685
bo	-12.5685
▁jo	-12.5686
▁yardstick	-12.5688
▁tanker	-12.5688
biotechnological	-12.5689
▁egg	-12.5696
▁sizes	-12.5697
▁extract	-12.5699
▁economists	-12.5705
05	-12.5719
▁excuses	-12.5721
mentioned	-12.5724
attached	-12.5728
palestinian	-12.5728
▁incur	-12.5731
▁160	-12.5733
▁provocative	-12.5734
/2004	-12.5734
▁ferreira	-12.5735
▁intensification	-12.5735
▁jeopardy	-12.5735
▁lucrative	-12.5735
▁unitary	-12.5735
▁advancement	-12.5736
ese	-12.5743
▁picked	-12.5744
▁embarking	-12.5746
▁eastward	-12.575
▁assumptions	-12.5756
▁horn	-12.5758
there	-12.5763
▁centred	-12.5767
▁inefficiency	-12.5776
▁planes	-12.5786
oc	-12.5789
▁interrupt	-12.579
▁clever	-12.5795
▁apartheid	-12.5797
▁bjerregaard	-12.5797
▁busquin	-12.5797
▁measurable	-12.5797
▁phthalates	-12.5797
▁probability	-12.5797
▁srebrenica	-12.5797
▁terribly	-12.5797
▁despicable	-12.5797
▁philosophical	-12.5797
▁seychelles	-12.5797
▁ottawa	-12.5797
▁unwillingness	-12.5797
▁pat	-12.5798
ups	-12.5798
▁resigned	-12.58
▁obstruct	-12.5804
▁twofold	-12.5806
▁insufficiently	-12.5806
▁tendering	-12.5808
▁thereafter	-12.5809
▁tractors	-12.5809
▁underdeveloped	-12.5811
▁originate	-12.5811
▁champions	-12.5824
ze	-12.5824
air	-12.5824
▁announcements	-12.5825
▁reasoned	-12.5848
▁109	-12.5851
cultural	-12.5851
▁insert	-12.5852
▁spaces	-12.5855
▁tailor	-12.5857
▁dishonest	-12.5858
▁irrational	-12.5859
▁beauty	-12.5859
▁buried	-12.5859
▁hostilities	-12.5859
▁lynne	-12.5859
▁sanitation	-12.5859
▁scarcity	-12.5859
▁testimony	-12.5859
▁casaca	-12.5859
▁inventory	-12.5859
▁1976	-12.5859
▁eaggf	-12.5859
▁immune	-12.5859
▁reimbursed	-12.586
▁potatoes	-12.586
▁attentively	-12.586
▁explored	-12.5862
▁spared	-12.5863
▁chairs	-12.5865
▁stark	-12.5869
▁realm	-12.5869
▁enact	-12.5876
▁discusses	-12.5885
▁dock	-12.5885
8)	-12.5893
eye	-12.5897
ent	-12.5897
2002)	-12.5898
▁weakens	-12.59
▁delight	-12.5912
existence	-12.5913
▁governors	-12.5915
working	-12.5915
good	-12.5918
▁complicate	-12.592
▁concede	-12.5921
bissau	-12.5921
▁density	-12.5921
▁sarajevo	-12.5921
▁stalemate	-12.5921
▁volatile	-12.5921
▁unjustifiable	-12.5921
▁paramilitary	-12.5921
▁tandem	-12.5921
▁recycled	-12.5922
▁remedied	-12.5922
versus	-12.5922
▁sadness	-12.5923
▁sine	-12.5923
▁serb	-12.5924
▁reopening	-12.5929
▁grid	-12.5934
▁impede	-12.5935
▁regulator	-12.5937
outs	-12.594
▁proteins	-12.5943
▁ali	-12.5944
▁mo	-12.5944
dis	-12.5946
▁cartels	-12.595
▁park	-12.5953
▁yours	-12.5955
▁spends	-12.5956
▁grows	-12.5968
▁74	-12.5972
▁foc	-12.5975
6(	-12.5977
▁tense	-12.598
▁cement	-12.5982
▁peculiar	-12.5984
▁glance	-12.5984
▁ninth	-12.5984
▁supervising	-12.5984
▁quorum	-12.5984
▁nickel	-12.5984
▁macao	-12.5984
▁businessmen	-12.5987
▁distressing	-12.5991
▁endangering	-12.5995
▁load	-12.5996
ho	-12.5997
▁myth	-12.5998
▁brake	-12.6001
pro	-12.6017
▁ira	-12.6027
▁ka	-12.604
management	-12.604
african	-12.6041
▁bolivia	-12.6045
▁disseminate	-12.6046
▁traded	-12.6047
▁multilingual	-12.6047
▁miguélez	-12.6047
▁muscardini	-12.6047
▁outweigh	-12.6047
▁conversely	-12.6047
▁keyser	-12.6048
▁drag	-12.6049
▁complements	-12.6058
▁catastrophes	-12.6059
▁theft	-12.606
▁1994.	-12.6061
▁norwegian	-12.6063
▁contravention	-12.6063
▁gun	-12.607
▁bee	-12.6073
▁chairing	-12.608
7)	-12.6081
▁emphasizes	-12.6092
▁fortune	-12.6095
▁yields	-12.6097
om	-12.6097
▁3.5	-12.61
▁87	-12.6103
committee	-12.6104
compulsory	-12.6104
lisbon	-12.6104
4-02	-12.6106
▁epa	-12.6107
▁minerals	-12.6109
▁viewpoints	-12.6109
▁convene	-12.611
▁103	-12.611
▁kla	-12.6111
▁immoral	-12.6111
▁arbitrarily	-12.6111
▁grosch	-12.6111
▁implied	-12.6111
▁taoiseach	-12.6111
▁turmoil	-12.6111
▁pessimistic	-12.6111
▁leeway	-12.6111
▁omitted	-12.6111
▁therapy	-12.6112
▁regretted	-12.6112
her	-12.6112
▁gentleman	-12.6113
▁possesses	-12.6113
▁feeds	-12.6114
▁unionists	-12.6116
▁diminishing	-12.6117
▁campos	-12.6117
▁selecting	-12.6118
▁transmit	-12.6119
▁175	-12.612
▁1991,	-12.6125
▁disregarding	-12.6128
▁coastline	-12.6129
▁dictates	-12.6129
▁devot	-12.6147
▁authoritative	-12.6156
▁acid	-12.6163
▁abu	-12.6163
▁ante	-12.6164
ries	-12.6165
▁taxed	-12.6168
▁plead	-12.6171
▁succeeding	-12.6173
chairman	-12.6175
▁intermodal	-12.6175
▁aerospace	-12.6175
▁angry	-12.6175
▁banotti	-12.6175
▁circulating	-12.6175
▁figueiredo	-12.6175
▁humiliating	-12.6175
▁misunderstood	-12.6175
▁oreja	-12.6175
▁subsidising	-12.6175
▁suspicious	-12.6175
▁cynicism	-12.6175
▁imperialism	-12.6175
▁parcel	-12.6175
▁fitted	-12.6175
industrial	-12.6176
▁unqualified	-12.6176
▁battles	-12.6177
▁enriched	-12.6178
▁correctness	-12.6181
▁complemented	-12.6184
▁laos	-12.6185
▁genes	-12.6186
▁renewing	-12.6186
▁hindering	-12.6188
▁contravene	-12.6191
▁blak	-12.6192
▁conversation	-12.6193
▁hazard	-12.6193
▁1.2	-12.6194
▁iter	-12.6201
▁summ	-12.6204
ll	-12.6209
▁respectable	-12.6211
syn	-12.6214
trafficking	-12.6232
▁ukrainians	-12.6233
4-04	-12.6237
▁pollute	-12.6238
▁arbitration	-12.624
▁consensual	-12.624
▁starving	-12.624
▁spotlight	-12.624
▁criticized	-12.6241
▁ho	-12.6241
▁verbal	-12.6243
end	-12.6243
."	-12.6246
▁loading	-12.6246
▁retreat	-12.6252
▁commended	-12.6253
▁sustaining	-12.6255
▁hurricane	-12.6258
▁flame	-12.6258
▁shortfall	-12.6258
▁fp	-12.6261
▁defer	-12.6267
▁dog	-12.6272
▁togo	-12.6285
▁consign	-12.6292
▁pluralist	-12.6305
▁acceleration	-12.6305
▁angelilli	-12.6305
▁cessation	-12.6305
▁inadequacy	-12.6305
▁naïve	-12.6305
▁schnellhardt	-12.6305
▁synonymous	-12.6305
▁treasury	-12.6305
▁kiev	-12.6305
▁pronk	-12.6305
▁spinelli	-12.6305
▁eurovignette	-12.6305
▁homosexuality	-12.6305
▁forged	-12.6307
▁cooling	-12.6309
▁alarmed	-12.631
▁scanners	-12.6311
▁halted	-12.6314
open	-12.6317
▁intensifying	-12.6318
▁torn	-12.632
▁exhibition	-12.6322
ah	-12.6323
▁pot	-12.6328
▁cycles	-12.634
car	-12.6341
▁lightly	-12.6346
▁138	-12.6353
▁ear	-12.6354
ish	-12.6356
▁andean	-12.6361
▁thin	-12.6362
▁relax	-12.6363
fighting	-12.6365
▁harness	-12.6368
▁prosper	-12.637
▁dispel	-12.637
▁mitigation	-12.637
▁panacea	-12.637
▁punitive	-12.637
▁schwaiger	-12.637
▁rally	-12.6371
▁manipulated	-12.6371
▁dna	-12.6371
▁prudential	-12.6371
▁abstentions	-12.6372
▁specially	-12.6372
▁combatting	-12.6374
▁equals	-12.6375
▁epidemics	-12.6375
▁escaped	-12.6376
▁loved	-12.6376
▁resisted	-12.6376
▁star	-12.638
▁defenceless	-12.6381
▁lever	-12.6386
▁horrors	-12.6386
▁med	-12.6386
ative	-12.6387
▁lapse	-12.6388
▁dismissal	-12.6389
▁device	-12.6389
▁masters	-12.6391
▁therein	-12.6405
▁spur	-12.6407
▁usage	-12.6407
▁olympics	-12.641
▁greeks	-12.6417
step	-12.6421
hearted	-12.6421
(2002)	-12.6424
▁commenting	-12.6425
▁93	-12.6427
functioning	-12.6429
-2013	-12.6434
▁colonies	-12.6436
▁electromagneti	-12.6436
▁michael	-12.6436
▁purse	-12.6436
▁watts	-12.6436
▁predictability	-12.6436
▁pkk	-12.6436
▁frankfurt	-12.6436
▁eplp	-12.6436
▁mar	-12.6436
▁easing	-12.6437
▁lucky	-12.6438
▁concealed	-12.6441
▁weighing	-12.6442
▁indisputable	-12.6444
▁seminars	-12.6448
▁covenant	-12.6454
▁advertisements	-12.6455
▁workings	-12.646
sec	-12.6462
▁fighters	-12.6471
▁visions	-12.6473
15	-12.6489
▁overturn	-12.6501
▁söderman	-12.6501
▁rhine	-12.6502
▁buttiglione	-12.6502
▁cabrol	-12.6502
▁flexibly	-12.6502
▁silguy	-12.6502
▁tyranny	-12.6502
▁unbelievable	-12.6502
▁separating	-12.6502
▁gargani	-12.6502
▁loyalty	-12.6502
▁remarkably	-12.6502
▁james	-12.6502
▁37(2)	-12.6502
▁blatantly	-12.6504
▁cogeneration	-12.6504
▁sinking	-12.6506
▁paved	-12.6508
au	-12.6512
▁screen	-12.6515
▁theatre	-12.6521
▁portfolios	-12.6536
6)	-12.6539
▁divides	-12.654
▁consciences	-12.6544
▁loose	-12.6547
3(	-12.655
financed	-12.655
22	-12.6564
▁deposits	-12.6564
▁greet	-12.6564
▁tip	-12.6566
▁timid	-12.6567
▁fascinating	-12.6569
▁garriga	-12.6569
▁kohl	-12.6569
▁moura	-12.6569
▁hostility	-12.6569
▁perseverance	-12.6569
▁schmitt	-12.6569
▁manpower	-12.6569
▁chairmanship	-12.6569
▁birthday	-12.657
▁pleasing	-12.657
▁summarised	-12.6572
▁absorbed	-12.6573
▁motors	-12.6579
▁uniformly	-12.6582
▁reign	-12.6587
▁expire	-12.6587
▁bull	-12.6588
▁estonian	-12.6591
▁recalls	-12.6596
ably	-12.6602
▁mu	-12.6607
ance	-12.6613
í	-12.6615
▁contexts	-12.6615
▁justifying	-12.6617
▁auditor	-12.6621
.6	-12.6625
energy	-12.6628
▁reproach	-12.6633
▁bonus	-12.6635
▁bloodshed	-12.6636
▁disseminating	-12.6636
▁morgantini	-12.6636
▁oettinger	-12.6636
▁memories	-12.6636
▁eurlings	-12.6636
▁unicef	-12.6636
▁rearing	-12.664
▁addicts	-12.664
▁omissions	-12.6642
▁pour	-12.6642
▁repealing	-12.6643
▁graduates	-12.6645
▁recruit	-12.6649
cu	-12.6649
les	-12.6655
▁envelope	-12.6656
▁girl	-12.6657
ending	-12.6661
19	-12.6665
▁searching	-12.6669
▁publications	-12.6674
▁forwarding	-12.6675
▁mal	-12.6683
competitive	-12.6694
▁arrogant	-12.6702
▁fiji	-12.6703
▁appalled	-12.6703
▁inaccurate	-12.6703
▁kremlin	-12.6703
▁souchet	-12.6703
▁salmonella	-12.6703
▁tillich	-12.6703
▁depopulation	-12.6703
▁fever	-12.6704
▁polo	-12.6704
▁boel	-12.6704
▁certified	-12.6704
▁unwise	-12.6704
▁enlightened	-12.6705
▁relaxed	-12.6706
▁universality	-12.6706
fits	-12.6709
▁practitioners	-12.6709
▁smokers	-12.6711
iv	-12.6718
▁farce	-12.6723
▁carpet	-12.6724
▁kilometre	-12.6726
▁uniting	-12.6732
▁profiles	-12.6735
▁upwards	-12.6736
▁5.	-12.6738
7/	-12.6743
▁pr	-12.6748
sproportionately	-12.675
▁cooperatives	-12.6758
▁interconnected	-12.676
▁z	-12.6762
état	-12.6764
represented	-12.6764
▁discredit	-12.6765
▁catania	-12.6771
▁marvellous	-12.6771
▁mockery	-12.6771
▁probable	-12.6771
▁sturdy	-12.6771
▁goldstone	-12.6771
▁petty	-12.6771
▁stevenson	-12.6771
▁unsuitable	-12.6771
▁1984	-12.6772
▁prioritising	-12.6772
▁operative	-12.6773
mi	-12.6779
▁farage	-12.6783
▁moldovan	-12.6784
▁rewards	-12.6788
▁proposition	-12.6792
▁crack	-12.6793
▁mixture	-12.6793
scott	-12.68
enterprises	-12.6802
ator	-12.6804
▁restate	-12.6809
fa	-12.6815
0%	-12.6816
half	-12.6821
▁disappoint	-12.6833
much	-12.6833
youth	-12.6834
cutting	-12.6838
▁dissatisfied	-12.684
▁exacerbating	-12.684
▁frequencies	-12.684
▁satisfies	-12.684
▁tehran	-12.684
▁electors	-12.684
▁trapping	-12.684
▁abusive	-12.684
▁leyla	-12.684
▁richard	-12.684
▁equivalence	-12.684
▁aroused	-12.6841
▁colom	-12.6841
sh	-12.6841
▁rationalisation	-12.6841
▁eagerly	-12.6841
▁lion	-12.6841
6-03	-12.6842
▁gps	-12.6842
▁locked	-12.6843
▁resistant	-12.6843
▁county	-12.6847
▁beverages	-12.6848
▁79	-12.6849
▁withholding	-12.6852
▁hurt	-12.6857
▁kok	-12.6858
▁plastic	-12.6862
▁enhances	-12.6864
▁gill	-12.6869
▁tacs	-12.6869
▁eurosceptics	-12.6873
▁cater	-12.6875
▁band	-12.6878
der	-12.6879
▁containers	-12.6881
▁pav	-12.6882
▁0	-12.6889
▁dogs	-12.6891
ari	-12.6894
ki	-12.6894
▁pains	-12.6899
▁brothers	-12.6906
#	-12.6909
▁multitude	-12.6909
▁verbatim	-12.6909
▁destabilisation	-12.6909
▁copies	-12.6909
▁emas	-12.6909
▁relaxation	-12.6909
eviating	-12.6909
▁hammer	-12.6909
▁arias	-12.691
▁immensely	-12.6913
▁prosecutors	-12.6916
▁sciences	-12.6917
▁preparedness	-12.6919
▁centralisation	-12.6923
6-02	-12.6924
▁satellites	-12.6925
▁bankers	-12.6928
▁stayed	-12.6928
▁transplant	-12.693
istic	-12.6939
▁92	-12.6946
▁handicaps	-12.6949
ph	-12.6953
▁dated	-12.6958
▁bypass	-12.6961
people	-12.6969
women	-12.6971
▁deriv	-12.6974
▁cool	-12.6975
▁educating	-12.6978
▁innocence	-12.6978
▁junior	-12.6978
▁lahti	-12.6978
▁miguel	-12.6978
▁napoletano	-12.6978
▁stemming	-12.6978
▁tenacity	-12.6978
▁unpredictable	-12.6978
▁utility	-12.6978
emptive	-12.6978
ancona	-12.6979
▁brutality	-12.6979
▁overarching	-12.6979
▁versa	-12.698
▁wounded	-12.698
▁veld	-12.698
▁supervised	-12.698
▁redefine	-12.6984
▁refund	-12.6984
▁flourishing	-12.6985
▁cambodian	-12.6985
▁cheaply	-12.6986
▁chooses	-12.6986
▁converting	-12.6987
▁neglecting	-12.6991
▁broadcasts	-12.6994
▁compound	-12.6999
acp	-12.7
▁fundamentalists	-12.7001
▁metal	-12.7001
▁152	-12.7001
▁combines	-12.7007
den	-12.7013
reading	-12.7015
tending	-12.702
▁83	-12.7034
▁prefers	-12.7038
▁reiterates	-12.7044
▁asymmetric	-12.7045
▁disciplines	-12.7048
▁catalonia	-12.7048
▁enquiries	-12.7048
▁exodus	-12.7048
▁mcnally	-12.7048
▁stubb	-12.7048
▁plooij	-12.7048
▁recurring	-12.7048
▁1.3	-12.7049
▁penalising	-12.7049
▁85%	-12.7049
▁nafo	-12.7049
▁affirmation	-12.7049
ha	-12.705
▁gomes	-12.705
▁morality	-12.705
▁coping	-12.7055
▁entailed	-12.7057
▁sin	-12.7057
▁94	-12.7057
▁infring	-12.7064
▁riots	-12.7065
▁protested	-12.7065
▁persuasion	-12.7071
▁guarantor	-12.7071
-00	-12.7078
▁prey	-12.7079
▁destroys	-12.7086
▁delivers	-12.7096
▁goodness	-12.7098
▁print	-12.7098
%	-12.7106
▁missiles	-12.711
labelling	-12.7111
income	-12.7112
lu	-12.7116
▁savage	-12.7117
▁greed	-12.7118
eur	-12.7118
▁resounding	-12.7118
▁cederschiöld	-12.7119
▁comparability	-12.7119
▁frustrating	-12.7119
▁ideologies	-12.7119
▁neves	-12.7119
▁logging	-12.7119
▁plurality	-12.7119
▁warfare	-12.7119
▁sparsely	-12.7119
▁unpopular	-12.7119
▁vehemently	-12.7119
▁deserving	-12.7119
▁grew	-12.7119
▁districts	-12.7119
▁menrad	-12.7119
▁cabin	-12.7119
▁nail	-12.7119
▁patentability	-12.7119
▁phrases	-12.7119
4-05	-12.712
▁noticeable	-12.7121
▁worsened	-12.7121
▁sizeable	-12.7122
▁workload	-12.7123
▁torres	-12.7124
▁salt	-12.7126
▁ldcs	-12.713
▁virtues	-12.713
▁designate	-12.7135
▁regionalisation	-12.7135
▁engineers	-12.714
▁receipt	-12.7142
▁73	-12.7166
▁fa	-12.7172
gen	-12.7176
▁23,	-12.7181
▁commemorate	-12.7188
▁anonymous	-12.7188
▁herzog	-12.719
▁kratsa	-12.719
▁prominence	-12.719
▁releasing	-12.719
▁onerous	-12.719
▁rojo	-12.719
▁organizing	-12.719
▁durable	-12.719
▁cameroon	-12.719
▁breadth	-12.719
▁tragically	-12.7191
▁reuse	-12.7192
▁shooting	-12.7193
▁pretending	-12.72
▁instituted	-12.7202
▁hill	-12.7202
▁bowe	-12.7202
bar	-12.7209
▁manual	-12.7213
▁pocket	-12.7214
▁disorder	-12.7215
▁importer	-12.7219
▁negatively	-12.722
▁inaction	-12.7241
▁akin	-12.7243
handling	-12.7253
▁cook	-12.7255
▁apology	-12.7261
▁imaginative	-12.7261
▁investigative	-12.7261
▁jeggle	-12.7261
▁mcmillan	-12.7261
▁miranda	-12.7261
▁reminiscent	-12.7261
▁fraction	-12.7261
▁married	-12.7261
▁vinci	-12.7261
▁fanaticism	-12.7261
▁inertia	-12.7261
▁simplicity	-12.7261
▁presumption	-12.7261
▁1956	-12.7261
▁sacrificing	-12.7261
▁communicable	-12.7261
▁doorstep	-12.7261
▁bridging	-12.7261
▁aggravated	-12.7262
▁eroded	-12.7262
▁prospective	-12.7262
▁manifestly	-12.7263
▁installed	-12.7263
▁rothe	-12.7268
▁insulting	-12.7271
turn	-12.7272
▁petitioners	-12.7279
▁grouping	-12.7281
▁105	-12.7282
▁questionnaire	-12.7286
▁avenues	-12.7286
▁negotiator	-12.7286
▁eea	-12.7288
▁worsen	-12.7289
▁1993.	-12.729
▁maria	-12.7305
▁poet	-12.7308
▁distorts	-12.7311
▁orderly	-12.7315
▁additions	-12.7318
origin	-12.7325
▁designs	-12.7327
▁pe	-12.733
▁ambiguities	-12.7333
▁library	-12.7333
▁handicapped	-12.7333
▁kidnapped	-12.7333
▁turin	-12.7333
▁till	-12.7333
▁shaken	-12.7334
ee	-12.7335
▁empowered	-12.7335
▁regeneration	-12.7335
▁authorized	-12.7335
▁evolved	-12.7335
▁overfishing	-12.7338
▁aligned	-12.734
▁carlos	-12.7348
▁oils	-12.735
▁89	-12.7353
▁halting	-12.7357
▁assistant	-12.7359
matthews	-12.7364
ik	-12.7365
empt	-12.7366
▁contacted	-12.7368
11	-12.738
▁correcting	-12.7381
ily	-12.7385
▁mg	-12.7392
▁bare	-12.7398
including	-12.7398
ina	-12.7398
▁paradigm	-12.7405
▁allergies	-12.7405
▁berisha	-12.7405
▁diversified	-12.7405
▁intermediary	-12.7405
▁papua	-12.7405
▁schüssel	-12.7405
▁sincerity	-12.7405
▁synthesis	-12.7405
▁anglo	-12.7405
▁seemingly	-12.7405
▁geostrategic	-12.7405
▁misled	-12.7406
▁deficient	-12.7406
▁17%	-12.7407
▁mcguinness	-12.7407
▁anchored	-12.7407
▁fares	-12.7407
▁cheapest	-12.7407
▁optimise	-12.7407
▁overweight	-12.7407
▁typically	-12.741
▁safest	-12.7413
▁basing	-12.7413
▁cmo	-12.7415
ical	-12.7418
ating	-12.7424
▁bos	-12.7431
▁favourite	-12.7431
▁belts	-12.744
▁orientations	-12.7448
▁destinations	-12.745
▁landed	-12.7456
▁112	-12.7465
paid	-12.7465
western	-12.7471
finding	-12.7471
▁jump	-12.7472
▁perpetuate	-12.7477
▁compensating	-12.7478
▁dominance	-12.7478
▁endemic	-12.7478
▁exaggeration	-12.7478
▁kabila	-12.7478
▁mccartin	-12.7478
▁practising	-12.7478
▁subsistence	-12.7478
▁impending	-12.7478
▁disintegration	-12.7478
▁beekeeping	-12.7479
▁rubbish	-12.7479
▁fruition	-12.7479
▁admitting	-12.748
▁pharmaceuticals	-12.748
▁fait	-12.748
▁unconditionally	-12.7481
▁rushed	-12.7483
▁surprisingly	-12.7484
▁asserted	-12.7484
▁occasional	-12.7484
ot	-12.7488
ud	-12.7499
▁pedestrians	-12.75
▁rocket	-12.75
▁murderers	-12.7501
▁tamil	-12.7504
▁shortcoming	-12.7505
14	-12.7521
▁sham	-12.7536
void	-12.7543
▁stateless	-12.7544
grass	-12.7545
communist	-12.7545
▁conclusive	-12.7551
▁dawn	-12.7552
▁futile	-12.7552
▁hybrid	-12.7552
▁illogical	-12.7552
▁revenge	-12.7552
▁smith	-12.7552
▁twentieth	-12.7552
▁zapatero	-12.7552
▁cheese	-12.7552
▁tricky	-12.7552
▁guess	-12.7553
▁bbc	-12.7553
▁circulated	-12.7553
▁enduring	-12.7554
▁suppressed	-12.7555
▁sailing	-12.7555
▁ruined	-12.7555
▁shy	-12.7556
ó	-12.7559
▁mont	-12.7561
▁abortions	-12.7569
▁freeing	-12.757
▁forbid	-12.7572
▁blacklist	-12.7576
▁strand	-12.7577
▁tap	-12.7578
▁audience	-12.7578
wa	-12.7579
vo	-12.7583
▁29,	-12.7583
▁bombings	-12.7585
ap	-12.7589
▁contravenes	-12.7606
▁accus	-12.7609
▁tread	-12.7613
▁withdrew	-12.7614
▁chickens	-12.7614
▁bahrain	-12.7623
▁revitalise	-12.7625
▁ahtisaari	-12.7626
▁chaotic	-12.7626
▁epidemiological	-12.7626
▁füle	-12.7626
▁niebler	-12.7626
▁susceptible	-12.7626
▁turbulence	-12.7626
▁denouncing	-12.7626
▁straw	-12.7626
▁overlapping	-12.7626
▁adventure	-12.7626
▁fernandes	-12.7626
▁attachment	-12.7627
▁spade	-12.7627
▁paedophilia	-12.7627
▁adaptability	-12.7627
tan	-12.7627
▁attraction	-12.7629
▁incorrectly	-12.763
▁behaved	-12.763
qui	-12.7632
▁droughts	-12.7632
only	-12.7634
amp	-12.7635
ty	-12.7637
▁modifying	-12.7638
▁remarked	-12.7639
▁tactical	-12.764
▁switching	-12.7641
▁harmless	-12.7645
▁awaited	-12.7646
mar	-12.765
▁gauge	-12.7652
▁designing	-12.7655
▁ki	-12.7663
▁dur	-12.7664
▁reflections	-12.7666
▁ripe	-12.7667
▁wordings	-12.7671
▁smet	-12.7686
approval	-12.7693
consuming	-12.7693
▁kills	-12.7698
▁boom	-12.77
▁energetic	-12.7701
▁coercion	-12.7701
▁discouraging	-12.7701
▁ombudsmen	-12.7701
▁unacceptably	-12.7701
▁compelling	-12.7701
▁timorese	-12.7701
▁collateral	-12.7701
▁interdependent	-12.7701
▁disguised	-12.7703
▁reinstate	-12.7703
▁waive	-12.7703
tu	-12.7704
▁spirits	-12.7708
ria	-12.7714
▁ge	-12.7715
▁sinn	-12.7721
▁geo	-12.7726
▁carriage	-12.7728
▁husband	-12.7728
▁supermarket	-12.7729
6-01	-12.7737
▁wounds	-12.7737
ster	-12.7741
ev	-12.7742
50	-12.7746
▁auction	-12.775
▁horses	-12.775
rich	-12.7759
▁pilots	-12.7768
awaited	-12.7768
▁preach	-12.7769
▁surround	-12.7769
▁inferior	-12.7776
▁complacency	-12.7776
▁jöns	-12.7776
▁recognizing	-12.7776
▁syndrome	-12.7776
▁boeing	-12.7776
▁termination	-12.7776
▁103(2)	-12.7776
▁diligence	-12.7776
▁relocating	-12.7776
▁louis	-12.7776
▁pseudo	-12.7776
▁mildly	-12.7777
▁confiscated	-12.7777
▁pessimism	-12.7777
▁overshadowed	-12.7777
irresponsibility	-12.7778
▁firmness	-12.778
▁manifesto	-12.7781
▁conspicuous	-12.7783
size	-12.7784
▁modu	-12.7784
▁tactic	-12.7792
legislator	-12.7796
▁sexually	-12.7796
▁creators	-12.7797
▁fan	-12.78
▁segment	-12.7804
▁activist	-12.7805
▁tb	-12.782
▁slowing	-12.7821
latin	-12.7821
▁directing	-12.7824
▁screens	-12.7829
tz	-12.7834
fly	-12.7837
peripheral	-12.7844
0(	-12.7845
▁mislead	-12.7847
▁conserve	-12.785
▁culmination	-12.7852
▁indivisible	-12.7852
▁marques	-12.7852
▁scrapped	-12.7852
▁alibi	-12.7852
▁decentralized	-12.7852
▁fatalities	-12.7852
▁negligible	-12.7852
▁vietnamese	-12.7852
▁periphery	-12.7852
▁anthem	-12.7852
▁flemish	-12.7852
▁informative	-12.7852
▁waging	-12.7852
▁interactive	-12.7852
▁retired	-12.7853
▁16%	-12.7853
▁efsa	-12.7853
ut	-12.7853
▁instructed	-12.7853
▁regularity	-12.7854
▁underlie	-12.7854
▁centrally	-12.7856
▁romanians	-12.7857
▁2007-2013.	-12.786
▁promotional	-12.7863
▁injustices	-12.7865
▁115	-12.7866
net	-12.7875
▁influences	-12.7876
ard	-12.7876
▁oriented	-12.7878
▁workplaces	-12.7883
hitting	-12.7886
▁uneven	-12.7894
israel	-12.792
explanation	-12.7921
▁inspect	-12.7921
ended	-12.7922
▁reaffirms	-12.7923
▁circulate	-12.7927
▁implicit	-12.7927
▁adhering	-12.7928
▁grubbing	-12.7928
▁jouyet	-12.7928
▁karamanou	-12.7928
▁pöttering	-12.7928
▁rapkay	-12.7928
▁reversing	-12.7928
▁sacrosanct	-12.7928
▁sorrow	-12.7928
▁unreported	-12.7928
▁leghold	-12.7928
▁charity	-12.7928
▁disguise	-12.7929
▁levied	-12.7929
▁milan	-12.7929
▁trapped	-12.7929
▁disturbed	-12.793
▁loudly	-12.7931
▁acceded	-12.7932
▁tracks	-12.7932
▁oneself	-12.7935
▁survived	-12.7936
▁markedly	-12.7937
▁dispense	-12.795
▁wip	-12.7951
▁judgements	-12.7956
▁tiger	-12.7958
▁po	-12.7963
▁poll	-12.7964
▁succeeds	-12.7969
▁boarding	-12.797
▁lowered	-12.7975
▁ensu	-12.7975
can	-12.7978
usz	-12.7981
commission	-12.7985
▁brakes	-12.7985
▁honouring	-12.7994
▁mount	-12.7998
▁bavaria	-12.8004
▁awkward	-12.8005
▁curriculum	-12.8005
▁radwan	-12.8005
▁salvador	-12.8005
▁schwab	-12.8005
▁brinkhorst	-12.8005
▁klaß	-12.8005
▁hurry	-12.8005
▁stumbling	-12.8005
▁motherhood	-12.8005
▁umpteenth	-12.8005
▁defective	-12.8005
▁unauthorised	-12.8005
▁miller	-12.8005
▁deported	-12.8006
▁carte	-12.8007
▁weighed	-12.8008
▁prioritised	-12.8008
▁eradicated	-12.8009
▁ethiopian	-12.8011
▁ash	-12.8011
▁contention	-12.8011
▁dared	-12.8012
▁pooling	-12.8013
▁consultants	-12.8024
▁boast	-12.803
▁height	-12.8031
▁episode	-12.8035
op	-12.8038
▁boy	-12.8038
▁longest	-12.8041
▁usefully	-12.8043
▁wary	-12.8053
▁128	-12.8053
road	-12.8053
▁fun	-12.8056
▁owes	-12.8074
council	-12.8075
neath	-12.8076
▁1408/71	-12.8082
▁fortnight	-12.8082
▁gorsel	-12.8082
▁imbeni	-12.8082
▁literacy	-12.8082
▁plutonium	-12.8082
▁redundancy	-12.8082
▁seldom	-12.8082
▁shirk	-12.8082
▁exploration	-12.8082
▁confiscation	-12.8082
▁oppressive	-12.8082
▁clothes	-12.8083
▁battery	-12.8083
▁thorny	-12.8083
▁.–	-12.8083
▁devil	-12.8083
▁cake	-12.8083
▁caspian	-12.8083
▁paint	-12.8083
▁9.00	-12.8083
▁chilean	-12.8083
▁laden	-12.8083
▁kg	-12.8084
▁dispose	-12.8085
▁hunt	-12.8085
▁broadened	-12.8088
▁nationalistic	-12.809
▁betray	-12.8091
▁reintroduce	-12.8092
wi	-12.8093
▁confines	-12.8095
ber	-12.8095
▁displaying	-12.8098
▁islamist	-12.8099
environmental	-12.8102
▁predictions	-12.8104
▁disturbances	-12.8105
▁occurrences	-12.8107
▁peres	-12.811
▁habitat	-12.8113
▁aeroplane	-12.8114
▁zimbabwean	-12.8115
med	-12.8119
▁macedonian	-12.8119
▁108	-12.8121
▁guests	-12.8122
▁ventures	-12.8122
5%	-12.8134
value	-12.8144
mt	-12.8151
robles	-12.8153
▁avoids	-12.8155
genic	-12.8158
▁rationalise	-12.816
▁exploring	-12.816
▁gazprom	-12.816
▁giansily	-12.816
▁gutiérrez	-12.816
▁kirkhope	-12.816
▁spectacle	-12.816
▁verifiable	-12.816
▁charles	-12.816
▁ruthless	-12.8161
▁acquainted	-12.8161
▁philosopher	-12.8161
▁diverted	-12.8162
▁porto	-12.8165
▁myanmar	-12.8167
▁mindset	-12.8167
▁provisionally	-12.8169
▁supplementing	-12.818
▁mari	-12.8184
▁alien	-12.8191
▁manifestation	-12.8192
▁repayment	-12.8193
▁sink	-12.8196
▁rank	-12.8198
-07	-12.82
▁beating	-12.82
▁1.1	-12.8205
▁reformist	-12.8205
presidents	-12.8205
▁1992.	-12.8208
ious	-12.8215
tre	-12.8223
7(	-12.8237
▁deceive	-12.8238
▁conscientious	-12.8238
▁volcan	-12.8239
▁aarhus	-12.8239
▁affront	-12.8239
▁barbarity	-12.8239
▁bucharest	-12.8239
▁díaz	-12.8239
▁escalating	-12.8239
▁hizbollah	-12.8239
▁fifa	-12.8239
▁draftsmen	-12.8239
▁multimedia	-12.8239
▁armies	-12.8239
▁utopian	-12.824
▁burnt	-12.824
▁0.5	-12.824
▁quasi	-12.824
▁stir	-12.824
▁trail	-12.8242
▁recruited	-12.8242
▁commonplace	-12.8242
▁lent	-12.8244
▁sequence	-12.8244
ek	-12.8245
▁gestures	-12.8247
▁stimulated	-12.8248
▁pulled	-12.825
▁relaunching	-12.8251
▁implants	-12.8255
▁97	-12.8258
▁unrelated	-12.8261
▁abus	-12.8269
▁21,	-12.827
▁cloud	-12.8271
▁coastguard	-12.8271
▁militias	-12.8281
ey	-12.8298
▁lacked	-12.8304
25	-12.8311
▁struggles	-12.8313
▁foolish	-12.8317
▁recess	-12.8318
mitigating	-12.8319
▁calves	-12.8319
▁hernández	-12.8319
▁malnutrition	-12.8319
▁mollar	-12.8319
▁rotterdam	-12.8319
▁sahrawi	-12.8319
▁silva	-12.8319
▁tonnage	-12.8319
▁virrankoski	-12.8319
▁dimitrakopoulos	-12.8319
▁technocratic	-12.8319
▁fabra	-12.8319
▁wretched	-12.8319
▁durban	-12.8319
▁channelling	-12.8319
▁nazism	-12.832
▁flouted	-12.832
▁radicalisation	-12.8321
▁dedicate	-12.8322
▁emit	-12.8323
▁confer	-12.8332
▁surprises	-12.8333
talling	-12.8334
▁shifts	-12.8336
▁willingly	-12.8338
▁mixing	-12.8342
▁outlets	-12.8342
▁137	-12.8344
▁fool	-12.8344
taining	-12.8351
▁reassurance	-12.8351
▁implication	-12.8352
▁inward	-12.8352
▁blocs	-12.8356
▁sights	-12.8357
▁ar	-12.8357
▁bosnian	-12.8358
▁wim	-12.8361
▁differential	-12.8364
dy	-12.8365
▁emi	-12.8376
.5%	-12.8383
▁cons	-12.839
▁somali	-12.8391
creating	-12.8391
▁tackles	-12.8396
▁andalusia	-12.8396
▁proverb	-12.8398
▁contingent	-12.8399
▁flax	-12.8399
▁inextricabl	-12.8399
▁maternal	-12.8399
▁naming	-12.8399
▁polledo	-12.8399
▁protracted	-12.8399
▁rühle	-12.8399
▁silver	-12.8399
▁venice	-12.8399
▁overtaken	-12.8399
▁paralysed	-12.8399
9(	-12.84
▁pursues	-12.841
sex	-12.841
▁buck	-12.8413
usa	-12.8414
▁resisting	-12.8416
▁replaces	-12.8421
▁socioeconomic	-12.8422
▁heroin	-12.8423
▁plug	-12.843
▁orphan	-12.8431
▁museum	-12.8432
▁antibiotic	-12.8432
▁tracking	-12.844
two	-12.8444
ltering	-12.8445
▁admits	-12.8445
▁registering	-12.8449
▁bore	-12.8452
my	-12.8453
ological	-12.846
▁sweep	-12.8475
▁ski	-12.8476
▁indulge	-12.8478
▁candidacy	-12.8479
▁chávez	-12.8479
▁ludicrous	-12.8479
▁mandela	-12.8479
▁persuading	-12.8479
▁remembrance	-12.8479
▁dinner	-12.8479
▁dogmatic	-12.8479
▁goepel	-12.8479
▁quantified	-12.8479
▁depression	-12.8479
▁forcibly	-12.8479
▁poos	-12.8479
▁assemblies	-12.8479
▁lamentable	-12.8479
▁deprivation	-12.848
▁impoverished	-12.848
▁sidelined	-12.848
▁deception	-12.848
▁consciousness	-12.848
▁refute	-12.848
▁inspiring	-12.848
▁dumped	-12.8481
▁vitality	-12.8486
▁viii	-12.8487
▁governs	-12.8489
▁rewarding	-12.8489
▁canaries	-12.8492
▁patently	-12.8494
/21	-12.8497
▁contractors	-12.8508
▁yearly	-12.8509
▁herds	-12.851
▁bode	-12.851
▁lock	-12.8512
▁arsenal	-12.8513
▁handicap	-12.8514
▁galician	-12.8514
▁das	-12.8515
▁writer	-12.8516
▁stakes	-12.8535
07	-12.8535
ang	-12.854
▁chambers	-12.8547
▁countering	-12.8552
pi	-12.8554
▁coexist	-12.8555
▁gifts	-12.8556
aire	-12.8559
▁deviate	-12.8559
▁mario	-12.8559
▁vocation	-12.856
▁compassion	-12.8561
▁competencies	-12.8561
▁fertile	-12.8561
▁gahrton	-12.8561
▁gauzès	-12.8561
▁ghilardotti	-12.8561
▁hieronymi	-12.8561
▁incompetence	-12.8561
▁lewandowski	-12.8561
▁vallelersundi	-12.8561
▁álvarez	-12.8561
▁modalities	-12.8561
▁murderous	-12.8561
▁suitability	-12.8561
▁45%	-12.8561
ris	-12.8562
▁750	-12.8562
▁formality	-12.8563
▁reconstruct	-12.8566
▁venezuelan	-12.8566
▁lankan	-12.8567
▁assign	-12.8578
▁84	-12.8595
▁kidnapping	-12.8595
▁infant	-12.8595
▁tyre	-12.8596
▁terminal	-12.8596
lasting	-12.8609
▁notions	-12.8618
▁interpol	-12.8627
ez	-12.8632
standard	-12.8635
violent	-12.8635
▁downwards	-12.8636
▁schooling	-12.8636
▁marie	-12.8638
▁aelvoet	-12.8643
▁decency	-12.8643
▁invoking	-12.8643
▁kovács	-12.8643
▁penetration	-12.8643
▁unease	-12.8643
▁wulf	-12.8643
▁bernard	-12.8643
▁abundance	-12.8643
▁cancelling	-12.8643
▁tsatsos	-12.8643
▁virgin	-12.8643
▁extracted	-12.8645
rely	-12.8646
▁overcapacity	-12.8646
▁originated	-12.8647
▁235	-12.8649
ping	-12.865
▁adolescents	-12.8651
od	-12.8652
▁firmer	-12.8654
▁tended	-12.8654
abiding	-12.8655
-05	-12.8663
▁patented	-12.8671
▁inflict	-12.8672
▁inactive	-12.8673
4)	-12.8675
▁blanket	-12.8678
▁upheaval	-12.8678
▁tunnels	-12.8679
▁wondered	-12.868
▁defect	-12.8681
▁thanked	-12.8681
▁criticises	-12.8689
▁24,	-12.8702
crisis	-12.8718
from	-12.8719
india	-12.8719
▁veil	-12.8723
▁blottnitz	-12.8725
▁bueno	-12.8725
▁coffers	-12.8725
▁etcetera	-12.8725
▁hübner	-12.8725
▁medvedev	-12.8725
▁pimenta	-12.8725
▁speculate	-12.8725
▁svensson	-12.8725
▁klamt	-12.8725
▁vidal	-12.8725
▁bias	-12.8725
▁1945	-12.8725
▁11.00	-12.8726
▁hair	-12.8726
▁brush	-12.8726
▁14%	-12.8727
▁modernization	-12.8727
▁theoretically	-12.8728
▁survivors	-12.8729
▁athletes	-12.873
▁consuming	-12.8733
▁protagonists	-12.8737
such	-12.8737
▁architects	-12.8741
▁inner	-12.8742
▁herald	-12.876
▁legitimise	-12.876
▁hindrance	-12.8761
▁separatist	-12.8761
▁bottle	-12.8761
▁litre	-12.8763
▁shore	-12.8766
▁harming	-12.8768
▁280	-12.8776
ger	-12.8778
1(	-12.8778
▁rockets	-12.8778
▁pin	-12.8779
▁examines	-12.8801
▁crash	-12.8801
▁rod	-12.8805
▁condone	-12.8807
▁erroneous	-12.8807
▁emphatic	-12.8808
▁bacteria	-12.8808
▁amateur	-12.8808
▁admissibility	-12.8808
▁cowardly	-12.8808
▁formidable	-12.8808
▁indictment	-12.8808
▁netanyahu	-12.8808
▁penetrate	-12.8808
▁paulsen	-12.8809
▁litigation	-12.8809
▁alluded	-12.8809
▁prince	-12.8809
▁focussed	-12.8809
▁11%	-12.881
▁attractiveness	-12.881
▁133	-12.881
▁materialise	-12.8811
▁wiser	-12.8811
▁widened	-12.8812
ite	-12.8814
cy	-12.8816
▁intervals	-12.8819
▁particles	-12.8821
▁190	-12.8824
▁declares	-12.8825
▁fullest	-12.883
▁lifestyles	-12.8834
▁releases	-12.8838
ru	-12.8842
2000)	-12.8842
▁broker	-12.8844
▁thread	-12.8846
▁circumstance	-12.8846
▁derives	-12.8848
▁setback	-12.8854
90	-12.8859
▁clearest	-12.8862
ou	-12.8868
▁guns	-12.887
nato	-12.887
▁originates	-12.8873
pp	-12.8874
95	-12.8877
5/	-12.8878
who	-12.8881
▁slaves	-12.8886
▁bargain	-12.8888
▁stipulat	-12.8888
▁hint	-12.8891
▁powder	-12.8891
▁1000	-12.8891
▁stifle	-12.8891
▁staunch	-12.8891
▁obliging	-12.8893
▁petersberg	-12.8893
▁ritual	-12.8893
▁societal	-12.8893
▁discontent	-12.8893
wolski	-12.8893
▁editorial	-12.8893
▁leakage	-12.8893
▁unbearable	-12.8893
▁disclose	-12.8893
▁99%	-12.8893
▁innovate	-12.8893
▁unworthy	-12.8893
▁savers	-12.8894
▁personalities	-12.8894
▁irony	-12.8896
▁marshall	-12.8896
▁endured	-12.8896
▁unusually	-12.8896
▁filed	-12.8897
▁fake	-12.8897
▁raped	-12.8899
▁grasped	-12.8899
▁sary	-12.8906
lin	-12.8906
▁invitations	-12.8908
▁vitamins	-12.8912
ny	-12.8914
ack	-12.8915
sen	-12.8921
▁hurdles	-12.8921
▁bow	-12.8927
gu	-12.8929
▁elephant	-12.893
▁kosovar	-12.893
▁constraint	-12.8931
rk	-12.8933
▁precedents	-12.8939
▁est	-12.8944
ip	-12.8964
▁2003/	-12.8967
intentioned	-12.897
▁boil	-12.897
soft	-12.8973
▁execute	-12.8976
dörfler	-12.8977
quadras	-12.8977
▁demonstrabl	-12.8977
▁depletion	-12.8977
▁estévez	-12.8977
▁hemicycle	-12.8977
▁hoppenstedt	-12.8977
▁kindermann	-12.8977
▁kreissl	-12.8977
▁nagorno	-12.8977
▁nisticò	-12.8977
▁therapies	-12.8977
▁unquestionable	-12.8977
▁wijkman	-12.8977
▁belarussian	-12.8977
▁entertainment	-12.8977
▁redeployment	-12.8977
▁suitably	-12.8977
▁breeders	-12.8977
▁pluralistic	-12.8978
▁swine	-12.8978
▁voggenhuber	-12.8978
▁interlinked	-12.8978
▁bright	-12.8979
▁raging	-12.8979
▁disseminated	-12.8979
▁builds	-12.8979
▁earmarking	-12.8981
▁lessen	-12.8984
▁speeds	-12.8986
▁drafts	-12.8989
▁sidelines	-12.8989
▁crossings	-12.8991
▁pronouncements	-12.8992
▁helicopters	-12.8994
▁trampl	-12.8995
▁rulers	-12.9
▁lands	-12.9006
▁sen	-12.9012
▁shell	-12.9012
pr	-12.9012
▁vii	-12.9012
▁achieves	-12.9014
▁roof	-12.9016
▁ingredient	-12.9016
▁aires	-12.9017
tax	-12.9019
▁container	-12.9024
▁backgrounds	-12.9031
▁joins	-12.9038
▁inject	-12.9039
04	-12.9051
▁realises	-12.9054
four	-12.9056
son	-12.906
▁ga	-12.906
▁tanzania	-12.9061
▁compile	-12.9061
▁nervous	-12.9062
mathies	-12.9063
▁aegean	-12.9063
▁comoros	-12.9063
▁ghent	-12.9063
▁illegitimate	-12.9063
▁ortuondo	-12.9063
▁supremacy	-12.9063
▁unwarranted	-12.9063
▁vallés	-12.9063
▁donnelly	-12.9063
▁sewage	-12.9063
▁endocrine	-12.9063
▁discretionary	-12.9063
▁pious	-12.9064
▁bloch	-12.9064
▁9%	-12.9066
▁repealed	-12.9067
▁parking	-12.9069
▁slower	-12.9069
▁consisted	-12.907
▁crying	-12.9071
▁grossly	-12.9073
▁encompassing	-12.9073
▁temperatures	-12.9076
▁microfinance	-12.9076
28	-12.9077
▁rent	-12.9086
seven	-12.9088
▁invisible	-12.9092
▁precaution	-12.9102
▁evidenced	-12.9102
▁devaluation	-12.9102
▁medication	-12.9102
▁interruption	-12.9104
▁gloss	-12.9106
▁interact	-12.9114
aid	-12.9117
ib	-12.912
▁91	-12.9128
▁ets	-12.9138
power	-12.9139
considered	-12.9141
▁empower	-12.9142
▁undertakes	-12.9145
▁induce	-12.9147
▁persevere	-12.9148
▁receptive	-12.9149
▁responsive	-12.9149
margallo	-12.9149
▁bauer	-12.9149
▁discriminating	-12.9149
▁inadequacies	-12.9149
▁irreplaceable	-12.9149
▁liabilities	-12.9149
▁petersburg	-12.9149
▁prosecuting	-12.9149
▁truce	-12.9149
▁resale	-12.9149
▁rubber	-12.9149
▁mayors	-12.915
▁borg	-12.915
▁selfish	-12.915
▁partition	-12.915
▁signalled	-12.9151
▁stalinist	-12.9151
▁traced	-12.9152
▁activated	-12.9152
▁esa	-12.9155
▁yielded	-12.9156
▁sam	-12.9158
fe	-12.916
▁infamous	-12.9165
▁overthrow	-12.9173
credit	-12.9181
▁trucks	-12.9183
▁workshops	-12.9184
▁freer	-12.9186
▁commercially	-12.9186
▁attribute	-12.9187
ire	-12.9193
▁panels	-12.9194
▁pm	-12.9195
▁transplants	-12.9208
▁readings	-12.9211
▁4.5	-12.9212
▁gu	-12.9216
▁divergences	-12.9217
▁measurements	-12.9223
12	-12.9228
▁ruins	-12.9232
▁restart	-12.9232
added	-12.9232
▁unblock	-12.9234
▁scandinavia	-12.9235
▁imperfect	-12.9236
▁färm	-12.9236
▁maccormick	-12.9236
▁myller	-12.9236
▁piecyk	-12.9236
▁turbulent	-12.9236
▁wiersma	-12.9236
neyra	-12.9236
▁gucht	-12.9236
▁basle	-12.9236
▁stuff	-12.9236
▁energetically	-12.9236
▁provan	-12.9236
▁implicitly	-12.9237
▁heightened	-12.9237
▁remoteness	-12.9237
▁visionary	-12.9238
▁impaired	-12.9239
▁hail	-12.9241
▁leg	-12.9241
▁administering	-12.9244
▁intelligently	-12.9245
▁walking	-12.9246
▁coincides	-12.9248
discriminately	-12.9251
▁harmed	-12.9256
▁polluters	-12.9263
▁dangerously	-12.9273
▁169	-12.928
▁campaigned	-12.9288
▁122	-12.9291
▁earning	-12.9297
▁decidedly	-12.9298
án	-12.9308
▁implements	-12.9308
▁celebrations	-12.9315
▁reassess	-12.9322
▁activate	-12.9322
▁incisive	-12.9324
▁inseparable	-12.9324
▁lalumière	-12.9324
▁macartney	-12.9324
▁nairobi	-12.9324
▁occupies	-12.9324
▁relied	-12.9324
▁schörling	-12.9324
▁santos	-12.9324
▁rife	-12.9324
▁incalculable	-12.9324
▁albertini	-12.9324
▁agro	-12.9324
▁marset	-12.9324
▁uncomfortable	-12.9324
▁symptomatic	-12.9324
▁kozloduy	-12.9324
▁inspected	-12.9326
▁acutely	-12.9329
▁keenly	-12.9335
▁monks	-12.9336
▁fostered	-12.9339
▁fired	-12.9343
4(	-12.9347
▁stays	-12.9347
▁picking	-12.9353
▁113	-12.9354
▁mesh	-12.9355
▁tending	-12.9362
▁enshrine	-12.9364
▁militia	-12.9365
▁rhetorical	-12.9365
▁soldier	-12.9366
▁tears	-12.9367
▁classical	-12.9376
-10	-12.938
ology	-12.9382
▁privately	-12.9383
calls	-12.9384
hr	-12.9393
▁pill	-12.9394
▁andré	-12.9395
mails	-12.9399
▁instruct	-12.94
ification	-12.9403
▁borrow	-12.9404
turkey	-12.9405
▁pray	-12.9407
wto	-12.9407
▁afflict	-12.9409
▁retire	-12.9411
▁anxieties	-12.9412
▁communiqué	-12.9412
▁comprehend	-12.9412
▁cornelissen	-12.9412
▁deleting	-12.9412
▁gasòliba	-12.9412
▁manders	-12.9412
▁pristina	-12.9412
▁reinfeldt	-12.9412
▁rugova	-12.9412
▁sakellariou	-12.9412
▁vanguard	-12.9412
▁hollow	-12.9412
▁memorial	-12.9412
▁1974	-12.9412
▁extrajudicial	-12.9412
▁ecology	-12.9412
▁1973	-12.9413
▁reprocessing	-12.9413
▁rigidity	-12.9413
▁groundwork	-12.9413
▁deva	-12.9413
▁organisers	-12.9413
▁abbreviate	-12.9414
▁metten	-12.9415
▁cofinanced	-12.9415
▁restructured	-12.9415
▁giants	-12.9416
▁affirmed	-12.9416
▁contested	-12.9416
▁mounting	-12.9418
▁tri	-12.9418
▁tremendously	-12.942
▁generously	-12.942
▁assertions	-12.9422
▁codify	-12.9423
▁eighty	-12.9424
▁dioxins	-12.9425
rt	-12.9429
▁telephones	-12.9429
holders	-12.9431
▁successors	-12.9433
▁swing	-12.9434
▁sadc	-12.9435
▁straits	-12.9437
members	-12.944
▁colleges	-12.944
▁expulsions	-12.9447
▁nerve	-12.9454
▁captain	-12.9454
▁magazine	-12.9454
▁haitian	-12.9455
▁1.7	-12.9459
▁cor	-12.9469
▁punishments	-12.9473
▁song	-12.9473
▁slot	-12.9478
▁arrives	-12.9481
tur	-12.9488
▁examinations	-12.9489
▁disarm	-12.9495
ranking	-12.9496
▁hopeless	-12.9497
▁cultivate	-12.95
▁tireless	-12.95
▁circus	-12.9501
▁accommodating	-12.9501
▁divisive	-12.9501
▁luggage	-12.9501
▁residual	-12.9501
▁flautre	-12.9501
▁beekeepers	-12.9501
▁posing	-12.9501
▁discoveries	-12.9502
▁reallocation	-12.9502
▁bonuses	-12.9502
▁absurdity	-12.9503
▁unilateralism	-12.9503
▁stabilised	-12.9507
▁wetlands	-12.9507
▁cautiously	-12.9507
▁encountering	-12.9516
▁grams	-12.9516
▁axes	-12.9519
▁spin	-12.9519
▁compatriots	-12.9522
▁1.8	-12.9523
sp	-12.9523
▁adoptions	-12.9526
▁bilaterally	-12.9531
▁slogans	-12.9534
▁drawbacks	-12.9536
▁poison	-12.9537
▁quotation	-12.9544
▁manager	-12.9551
▁43,	-12.9553
▁setbacks	-12.9553
ea	-12.9563
▁fished	-12.9563
▁flames	-12.9567
ng	-12.9581
second	-12.9584
clock	-12.9584
▁disturb	-12.9585
▁adaptations	-12.9586
▁wortman	-12.9591
▁blaming	-12.9591
▁buffer	-12.9591
▁distillation	-12.9591
▁embodied	-12.9591
▁petroleum	-12.9591
▁piecemeal	-12.9591
▁potočnik	-12.9591
▁toulouse	-12.9591
▁participatory	-12.9591
▁shalit	-12.9591
kool	-12.9592
▁privatization	-12.9592
▁blueprint	-12.9592
▁copper	-12.9592
▁samland	-12.9592
▁hume	-12.9592
▁commemoration	-12.9592
▁shutting	-12.9592
▁brian	-12.9592
▁counties	-12.9592
▁ucits	-12.9592
▁herring	-12.9595
page	-12.9595
▁framed	-12.9596
▁strictest	-12.9596
▁recruiting	-12.9598
▁upstream	-12.9598
▁hydrocarbons	-12.9606
▁copying	-12.9607
gi	-12.9612
▁beware	-12.9617
▁seals	-12.9618
▁founder	-12.9622
▁sepa	-12.9624
▁ul	-12.9633
(1).	-12.9634
▁statistic	-12.9635
▁barrel	-12.9635
▁pound	-12.9635
du	-12.9635
▁opponent	-12.9636
ran	-12.9636
▁fibre	-12.9638
▁instruction	-12.9638
▁kosovars	-12.9642
▁litres	-12.9643
▁logo	-12.9648
ure	-12.9653
0/	-12.9653
min	-12.9655
km	-12.966
▁trample	-12.9664
▁czechs	-12.9671
fashioned	-12.9675
agricultural	-12.9675
confidence	-12.9675
short	-12.9675
democracy	-12.9675
▁divert	-12.9676
part	-12.9678
ón	-12.968
▁wonders	-12.9681
▁forgot	-12.9682
▁clandestine	-12.9682
▁discourse	-12.9682
▁doubly	-12.9682
▁happiness	-12.9682
▁invariably	-12.9682
▁langenhagen	-12.9682
▁paediatric	-12.9682
[...]
