<unk>	0
<s>	0
</s>	0
▁de	-2.78944
,	-3.02822
▁la	-3.17333
.	-3.39169
▁que	-3.42671
▁en	-3.62925
▁el	-3.74024
▁y	-3.78572
▁a	-3.9129
▁los	-3.99783
▁las	-4.38559
▁del	-4.58577
▁se	-4.60388
▁por	-4.69165
▁no	-4.7592
▁un	-4.77027
▁una	-4.78095
▁para	-4.81258
▁es	-4.87539
▁con	-4.91428
▁al	-5.29201
▁lo	-5.45681
▁ha	-5.47222
▁este	-5.50857
▁sobre	-5.55586
▁como	-5.55838
▁comisión	-5.56914
▁más	-5.61019
▁su	-5.6174
▁esta	-5.83776
▁también	-5.87712
▁europea	-5.88037
▁señor	-5.88292
s	-5.90552
▁unión	-6.02598
▁presidente	-6.11575
▁parlamento	-6.13297
▁estados	-6.18365
▁pero	-6.23106
▁si	-6.25042
▁han	-6.26862
▁informe	-6.29417
▁consejo	-6.31814
▁sus	-6.33461
▁europeo	-6.35177
▁sin	-6.35931
▁miembros	-6.36016
▁me	-6.38443
▁o	-6.39023
▁países	-6.43101
▁-	-6.43861
▁política	-6.44544
▁(	-6.46469
▁europa	-6.47148
▁entre	-6.5088
▁son	-6.52636
▁todos	-6.52801
:	-6.55527
)	-6.56221
▁muy	-6.56473
▁ya	-6.56589
▁todo	-6.59207
▁nos	-6.60112
▁está	-6.60255
▁esto	-6.6734
▁ser	-6.67472
▁mi	-6.68406
▁ue	-6.70633
▁tanto	-6.70884
▁debe	-6.75143
-	-6.76373
▁acuerdo	-6.7796
▁lugar	-6.78797
▁importante	-6.7935
▁parte	-6.7969
▁derechos	-6.80574
▁hay	-6.82545
▁puede	-6.83928
?	-6.84859
▁hemos	-6.84886
▁¿	-6.86439
▁contra	-6.9069
▁hecho	-6.91536
▁porque	-6.94873
▁creo	-6.94941
▁desarrollo	-6.95257
▁propuesta	-6.9526
▁así	-6.97454
▁tiene	-6.97527
▁ahora	-6.98096
▁hacer	-6.98759
▁trabajo	-7.02523
▁estos	-7.03789
▁seguridad	-7.04058
▁señora	-7.04873
n	-7.06082
▁debate	-7.06336
▁cuestión	-7.07047
▁cuando	-7.07157
▁he	-7.08045
▁ciudadanos	-7.09118
▁respecto	-7.09402
▁nuestra	-7.12252
▁desde	-7.12675
▁medidas	-7.1327
▁forma	-7.1362
▁debemos	-7.13684
▁decir	-7.14038
▁vez	-7.14199
▁situación	-7.14252
;	-7.14778
▁sr	-7.15023
▁embargo	-7.15217
▁tenemos	-7.16254
▁mercado	-7.17141
▁años	-7.17276
▁sino	-7.17614
▁ello	-7.17792
▁grupo	-7.1895
▁sido	-7.2067
▁están	-7.21203
▁	-7.21475
▁gran	-7.21716
▁hoy	-7.22583
▁tiempo	-7.23535
▁quiero	-7.24063
▁estas	-7.24253
▁país	-7.24366
▁dos	-7.25062
▁nuestro	-7.27793
▁personas	-7.28733
▁caso	-7.30304
▁otros	-7.31771
▁e	-7.31984
▁sólo	-7.33447
▁mismo	-7.33595
▁mayor	-7.34252
▁estamos	-7.34497
▁estado	-7.35202
▁directiva	-7.37123
▁hace	-7.37146
▁comisario	-7.38658
▁sea	-7.38728
▁año	-7.39139
▁punto	-7.39866
▁humanos	-7.40149
▁eso	-7.40154
▁bien	-7.4079
▁apoyo	-7.42427
▁derecho	-7.42568
▁posible	-7.43023
▁nuestros	-7.43293
▁durante	-7.43416
▁favor	-7.44655
▁todas	-7.44902
▁primer	-7.45185
▁trata	-7.45434
▁cada	-7.46794
▁dicho	-7.47421
▁mucho	-7.47477
▁ejemplo	-7.47581
▁cooperación	-7.4817
▁le	-7.48352
▁quisiera	-7.49005
▁fin	-7.49156
▁social	-7.49779
▁medio	-7.49993
▁deben	-7.50181
▁algunos	-7.50225
▁marco	-7.50263
▁común	-7.51134
▁yo	-7.5123
▁cuenta	-7.51305
▁nosotros	-7.51674
▁europeos	-7.52758
▁protección	-7.53557
▁"	-7.53831
▁sistema	-7.53894
▁hasta	-7.54009
▁problema	-7.5402
▁futuro	-7.54697
▁ponente	-7.55185
▁tratado	-7.5544
▁ni	-7.55473
▁además	-7.55981
▁tienen	-7.56056
▁tener	-7.56854
▁ese	-7.57064
▁antes	-7.57199
▁gracias	-7.57208
▁sector	-7.57248
▁señorías	-7.57518
▁podemos	-7.57781
▁mundo	-7.57884
▁proceso	-7.5864
▁menos	-7.5864
▁problemas	-7.59171
▁qué	-7.59375
▁empresas	-7.59848
▁ámbito	-7.60448
▁programa	-7.61246
▁solo	-7.61933
▁nuevo	-7.62277
▁debería	-7.62352
▁usted	-7.62469
▁resolución	-7.62755
▁opinión	-7.62834
es	-7.62934
▁pueden	-7.63579
▁presidenta	-7.63735
▁aquí	-7.64103
▁ayuda	-7.64251
▁estoy	-7.64393
a	-7.64513
▁información	-7.64742
▁internacional	-7.64787
▁tan	-7.64858
▁objetivo	-7.6521
▁momento	-7.65266
▁dar	-7.65652
se	-7.67551
▁muchos	-7.67667
▁gobierno	-7.67826
▁propuestas	-7.68065
▁relación	-7.68948
▁modo	-7.69151
▁políticas	-7.69751
▁millones	-7.69839
▁presidencia	-7.70227
▁necesario	-7.704
▁servicios	-7.70434
mente	-7.70469
▁mejor	-7.70478
▁normas	-7.71132
▁nombre	-7.71194
▁enmiendas	-7.71207
▁manera	-7.71677
▁toda	-7.73065
▁otro	-7.73445
▁haya	-7.7374
▁ante	-7.74778
▁esa	-7.75531
▁otras	-7.75688
▁algo	-7.75899
▁otra	-7.75955
▁aunque	-7.76424
▁reglamento	-7.76461
▁asuntos	-7.76479
▁importancia	-7.76626
▁general	-7.76708
▁uno	-7.77815
▁–	-7.77882
▁gustaría	-7.77932
▁garantizar	-7.78281
▁les	-7.79125
▁aplicación	-7.79675
▁nivel	-7.79861
▁objetivos	-7.79976
▁nacionales	-7.80304
▁crisis	-7.80437
▁materia	-7.8058
▁empleo	-7.81116
▁particular	-7.81443
▁económica	-7.81584
▁condiciones	-7.81749
▁día	-7.81865
▁cuestiones	-7.82083
▁tema	-7.84502
▁parece	-7.84596
▁nuestras	-7.85326
▁necesidad	-7.85825
▁tal	-7.86011
▁mujeres	-7.86433
▁responsabilidad	-7.86686
▁principio	-7.87951
▁%	-7.88757
▁sentido	-7.88834
▁va	-7.90115
▁presupuesto	-7.90146
▁decisión	-7.90308
▁especialmente	-7.91404
▁estrategia	-7.91614
▁diputados	-7.91726
▁espero	-7.92191
▁incluso	-7.92192
▁pues	-7.92316
▁productos	-7.92385
▁papel	-7.92951
▁después	-7.92961
mos	-7.92974
▁investigación	-7.93441
▁muchas	-7.9367
▁enmienda	-7.93692
▁aún	-7.94317
▁«	-7.94517
▁tipo	-7.94849
▁vista	-7.94998
▁atención	-7.95322
▁legislación	-7.95409
▁poder	-7.96369
▁último	-7.96674
▁instituciones	-7.96723
▁asunto	-7.97109
▁fondos	-7.97399
▁siempre	-7.97422
▁ambiente	-7.97634
▁control	-7.97863
▁será	-7.98169
▁nueva	-7.98387
▁tres	-7.9849
▁votación	-7.98642
▁nuevos	-7.98852
▁cualquier	-7.99062
▁energía	-7.99133
▁haber	-7.99453
▁primera	-7.99677
▁obstante	-7.99687
▁cuanto	-8.00789
▁posición	-8.01722
▁fue	-8.01834
▁algunas	-8.02023
▁cambio	-8.02073
▁pregunta	-8.02468
▁recursos	-8.02656
▁unidos	-8.02992
▁segundo	-8.03059
▁competencia	-8.03069
▁existe	-8.03395
▁actual	-8.03524
▁sería	-8.03562
▁salud	-8.03962
▁importantes	-8.04235
▁razón	-8.04302
▁pasado	-8.04718
▁compromiso	-8.04778
▁dentro	-8.04853
▁comercio	-8.05694
▁claro	-8.05781
▁base	-8.06175
▁acción	-8.06178
▁queremos	-8.06359
▁transporte	-8.06711
▁unos	-8.0696
▁respuesta	-8.07374
▁calidad	-8.08091
▁sra	-8.09024
▁podría	-8.09144
▁duda	-8.1025
▁mayoría	-8.10398
▁negociaciones	-8.1042
▁realmente	-8.10627
▁comunidad	-8.10842
▁lucha	-8.11163
▁vida	-8.11339
▁hacia	-8.11457
▁mundial	-8.1159
▁orden	-8.11795
▁todavía	-8.12667
▁especial	-8.12916
▁grandes	-8.13542
▁proyecto	-8.14349
"	-8.14555
▁cámara	-8.14774
▁político	-8.15087
▁autoridades	-8.15172
▁necesitamos	-8.15419
▁artículo	-8.16
▁libertad	-8.1626
▁regiones	-8.16523
de	-8.16643
▁nuevas	-8.16712
▁trabajadores	-8.1676
▁decisiones	-8.16865
y	-8.16916
▁puesto	-8.17057
▁estar	-8.17827
la	-8.1792
▁economía	-8.18202
▁dado	-8.18492
▁poco	-8.18566
▁políticos	-8.18676
▁democracia	-8.19022
▁uso	-8.19495
▁mediante	-8.19698
▁miembro	-8.19741
▁europeas	-8.1978
▁cual	-8.19787
▁pueda	-8.19929
▁sí	-8.19976
▁cabo	-8.2
▁sociales	-8.20024
▁seguir	-8.20258
▁sociedad	-8.20262
▁ver	-8.20449
▁votado	-8.20489
▁cosas	-8.2074
▁cómo	-8.20779
▁gestión	-8.21301
▁través	-8.21638
▁oportunidad	-8.21642
▁plazo	-8.21719
▁medida	-8.22277
▁económico	-8.22506
▁mejorar	-8.23127
▁nada	-8.23207
▁ampliación	-8.23222
▁resultado	-8.2325
▁fundamental	-8.23367
▁procedimiento	-8.23421
▁donde	-8.24002
▁crecimiento	-8.24055
▁iniciativa	-8.24183
▁pesar	-8.24302
▁creación	-8.2458
▁fondo	-8.24958
▁consumidores	-8.25052
▁solución	-8.25215
▁relaciones	-8.25364
▁falta	-8.25636
▁nacional	-8.25801
▁acceso	-8.26012
▁aspectos	-8.26061
▁realidad	-8.26681
▁interés	-8.2714
▁ellos	-8.27405
▁interior	-8.27657
▁era	-8.27988
▁escrito	-8.28291
▁acuerdos	-8.28639
▁número	-8.2867
▁comunicación	-8.28772
r	-8.28827
▁región	-8.29087
▁resulta	-8.2939
▁asimismo	-8.30275
▁unas	-8.3048
▁pública	-8.30647
▁industria	-8.30758
▁largo	-8.30833
▁naciones	-8.30974
▁programas	-8.31068
▁paz	-8.31155
▁esfuerzos	-8.31549
▁colegas	-8.31791
▁crear	-8.31809
▁población	-8.32268
▁fundamentales	-8.32648
▁ninguna	-8.32669
▁ningún	-8.32812
▁datos	-8.32813
▁mañana	-8.32896
▁grupos	-8.33703
▁siendo	-8.33835
▁medios	-8.34007
▁euros	-8.34389
▁partes	-8.35182
▁misma	-8.35907
▁cierto	-8.3592
▁efecto	-8.3619
▁único	-8.36618
▁poner	-8.3662
▁puedan	-8.36834
▁diálogo	-8.37128
▁texto	-8.37355
▁sean	-8.37408
▁práctica	-8.376
▁puedo	-8.37604
▁resultados	-8.37821
▁paso	-8.37891
▁intereses	-8.38188
▁esos	-8.38392
▁lisboa	-8.38638
▁refiere	-8.38704
▁supuesto	-8.38747
▁producción	-8.38941
▁justicia	-8.39174
▁financiación	-8.39506
▁posibilidad	-8.39636
▁diferentes	-8.39816
▁conjunto	-8.39833
▁presente	-8.39984
▁comisaria	-8.40036
▁principios	-8.40095
▁libre	-8.40188
▁tras	-8.4066
▁final	-8.41203
▁reforma	-8.41206
▁deseo	-8.41314
▁entonces	-8.41491
do	-8.41646
▁tribunal	-8.41718
▁ejercicio	-8.42519
▁mientras	-8.42921
▁casos	-8.42976
▁buena	-8.43063
▁van	-8.43113
▁dinero	-8.4334
▁euro	-8.44086
en	-8.4409
▁turquía	-8.44673
▁tengo	-8.44892
▁deberíamos	-8.45249
▁tenido	-8.45518
▁ustedes	-8.45955
▁últimos	-8.45989
▁puntos	-8.46476
▁hora	-8.46683
▁apoyar	-8.46739
▁éxito	-8.46839
▁adhesión	-8.47036
▁frente	-8.47648
▁plan	-8.48048
▁adoptar	-8.48259
lo	-8.48587
▁sigue	-8.48886
▁demás	-8.48931
▁mis	-8.49126
▁in	-8.49176
▁según	-8.49477
▁asamblea	-8.49613
▁existen	-8.50092
▁totalmente	-8.50194
▁actualmente	-8.50254
▁público	-8.50287
▁rusia	-8.50556
»	-8.50906
▁evitar	-8.51008
▁pueblo	-8.51113
▁deberían	-8.51207
▁conferencia	-8.51355
▁difícil	-8.51507
▁tendrá	-8.51517
▁contexto	-8.51648
▁estabilidad	-8.51706
▁conseguir	-8.52035
▁había	-8.52464
▁igualdad	-8.52661
▁respeto	-8.52902
▁actividades	-8.52935
▁establecer	-8.53067
▁motivo	-8.53114
▁palabras	-8.53175
▁acciones	-8.53422
▁significa	-8.53706
▁proyectos	-8.53938
▁pesca	-8.53995
▁1	-8.54501
o	-8.54627
▁acerca	-8.54632
el	-8.54713
▁contrario	-8.54754
▁meses	-8.54945
▁bajo	-8.55442
▁serie	-8.55461
▁lograr	-8.55476
▁claramente	-8.55491
▁demasiado	-8.55579
▁idea	-8.55631
▁unidas	-8.55709
▁esas	-8.55727
▁constituye	-8.55776
▁niños	-8.5591
▁enfoque	-8.56461
▁segunda	-8.5647
▁mantener	-8.56518
qué	-8.56668
▁sabemos	-8.5685
▁consecuencias	-8.56875
▁exterior	-8.57318
▁fuera	-8.57476
▁considero	-8.57754
▁declaración	-8.5782
▁reducir	-8.57833
▁cumbre	-8.57998
▁tomar	-8.58166
▁riesgo	-8.58778
▁financiera	-8.58876
▁presentado	-8.58947
no	-8.59002
▁respecta	-8.5922
▁queda	-8.59472
▁igual	-8.59525
▁agricultura	-8.59889
▁escala	-8.59895
▁sistemas	-8.60093
▁medioambiental	-8.60109
▁aprobación	-8.60153
▁transparencia	-8.6043
▁propia	-8.60785
▁período	-8.60876
▁eficaz	-8.61073
▁aumento	-8.61223
▁integración	-8.61331
▁debido	-8.61382
da	-8.61508
▁internacionales	-8.62041
▁zona	-8.62483
▁intervención	-8.62827
▁saber	-8.62876
▁esencial	-8.62949
▁hablar	-8.63333
▁elecciones	-8.63863
▁consiguiente	-8.64084
▁solidaridad	-8.64278
▁educación	-8.64312
▁gobiernos	-8.64386
▁consecuencia	-8.64414
▁lado	-8.64561
▁partido	-8.64623
▁participación	-8.64773
▁mercados	-8.648
▁central	-8.65398
▁capacidad	-8.65934
▁próximo	-8.66138
▁valores	-8.66218
▁relativa	-8.66435
▁propio	-8.66562
▁conformidad	-8.66781
▁reducción	-8.6684
▁única	-8.67801
▁económicos	-8.67908
▁zonas	-8.68092
▁comunitario	-8.6824
▁precisamente	-8.68371
/	-8.68458
▁criterios	-8.69068
▁preguntas	-8.69322
▁objeto	-8.699
á	-8.69976
▁cohesión	-8.7009
▁formación	-8.70175
▁aquellos	-8.70216
▁alcanzar	-8.70309
▁camino	-8.70511
▁informes	-8.70637
▁tampoco	-8.70689
▁excelente	-8.70718
▁habría	-8.71108
▁fronteras	-8.71116
▁disposiciones	-8.71353
▁valor	-8.71397
ndo	-8.71451
▁asociación	-8.71663
▁horas	-8.71731
▁veces	-8.72171
▁organizaciones	-8.72521
▁terrorismo	-8.72559
▁aspecto	-8.73032
▁llevar	-8.73275
▁buen	-8.73436
▁procedimientos	-8.73584
▁llegar	-8.73649
▁ámbitos	-8.73854
▁evaluación	-8.73968
▁clara	-8.73974
▁aplicar	-8.74359
▁ministro	-8.74363
▁realizado	-8.74633
▁organización	-8.74923
▁solamente	-8.75078
▁instrumento	-8.7517
▁guerra	-8.75596
▁régimen	-8.75667
▁precios	-8.7571
▁alto	-8.75872
▁defensa	-8.76042
▁encontrar	-8.76413
▁china	-8.76414
▁financieros	-8.76448
▁plenamente	-8.76473
▁jóvenes	-8.76599
–	-8.76606
▁reunión	-8.76837
▁instrumentos	-8.76947
▁principales	-8.76997
▁hacerlo	-8.77125
▁confianza	-8.77672
▁aceptar	-8.77927
▁sostenible	-8.78013
▁términos	-8.78189
▁costes	-8.78229
▁000	-8.78254
▁referencia	-8.78318
▁alguna	-8.78411
▁necesaria	-8.78805
▁ayudas	-8.78879
▁violencia	-8.79249
▁ayudar	-8.79562
▁presentar	-8.79714
▁personal	-8.79731
▁comunitaria	-8.79869
▁puestos	-8.79881
▁vamos	-8.80172
▁sectores	-8.8026
▁dice	-8.80376
▁satisfacción	-8.80702
▁razones	-8.81369
▁agrícola	-8.81376
▁varios	-8.81808
▁nunca	-8.81835
▁proteger	-8.81994
▁global	-8.82036
▁exteriores	-8.82061
▁dejar	-8.82096
▁pobreza	-8.82453
▁tercer	-8.82472
▁voluntad	-8.82487
▁casi	-8.82886
▁quienes	-8.8299
▁palabra	-8.83046
▁trabajar	-8.8305
▁principal	-8.83218
▁terceros	-8.83286
▁última	-8.83349
▁realizar	-8.83811
▁iniciativas	-8.8382
▁preocupación	-8.83915
▁dicha	-8.84081
▁quiere	-8.84375
▁él	-8.8446
▁unido	-8.84559
▁éste	-8.84699
▁luego	-8.84854
▁colega	-8.84914
▁servicio	-8.84971
▁preciso	-8.85198
▁junto	-8.85483
▁regional	-8.85497
▁semana	-8.86128
▁animales	-8.8629
▁total	-8.86381
▁dirección	-8.8642
▁mejora	-8.86528
▁mismos	-8.86921
▁revisión	-8.87416
▁expresar	-8.87726
▁pequeñas	-8.87918
▁propone	-8.87977
▁civil	-8.88307
ía	-8.88354
▁esté	-8.88417
por	-8.88449
▁temas	-8.88644
▁necesita	-8.88708
▁carácter	-8.88846
▁víctimas	-8.89018
▁constitución	-8.89083
▁tenga	-8.89108
▁prioridad	-8.89166
▁representa	-8.89169
▁bastante	-8.89172
▁actuar	-8.89191
▁dificultades	-8.89254
▁reino	-8.89555
án	-8.89636
▁efectos	-8.89637
▁suficiente	-8.90003
on	-8.90047
▁días	-8.90053
▁cumplir	-8.90557
▁prioridades	-8.90571
▁económicas	-8.90592
▁estructurales	-8.90703
▁inmigración	-8.90747
▁ley	-8.90836
▁climático	-8.91128
▁siguiente	-8.91218
▁votar	-8.91275
▁sesión	-8.91313
▁naturalmente	-8.91715
▁ésta	-8.91733
▁abordar	-8.9185
ó	-8.92455
▁aumentar	-8.92505
▁habrá	-8.92594
▁financiero	-8.92648
▁oportunidades	-8.93181
▁promover	-8.93292
▁positivo	-8.93339
▁permitir	-8.93343
▁vigor	-8.93611
▁simplemente	-8.94054
▁teniendo	-8.94365
▁haciendo	-8.94378
▁señalar	-8.94463
▁labor	-8.94548
▁recordar	-8.94788
▁felicitar	-8.9485
▁visto	-8.94909
▁coordinación	-8.94956
▁finalmente	-8.9522
▁cambios	-8.95283
▁alimentos	-8.9542
▁menudo	-8.95425
▁reformas	-8.95454
▁cinco	-8.95693
▁apartado	-8.95714
▁necesidades	-8.95838
▁relativo	-8.95869
▁cuatro	-8.96056
▁cultura	-8.96096
▁propios	-8.96206
▁desarrollar	-8.96227
▁somos	-8.96283
▁hayan	-8.96602
▁jurídico	-8.96711
emos	-8.96804
▁comité	-8.96855
▁seguro	-8.97079
los	-8.97084
▁espacio	-8.9731
▁asegurar	-8.97412
▁cuentas	-8.97573
▁documento	-8.97689
▁debates	-8.97966
▁emisiones	-8.98067
▁podamos	-8.98228
▁evidente	-8.98258
▁ministros	-8.98274
▁financieras	-8.98347
▁pleno	-8.98353
▁responder	-8.98364
▁irlanda	-8.98422
▁primero	-8.98458
▁energética	-8.98566
▁relativas	-8.98609
▁tarde	-8.98653
!	-8.98852
▁república	-8.99151
▁consumidor	-8.99215
▁competitividad	-8.99235
▁esperamos	-8.9929
▁marcha	-8.99423
▁voto	-9.00101
▁resolver	-9.00128
▁necesarias	-9.0025
▁ella	-9.00342
▁concreto	-9.00415
▁prácticas	-9.0055
▁gente	-9.01199
▁utilizar	-9.01235
".	-9.01256
nos	-9.0161
▁lectura	-9.01852
▁2	-9.02101
▁funcionamiento	-9.02451
▁origen	-9.0267
▁acaba	-9.02676
▁¡	-9.02789
▁comunes	-9.03042
▁esfuerzo	-9.03405
▁reforzar	-9.03435
▁ellas	-9.03592
▁nadie	-9.03945
▁real	-9.04201
▁agricultores	-9.04255
▁quien	-9.0426
▁equilibrio	-9.04263
▁motivos	-9.04266
▁compromisos	-9.04301
ba	-9.04311
▁representantes	-9.0444
▁mencionado	-9.0463
▁carta	-9.04746
▁permítanme	-9.0489
».	-9.04945
▁adelante	-9.05218
▁voy	-9.05427
las	-9.0559
▁comerciales	-9.05624
▁asistencia	-9.05763
▁modelo	-9.05875
▁función	-9.06018
▁da	-9.06037
▁cuyo	-9.06124
▁llegado	-9.06163
▁actividad	-9.06197
▁banco	-9.06207
▁inversiones	-9.06456
an	-9.06685
▁niveles	-9.06945
▁línea	-9.06965
▁lista	-9.07219
▁peligro	-9.07224
▁declaraciones	-9.07266
▁permite	-9.07357
▁partir	-9.07373
▁actuales	-9.07385
▁colaboración	-9.07478
▁inversión	-9.07497
▁cabe	-9.07545
▁convención	-9.07709
▁creemos	-9.0778
▁mar	-9.07914
▁norte	-9.08009
▁adopción	-9.0801
▁20	-9.0804
▁discriminación	-9.08136
▁grave	-9.08182
▁tarea	-9.08227
▁tratar	-9.08252
▁impacto	-9.08462
▁cosa	-9.08556
▁diciembre	-9.086
▁tengan	-9.08652
▁supone	-9.09454
▁podrían	-9.09534
▁competencias	-9.09545
▁verdad	-9.09613
▁posibilidades	-9.09833
▁ocasión	-9.09971
▁tráfico	-9.10098
▁únicamente	-9.10185
▁pido	-9.10228
▁causa	-9.10414
▁paquete	-9.10419
▁varias	-9.10554
▁tales	-9.10616
▁conflicto	-9.11041
▁experiencia	-9.11409
▁soluciones	-9.1144
▁nuclear	-9.11682
▁candidatos	-9.11841
▁mayores	-9.11927
▁innovación	-9.11934
▁independiente	-9.11947
▁haga	-9.12067
▁presión	-9.1212
▁francia	-9.12324
▁sé	-9.12401
▁eficacia	-9.12473
▁acta	-9.12792
▁hombres	-9.12849
▁laboral	-9.12858
▁contenido	-9.13161
▁armas	-9.13213
▁propuesto	-9.13331
▁cuya	-9.13466
▁conclusiones	-9.1354
▁historia	-9.13653
▁contribución	-9.1369
▁perspectiva	-9.13878
▁clave	-9.13898
▁contribuir	-9.13904
▁podido	-9.14447
▁algún	-9.14581
▁fecha	-9.14697
▁pedir	-9.1475
▁5	-9.14897
▁circulación	-9.15287
▁intención	-9.15497
▁allí	-9.1556
▁asilo	-9.15882
▁públicos	-9.15931
▁infraestructura	-9.16017
▁pienso	-9.16062
▁ocasiones	-9.16098
▁cuales	-9.16183
fr	-9.16218
▁distintos	-9.16331
▁responsable	-9.16371
▁ofrecer	-9.164
▁agencia	-9.16468
▁c	-9.16574
▁mensaje	-9.16819
▁volver	-9.16825
▁adecuada	-9.1691
das	-9.17361
▁construcción	-9.17456
▁disposición	-9.17612
▁considera	-9.17688
▁aprobado	-9.17759
▁riesgos	-9.17799
▁anterior	-9.17888
▁elementos	-9.17892
▁junio	-9.17965
▁10	-9.17994
▁mí	-9.18044
▁obtener	-9.18076
▁graves	-9.18101
▁redes	-9.18129
▁fuerza	-9.18154
▁demostrado	-9.18202
▁esperar	-9.18414
▁hacen	-9.18491
é	-9.18613
▁amplio	-9.18689
▁gastos	-9.18751
▁momentos	-9.18875
▁siguen	-9.19071
▁agua	-9.19196
▁empresa	-9.19446
▁jurídica	-9.19723
▁comercial	-9.198
▁procede	-9.20048
▁agenda	-9.20074
▁enorme	-9.20125
▁soy	-9.2016
▁mes	-9.2022
▁locales	-9.20346
▁serán	-9.20539
▁libertades	-9.20917
▁debo	-9.20937
▁3	-9.20945
▁beneficios	-9.2115
▁fuerzas	-9.21153
▁autoridad	-9.2122
▁ayer	-9.21246
▁seis	-9.21346
▁terreno	-9.21469
cómo	-9.21537
▁incluir	-9.21961
▁reconocimiento	-9.22083
▁residuos	-9.22087
▁análisis	-9.22165
▁quieren	-9.22207
▁complace	-9.22281
▁democrática	-9.22342
▁ir	-9.22426
▁considerar	-9.22462
▁democrático	-9.22537
▁generales	-9.22663
▁destacar	-9.22678
▁ejecución	-9.227
▁quizás	-9.22945
▁productores	-9.22996
▁obligación	-9.23177
▁fase	-9.23246
▁desempleo	-9.23258
▁consumo	-9.23341
▁absolutamente	-9.23439
me	-9.23648
▁15	-9.23654
▁áfrica	-9.23657
▁diez	-9.23674
▁avanzar	-9.2373
▁podrá	-9.23736
▁mejores	-9.23762
▁fomentar	-9.23766
▁positiva	-9.23802
▁fuerte	-9.23803
e	-9.23822
▁conclusión	-9.23966
▁introducción	-9.24112
que	-9.24166
▁formas	-9.24204
▁próximos	-9.24608
▁alemania	-9.24721
▁sabe	-9.24838
▁israel	-9.24868
▁liberalización	-9.24912
▁requisitos	-9.24951
▁bruselas	-9.25101
ciones	-9.25188
▁fueron	-9.25329
▁necesitan	-9.25413
▁prevención	-9.25482
▁toma	-9.25785
▁presupuestos	-9.25829
▁concepto	-9.25918
▁responsables	-9.26114
▁red	-9.26216
▁cultural	-9.26227
▁progreso	-9.26239
▁pretende	-9.26355
▁alimentaria	-9.26562
▁allá	-9.2663
▁convenio	-9.2695
▁pacto	-9.27061
▁necesarios	-9.27148
▁introducir	-9.27197
▁impuestos	-9.27275
▁participar	-9.27312
▁actualidad	-9.27484
▁pueblos	-9.27502
▁presupuestario	-9.27729
▁mandato	-9.27899
▁amenaza	-9.27904
▁encuentra	-9.27909
▁saben	-9.27925
▁reconocer	-9.28082
▁estaba	-9.28094
▁adoptado	-9.28126
▁kosovo	-9.2819
▁hincapié	-9.28496
▁amplia	-9.28499
▁planes	-9.28649
▁refugiados	-9.2867
▁omc	-9.28717
▁fiscal	-9.28718
▁territorio	-9.28932
▁cantidad	-9.28951
▁sanciones	-9.28983
▁campo	-9.29021
▁establece	-9.29171
▁pronto	-9.29242
▁diferencias	-9.29327
▁pena	-9.29392
▁administración	-9.29441
▁adecuado	-9.29551
▁públicas	-9.29557
▁combatir	-9.29585
dos	-9.29592
▁existentes	-9.29775
▁luchar	-9.2999
▁jurídicos	-9.30075
▁perspectivas	-9.30084
▁mujer	-9.30434
▁capital	-9.30538
▁tratados	-9.30549
▁muerte	-9.30687
▁opiniones	-9.30997
▁documentos	-9.31143
▁2000	-9.31232
▁próxima	-9.31271
▁posibles	-9.31321
▁precio	-9.31496
▁estén	-9.316
▁internet	-9.3165
▁continuar	-9.31733
▁conseguido	-9.31973
▁petición	-9.32283
▁justo	-9.32292
▁consideramos	-9.32393
▁semanas	-9.32887
▁evidentemente	-9.33168
▁igualmente	-9.33335
▁actitud	-9.33399
▁dimensión	-9.33425
▁sur	-9.33478
▁pobres	-9.33585
▁enero	-9.33586
▁avances	-9.34117
▁constitucional	-9.34187
▁postura	-9.34524
▁naturaleza	-9.34743
▁militar	-9.34866
▁logrado	-9.35087
▁demuestra	-9.35264
▁conocimiento	-9.35295
▁lamentablemente	-9.35352
▁contar	-9.35533
▁ilegal	-9.35577
▁regionales	-9.3597
▁independencia	-9.36078
▁establecimiento	-9.36196
c	-9.36225
▁obligaciones	-9.36459
▁recibido	-9.36571
▁encuentran	-9.3662
▁popular	-9.36641
▁utilización	-9.36648
▁empezar	-9.36662
▁partidos	-9.36716
▁25	-9.36749
▁concretas	-9.36754
▁grecia	-9.36812
▁finales	-9.36845
▁mencionar	-9.36863
▁deberá	-9.36887
▁cumplimiento	-9.36906
▁directamente	-9.36911
▁libro	-9.36928
▁recientemente	-9.37206
▁delegación	-9.37216
▁dichos	-9.37257
▁presupuestaria	-9.37333
▁mismas	-9.37543
▁entrada	-9.37553
▁facilitar	-9.37835
▁subrayar	-9.38083
▁mal	-9.38219
▁miles	-9.38228
▁comunitarias	-9.38361
▁hablando	-9.38433
▁mecanismo	-9.38465
d	-9.38729
▁tecnología	-9.38756
▁tecnologías	-9.38947
▁re	-9.39038
▁turismo	-9.39075
▁estatuto	-9.39146
▁preocupaciones	-9.39151
▁4	-9.39181
▁rápidamente	-9.39209
▁ponentes	-9.3928
▁dichas	-9.39457
▁persona	-9.39464
▁prohibición	-9.39533
le	-9.39554
▁cerrado	-9.3961
▁vistas	-9.39632
▁bajos	-9.39635
▁intentar	-9.39673
▁aprovechar	-9.39688
▁circunstancias	-9.39716
▁conflictos	-9.39739
▁plantea	-9.3981
▁ahí	-9.39997
▁consenso	-9.39998
▁afecta	-9.40055
▁tendremos	-9.40072
▁cerca	-9.40167
▁juicio	-9.40294
▁quizá	-9.40522
▁representante	-9.40725
▁oposición	-9.40865
▁mayo	-9.41349
▁acojo	-9.41455
▁incluye	-9.41551
▁flexibilidad	-9.42029
▁espíritu	-9.42154
▁capaces	-9.42179
▁ofrece	-9.4223
▁alcance	-9.42234
▁cambiar	-9.42345
▁hubiera	-9.4237
▁serio	-9.42383
▁armonización	-9.42531
▁principalmente	-9.42563
▁acontecimientos	-9.42624
▁condición	-9.42783
▁claridad	-9.42808
▁rural	-9.4281
▁vehículos	-9.42826
▁monetaria	-9.42896
▁marzo	-9.42936
▁corresponde	-9.43068
▁constituyen	-9.43236
▁torno	-9.43239
▁agrícolas	-9.43325
▁ambos	-9.43491
▁trabajos	-9.43635
▁buenas	-9.43694
▁expresión	-9.43745
▁estudio	-9.43754
▁añadir	-9.43801
2	-9.43833
▁legislativo	-9.43863
▁inaceptable	-9.43888
▁moneda	-9.43914
▁centro	-9.43938
▁exige	-9.44038
▁ideas	-9.44164
▁30	-9.44192
▁agradezco	-9.44307
▁tipos	-9.44311
▁aprobar	-9.44616
▁permita	-9.44679
▁agradecer	-9.44679
▁presencia	-9.44888
▁definición	-9.44975
▁italia	-9.45096
ce	-9.45116
▁pensar	-9.45226
▁eficiencia	-9.45234
▁mucha	-9.45278
▁elemento	-9.45304
▁ingresos	-9.45431
▁socios	-9.45506
▁comentarios	-9.45586
▁prestar	-9.45611
▁coste	-9.45674
▁supervisión	-9.45803
▁mano	-9.4589
▁institución	-9.45959
▁previsto	-9.46111
▁rápida	-9.4625
pl	-9.46258
▁resto	-9.4627
▁relacionados	-9.46349
▁desempeñar	-9.46414
▁alta	-9.46433
▁desgracia	-9.46459
▁fácil	-9.46466
▁agradecimiento	-9.46534
▁firme	-9.46664
▁directivas	-9.46667
▁apertura	-9.46823
▁completamente	-9.46851
▁controles	-9.46895
▁recomendaciones	-9.47112
▁beneficio	-9.47238
▁septiembre	-9.47243
▁oriente	-9.47454
▁mecanismos	-9.4748
▁máximo	-9.47507
▁comunidades	-9.47539
▁créditos	-9.47565
▁espera	-9.47728
▁situaciones	-9.47799
▁hablado	-9.47805
▁lejos	-9.47827
▁oriental	-9.47858
▁defender	-9.47948
▁recibir	-9.4795
▁legal	-9.47976
▁particularmente	-9.4801
▁seguimiento	-9.48091
▁pide	-9.48145
▁diferencia	-9.48465
▁debatir	-9.4849
▁tomado	-9.48588
it	-9.48693
▁examinar	-9.48956
▁iraq	-9.48999
▁habido	-9.49053
▁ambas	-9.4908
▁observación	-9.4908
▁concretamente	-9.4914
-,	-9.49144
▁prueba	-9.49354
▁negociación	-9.49376
▁medianas	-9.49562
▁desea	-9.49588
▁transportes	-9.49726
▁elaborar	-9.49886
▁consideración	-9.49898
▁impuesto	-9.50113
▁correspondiente	-9.50191
▁merece	-9.50279
▁pruebas	-9.50346
▁co	-9.50584
▁pasar	-9.50623
▁ucrania	-9.50631
▁alcanzado	-9.5066
▁implica	-9.50681
▁siquiera	-9.5084
▁potencial	-9.50923
▁gasto	-9.50962
▁consiste	-9.51013
▁permanente	-9.51051
▁noviembre	-9.51059
▁decidir	-9.51079
▁españa	-9.51088
▁eliminar	-9.51141
▁parlamentaria	-9.51154
ción	-9.51168
▁distintas	-9.51175
▁anual	-9.5135
▁decidido	-9.51371
▁civiles	-9.51398
▁planteamiento	-9.51456
▁podremos	-9.51499
▁luz	-9.51637
▁inmigrantes	-9.51674
▁observaciones	-9.51693
▁mínimo	-9.51757
▁diputado	-9.52145
▁capaz	-9.52411
▁señalado	-9.52495
▁carga	-9.52502
▁diferente	-9.5259
▁11	-9.52616
▁proporcionar	-9.52705
▁efectivamente	-9.52783
▁humana	-9.52911
▁tendrán	-9.5298
▁respetar	-9.52998
▁verdadera	-9.53387
▁producto	-9.53452
▁elaboración	-9.53528
▁promoción	-9.53556
▁enfermedades	-9.53678
▁intercambio	-9.53712
▁pyme	-9.53716
▁diversos	-9.53731
▁fraude	-9.53769
▁método	-9.53939
▁minorías	-9.53985
▁señoría	-9.54021
▁fuentes	-9.54088
▁bueno	-9.54097
▁producido	-9.54165
▁retos	-9.54271
▁verde	-9.54307
▁institucional	-9.54383
▁fundamento	-9.54505
▁entender	-9.54585
▁sustancias	-9.54713
▁irán	-9.54772
▁mesa	-9.54803
▁diversidad	-9.54864
",	-9.55026
▁trabajando	-9.55074
▁seguros	-9.5513
▁llevado	-9.55257
▁absoluto	-9.55277
▁6	-9.55293
▁reciente	-9.55317
▁útil	-9.55407
▁recomendación	-9.55484
▁probablemente	-9.55504
▁trato	-9.55593
▁garantías	-9.55638
▁relacionadas	-9.55723
▁hechos	-9.55865
▁vía	-9.5591
▁lleva	-9.5592
▁propias	-9.5594
▁reglas	-9.55961
▁reservas	-9.56007
▁progresos	-9.56013
les	-9.56115
▁requiere	-9.56118
▁lamento	-9.56126
▁tratamiento	-9.56184
b	-9.56237
▁leyes	-9.56294
▁determinados	-9.56333
▁incluido	-9.56373
▁esperanza	-9.56481
▁manos	-9.56523
▁llamar	-9.56715
▁dijo	-9.56723
▁solicitud	-9.56732
▁octubre	-9.56781
▁métodos	-9.56793
▁visión	-9.56869
▁regulación	-9.56928
ían	-9.56982
▁juntos	-9.5709
▁protocolo	-9.57361
▁encontramos	-9.57363
▁aguas	-9.57427
▁peticiones	-9.5745
▁frecuencia	-9.57478
▁pequeños	-9.57479
▁directrices	-9.5748
▁cargo	-9.57683
»,	-9.57703
tergubernamental	-9.57711
▁podrán	-9.57774
▁normativa	-9.57889
▁expertos	-9.57913
▁señores	-9.57941
▁grado	-9.57979
▁afectados	-9.57987
▁juego	-9.58153
▁sesiones	-9.58164
▁límite	-9.58183
▁avance	-9.58208
▁cierta	-9.58374
▁edad	-9.58374
▁preocupa	-9.58528
▁diversas	-9.58551
▁12	-9.58667
ro	-9.58692
ban	-9.58763
▁concluir	-9.58929
▁asumir	-9.59009
▁basada	-9.59087
▁contaminación	-9.59189
▁comenzar	-9.59223
▁crucial	-9.59377
▁imponer	-9.59419
como	-9.59431
▁nota	-9.5972
▁correcta	-9.59743
▁organismos	-9.59769
▁demanda	-9.59806
▁industrial	-9.59814
▁cara	-9.5984
▁modificación	-9.59848
▁vecinos	-9.59961
▁humanitaria	-9.60058
▁judicial	-9.60095
▁urgente	-9.60103
▁doy	-9.60108
▁parlamentos	-9.60119
▁pasajeros	-9.60335
▁evolución	-9.60444
▁comunitarios	-9.60509
▁contiene	-9.60549
▁establecido	-9.60691
▁conscientes	-9.60794
▁apoyamos	-9.60841
▁deseamos	-9.60907
▁apoya	-9.60924
▁existencia	-9.61051
▁llamamiento	-9.61056
▁consulta	-9.61198
▁nucleares	-9.61248
▁planteado	-9.61264
▁b	-9.61281
▁pone	-9.61367
▁urgencia	-9.61634
▁bienestar	-9.61808
▁breve	-9.61835
▁gas	-9.61906
▁hizo	-9.61991
▁podríamos	-9.62098
▁pagos	-9.62166
▁ppe	-9.62392
▁coherente	-9.62724
▁actos	-9.62788
▁curso	-9.62801
▁permitirá	-9.62921
▁futura	-9.62986
▁periodo	-9.63048
▁menor	-9.63203
▁mercancías	-9.63305
▁presenta	-9.63374
▁local	-9.63503
▁olvidar	-9.63527
▁demostrar	-9.63527
▁específicas	-9.63783
▁señal	-9.63789
▁vías	-9.63817
ra	-9.63855
▁schengen	-9.63903
▁8	-9.63993
▁prensa	-9.64028
▁exactamente	-9.6419
h	-9.64223
▁misión	-9.64321
▁perfectamente	-9.64502
▁50	-9.64589
▁margen	-9.64592
▁plantear	-9.64622
▁hacemos	-9.6469
▁viene	-9.64821
▁globalización	-9.6485
▁compañías	-9.64895
▁adicionales	-9.64913
t	-9.65249
▁dudas	-9.6536
▁carne	-9.6543
▁anteriores	-9.65456
▁escuchar	-9.65512
▁movilidad	-9.65632
▁gobernanza	-9.65664
▁garantía	-9.65684
▁personalmente	-9.65706
▁presentadas	-9.65768
▁terroristas	-9.66068
▁líneas	-9.66077
▁profesional	-9.66401
▁penal	-9.66455
▁límites	-9.66555
▁recuperación	-9.66779
▁medicamentos	-9.66798
▁ampliar	-9.6688
▁pensiones	-9.66907
▁funcionarios	-9.67038
▁numerosas	-9.67107
▁manifiesto	-9.67132
▁7	-9.6729
▁vital	-9.67467
▁estructura	-9.67544
▁reglamentos	-9.67629
▁ciertamente	-9.67665
▁ciertos	-9.67862
▁mediterráneo	-9.67902
▁pedimos	-9.67972
▁controlar	-9.68061
▁familias	-9.68187
▁habla	-9.68256
▁subsidiariedad	-9.68362
▁suministro	-9.68363
▁g	-9.68779
▁efectiva	-9.68836
▁suficientemente	-9.68918
▁entrar	-9.68983
▁portugal	-9.69049
▁amsterdam	-9.69114
▁celebrar	-9.69147
▁razonable	-9.69263
▁rumanía	-9.69377
▁julio	-9.69673
▁economías	-9.69691
▁intervenir	-9.69739
▁naturales	-9.69919
▁socialista	-9.69955
▁influencia	-9.69963
▁polonia	-9.69971
▁siguientes	-9.70024
▁continuación	-9.70144
▁elección	-9.70203
▁fiscales	-9.70276
▁cifras	-9.70322
▁defensor	-9.70387
▁agencias	-9.70424
▁refiero	-9.70935
▁ocurre	-9.712
▁hará	-9.71201
▁chipre	-9.71203
▁error	-9.71222
▁correcto	-9.71448
mamente	-9.71547
▁inclusión	-9.71673
▁superar	-9.71733
▁conjunta	-9.71767
▁género	-9.71813
▁plena	-9.71919
▁noche	-9.72218
▁estructuras	-9.72288
▁pagar	-9.72346
▁verdadero	-9.72355
▁respuestas	-9.72406
▁intervenciones	-9.7245
▁corto	-9.72492
▁actuación	-9.72552
▁voz	-9.7262
▁explotación	-9.72623
▁seno	-9.72653
▁exigencias	-9.72712
l	-9.73032
▁áreas	-9.73124
▁barroso	-9.73131
▁clima	-9.73132
▁digo	-9.73168
▁natural	-9.73204
▁creciente	-9.7321
▁prevé	-9.73252
▁credibilidad	-9.73439
▁2004	-9.73563
▁muestra	-9.73776
▁viven	-9.73802
▁considerable	-9.73811
▁virtud	-9.7394
▁hacerse	-9.73965
▁suficientes	-9.74017
▁renovables	-9.74029
▁sociedades	-9.74043
▁proponer	-9.74055
▁concretos	-9.7406
▁terminar	-9.74168
▁representan	-9.74194
▁ciudadano	-9.7438
▁esenciales	-9.74381
▁balcanes	-9.74576
▁centrales	-9.74654
▁impedir	-9.74662
▁relativos	-9.74708
▁técnicas	-9.74747
▁u	-9.74863
▁familia	-9.74898
▁consciente	-9.74926
▁conversaciones	-9.74993
▁mantenimiento	-9.74993
▁militares	-9.75031
▁aéreo	-9.75111
▁estudios	-9.7512
▁oradores	-9.75162
▁conciliación	-9.75307
▁campaña	-9.75321
▁procedentes	-9.75418
▁comisarios	-9.75473
▁basa	-9.75588
▁continente	-9.75706
▁ventajas	-9.75714
▁poderes	-9.75773
▁suecia	-9.76008
▁obstáculos	-9.76014
▁subvenciones	-9.76046
▁claras	-9.76075
▁modificar	-9.761
pt	-9.76113
▁tenía	-9.76204
▁numerosos	-9.76435
▁etc	-9.76468
▁ven	-9.76481
▁tercera	-9.76534
▁evaluar	-9.7654
▁depende	-9.76613
▁aplica	-9.76672
▁puesta	-9.76731
▁reuniones	-9.77032
▁firmemente	-9.77057
▁pasada	-9.77064
▁pedido	-9.77265
▁verdaderamente	-9.77338
▁resoluciones	-9.77388
▁demócratas	-9.77437
▁pocos	-9.77473
▁hagan	-9.77483
▁tabaco	-9.77709
▁18	-9.77741
▁27	-9.77784
▁bancos	-9.77786
▁activa	-9.77829
▁intento	-9.77838
▁extremadamente	-9.78031
▁imposible	-9.78053
▁acp	-9.7807
▁convencido	-9.78089
▁incluidos	-9.78185
▁especiales	-9.78213
▁desean	-9.78236
▁bulgaria	-9.78319
▁órganos	-9.78752
▁petróleo	-9.78753
▁enfermedad	-9.78884
▁siglo	-9.7892
▁convertirse	-9.78921
▁poblaciones	-9.79005
▁reto	-9.79031
▁quedado	-9.79061
▁doble	-9.79093
▁humano	-9.79103
▁abierto	-9.79211
▁completo	-9.79248
▁deberán	-9.79254
▁eficaces	-9.79258
▁dispuestos	-9.79274
▁plano	-9.79284
▁financiar	-9.79335
as	-9.79426
▁presentes	-9.79492
▁media	-9.79585
▁repercusiones	-9.79586
▁hablamos	-9.7959
▁abril	-9.79622
▁añadido	-9.79649
▁tengamos	-9.79786
▁cree	-9.79947
▁presentación	-9.79962
▁comparto	-9.80097
▁conforme	-9.80163
▁2008	-9.80391
▁positivos	-9.8051
▁ponga	-9.8053
▁comisiones	-9.80538
▁término	-9.80567
▁cuotas	-9.80607
▁violaciones	-9.80724
▁américa	-9.80871
▁seres	-9.8101
▁conceder	-9.81013
▁ciertas	-9.81091
▁escuchado	-9.81141
▁india	-9.81245
▁tareas	-9.81308
▁turno	-9.81532
▁otan	-9.81537
▁felicito	-9.81573
▁incremento	-9.81643
▁directa	-9.8171
▁elaborado	-9.81768
▁debatiendo	-9.81834
▁etiquetado	-9.81875
▁1999	-9.81956
▁estrecha	-9.81997
▁totalidad	-9.82215
▁legislativa	-9.82279
▁concreta	-9.82334
▁insistir	-9.82373
▁tiempos	-9.8239
▁drogas	-9.82483
▁distribución	-9.82544
▁procesos	-9.82588
▁desearía	-9.82619
▁afrontar	-9.82654
▁habían	-9.82782
▁buques	-9.82818
▁siga	-9.82833
▁buscar	-9.82843
▁daños	-9.8301
▁cuál	-9.83027
▁determinadas	-9.83122
▁ejercer	-9.83169
▁expresado	-9.8346
▁ve	-9.83645
▁mitad	-9.83714
ta	-9.83965
▁presentada	-9.83966
▁formular	-9.84055
▁sola	-9.84056
▁operaciones	-9.84211
▁transición	-9.84286
▁técnica	-9.84397
▁incluida	-9.84597
▁eran	-9.84635
▁comprobar	-9.84639
▁propósito	-9.84671
▁propiedad	-9.84697
▁últimas	-9.84785
▁sanitaria	-9.84826
▁quién	-9.84887
▁policía	-9.84903
▁i	-9.84925
▁dando	-9.85147
▁futuras	-9.85152
▁dejado	-9.85243
▁adicional	-9.85302
▁informar	-9.85384
▁críticas	-9.85578
▁entorno	-9.85637
▁verdes	-9.85805
▁disponibles	-9.85862
▁larga	-9.86156
▁ocupa	-9.8641
▁máxima	-9.86573
▁iniciar	-9.86691
▁aceptable	-9.86809
▁reales	-9.8695
▁adoptadas	-9.86998
▁pesquera	-9.87044
▁manifestar	-9.87227
▁interesante	-9.87243
▁posiciones	-9.87275
▁oral	-9.87308
▁mejoras	-9.87345
▁factores	-9.87357
▁exportación	-9.87507
▁pago	-9.87559
▁acabar	-9.87672
▁culturales	-9.87693
▁creado	-9.87696
▁9	-9.87732
▁adaptación	-9.87824
▁construir	-9.87853
▁costa	-9.87892
ron	-9.88006
▁veo	-9.88041
▁difíciles	-9.88132
▁suma	-9.88204
▁unanimidad	-9.88219
▁impresión	-9.88378
▁parecer	-9.88379
▁conjuntamente	-9.88391
▁jefes	-9.88393
▁exclusión	-9.88578
▁definitiva	-9.88586
▁déficit	-9.88632
▁corrupción	-9.88657
▁transparente	-9.88831
▁restricciones	-9.89017
▁copenhague	-9.89057
▁crítica	-9.89068
▁pac	-9.89083
▁aun	-9.89096
▁profesionales	-9.89119
▁40	-9.89193
▁deja	-9.89329
▁preparación	-9.89339
▁definir	-9.89488
▁código	-9.89637
▁estrasburgo	-9.897
▁ratificación	-9.897
▁lugares	-9.89862
▁pequeña	-9.90001
▁conocer	-9.90017
▁antigua	-9.90042
▁votaciones	-9.90064
▁delincuencia	-9.90185
▁carretera	-9.90285
▁transfronteriza	-9.90306
▁deuda	-9.90329
▁tendría	-9.90351
▁alguien	-9.9039
▁vidas	-9.90398
▁factor	-9.90407
▁energético	-9.90488
▁calendario	-9.90692
te	-9.90762
▁afganistán	-9.90957
▁causas	-9.91013
▁codecisión	-9.91121
▁exclusivamente	-9.913
▁afectan	-9.91528
▁pasos	-9.91531
▁simple	-9.91549
▁basado	-9.91661
▁respaldo	-9.91695
▁2003	-9.91723
▁dispuesto	-9.9209
▁excepción	-9.92107
▁belarús	-9.92438
▁completa	-9.92478
▁tuvo	-9.9269
▁véase	-9.92732
▁recientes	-9.92907
▁pescadores	-9.92946
▁convertido	-9.92978
▁casa	-9.92994
▁aprobada	-9.93047
▁menores	-9.93085
▁tasa	-9.93131
▁favorable	-9.93175
▁invertir	-9.93182
▁opción	-9.93187
▁norma	-9.9336
▁lamentable	-9.93463
▁coherencia	-9.93479
▁dé	-9.93536
▁apoyado	-9.9358
▁proceder	-9.93773
▁13	-9.93988
▁peor	-9.94019
▁inmediatamente	-9.94187
▁sacar	-9.94208
▁ejemplos	-9.9423
▁2002	-9.94295
▁legales	-9.94355
▁obra	-9.94418
▁contacto	-9.94478
sgraciadamente	-9.94701
▁ii	-9.94774
▁deber	-9.95358
▁rapidez	-9.95381
▁vigilancia	-9.9551
os	-9.9573
▁primeros	-9.95756
▁palestina	-9.95845
▁comienzo	-9.95887
▁encima	-9.95937
▁pérdida	-9.95973
▁14	-9.95973
▁17	-9.95981
▁científicos	-9.96142
▁abierta	-9.96186
▁permitan	-9.96243
▁trabajan	-9.96377
▁centros	-9.96428
▁impulso	-9.96508
▁mostrar	-9.9651
▁específica	-9.96532
▁orientaciones	-9.96541
▁obviamente	-9.96546
▁ausencia	-9.96713
i	-9.96772
▁pilar	-9.96794
▁serbia	-9.96795
▁prácticamente	-9.96804
▁desafíos	-9.96905
▁seguirá	-9.96943
▁movimiento	-9.96968
▁pacientes	-9.96998
▁blanco	-9.97055
▁fines	-9.97113
▁disponer	-9.97141
▁ciudades	-9.97186
▁permítame	-9.97233
▁conocimientos	-9.97291
▁dignidad	-9.97407
▁explicar	-9.97436
▁pregunto	-9.97538
▁democráticas	-9.97577
▁diciendo	-9.97581
▁febrero	-9.97581
▁específicos	-9.97741
▁austria	-9.97811
▁democráticos	-9.97882
▁significativa	-9.98108
▁conciencia	-9.98176
▁visados	-9.98306
▁eliminación	-9.98371
▁oficina	-9.98413
▁individuales	-9.98447
▁agentes	-9.98637
▁británico	-9.98677
▁referido	-9.98722
▁examen	-9.98722
▁vemos	-9.98768
▁electoral	-9.98806
▁orientación	-9.98811
▁estaban	-9.98886
▁unidad	-9.98976
▁croacia	-9.99032
al	-9.99033
com	-9.99051
▁exigir	-9.99064
▁deporte	-9.99166
▁enviar	-9.99188
▁regular	-9.99272
▁reconoce	-9.99338
▁pequeño	-9.99344
▁lenguas	-9.99404
▁formulada	-9.9948
▁básicos	-9.99492
▁dónde	-9.99545
▁adecuadas	-9.99548
▁aprobó	-9.99608
▁enormes	-9.99662
▁impulsar	-9.99798
▁quería	-9.99804
▁raíz	-9.99831
fi	-9.99862
▁tierra	-9.99879
▁sexual	-10
▁100	-10.0001
▁16	-10.0004
▁realizados	-10.0005
▁legislativas	-10.001
▁parcial	-10.0018
▁revisar	-10.0024
▁reconstrucción	-10.0041
ar	-10.0043
▁permitido	-10.0051
▁cuarto	-10.0055
▁realización	-10.0056
▁liberales	-10.0063
▁ecus	-10.0066
▁laborales	-10.0067
▁estadísticas	-10.007
▁cláusula	-10.0074
▁hijos	-10.0082
▁fortalecer	-10.009
▁buenos	-10.0094
▁aparte	-10.0097
▁contratos	-10.0118
▁fracaso	-10.0123
▁decirlo	-10.0131
▁alternativa	-10.0132
m	-10.0133
▁limitar	-10.0148
▁estará	-10.0174
▁presupuestarias	-10.0182
▁temporal	-10.0186
▁registro	-10.0196
▁área	-10.0223
▁vaya	-10.0226
▁violación	-10.0227
▁privado	-10.0228
▁convergencia	-10.0232
▁abrir	-10.0234
▁rurales	-10.024
▁fomento	-10.0241
▁oficial	-10.0241
▁siete	-10.0241
▁argumentos	-10.0243
▁discurso	-10.0251
▁superior	-10.0254
▁independientes	-10.0261
▁afectadas	-10.0262
▁éstos	-10.0264
▁comprender	-10.0281
▁soberanía	-10.0282
▁existente	-10.0287
▁elevado	-10.0289
▁rechazo	-10.0291
▁19	-10.0303
▁rápido	-10.0311
▁afirmar	-10.0313
▁funciones	-10.0316
▁accidentes	-10.0328
▁inicial	-10.0342
▁determinar	-10.0348
▁sencillamente	-10.0349
▁quedan	-10.0357
re	-10.0363
con	-10.0367
▁decirle	-10.0367
▁incrementar	-10.0369
▁estudiar	-10.037
▁tendencia	-10.038
▁darle	-10.0389
▁ruego	-10.0407
▁interlocutores	-10.0408
▁ocurrido	-10.0413
▁inmediato	-10.0418
▁refleja	-10.0422
▁eficiente	-10.0423
▁energías	-10.0426
▁parecen	-10.0441
g	-10.0448
▁ilegales	-10.0454
▁modificaciones	-10.0459
▁entiendo	-10.046
▁especie	-10.046
▁aprueba	-10.046
▁prodi	-10.0468
▁importaciones	-10.0473
▁específico	-10.0479
▁errores	-10.0484
▁socialistas	-10.0494
▁considerando	-10.0494
▁aquellas	-10.0498
▁hayamos	-10.0506
▁sucede	-10.0525
▁aclarar	-10.0528
▁operadores	-10.0529
▁presidentes	-10.0531
▁alguno	-10.054
▁comentario	-10.054
▁ong	-10.0543
▁reflexión	-10.0547
▁opciones	-10.0552
▁fuente	-10.056
▁palestinos	-10.057
▁cifra	-10.0578
▁destinados	-10.0582
▁próximas	-10.0594
▁presentó	-10.06
▁ex	-10.0605
▁arreglo	-10.0606
▁conducta	-10.0606
▁determinación	-10.0614
nl	-10.0637
▁industriales	-10.0649
▁recuerdo	-10.0668
▁parlamentario	-10.0669
▁señoras	-10.067
▁detalles	-10.0672
▁manifestado	-10.0676
▁dan	-10.0677
▁contribuyentes	-10.0679
▁2001	-10.0685
▁mostrado	-10.0686
▁alternativas	-10.0699
▁mantenido	-10.0702
▁pensamos	-10.0704
▁aplicarse	-10.0718
▁prevenir	-10.0719
▁extraordinaria	-10.0721
▁preguntar	-10.0721
▁equilibrado	-10.0736
▁similares	-10.0743
▁personales	-10.0752
▁permiten	-10.0756
▁siento	-10.0757
▁indispensable	-10.0765
▁claros	-10.0769
▁estrategias	-10.077
▁basta	-10.0773
▁sinceramente	-10.0773
▁destinadas	-10.0775
▁éstas	-10.0784
▁original	-10.0791
▁vivir	-10.0801
▁piensa	-10.0808
▁interpretación	-10.0825
▁exista	-10.0827
▁título	-10.0833
▁identidad	-10.0854
▁materias	-10.0865
▁publicidad	-10.0869
▁georgia	-10.0871
▁segura	-10.0877
rá	-10.0892
▁asia	-10.0923
▁lengua	-10.0925
▁delitos	-10.0945
▁pocas	-10.0965
▁instalaciones	-10.0967
▁occidental	-10.0982
▁anteriormente	-10.0983
▁trabajado	-10.0984
▁aproximadamente	-10.0997
▁analizar	-10.1014
▁suerte	-10.1016
▁representación	-10.1024
▁produce	-10.1057
▁mantiene	-10.1057
▁contribuido	-10.1061
▁fenómeno	-10.1064
▁oportuno	-10.1064
▁concesión	-10.1071
▁francés	-10.1071
▁líderes	-10.1073
▁producir	-10.1091
▁cuáles	-10.1095
▁habitantes	-10.1098
▁burocracia	-10.1101
▁bienes	-10.1103
▁empleos	-10.1105
▁funciona	-10.111
▁campos	-10.1111
▁perder	-10.1126
▁expectativas	-10.1128
▁dispone	-10.1134
▁indica	-10.1137
▁d	-10.1144
▁retraso	-10.1144
▁bases	-10.1145
▁checa	-10.1146
▁instancia	-10.1149
▁indicar	-10.1153
▁afirma	-10.1158
▁bilaterales	-10.1168
▁quince	-10.1183
▁usuarios	-10.1186
▁seguimos	-10.1201
▁dispuesta	-10.1205
▁estratégica	-10.1205
▁elegido	-10.1215
▁investigaciones	-10.1231
▁ciudadanía	-10.1241
▁acordado	-10.125
▁técnico	-10.125
▁mala	-10.1257
▁reserva	-10.1257
▁prosperidad	-10.1262
▁aportar	-10.1264
▁autor	-10.1274
▁justa	-10.1276
▁intenciones	-10.1277
8	-10.1278
▁pasa	-10.1279
▁1998	-10.1281
5	-10.1289
▁técnicos	-10.1314
▁correctamente	-10.132
▁destrucción	-10.1328
▁francesa	-10.1332
▁dicen	-10.1334
▁rechazar	-10.1336
▁simplificación	-10.1343
▁brevemente	-10.1345
▁obligados	-10.1346
▁onu	-10.1351
▁similar	-10.1353
▁señala	-10.1358
▁solucionar	-10.1362
▁existir	-10.1363
▁aceptado	-10.1364
rse	-10.1374
▁ce	-10.1375
▁catástrofes	-10.1379
▁llega	-10.1387
▁categoría	-10.1388
▁hombre	-10.1404
▁cantidades	-10.1406
▁figura	-10.1434
▁solicitar	-10.144
▁recurso	-10.1445
▁ronda	-10.1456
▁televisión	-10.1462
▁libres	-10.1463
▁aéreas	-10.1475
▁catástrofe	-10.1481
▁duración	-10.1482
▁formar	-10.1483
▁características	-10.1483
▁ataques	-10.1487
▁partida	-10.1491
▁sostenibilidad	-10.1492
▁perdido	-10.1507
▁baja	-10.1554
▁monetarios	-10.1554
▁textos	-10.1561
▁artículos	-10.1567
▁bienvenida	-10.157
▁producen	-10.159
▁apenas	-10.1592
▁estimados	-10.1595
▁1997	-10.1596
▁constante	-10.1602
▁crea	-10.1605
▁alegra	-10.1608
▁emergencia	-10.1612
▁alianza	-10.1615
▁confío	-10.1618
▁oído	-10.1623
▁habida	-10.1623
▁izquierda	-10.163
▁elegir	-10.1649
▁luxemburgo	-10.1655
ca	-10.1659
▁conservación	-10.1676
terinstitucional	-10.1677
▁asociaciones	-10.1681
▁material	-10.1685
▁inmediata	-10.1692
▁referente	-10.1702
▁iva	-10.1716
▁institucionales	-10.1717
▁vicepresidente	-10.1723
▁acto	-10.1725
▁occidentales	-10.1728
▁comparación	-10.1729
▁estructural	-10.1731
▁regímenes	-10.1734
▁corea	-10.1736
▁emisión	-10.1745
▁adoptada	-10.1756
▁foro	-10.1761
▁estatales	-10.1767
▁par	-10.1769
▁incluidas	-10.1782
▁ciudad	-10.1793
▁pie	-10.1801
▁auténtica	-10.1809
▁celebrado	-10.181
▁jueves	-10.1814
▁llamado	-10.1821
▁atrás	-10.1825
▁cuidado	-10.1837
1	-10.1838
si	-10.1846
▁servir	-10.1848
▁europol	-10.1868
▁lógica	-10.1875
▁inicio	-10.1879
▁deficiencias	-10.1881
▁interna	-10.1886
▁universal	-10.189
▁21	-10.1892
▁amigos	-10.1893
▁parlamentarios	-10.1898
▁tribunales	-10.1907
▁finanzas	-10.1911
▁requisito	-10.1911
▁24	-10.1925
f	-10.1926
▁2007	-10.1938
▁pib	-10.1944
▁transferencia	-10.1944
▁generación	-10.1949
▁garantiza	-10.1961
4	-10.1963
6	-10.1973
▁asegurarnos	-10.1975
▁clase	-10.1977
▁transfronterizo	-10.1987
▁salir	-10.1994
▁conviene	-10.2011
▁familiar	-10.2014
▁seguido	-10.2015
▁animal	-10.2015
▁plazos	-10.2015
▁empleados	-10.2024
▁negociar	-10.203
▁competitiva	-10.2031
▁ocho	-10.2055
▁adopte	-10.2068
▁vecindad	-10.2069
▁emprender	-10.2078
▁celebro	-10.208
▁utilizan	-10.2084
▁imagen	-10.2085
▁significativo	-10.2087
▁acceder	-10.2098
▁reglamentación	-10.2102
▁garantice	-10.2117
▁disponemos	-10.2123
▁solicitado	-10.2132
▁porcentaje	-10.2136
▁reducido	-10.2142
▁consideraciones	-10.2149
▁pro	-10.2155
▁frontera	-10.2158
▁peso	-10.2164
▁conveniente	-10.2197
▁exportaciones	-10.2202
▁mutuo	-10.2203
▁60	-10.2204
▁considerarse	-10.2204
▁satisfactoria	-10.2209
▁incluyen	-10.2212
▁enormemente	-10.2214
sv	-10.2225
▁puertos	-10.2227
▁versión	-10.2231
▁detención	-10.2235
▁compensación	-10.2241
▁industrias	-10.2248
▁hago	-10.2249
▁enfrentamos	-10.225
▁pese	-10.2252
▁2005	-10.2274
▁antiguos	-10.2286
un	-10.2291
▁preparar	-10.2294
▁finlandia	-10.2297
▁exigencia	-10.2299
▁demuestran	-10.2306
▁observar	-10.2308
▁orador	-10.2321
▁territorios	-10.2325
▁experiencias	-10.2327
▁visita	-10.2329
▁criterio	-10.2332
▁consideran	-10.2335
▁23	-10.2336
▁aplican	-10.2336
▁autorización	-10.2337
▁2006	-10.2339
▁profundamente	-10.234
▁cumplan	-10.2342
ización	-10.2343
▁destino	-10.2344
▁respaldar	-10.2352
▁cierre	-10.2358
▁aviación	-10.2365
▁barreras	-10.2365
▁telecomunica	-10.2375
▁alemán	-10.2376
▁mil	-10.2377
▁científica	-10.239
▁equipo	-10.2395
▁activo	-10.2395
▁500	-10.2396
▁grande	-10.2396
▁condena	-10.2415
▁referirme	-10.2439
▁hubo	-10.2445
▁enfrenta	-10.2449
▁2009	-10.2453
í	-10.2454
▁sufren	-10.2482
▁electricidad	-10.2484
▁1996	-10.2486
▁territorial	-10.2496
▁normal	-10.2497
▁vulnerables	-10.2501
▁insto	-10.2507
▁fabricantes	-10.2524
▁liberal	-10.2536
▁dada	-10.2549
▁retirada	-10.255
▁estrictas	-10.2552
▁presupuestarios	-10.256
di	-10.2564
▁velar	-10.2566
▁aprender	-10.2572
▁esperan	-10.2575
▁capitales	-10.2577
▁marítima	-10.2584
▁aplicable	-10.2585
▁planificación	-10.2588
p	-10.26
▁hungría	-10.2605
▁cerrar	-10.2605
▁temo	-10.262
▁futuros	-10.2621
▁constructiva	-10.2625
▁seriamente	-10.2625
▁niza	-10.2626
▁bélgica	-10.2629
▁organizada	-10.2637
7	-10.2639
▁relieve	-10.264
▁votos	-10.2647
▁tome	-10.2653
▁organizar	-10.2655
▁capítulo	-10.266
▁empresarial	-10.2676
▁irlandés	-10.2681
▁incluya	-10.2686
▁padres	-10.2688
▁debidamente	-10.2689
▁firma	-10.269
▁crimen	-10.2704
▁altos	-10.2712
▁activamente	-10.2717
▁insuficiente	-10.2719
▁primas	-10.272
▁minutos	-10.272
▁repetir	-10.273
▁oferta	-10.2742
▁excepciones	-10.2745
▁precisa	-10.2749
▁comprometido	-10.276
▁socio	-10.2772
▁bosnia	-10.2775
▁aumentado	-10.278
▁racismo	-10.2781
▁organismo	-10.2784
▁mundiales	-10.2793
▁adecuados	-10.2799
▁carbono	-10.2804
▁celebración	-10.2811
to	-10.2819
▁determinado	-10.282
▁liderazgo	-10.2834
▁forman	-10.2857
▁intentando	-10.286
▁interno	-10.2869
▁sabido	-10.2882
▁supresión	-10.2882
▁abandonar	-10.2882
▁gases	-10.2885
▁pakistán	-10.2888
▁intentado	-10.2895
ado	-10.2896
▁desafío	-10.2897
▁ambiental	-10.2901
▁funcionar	-10.2905
▁argumento	-10.2909
▁referéndum	-10.2921
▁empresarios	-10.2922
▁llegue	-10.2923
▁interiores	-10.2924
▁quedar	-10.2954
▁época	-10.2969
▁moral	-10.2971
▁bretaña	-10.2971
▁japón	-10.2977
▁ambicioso	-10.2981
▁báltico	-10.2981
▁permiso	-10.2981
▁estrechamente	-10.2991
▁utilizado	-10.2994
▁contribuye	-10.2999
▁implicados	-10.3004
▁reconocido	-10.3005
▁cumplen	-10.3009
▁entendido	-10.3014
▁adecuadamente	-10.3015
▁sistemática	-10.3023
sen	-10.3033
▁dictamen	-10.3044
▁amenazas	-10.3044
▁comportamiento	-10.3054
▁exposición	-10.3062
▁intelectual	-10.3069
▁informado	-10.3074
▁tasas	-10.3076
▁ee	-10.3076
▁alternativos	-10.3077
▁positivas	-10.3078
▁barcelona	-10.308
uu	-10.3089
▁debatido	-10.3096
▁marítimo	-10.3096
▁gubernamentales	-10.3101
▁2010	-10.3101
▁utilizando	-10.3102
▁llevan	-10.3108
▁patente	-10.3109
▁cientos	-10.3116
▁salarios	-10.3119
▁desarrollado	-10.3122
▁destacado	-10.3122
▁fijar	-10.3129
res	-10.3138
▁pudiera	-10.3139
▁inter	-10.3148
▁estadounidenses	-10.3156
▁proporciona	-10.3157
▁administrativa	-10.3158
▁merecen	-10.316
▁trate	-10.3172
▁alemana	-10.3179
▁continúa	-10.3188
▁vinculante	-10.3188
sa	-10.3203
▁juventud	-10.3203
▁ahorro	-10.3207
▁venta	-10.3208
▁reacción	-10.3209
reestructuración	-10.3218
▁fe	-10.3221
▁secretario	-10.3221
▁sólida	-10.3225
▁fortalecimiento	-10.3227
▁negativa	-10.3246
'	-10.3251
▁ejército	-10.3256
▁recurrir	-10.3258
▁profunda	-10.327
▁22	-10.3273
▁destinado	-10.3276
▁búsqueda	-10.3283
▁cooperar	-10.3295
▁acervo	-10.3295
▁limitado	-10.33
▁llamada	-10.3301
▁aquel	-10.3303
na	-10.3317
▁humanidad	-10.3321
▁simplificar	-10.3327
▁firmado	-10.334
▁competentes	-10.334
▁dirigida	-10.3344
▁minoría	-10.335
▁establecidos	-10.335
▁crímenes	-10.3351
▁discusión	-10.3364
▁culpa	-10.3374
▁cometido	-10.3381
▁podía	-10.3383
▁confirmar	-10.3394
▁adoptó	-10.3402
▁materiales	-10.3404
▁española	-10.3404
▁sufrido	-10.3406
▁relativamente	-10.3407
▁realista	-10.3413
▁judiciales	-10.3418
▁80	-10.3421
▁dirigentes	-10.3421
▁finalidad	-10.3424
▁convencer	-10.3431
▁discutir	-10.3438
▁creen	-10.3442
▁escuelas	-10.3462
▁acabo	-10.3465
▁especies	-10.3475
▁equilibrada	-10.3476
▁importe	-10.3482
▁aire	-10.3483
▁enfrentan	-10.3491
▁competente	-10.3501
▁declarado	-10.3502
▁31	-10.3505
▁patrimonio	-10.3515
▁solicitudes	-10.352
▁cumplido	-10.352
▁absoluta	-10.3522
▁aeropuertos	-10.3526
▁cualquiera	-10.3528
▁alrededor	-10.3529
▁flexible	-10.354
▁seguramente	-10.3547
▁acelerar	-10.3549
▁estratégico	-10.3565
▁consecución	-10.3566
▁jurídicas	-10.3568
▁menciona	-10.36
▁patentes	-10.36
3	-10.3605
▁fuertes	-10.3609
▁británicos	-10.3611
▁eeb	-10.3612
▁detalle	-10.3617
▁contamos	-10.3617
▁dependencia	-10.3618
▁aportación	-10.3624
▁toneladas	-10.3627
▁crédito	-10.3629
▁puerta	-10.3629
▁capacidades	-10.3638
▁compartir	-10.365
▁tratando	-10.3655
▁británica	-10.3662
▁legitimidad	-10.3682
▁volumen	-10.3695
▁interesados	-10.3723
▁previa	-10.3729
▁vuelto	-10.3734
▁acogida	-10.3739
▁decirles	-10.3756
▁genéticamente	-10.3774
▁individual	-10.3783
in	-10.3785
▁intenta	-10.3788
▁recuperar	-10.3795
▁%.	-10.3795
▁ofrecen	-10.3808
ría	-10.3809
▁ganado	-10.3812
▁hubiese	-10.3815
▁invernadero	-10.3818
▁compartimos	-10.3818
▁indicadores	-10.382
▁sigan	-10.3823
▁1995	-10.383
▁resistencia	-10.3831
▁sanitarios	-10.3832
cuál	-10.3839
▁decía	-10.3846
▁delante	-10.3861
▁diría	-10.3863
▁negativo	-10.3864
▁macedonia	-10.3871
▁privada	-10.3871
▁sirve	-10.3875
▁decisivo	-10.3884
▁antiguo	-10.3884
▁refuerzo	-10.3891
▁celebrará	-10.3899
▁imprescindible	-10.3904
▁derivados	-10.391
▁equipos	-10.3915
▁órgano	-10.393
▁vigente	-10.393
▁interesadas	-10.393
hu	-10.3933
idad	-10.3943
▁división	-10.3943
▁vino	-10.3952
co	-10.3955
▁2020	-10.3955
▁histórico	-10.3957
▁aprendizaje	-10.3957
▁ido	-10.3957
▁posterior	-10.396
▁convertir	-10.3962
▁anuales	-10.3962
▁honor	-10.3963
▁apropiado	-10.397
▁reflexionar	-10.3976
▁transmitir	-10.398
▁identificar	-10.3982
▁reciben	-10.3982
▁constantemente	-10.3989
▁acepta	-10.399
▁aplique	-10.3991
▁candidato	-10.3997
▁logro	-10.3997
▁contactos	-10.4012
▁estudiantes	-10.4032
▁dirigidas	-10.4038
▁cambiado	-10.4039
▁oír	-10.4042
▁cuba	-10.4047
▁deseos	-10.4056
▁ataque	-10.4057
▁urgentemente	-10.406
▁disponible	-10.4064
▁estable	-10.4069
▁belga	-10.4071
▁creer	-10.4071
▁considerado	-10.4071
▁accidente	-10.4077
▁federal	-10.4085
▁consolidación	-10.4097
▁gestionar	-10.4097
▁flota	-10.4104
▁comunicaciones	-10.4117
▁pertinentes	-10.4122
▁relacionado	-10.4125
▁organizado	-10.413
▁preocupante	-10.4132
▁redacción	-10.4138
▁obvio	-10.4138
▁tragedia	-10.4138
▁diga	-10.4139
▁formulado	-10.4152
▁conservar	-10.4154
▁carreteras	-10.4155
▁ferroviario	-10.4158
▁incluyendo	-10.4158
▁prohibir	-10.4159
▁islas	-10.4164
▁apruebe	-10.4176
▁cadena	-10.4179
▁operación	-10.4185
▁peligrosas	-10.4187
▁probable	-10.4194
mo	-10.4196
▁efectivo	-10.4199
▁constituir	-10.4207
▁seamos	-10.4213
▁esperanzas	-10.422
▁resaltar	-10.4222
▁dinamarca	-10.4226
▁maastricht	-10.4233
▁infantil	-10.4241
▁ritmo	-10.4246
▁administrativos	-10.4248
▁migración	-10.4253
▁consultas	-10.427
siderablemente	-10.4271
comercialización	-10.4288
▁enseñanza	-10.4288
▁explicación	-10.4288
▁miedo	-10.429
ma	-10.4304
▁convenios	-10.4317
▁cumple	-10.432
▁comentar	-10.4321
z	-10.4321
▁ninguno	-10.4322
▁irlandesa	-10.4323
▁complejo	-10.4337
▁cáncer	-10.4344
▁produzca	-10.4348
▁aplicado	-10.4357
▁constructivo	-10.4357
▁encontrado	-10.4357
▁desastre	-10.4364
puede	-10.4368
ga	-10.4368
▁etapa	-10.4378
▁concede	-10.4382
▁propongo	-10.4384
▁abusos	-10.4387
íamos	-10.44
▁pérdidas	-10.4406
▁tradicionales	-10.4416
▁berlín	-10.4426
cristianos	-10.4434
▁español	-10.4436
▁ojos	-10.4437
▁dificultad	-10.4438
▁hagamos	-10.4439
▁desempeña	-10.4455
▁favorecer	-10.4459
▁encaminadas	-10.4462
▁200	-10.4466
▁distancia	-10.4473
▁verano	-10.4474
▁usar	-10.4474
▁ponen	-10.4479
▁eslovaquia	-10.4488
▁milenio	-10.4502
▁suprimir	-10.4505
▁interesa	-10.452
▁iniciado	-10.4522
▁prestación	-10.4524
▁26	-10.4531
▁pacífica	-10.4535
▁satisfacer	-10.4537
▁palestino	-10.4539
▁desarrollados	-10.454
▁aprobadas	-10.4547
▁modernización	-10.4559
▁dirigido	-10.456
▁científico	-10.456
▁italiano	-10.4565
▁sentencia	-10.4569
▁requieren	-10.4572
▁discapacidad	-10.4575
▁conocemos	-10.4576
▁integrar	-10.4582
▁excepcional	-10.4589
▁adopten	-10.4591
▁bosques	-10.46
▁liberación	-10.4608
▁12.00	-10.4608
▁venido	-10.4609
▁colaborar	-10.4612
▁decidió	-10.4615
▁participantes	-10.4624
▁estimular	-10.4629
▁transacciones	-10.4636
▁turco	-10.4638
▁políticamente	-10.4659
▁electrónico	-10.466
▁ferrocarril	-10.466
▁necesariamente	-10.4668
▁delito	-10.4672
▁esfera	-10.4674
▁debatimos	-10.4679
▁participado	-10.468
▁coordinar	-10.4683
▁utiliza	-10.469
▁integrado	-10.4691
▁opino	-10.4693
▁alimentación	-10.4694
▁querido	-10.4696
▁aborda	-10.4704
▁generaciones	-10.4708
▁riqueza	-10.4717
▁ponerse	-10.4725
▁marca	-10.4734
▁directo	-10.4738
▁retrasos	-10.4753
▁constatar	-10.4758
▁contratación	-10.4759
▁ésa	-10.476
▁primavera	-10.4765
▁vi	-10.4765
▁pesquero	-10.4767
▁destinada	-10.4782
▁elevados	-10.4785
▁imposición	-10.4787
▁anexo	-10.4789
▁recortes	-10.4792
▁marruecos	-10.4794
ismo	-10.4797
▁sueca	-10.4804
▁convierta	-10.4807
▁comparte	-10.4808
▁ambición	-10.4808
▁estarán	-10.481
▁bce	-10.4811
▁básicas	-10.4811
▁barcos	-10.4812
▁promesas	-10.4825
▁ventaja	-10.4833
▁apliquen	-10.4847
▁proponemos	-10.4855
9	-10.4858
▁minuto	-10.4862
▁edificios	-10.4867
▁tomen	-10.4868
▁debajo	-10.4874
▁pse	-10.4885
▁lógico	-10.4889
▁viaje	-10.4889
▁preparados	-10.4895
▁gaza	-10.4903
▁avanzado	-10.4906
▁lleve	-10.491
▁inflación	-10.4917
▁resultan	-10.4918
▁finalizar	-10.4933
▁tradicional	-10.4935
▁azúcar	-10.4947
▁yugoslavia	-10.4947
▁aceptación	-10.4948
▁modos	-10.495
demócrata	-10.4956
▁contribuirá	-10.4959
▁alegro	-10.4961
▁contribuciones	-10.4961
▁extrema	-10.4964
▁estaría	-10.4967
▁conoce	-10.4978
▁planeta	-10.4979
▁admitir	-10.4984
▁ampliamente	-10.4991
▁mínimas	-10.4992
▁estemos	-10.4993
▁plantean	-10.4999
▁ciencia	-10.5009
▁reviste	-10.5027
▁importación	-10.5028
▁comprensión	-10.5035
▁informaciones	-10.5035
▁indicado	-10.5046
▁obtenido	-10.506
▁provisional	-10.5067
▁corazón	-10.5072
▁explicaciones	-10.5073
▁masiva	-10.5078
▁coincido	-10.5079
▁hambre	-10.5083
▁incentivos	-10.5092
▁cuentan	-10.5093
▁familiares	-10.5094
▁lituania	-10.5094
▁dio	-10.5097
▁di	-10.5105
▁aumenta	-10.5112
▁prevista	-10.5113
▁albania	-10.5117
▁leche	-10.5125
▁visado	-10.5135
una	-10.5136
▁damos	-10.5147
▁proveedores	-10.5148
▁cultivo	-10.515
▁herramienta	-10.5165
▁retirar	-10.517
▁tanta	-10.5174
▁privados	-10.5175
▁histórica	-10.5176
▁obligado	-10.5182
▁citar	-10.5183
▁siguiendo	-10.5184
▁intercambios	-10.5187
▁solicitantes	-10.5188
▁posteriormente	-10.5197
▁residencia	-10.5199
▁armonizar	-10.5201
▁vuelva	-10.5206
▁logros	-10.5206
▁veinte	-10.5207
▁28	-10.5209
▁generar	-10.522
▁posiblemente	-10.5223
▁concentración	-10.5237
▁expresa	-10.5239
▁explotaciones	-10.5244
▁dará	-10.5244
▁realizando	-10.5255
▁roma	-10.5258
▁médicos	-10.5261
▁estatal	-10.5265
▁periodistas	-10.5276
ha	-10.5287
▁motor	-10.5288
▁verse	-10.5293
▁internos	-10.5295
▁latina	-10.5307
▁ginebra	-10.5312
▁refieren	-10.5324
▁dirigir	-10.533
▁muestran	-10.5339
▁considerables	-10.5349
▁exigen	-10.536
▁pe	-10.5361
▁religión	-10.5366
▁sucedido	-10.5366
▁tránsito	-10.5366
▁estadounidense	-10.537
▁respeten	-10.5373
▁cuándo	-10.5378
go	-10.538
▁firmeza	-10.5382
▁1,	-10.5383
▁conducir	-10.5386
▁tecnológico	-10.5393
▁obligatoria	-10.5393
▁ocupación	-10.5398
▁consolidar	-10.5402
▁cargas	-10.5416
▁suelo	-10.5416
▁dedicado	-10.5424
▁2,	-10.5436
▁presentan	-10.5438
▁preservar	-10.5442
▁funcione	-10.5446
podría	-10.5461
▁leer	-10.5468
▁automóviles	-10.5469
▁auténtico	-10.5501
▁dólares	-10.5506
▁asignación	-10.5512
▁fijado	-10.5519
▁mantenga	-10.5523
▁subraya	-10.5533
▁estando	-10.5536
quién	-10.5546
▁cubrir	-10.5553
▁debía	-10.5555
▁permanecer	-10.5555
ti	-10.5558
▁alcohol	-10.5558
▁básica	-10.5559
▁romaní	-10.5569
▁abuso	-10.5571
▁detener	-10.5576
▁altura	-10.5586
▁asociados	-10.559
▁estándares	-10.5607
▁básico	-10.561
li	-10.5613
▁composición	-10.5621
▁salida	-10.5626
ale	-10.5634
▁categorías	-10.5638
▁oficiales	-10.5645
▁vale	-10.5652
▁presentará	-10.5655
▁contempla	-10.5665
▁décadas	-10.5669
▁multilateral	-10.5676
▁utilidad	-10.5676
▁policial	-10.5679
▁canadá	-10.5684
▁observadores	-10.5686
▁expuesto	-10.5689
▁ambientales	-10.5691
▁legislatura	-10.5692
▁importa	-10.5705
▁mejorado	-10.5707
▁préstamos	-10.5708
▁incorporar	-10.5714
▁aplicando	-10.5715
▁integridad	-10.5724
▁exponer	-10.5735
▁legislativos	-10.5751
▁justamente	-10.5754
▁ricos	-10.5756
▁pesqueros	-10.5761
▁provocado	-10.5769
▁específicamente	-10.5772
▁cualificada	-10.5777
▁llevando	-10.5779
▁relacionada	-10.5793
▁administrativas	-10.5798
▁entidades	-10.5806
▁párrafo	-10.5809
▁satisface	-10.5811
▁autonomía	-10.5819
▁actores	-10.5821
▁básicamente	-10.5824
▁semejante	-10.5825
▁limitaciones	-10.5828
▁modifica	-10.5829
▁continua	-10.5831
▁70	-10.5835
▁dependen	-10.5844
▁israelíes	-10.5848
▁viable	-10.5849
▁débiles	-10.5855
▁unida	-10.586
▁destaca	-10.5863
▁resultar	-10.5867
▁terrible	-10.5868
▁rechazado	-10.5875
▁29	-10.5904
▁90	-10.5906
▁resumen	-10.5909
▁detrás	-10.5916
▁italiana	-10.5922
▁sanidad	-10.5924
▁campañas	-10.5928
▁dinámica	-10.5929
▁comprendo	-10.5932
▁pura	-10.5933
▁sustituir	-10.5936
▁inundaciones	-10.594
▁modelos	-10.5941
▁modificados	-10.5946
▁proporción	-10.5948
▁ecológica	-10.5949
▁reiterar	-10.5954
▁condenar	-10.5956
▁querría	-10.596
▁carece	-10.5961
▁esperando	-10.598
▁estabilización	-10.5981
▁donantes	-10.5983
▁peligrosos	-10.5999
▁obliga	-10.6007
▁negro	-10.6019
▁represión	-10.6021
▁peligroso	-10.6022
▁integrada	-10.6036
▁justificar	-10.6037
▁poniendo	-10.6038
▁desarrollando	-10.6039
▁salvar	-10.6044
▁peces	-10.6046
▁cierra	-10.6053
▁renta	-10.6067
▁suspensión	-10.6071
▁realizadas	-10.6077
▁niño	-10.6077
▁expediente	-10.6085
▁demandas	-10.6086
▁pre	-10.6088
▁establezca	-10.6091
ri	-10.6093
▁impone	-10.6095
vi	-10.6098
▁particulares	-10.61
▁extranjero	-10.6101
▁negativas	-10.6105
▁permitiría	-10.6108
▁distinto	-10.6109
▁tantas	-10.6119
▁franceses	-10.6119
▁per	-10.6121
▁daño	-10.6125
▁reparto	-10.6136
▁encuentro	-10.6142
artículo	-10.6145
▁pretenden	-10.6152
▁sindicatos	-10.6157
▁expresamente	-10.6157
va	-10.6159
▁repito	-10.6162
▁incendios	-10.6165
▁conocido	-10.6167
▁egipto	-10.6169
▁primeras	-10.6173
▁malta	-10.6179
▁acogemos	-10.618
▁distinta	-10.6184
▁evaluaciones	-10.6186
▁llegan	-10.6189
▁introducido	-10.6192
▁obstáculo	-10.6192
▁vayan	-10.6193
▁noticias	-10.6201
▁transposición	-10.6211
▁mínimos	-10.6216
▁aplicables	-10.6224
▁satisfecho	-10.6226
er	-10.6227
▁negocios	-10.6228
▁compañeros	-10.623
k	-10.6243
▁chechenia	-10.6244
▁mínima	-10.6246
▁activos	-10.625
▁recogida	-10.6259
▁olaf	-10.6261
▁excesiva	-10.6263
▁ése	-10.6269
▁valoración	-10.627
▁libremente	-10.6277
▁velocidad	-10.6281
▁viajar	-10.6291
▁combustible	-10.6293
▁balance	-10.6301
▁tradición	-10.6311
▁democratización	-10.6319
▁ganar	-10.6325
▁premio	-10.6334
▁desigualdades	-10.6339
▁limita	-10.6346
▁creando	-10.6349
▁inteligente	-10.6352
▁socialdemócrata	-10.6357
ten	-10.6364
▁presiones	-10.6364
▁ambiciosos	-10.6365
▁tantos	-10.6366
▁detrimento	-10.637
▁formal	-10.638
▁respete	-10.6383
▁implicadas	-10.6387
debate	-10.6388
▁quinto	-10.6395
▁esencia	-10.6399
▁negativos	-10.6404
▁tamaño	-10.6411
▁londres	-10.6412
▁abarca	-10.6413
▁sustancial	-10.642
▁unánime	-10.6449
▁globales	-10.6451
▁millón	-10.6455
▁ultraperiférica	-10.6463
▁procedente	-10.6463
▁obligatorio	-10.6471
▁agrado	-10.6472
▁tropas	-10.6472
▁influir	-10.6474
▁prestado	-10.6475
▁derecha	-10.648
▁significado	-10.6481
▁inversores	-10.649
▁aumentando	-10.6492
▁pendientes	-10.6495
cee	-10.6496
▁ayudará	-10.6499
▁década	-10.6505
▁pensando	-10.6506
▁incorporación	-10.6506
▁habitual	-10.6514
▁resulte	-10.6515
▁beneficiarse	-10.6526
▁intentos	-10.6527
▁portuguesa	-10.6531
▁concierne	-10.6532
▁abastecimiento	-10.6541
▁basarse	-10.6543
▁profundo	-10.6548
▁pidiendo	-10.6549
▁formulación	-10.6549
▁fácilmente	-10.6555
u	-10.6557
▁sensación	-10.6557
▁cabeza	-10.6558
▁corregir	-10.6558
▁multinacionales	-10.6559
▁alentar	-10.6566
▁placer	-10.6567
▁transformación	-10.6575
▁desempeñado	-10.658
▁haremos	-10.6583
cu	-10.6584
▁beneficiarios	-10.6587
▁proliferación	-10.6592
ando	-10.6594
▁estaremos	-10.661
▁vive	-10.6613
▁continuidad	-10.6627
▁manifestaciones	-10.6635
▁ratificado	-10.6645
▁apoye	-10.6649
▁biodiversidad	-10.6653
▁darles	-10.6656
▁cristianos	-10.6661
▁pasando	-10.6665
▁adaptar	-10.6666
▁figuran	-10.6678
▁sincero	-10.6679
▁sencilla	-10.6683
▁cuerpo	-10.6687
▁nueve	-10.6688
▁privadas	-10.6689
▁participan	-10.669
▁energéticos	-10.6692
▁35	-10.6702
▁doce	-10.6703
▁abstenido	-10.6705
▁preparativos	-10.6705
▁minas	-10.6707
para	-10.6709
▁realiza	-10.6717
))	-10.672
▁completar	-10.6733
▁digital	-10.6735
▁ampliada	-10.6739
▁obras	-10.6744
▁africanos	-10.675
ne	-10.6751
▁diré	-10.6758
▁peligros	-10.6758
▁tolerancia	-10.6766
▁serían	-10.6778
▁confusión	-10.6784
▁colectiva	-10.6788
▁conciudadanos	-10.6789
▁períodos	-10.6791
▁carbón	-10.6793
▁firmar	-10.6796
▁pedirle	-10.6796
▁internas	-10.6801
▁caída	-10.6801
▁exceso	-10.681
▁anti	-10.681
▁precedentes	-10.6813
▁combustibles	-10.6821
▁extranjeros	-10.6821
nte	-10.6822
▁uniforme	-10.6823
▁cumpla	-10.6825
▁comunista	-10.6828
▁israelí	-10.6834
▁utilizarse	-10.6835
so	-10.6845
▁eficazmente	-10.6846
▁radical	-10.6848
▁nación	-10.6857
▁2000.	-10.6863
▁establecidas	-10.6867
▁afectado	-10.688
▁moderna	-10.6881
▁convencida	-10.689
▁sencillo	-10.689
▁navegación	-10.6899
▁deseable	-10.69
▁positivamente	-10.69
sí	-10.6907
ada	-10.6908
▁tenían	-10.6912
▁realizan	-10.6915
▁culturas	-10.6915
ya	-10.6918
▁fiscalidad	-10.6923
▁libia	-10.6926
▁uem	-10.6927
▁reaccionar	-10.6929
▁brasil	-10.6935
▁siria	-10.6939
▁responde	-10.6941
▁concedido	-10.6944
▁programación	-10.6951
▁emplear	-10.6954
▁paro	-10.696
▁darse	-10.6962
▁movimientos	-10.6963
▁presos	-10.6973
▁líder	-10.6975
▁mutua	-10.6975
▁herramientas	-10.6975
▁notable	-10.6994
▁túnez	-10.6998
0	-10.7014
▁monetario	-10.7016
▁favorablemente	-10.7025
▁rigor	-10.7034
▁afirmación	-10.7035
ja	-10.7035
▁criminales	-10.7036
▁penales	-10.7041
▁manteniendo	-10.7043
▁iba	-10.7044
▁recoge	-10.7047
▁utilizados	-10.7047
▁seguiremos	-10.7049
▁sugerencias	-10.7053
▁conductores	-10.7053
▁cultivos	-10.7057
▁dublín	-10.7061
▁fuego	-10.7065
▁instituto	-10.707
▁intensificar	-10.7073
dministraciones	-10.7074
▁decisiva	-10.7075
▁isla	-10.7075
▁establecen	-10.7078
▁atentados	-10.7084
▁transeuropeas	-10.7095
▁2009.	-10.7096
▁anunciado	-10.7098
▁quiera	-10.7107
ci	-10.7109
▁umbral	-10.711
▁exención	-10.7115
▁pretexto	-10.7116
▁elegidos	-10.7127
20	-10.7132
▁útiles	-10.714
▁textil	-10.7147
▁emitir	-10.716
▁birmania	-10.7161
▁sufrimiento	-10.7171
▁tradiciones	-10.7179
▁tortura	-10.7184
▁delegaciones	-10.7188
▁noticia	-10.7189
▁mantenerse	-10.7192
ándose	-10.7192
▁tierras	-10.7197
▁asesinato	-10.7198
sk	-10.7205
▁confiar	-10.7207
▁mirar	-10.7215
▁reside	-10.7225
▁delicado	-10.7226
▁satisfechos	-10.7227
▁universidades	-10.7228
is	-10.7228
▁rusa	-10.7235
▁s	-10.7238
▁sólido	-10.7245
▁cuota	-10.7245
▁fueran	-10.7245
▁celebrada	-10.7246
▁preparado	-10.7261
▁juegos	-10.7262
▁llama	-10.7262
▁estricta	-10.7268
▁provocar	-10.7274
▁flujos	-10.728
▁combinación	-10.7281
▁reconciliación	-10.729
▁implicación	-10.7292
▁vinculantes	-10.7293
▁misiones	-10.7311
▁comprar	-10.7313
▁centrarse	-10.7313
▁reformar	-10.7315
▁seria	-10.7318
▁duradera	-10.7319
▁previstas	-10.7323
▁tomando	-10.7327
▁competir	-10.7327
▁viernes	-10.7327
▁xxi	-10.7328
▁irregularidades	-10.7337
▁acoger	-10.7356
▁contenidos	-10.7356
▁salvaguardar	-10.7364
▁apoyen	-10.7373
▁impide	-10.7374
pa	-10.7376
▁doha	-10.7383
▁satisfactorio	-10.7384
▁confirma	-10.7404
▁acertadamente	-10.7404
▁defensores	-10.7406
▁san	-10.7409
▁autores	-10.7411
pe	-10.7419
▁sangre	-10.743
▁proseguir	-10.7436
▁parlamentarias	-10.7436
▁aniversario	-10.7439
je	-10.744
▁avanzando	-10.744
▁sitio	-10.7444
▁normalmente	-10.7447
▁líbano	-10.7448
▁tuvimos	-10.7448
▁moldova	-10.7449
lt	-10.745
▁plantas	-10.7454
▁entusiasmo	-10.7458
▁rendimiento	-10.7459
▁transparentes	-10.7483
▁cláusulas	-10.7485
▁representar	-10.7486
▁suiza	-10.7492
▁mantienen	-10.7493
▁desempeñan	-10.7495
▁definitivo	-10.7497
▁previsiones	-10.7505
▁recuerda	-10.7506
▁participen	-10.7509
▁inseguridad	-10.7515
▁conservadores	-10.7516
▁plenaria	-10.7517
▁restablecer	-10.7519
▁centra	-10.7546
▁dije	-10.7549
▁considere	-10.755
▁contribuyen	-10.7554
▁tercero	-10.7558
▁previo	-10.7564
▁lanzar	-10.7568
▁dura	-10.7572
▁enviado	-10.7573
▁2007,	-10.7574
▁paga	-10.7582
▁rechaza	-10.7594
▁ruta	-10.7603
▁lunes	-10.7619
▁proponen	-10.7624
▁hicieron	-10.7638
▁renovación	-10.7638
pi	-10.764
▁corre	-10.7643
▁someter	-10.7643
▁ocurrir	-10.7644
▁busca	-10.7644
▁piensos	-10.7645
▁silencio	-10.7647
▁definitivamente	-10.7649
▁ignorar	-10.7657
▁separado	-10.7663
▁preocupan	-10.7663
▁presta	-10.767
ble	-10.767
▁vuelos	-10.7672
▁miércoles	-10.7677
▁religiosa	-10.7679
ter	-10.7681
▁estrictamente	-10.7681
▁pertinente	-10.7689
▁conlleva	-10.7696
▁movilización	-10.7696
▁complicado	-10.7699
▁prever	-10.7703
▁sensible	-10.7704
▁infracción	-10.7715
▁monedas	-10.7729
▁garanticen	-10.773
▁almacenamiento	-10.7735
▁prioritario	-10.7737
▁terrorista	-10.7738
▁2009,	-10.7742
▁profundidad	-10.7744
ados	-10.7748
▁patten	-10.7754
▁continuamente	-10.776
▁golpe	-10.7761
▁solicita	-10.7763
▁tuvieron	-10.7764
▁amigo	-10.7766
▁interrumpe	-10.7774
▁sudán	-10.7774
▁ciento	-10.7775
▁bei	-10.778
▁tomamos	-10.778
▁investigar	-10.7786
▁aviones	-10.7793
▁legislaciones	-10.7793
▁suponen	-10.78
▁nombramiento	-10.7805
▁ashton	-10.7813
▁convicción	-10.7813
▁2010.	-10.7815
▁realizada	-10.7818
▁comités	-10.7819
▁limitación	-10.7823
▁puertas	-10.7824
▁ruso	-10.7825
▁persecución	-10.7832
▁censura	-10.7833
▁continúe	-10.7833
▁identificación	-10.7842
▁apoyando	-10.7849
▁batalla	-10.7854
▁gradual	-10.7858
▁joven	-10.7861
▁vigentes	-10.7862
▁ecológico	-10.7863
▁estima	-10.7867
▁2006,	-10.7869
▁decimos	-10.7875
▁modificado	-10.7876
▁limitada	-10.7876
▁tuve	-10.7881
▁bilateral	-10.7882
▁director	-10.7889
▁procurar	-10.789
▁contradicción	-10.7901
▁habiendo	-10.7901
▁humanas	-10.7916
▁acoge	-10.7921
ista	-10.7928
▁mera	-10.7932
▁pilares	-10.7941
▁respeta	-10.7944
▁gravedad	-10.795
▁seguirán	-10.7958
▁pertenecen	-10.7959
▁esencialmente	-10.796
▁muerto	-10.7963
▁compañía	-10.7973
▁presionar	-10.7973
▁genera	-10.7974
▁disminución	-10.798
v	-10.7982
▁ocupar	-10.7984
▁estrictos	-10.7984
▁produciendo	-10.799
▁automóvil	-10.7995
▁disponen	-10.7997
▁300	-10.8005
▁ocuparse	-10.8006
▁reconozco	-10.801
▁produzcan	-10.8012
▁víctima	-10.8013
▁solana	-10.8021
▁brinda	-10.8021
▁p	-10.8023
▁demasiada	-10.8023
▁instar	-10.8031
▁negar	-10.8033
▁ambiciosa	-10.8033
▁crítico	-10.8033
▁vínculos	-10.8035
▁extensión	-10.805
▁inferior	-10.8064
▁sida	-10.8072
▁verheugen	-10.808
▁hablo	-10.808
▁débil	-10.8085
▁centrar	-10.8086
▁práctico	-10.8093
▁coordinada	-10.8093
▁agosto	-10.81
▁unilateral	-10.81
▁demora	-10.8102
▁transmisión	-10.811
▁sudáfrica	-10.811
▁esperemos	-10.811
▁verts	-10.8111
▁escasa	-10.8113
▁apoyan	-10.8116
▁tendencias	-10.8117
▁electores	-10.8117
▁diario	-10.8124
ni	-10.8127
▁exhaustiva	-10.8129
▁dimensiones	-10.813
▁llegó	-10.813
▁húngara	-10.8154
▁causado	-10.8166
▁potencia	-10.8167
▁separación	-10.817
▁rendir	-10.8171
▁sede	-10.8174
▁informal	-10.8178
▁cualificaciones	-10.818
▁altamente	-10.8188
▁empezando	-10.8191
▁compleja	-10.8194
▁denominada	-10.8196
▁votaremos	-10.8199
▁pescado	-10.8201
▁declarar	-10.8208
▁detenidamente	-10.8211
ia	-10.8215
▁detallada	-10.8221
▁miras	-10.8228
▁disponibilidad	-10.8231
▁incumplimiento	-10.8235
▁afirmado	-10.8239
▁ocupan	-10.824
▁discusiones	-10.8241
▁productividad	-10.8241
▁jubilación	-10.8241
▁apropiada	-10.8251
▁realizarse	-10.8255
▁preguntarle	-10.8258
%	-10.8264
▁celebramos	-10.8264
▁favorables	-10.8266
▁toman	-10.8269
áramos	-10.8275
▁excesivo	-10.8286
▁distinción	-10.8292
▁puerto	-10.8297
▁duro	-10.8297
▁económicamente	-10.8302
▁disciplina	-10.8307
▁poca	-10.8317
▁urgentes	-10.8322
▁afortunadamente	-10.8324
▁regla	-10.8328
mi	-10.8329
▁alde	-10.8333
▁beneficia	-10.8335
▁convencidos	-10.8348
miento	-10.8349
▁mundialización	-10.8349
▁revolución	-10.8354
▁confirmado	-10.8359
▁galileo	-10.8375
▁dedicar	-10.8377
▁ruido	-10.8378
▁tratan	-10.8391
▁recordarles	-10.8392
▁magnitud	-10.8395
▁observatorio	-10.8396
▁reforzada	-10.84
▁aérea	-10.84
cs	-10.8401
▁sucesos	-10.8401
▁religiosas	-10.8403
▁publicación	-10.8406
▁frase	-10.8421
▁meridional	-10.8422
▁consonancia	-10.8426
▁acaban	-10.8435
▁debida	-10.8437
▁cig	-10.8446
▁federación	-10.8458
▁2005,	-10.8461
▁escuela	-10.8462
▁eslovenia	-10.8468
▁otoño	-10.8478
▁normativas	-10.8479
tu	-10.8481
▁voluntaria	-10.8487
▁eco	-10.8489
▁justificación	-10.849
▁comprensible	-10.8494
bi	-10.8495
▁obligar	-10.8499
▁abordado	-10.8507
▁intervenido	-10.851
▁directas	-10.8511
▁2010,	-10.8514
está	-10.8514
▁suponer	-10.8516
▁fuese	-10.8517
▁schulz	-10.852
▁comitología	-10.852
▁osce	-10.852
▁mención	-10.8531
▁coches	-10.8534
▁griego	-10.8536
▁madre	-10.8536
za	-10.8543
▁deba	-10.8546
▁vínculo	-10.8546
▁sometido	-10.8546
▁deriva	-10.8552
▁modalidades	-10.8553
▁defiende	-10.8554
▁voluntario	-10.8554
▁observado	-10.8565
ngl	-10.857
▁olvidemos	-10.8573
▁serias	-10.8575
▁fabricación	-10.8594
▁ocurriendo	-10.8594
▁asistir	-10.8601
▁adquirir	-10.8603
▁escasez	-10.8604
▁vacuno	-10.8604
▁previstos	-10.8606
▁congo	-10.8609
▁realice	-10.8625
▁propuso	-10.8626
▁consultar	-10.8626
▁subrayado	-10.8627
▁trataba	-10.863
▁adaptarse	-10.8631
▁producirse	-10.8635
▁exhaustivo	-10.8641
▁preocupados	-10.8648
▁recibe	-10.8649
▁sorprendente	-10.8652
▁jamás	-10.8657
▁salvo	-10.8658
▁2007.	-10.8661
▁razonables	-10.8669
▁sres	-10.8677
▁calificación	-10.8679
▁1994	-10.8682
▁lamentar	-10.8683
▁difusión	-10.8689
votación	-10.8693
x	-10.8694
▁viabilidad	-10.87
▁conocen	-10.8702
▁ecofin	-10.8711
▁circunstancia	-10.8715
▁posee	-10.8721
▁énfasis	-10.8721
▁3,	-10.8724
▁investigadores	-10.8733
▁dictadura	-10.8738
▁legalmente	-10.8739
▁brok	-10.8743
iéramos	-10.8747
▁plurianual	-10.8749
▁directos	-10.875
▁lecciones	-10.8753
▁contienen	-10.8759
▁inmunidad	-10.8759
▁escocia	-10.8764
▁químicos	-10.8769
▁aras	-10.8776
▁haría	-10.8777
▁devolver	-10.8782
▁vean	-10.8786
▁beneplácito	-10.8796
▁convierte	-10.8799
▁tratarse	-10.8804
▁inglés	-10.8818
▁kyoto	-10.8818
▁supervisar	-10.8821
▁fórmula	-10.8824
▁ambiciones	-10.8829
▁fischler	-10.8829
▁atlántico	-10.8829
▁suele	-10.8831
▁basadas	-10.8831
▁secretaría	-10.884
▁primordial	-10.8841
▁piden	-10.8842
▁ventas	-10.8843
▁inspección	-10.885
▁alimenticios	-10.8853
▁piensan	-10.8859
▁cobertura	-10.8861
▁aporta	-10.8861
▁pudieran	-10.8866
▁árabe	-10.8867
▁f	-10.887
▁efectuar	-10.8873
▁desastres	-10.8881
▁contaminantes	-10.8887
istas	-10.8889
▁congreso	-10.8894
▁santer	-10.8894
▁abre	-10.8896
▁transacción	-10.8905
▁»	-10.8911
▁viajes	-10.8912
dores	-10.8916
▁selección	-10.8927
▁ejecutivo	-10.8933
▁estricto	-10.8933
▁inspecciones	-10.8938
▁web	-10.8948
▁xenofobia	-10.8948
▁testigos	-10.895
▁juzgar	-10.895
▁excluir	-10.8955
▁compensar	-10.8957
▁gustado	-10.8961
▁pidió	-10.897
▁treinta	-10.897
▁prestaciones	-10.8971
▁incertidumbre	-10.8977
▁sensibles	-10.8978
▁concluido	-10.8988
▁auto	-10.8989
▁ocurrió	-10.8992
▁absurdo	-10.8999
▁estocolmo	-10.9014
▁irlandeses	-10.9014
▁sorprende	-10.902
▁conduce	-10.9031
▁complementaria	-10.9032
▁ideal	-10.9032
▁aspiraciones	-10.9037
▁atañe	-10.9039
▁vuelta	-10.9043
▁alemanes	-10.9047
▁responda	-10.905
▁entablar	-10.9065
adas	-10.9069
▁fútbol	-10.9069
▁propuestos	-10.9071
▁so	-10.9077
▁recordado	-10.9081
▁cero	-10.9085
▁piloto	-10.9087
▁harán	-10.9092
hay	-10.9092
▁enfrentarse	-10.9105
▁informados	-10.9107
▁abolición	-10.9125
▁referencias	-10.9125
▁hub	-10.913
▁existan	-10.9133
▁4,	-10.9134
▁sueco	-10.9135
▁actuaciones	-10.9136
▁gue	-10.914
▁jefe	-10.9143
▁pacífico	-10.9143
▁letra	-10.9147
▁aprobamos	-10.9147
▁tendrían	-10.9148
▁justifica	-10.9148
▁perjudicial	-10.9153
▁ratificar	-10.9155
ras	-10.9155
▁homenaje	-10.9158
▁vivimos	-10.9158
▁listas	-10.9158
▁soldados	-10.9163
▁tendríamos	-10.9168
▁sentimiento	-10.9176
▁circunscripción	-10.9181
▁victoria	-10.9181
▁vicepresidenta	-10.9181
▁crean	-10.9186
▁corriente	-10.9188
▁asignar	-10.9198
▁utilicen	-10.9199
▁gastar	-10.9202
▁adopta	-10.921
▁droga	-10.921
▁2020.	-10.9212
▁justificada	-10.9212
▁prácticos	-10.9222
▁dotar	-10.923
▁integral	-10.9236
▁2008.	-10.9244
▁surgido	-10.9244
▁resuelto	-10.9244
▁agraria	-10.9244
▁interesantes	-10.9245
▁recalcar	-10.925
▁excesivamente	-10.9254
▁diputada	-10.9255
▁hablan	-10.9258
▁señales	-10.9259
▁precisión	-10.9259
▁imaginar	-10.926
▁contrato	-10.9267
▁secreto	-10.9267
▁promesa	-10.9267
▁dejando	-10.9277
▁externos	-10.9291
▁comenzado	-10.9293
▁concesiones	-10.9305
▁basándose	-10.9307
▁cometidos	-10.9307
▁aparece	-10.9308
▁finlandesa	-10.9316
▁k	-10.9321
▁tensiones	-10.9327
▁moción	-10.9328
▁salario	-10.9335
▁entra	-10.9338
▁acusaciones	-10.9339
▁votamos	-10.934
▁implicar	-10.9342
▁fundamentos	-10.9343
▁gravemente	-10.9345
▁reducciones	-10.935
▁opina	-10.9358
▁frontex	-10.9362
▁sala	-10.9367
▁compra	-10.937
▁vienen	-10.9381
▁deje	-10.9385
▁inquietud	-10.9391
▁escenario	-10.9392
▁manifiesta	-10.9394
▁indudablemente	-10.9397
▁vuelve	-10.9399
izar	-10.9403
▁conmigo	-10.9407
▁desacuerdo	-10.9415
▁objeciones	-10.9419
▁lección	-10.9419
▁oponemos	-10.9422
▁supondría	-10.9423
▁excelentes	-10.9425
ir	-10.9427
▁sostenibles	-10.9442
▁mencionados	-10.9448
▁tecnológica	-10.9449
▁componente	-10.945
▁determinada	-10.945
▁cuánto	-10.9451
▁cofinanciación	-10.9453
▁conceptos	-10.9458
▁ferrocarriles	-10.9461
▁insta	-10.9466
▁gusto	-10.9468
▁nuevamente	-10.9471
▁entendimiento	-10.9476
▁complejidad	-10.9483
▁ciclo	-10.9484
▁carrera	-10.9484
▁exclusiva	-10.9491
▁energéticas	-10.9492
▁individuos	-10.9492
▁problemática	-10.9496
▁administrativo	-10.9496
▁letonia	-10.9499
tas	-10.9502
▁precedente	-10.9507
▁continúan	-10.9515
▁tampere	-10.9522
▁animar	-10.9525
▁civilización	-10.9525
▁vivienda	-10.953
▁consejos	-10.9537
▁temor	-10.9545
▁indican	-10.9551
▁electrónicos	-10.9554
▁muertes	-10.9555
▁ajuste	-10.9557
▁aportaciones	-10.9558
ing	-10.9558
▁juguetes	-10.956
▁ahorrar	-10.9562
▁múltiples	-10.9565
▁n	-10.9567
▁transcurso	-10.9569
▁celebró	-10.9569
▁'	-10.9571
tiene	-10.9572
▁helsinki	-10.958
▁mensajes	-10.9588
▁venir	-10.9606
▁existiendo	-10.9615
▁kioto	-10.9615
▁asumido	-10.9624
▁griega	-10.9624
▁partidarios	-10.9624
▁dotación	-10.9627
▁relevante	-10.9636
▁asegurarse	-10.9638
▁moratoria	-10.9639
▁alerta	-10.9642
▁cito	-10.9644
▁capturas	-10.965
▁contribuya	-10.9654
▁estonia	-10.9654
▁clientes	-10.966
▁apartados	-10.966
▁tíbet	-10.9662
▁relevantes	-10.9665
▁rusos	-10.9671
▁fronterizos	-10.9672
▁conexión	-10.9674
▁consentimiento	-10.9674
▁plataforma	-10.9683
▁renunciar	-10.9684
▁traducción	-10.9686
▁puso	-10.9686
▁amplias	-10.9688
▁médico	-10.9694
▁escándalo	-10.9695
et	-10.9698
▁llevada	-10.9713
▁continuo	-10.9718
▁hubieran	-10.9726
▁sentencias	-10.9742
▁postales	-10.9747
▁disfrutar	-10.975
▁reciban	-10.975
▁guerras	-10.9751
▁bloqueo	-10.9755
▁respetando	-10.9761
▁pesqueras	-10.9766
▁corta	-10.977
▁respectivos	-10.977
▁criticar	-10.9783
▁gusta	-10.9783
▁genocidio	-10.9792
▁devolución	-10.9804
▁triste	-10.9809
▁médica	-10.9813
▁falsificación	-10.9816
▁cuesta	-10.9819
▁ocupado	-10.9825
▁expansión	-10.9828
▁lamentamos	-10.983
▁referendo	-10.9837
ntes	-10.9839
▁respondido	-10.984
▁forestales	-10.9845
▁reconocemos	-10.985
-0	-10.9855
▁ética	-10.9858
▁ministra	-10.9864
▁francamente	-10.9865
▁denominado	-10.9866
▁explica	-10.9869
▁tomarse	-10.987
▁corte	-10.9871
▁produjo	-10.9876
▁teníamos	-10.9876
▁lenguaje	-10.9877
▁intentan	-10.9877
▁colectivos	-10.9887
▁infracciones	-10.9888
▁timor	-10.989
▁aquella	-10.9891
▁adoptando	-10.9891
rán	-10.9893
▁sienten	-10.9895
▁compatible	-10.9897
▁actuado	-10.99
▁estratégicos	-10.9902
▁muertos	-10.9908
▁movilizar	-10.9909
▁aduanera	-10.9909
▁inestabilidad	-10.9912
▁leído	-10.9913
▁conseguimos	-10.9924
▁méxico	-10.9924
▁decirse	-10.9926
▁colegio	-10.9934
▁africana	-10.9934
▁vea	-10.994
▁residentes	-10.9952
▁marcado	-10.9961
▁reduce	-10.9964
▁implicaciones	-10.9964
ig	-10.9966
▁75	-10.9969
▁destinar	-10.997
▁deterioro	-10.9972
▁proteccionismo	-10.9972
▁contraria	-10.9974
▁coherentes	-10.998
▁fases	-10.9982
▁encaminada	-10.9982
dor	-10.9984
▁trabaja	-10.9984
▁aplazamiento	-10.9984
▁nombres	-10.9986
▁peligrosa	-10.9986
▁plátanos	-10.999
▁prometido	-10.9994
▁fiable	-10.9994
▁preferencias	-10.9996
▁bush	-10.9996
▁células	-10.9999
▁maneras	-11.0006
▁vacío	-11.0006
▁limitarse	-11.001
▁firmes	-11.001
▁realistas	-11.0013
▁iguales	-11.0014
▁sensibilidad	-11.0016
▁extraer	-11.0026
▁estuvo	-11.003
▁renovable	-11.0043
ue	-11.0044
▁coalición	-11.0045
▁querer	-11.0046
▁etiqueta	-11.0048
▁abiertos	-11.0049
▁éxitos	-11.005
▁romaníes	-11.0053
▁preparando	-11.0059
▁centrarnos	-11.0059
▁fui	-11.0066
j	-11.0069
▁45	-11.0069
▁retorno	-11.0074
▁física	-11.0075
▁quejas	-11.0077
▁solicito	-11.0082
▁hogares	-11.0085
▁acero	-11.0086
▁creíble	-11.0092
▁definido	-11.0104
▁desarrollarse	-11.0106
▁tomo	-11.0111
▁deseado	-11.0115
▁jurídicamente	-11.0122
▁introduce	-11.0123
▁2006.	-11.0127
▁radica	-11.0129
▁núcleo	-11.0131
▁supervivencia	-11.0131
▁decenas	-11.0132
▁destruir	-11.014
▁estilo	-11.0141
▁desplazamiento	-11.0141
▁inevitable	-11.0149
▁soviética	-11.0154
▁competitivo	-11.0154
▁respetan	-11.0166
smantelamiento	-11.0168
▁opone	-11.0172
▁perjudiciales	-11.0173
▁cincuenta	-11.018
▁reclamaciones	-11.0193
▁flexibles	-11.0195
▁comparten	-11.0195
▁forestal	-11.02
▁dejan	-11.0202
▁potenciales	-11.0203
▁extraordinario	-11.0203
▁contestar	-11.0226
▁encargado	-11.0229
▁abiertamente	-11.023
▁tarjeta	-11.0231
▁sometidos	-11.0237
▁mantenemos	-11.0242
▁provoca	-11.0247
▁echar	-11.0251
▁acertado	-11.0253
▁expresadas	-11.0254
▁zimbabue	-11.0255
▁cautela	-11.026
▁negocio	-11.0266
▁omg	-11.0268
▁centrado	-11.0268
▁cuarta	-11.0278
▁componentes	-11.0284
▁sugiere	-11.0284
▁afectada	-11.0287
▁viajeros	-11.0294
▁2004.	-11.0299
▁sufrir	-11.0314
▁defendido	-11.0316
▁unitaria	-11.0317
▁1992	-11.0319
▁pase	-11.0319
▁sección	-11.032
▁aquello	-11.032
▁refuerza	-11.0321
.000	-11.0322
▁publicado	-11.0329
▁contemplar	-11.0329
▁argelia	-11.033
▁dióxido	-11.033
▁montenegro	-11.033
▁colombia	-11.0332
▁aceptamos	-11.0337
▁excusa	-11.0341
▁licencias	-11.0345
▁niega	-11.0348
▁sanitario	-11.0354
▁rumbo	-11.0355
▁preste	-11.0356
▁votantes	-11.0356
▁indicación	-11.0357
▁semestre	-11.0368
▁discursos	-11.0378
▁verdaderos	-11.0378
▁legítimo	-11.0379
▁bruto	-11.0381
▁pretendemos	-11.0389
▁sugerencia	-11.0392
▁asignado	-11.0392
▁democracias	-11.0394
▁pronunciado	-11.0397
▁conozco	-11.0405
▁avanzada	-11.0406
▁desear	-11.0407
▁sujetos	-11.0411
▁reconozca	-11.0419
▁entretanto	-11.0423
▁presidencias	-11.0426
dónde	-11.0427
▁veremos	-11.0428
▁verá	-11.0428
▁occidente	-11.0431
▁ma	-11.044
▁inadmisible	-11.0442
▁operativo	-11.0442
▁auditoría	-11.0443
▁viena	-11.0444
▁insuficientes	-11.045
▁the	-11.0458
or	-11.0464
ul	-11.0467
▁recesión	-11.0469
▁encuentre	-11.0473
▁explícitamente	-11.0485
▁tuviera	-11.0486
▁vigilar	-11.0491
▁vial	-11.0492
▁mío	-11.0493
▁conveniencia	-11.0494
▁envejecimiento	-11.0494
▁garantizando	-11.05
▁geográfica	-11.0502
▁ecológicos	-11.0505
▁valorar	-11.0505
▁empezado	-11.0507
▁sa	-11.0509
▁hamás	-11.051
▁nigeria	-11.0511
▁otorgar	-11.0511
lu	-11.0513
▁atender	-11.052
▁kinnock	-11.052
▁citado	-11.0521
▁lleven	-11.0522
▁2005.	-11.0528
▁pensamiento	-11.0532
▁innecesaria	-11.0532
▁sustitución	-11.0533
▁actuando	-11.0533
▁demasiadas	-11.0541
▁registrado	-11.0542
cod	-11.055
▁verán	-11.0553
▁infancia	-11.0558
▁islandia	-11.0558
▁pesc	-11.0558
▁viendo	-11.0559
▁electorales	-11.056
▁queden	-11.0563
▁consigue	-11.0563
▁complementarias	-11.0564
▁deberemos	-11.0569
▁profundizar	-11.057
▁página	-11.0571
▁quisiéramos	-11.0571
▁formuladas	-11.0571
▁planteadas	-11.0572
▁pensado	-11.0577
▁entrega	-11.0577
▁desleal	-11.0579
▁evidencia	-11.058
▁1990	-11.0582
▁condenado	-11.0588
▁explotar	-11.0589
▁sepa	-11.059
▁funcionan	-11.0591
▁corren	-11.0596
▁entiende	-11.0602
▁perjuicio	-11.0609
▁guinea	-11.061
qui	-11.0615
▁polacos	-11.062
▁acordó	-11.0623
▁eurostat	-11.0623
▁llegada	-11.0629
▁perseguir	-11.0632
▁fiabilidad	-11.0636
▁extender	-11.0637
▁caer	-11.0643
▁llevará	-11.0646
▁compartida	-11.0648
▁referendos	-11.0652
▁vender	-11.0652
▁progresiva	-11.0657
▁edificio	-11.0661
▁repercusión	-11.0662
▁redactar	-11.0669
▁madera	-11.0674
▁cáucaso	-11.0675
▁400	-11.0676
▁reunir	-11.0677
tar	-11.0681
▁carecen	-11.0688
▁llamados	-11.0688
▁examinando	-11.0689
▁potencias	-11.0696
▁cruciales	-11.0696
▁humanitario	-11.07
▁incapacidad	-11.0705
▁progresar	-11.0706
▁idiomas	-11.0712
▁quieran	-11.0713
▁deliberaciones	-11.0714
▁implantación	-11.0714
▁sufre	-11.0718
▁sigo	-11.072
▁decidida	-11.0722
▁ocultar	-11.0723
▁digno	-11.0726
▁prisión	-11.0727
▁elevada	-11.0727
cuáles	-11.0729
▁protesta	-11.0732
▁policiales	-11.0735
▁reflejan	-11.0735
▁séptimo	-11.074
▁seriedad	-11.074
▁acepte	-11.0741
▁modificada	-11.0742
▁humanitarias	-11.0751
▁recomendar	-11.0753
▁vih	-11.0754
▁comprende	-11.0763
▁armamento	-11.0766
▁madrid	-11.0766
▁privatización	-11.0766
▁oficinas	-11.0767
▁insiste	-11.0768
▁37	-11.0772
▁entendemos	-11.0774
▁estímulo	-11.0779
▁válido	-11.0779
▁exigimos	-11.0779
▁sucediendo	-11.0779
▁prisioneros	-11.0782
▁sentir	-11.0784
▁permitirán	-11.0788
▁sexto	-11.0792
▁conducción	-11.0793
▁comprendido	-11.0806
▁avión	-11.0806
▁camiones	-11.0819
▁equivalente	-11.0819
▁suspender	-11.0822
▁fruto	-11.0832
▁yugoslava	-11.0832
▁felicitaciones	-11.0832
▁ocurra	-11.0837
▁pudo	-11.0843
▁memoria	-11.0845
▁delicada	-11.0845
▁relevancia	-11.0845
▁desempleados	-11.0846
▁echo	-11.0848
vo	-11.085
▁rechazamos	-11.085
▁estimadas	-11.0854
▁decide	-11.0855
▁ca	-11.0859
▁luchando	-11.0866
▁denunciar	-11.087
▁jornada	-11.0872
▁asesoramiento	-11.0872
▁especulación	-11.0872
man	-11.0872
▁enérgicamente	-11.0875
▁textiles	-11.0879
▁costas	-11.088
▁utilice	-11.0886
pero	-11.0887
▁químicas	-11.0887
▁pertenece	-11.0888
▁ad	-11.089
▁suceder	-11.0897
▁liberar	-11.0897
▁aranceles	-11.0899
▁oponen	-11.0911
ación	-11.0912
▁radio	-11.0913
▁monti	-11.0913
▁otorga	-11.0916
▁científicas	-11.092
▁darnos	-11.0937
▁mediterránea	-11.0938
▁fiables	-11.0941
▁examinado	-11.0942
▁1999.	-11.0942
▁hacía	-11.0944
▁preguntado	-11.0946
▁queridos	-11.0948
▁monopolio	-11.0952
▁nacionalidad	-11.0952
▁suya	-11.0953
mocráticamente	-11.0958
5-	-11.0961
▁incondicional	-11.0968
▁parecido	-11.0978
▁afectar	-11.0982
▁ayude	-11.0993
▁detenidos	-11.0995
▁equivale	-11.0996
▁captura	-11.0999
▁benefician	-11.1
▁sustancia	-11.1004
▁monopolios	-11.1005
▁hong	-11.1005
▁huelga	-11.1005
▁desigualdad	-11.1014
▁efectividad	-11.1018
▁reanuda	-11.102
▁chinos	-11.103
▁soportar	-11.1031
▁continuará	-11.1034
▁eficientes	-11.1041
▁preferencia	-11.1045
▁aparatos	-11.1049
▁dios	-11.105
▁terminado	-11.1053
▁rumania	-11.1059
▁establezcan	-11.1059
▁sirven	-11.1063
▁aplaudo	-11.1072
▁electrónica	-11.1073
▁tocante	-11.1073
▁actúe	-11.1077
▁iraquí	-11.1081
▁suelen	-11.1083
▁blair	-11.1086
▁satélite	-11.1086
▁operativa	-11.1086
▁tarifas	-11.1095
▁oportuna	-11.1096
car	-11.1098
▁fiebre	-11.1099
▁maternidad	-11.1099
▁filosofía	-11.11
▁sexo	-11.11
▁pobre	-11.1101
▁elevar	-11.1101
▁comunicar	-11.1104
us	-11.1107
▁hemiciclo	-11.1113
▁hipocresía	-11.1113
▁río	-11.1114
▁vuelvan	-11.1115
nt	-11.1115
-20	-11.1117
▁operan	-11.1117
▁recomienda	-11.1118
▁erradicar	-11.1127
▁colectivo	-11.1127
▁2012	-11.113
▁cuantos	-11.113
▁haré	-11.1131
ón	-11.1147
▁tomadas	-11.1149
▁explicado	-11.115
▁resolverse	-11.1151
▁concepción	-11.1154
▁basan	-11.1158
▁aceptables	-11.1165
▁cotidiana	-11.1168
▁indonesia	-11.1168
▁perteneciente	-11.1171
▁encuentren	-11.1177
▁permanentes	-11.1177
▁frenar	-11.1186
▁llamadas	-11.1186
▁periódicos	-11.119
▁legislar	-11.119
w	-11.12
▁intentamos	-11.1202
▁48	-11.1203
▁cereales	-11.1209
▁ofrecido	-11.1209
▁disminuir	-11.1209
▁experimentado	-11.121
▁aprendido	-11.1217
▁bandas	-11.1219
▁voluntarios	-11.1219
▁consta	-11.122
▁desaparición	-11.1222
▁parcialmente	-11.1222
▁plaguicidas	-11.1223
▁conseguirlo	-11.1223
▁diseño	-11.1223
▁flujo	-11.1223
▁deseen	-11.1223
▁críticos	-11.1231
▁obligada	-11.124
fa	-11.1244
▁cargos	-11.1251
▁extraño	-11.1251
▁j	-11.1251
▁delincuentes	-11.1253
▁inocentes	-11.1257
▁odio	-11.1262
▁invito	-11.1264
▁salvaguardia	-11.1265
▁ofrezca	-11.1265
▁abiertas	-11.1266
▁terribles	-11.1268
▁desprende	-11.127
▁supongo	-11.1278
▁optado	-11.1278
▁vergüenza	-11.1291
ch	-11.1293
▁muro	-11.1293
▁preparada	-11.1293
▁detallado	-11.1306
▁cien	-11.1311
▁temores	-11.1325
▁billetes	-11.1327
▁entran	-11.133
▁baronesa	-11.1333
▁permitiendo	-11.1333
▁norteamericanos	-11.1336
▁unirse	-11.1337
ido	-11.1341
▁objetiva	-11.1343
▁abandono	-11.1347
▁prioritarios	-11.1357
▁manifestación	-11.136
▁von	-11.1364
ria	-11.1379
▁publicar	-11.1384
▁incidentes	-11.1397
▁normalización	-11.1403
▁siente	-11.1407
▁lagunas	-11.1413
▁adquisición	-11.1416
▁vecino	-11.1418
▁aplazar	-11.1423
▁flotas	-11.1429
▁audiencia	-11.1432
▁mutuamente	-11.1451
▁erradicación	-11.1458
▁valioso	-11.146
+	-11.1468
▁comunicado	-11.1472
rnos	-11.1473
im	-11.1483
▁superiores	-11.1487
▁recoger	-11.149
ran	-11.1492
▁reduciendo	-11.1501
▁basados	-11.1511
▁frattini	-11.1515
▁hicimos	-11.1515
▁ro	-11.1519
▁inaceptables	-11.152
▁mero	-11.1523
▁apropiadas	-11.1523
▁confiamos	-11.1529
▁descenso	-11.1529
▁redactado	-11.1532
▁transferencias	-11.1541
▁opongo	-11.1543
▁insisto	-11.1544
▁agradecido	-11.1545
▁sumo	-11.1546
▁ganaderos	-11.155
▁reforzado	-11.1559
▁acordar	-11.1561
tal	-11.1571
▁idioma	-11.1573
▁estratégicas	-11.1575
▁estábamos	-11.1579
▁herzegovina	-11.1588
▁obtención	-11.16
▁mérito	-11.1602
▁chino	-11.1602
▁descanso	-11.1614
▁quedó	-11.1614
▁extremo	-11.1628
▁desarme	-11.1629
▁implementación	-11.1629
▁biocarburantes	-11.1629
▁dejemos	-11.1633
▁dejen	-11.164
▁viviendo	-11.1643
▁kong	-11.1643
▁símbolo	-11.1645
▁2003.	-11.1651
▁significativos	-11.1655
bo	-11.1671
▁indemnización	-11.1671
▁mercurio	-11.1671
▁sufriendo	-11.1671
▁clasificación	-11.1672
▁fundación	-11.1672
▁intermedia	-11.1673
▁equivocado	-11.1674
▁aves	-11.1677
▁acertada	-11.1683
▁gama	-11.1686
ros	-11.1691
▁septentrional	-11.1695
▁2020,	-11.1701
▁anuncio	-11.1703
▁ordenación	-11.1703
▁actúa	-11.1706
▁mente	-11.1706
▁multilaterales	-11.1709
▁gratitud	-11.1715
▁ocde	-11.1715
▁presentamos	-11.1717
▁comienzos	-11.1717
▁1993	-11.1722
▁prioritaria	-11.1731
▁preguntarnos	-11.1736
▁españoles	-11.1739
▁aclaración	-11.1744
▁digna	-11.1756
▁profesores	-11.1762
▁hiciera	-11.1764
▁naval	-11.1768
▁rúbrica	-11.1775
ex	-11.1779
▁efectivas	-11.1788
▁5,	-11.1796
nd	-11.18
▁empeño	-11.1802
▁diplomacia	-11.1802
safortunadamente	-11.1802
▁declara	-11.1806
▁aumentará	-11.181
▁inicialmente	-11.1816
▁neerlandés	-11.1816
▁fracasado	-11.1818
▁justas	-11.1819
▁ministerial	-11.1826
▁intensidad	-11.1831
▁atún	-11.1831
▁creó	-11.1831
▁entrado	-11.1835
▁podían	-11.1836
▁adoptarse	-11.1842
▁lógicamente	-11.1843
▁calentamiento	-11.1845
▁sitúa	-11.1851
▁variedad	-11.1855
▁parecía	-11.186
▁innovadoras	-11.1862
▁prestando	-11.1864
▁educativos	-11.1869
▁espectro	-11.1875
▁york	-11.1876
▁racional	-11.1884
tro	-11.1884
▁tardar	-11.1892
▁presenten	-11.1896
▁lograrlo	-11.1897
bles	-11.19
▁orientada	-11.1907
▁mantengan	-11.192
▁lleguen	-11.1925
▁superficie	-11.1936
▁italianos	-11.1937
▁obligatorios	-11.195
▁índice	-11.1951
▁turca	-11.1951
▁sol	-11.1958
▁repetidas	-11.1965
▁trasladar	-11.1968
▁expresada	-11.1969
▁proporcionado	-11.1971
▁externa	-11.1976
▁perdiendo	-11.1978
▁pluralismo	-11.1978
▁tomó	-11.1978
▁dumping	-11.1978
▁valiosa	-11.1981
▁profundas	-11.1982
▁ciudadanas	-11.1988
▁h	-11.1992
▁preocupado	-11.1992
▁aislamiento	-11.1992
▁parís	-11.1993
▁piedra	-11.1996
▁reacciones	-11.1997
cuándo	-11.2003
▁terror	-11.2007
▁jurisdicción	-11.2007
▁bancario	-11.201
▁públicamente	-11.2014
iendo	-11.2028
▁caracteriza	-11.2028
▁sirva	-11.203
▁cita	-11.2031
▁culpables	-11.2039
▁participa	-11.2039
▁adultos	-11.204
▁conceda	-11.204
▁llevamos	-11.2041
▁meta	-11.2041
▁pediría	-11.205
▁aliados	-11.2051
▁sub	-11.2052
▁maniobra	-11.2055
▁entraña	-11.2062
▁impuestas	-11.2065
▁escena	-11.207
▁previamente	-11.2077
▁empresariales	-11.2079
▁musulmanes	-11.2082
▁levantar	-11.2082
▁palacio	-11.2082
▁revela	-11.2082
▁v	-11.2087
▁fenómenos	-11.2087
▁desequilibrios	-11.2088
tra	-11.2089
▁formalmente	-11.209
▁aproximación	-11.2097
▁pensión	-11.2097
▁demasiados	-11.2098
▁magnífico	-11.21
▁ra	-11.2103
▁voten	-11.2105
▁despidos	-11.2108
▁legalidad	-11.2115
per	-11.2118
▁salido	-11.2128
▁metas	-11.213
▁reducida	-11.213
▁evidentes	-11.2133
▁regulador	-11.2133
▁étnicas	-11.2135
▁dirijo	-11.2142
▁alimentarios	-11.2142
▁atentamente	-11.2145
▁esferas	-11.2153
▁recomiendo	-11.2157
▁partidario	-11.2161
▁junta	-11.2174
▁ayudado	-11.2178
▁clases	-11.2185
▁pensionistas	-11.219
cos	-11.2193
▁justificado	-11.2194
▁polaco	-11.2206
▁presidenciales	-11.2212
▁rutas	-11.2214
▁conjuntas	-11.2215
▁desarrolla	-11.2216
▁competitivos	-11.222
▁reflejar	-11.222
▁orgullosos	-11.2221
▁adquirido	-11.2221
▁imperativo	-11.2221
▁inteligencia	-11.2232
▁biológica	-11.2236
▁clonación	-11.2248
▁declaró	-11.2248
▁extremistas	-11.2252
▁transferir	-11.2258
▁levanta	-11.2262
▁volviendo	-11.2263
▁complicada	-11.2267
be	-11.2271
tó	-11.2272
▁normales	-11.2278
▁unidades	-11.2281
▁consecuente	-11.2282
▁ejecutar	-11.2287
▁serios	-11.2288
▁celebra	-11.2289
▁aprecio	-11.2293
▁históricos	-11.2293
▁vehículo	-11.2298
▁mo	-11.2308
▁realidades	-11.2312
▁corresponden	-11.2314
bamos	-11.2315
▁dependerá	-11.2319
▁horizontal	-11.2319
▁garantizará	-11.2323
▁mugabe	-11.2324
▁expuestos	-11.233
▁aumente	-11.2331
▁aprobados	-11.2332
▁medir	-11.2336
▁estableció	-11.2339
▁invitación	-11.234
▁martes	-11.234
▁fmi	-11.234
▁lingüística	-11.2344
▁pendiente	-11.2344
▁abogados	-11.2348
▁realicen	-11.2352
▁leal	-11.2354
▁sadam	-11.2355
▁acontecimiento	-11.2359
▁bacalao	-11.237
▁consigo	-11.237
▁sexuales	-11.2371
▁automáticamente	-11.2373
▁aceite	-11.2374
▁únicos	-11.2374
ida	-11.2376
▁existía	-11.2377
aunque	-11.2378
▁milosevic	-11.2386
▁nórdica	-11.2386
▁propietarios	-11.2392
▁respalda	-11.2399
▁prostitución	-11.2401
▁aeropuerto	-11.2405
▁permisos	-11.2407
▁excepcionales	-11.2412
▁invitar	-11.2415
▁noruega	-11.2416
▁tensión	-11.2416
▁aparentemente	-11.2418
▁incluyan	-11.2423
▁2002.	-11.243
▁excelencia	-11.2432
▁insistido	-11.2432
▁bajas	-11.2433
▁dominio	-11.2433
▁danesa	-11.2436
ve	-11.2441
▁pagan	-11.2445
▁laeken	-11.2447
▁permitirse	-11.2448
▁favorece	-11.2452
▁apunta	-11.2454
alianza	-11.2455
acaso	-11.2456
▁certeza	-11.2463
▁guantánamo	-11.2463
▁taiwán	-11.2463
▁profesión	-11.2478
▁ministerio	-11.2483
▁ciudadana	-11.2483
▁2011	-11.2485
▁seguras	-11.2485
▁define	-11.2486
▁asesinatos	-11.2492
▁encarecidamente	-11.2494
▁washington	-11.2494
▁protestas	-11.2495
▁distorsiones	-11.2497
▁prudente	-11.2499
▁t	-11.2499
▁derivadas	-11.2506
▁diagnóstico	-11.251
▁jurisprudencia	-11.251
▁pertenencia	-11.251
▁genética	-11.251
▁acudir	-11.2524
▁caza	-11.2524
▁autorizar	-11.2526
▁estipula	-11.253
▁aéreos	-11.2535
▁jugar	-11.2542
▁transitorio	-11.2546
▁remedio	-11.2546
▁aborto	-11.2546
▁verificar	-11.2549
▁poseen	-11.2553
▁oficialmente	-11.2556
▁barnier	-11.2557
▁decepción	-11.2557
▁hacernos	-11.2557
▁ko	-11.2558
▁sentado	-11.2561
▁anunciar	-11.2571
▁swoboda	-11.2572
▁vacaciones	-11.2573
▁rigurosa	-11.2573
▁libros	-11.2575
▁migratorios	-11.2575
▁indicaciones	-11.2575
▁transatlántica	-11.2577
▁asegurarles	-11.2578
▁149	-11.258
▁vivos	-11.2583
▁150	-11.2587
▁sucedió	-11.2588
▁decididamente	-11.2593
▁radicales	-11.2598
▁etcétera	-11.2604
▁insistencia	-11.2604
▁frutos	-11.2604
▁inmensa	-11.2609
▁canciller	-11.262
▁reach	-11.262
▁largos	-11.2621
▁extranjeras	-11.2624
▁neerlandesa	-11.2624
bremos	-11.2629
▁iraní	-11.263
▁jueces	-11.2635
▁preferido	-11.2635
▁retórica	-11.2635
▁facilita	-11.264
ie	-11.2642
cns	-11.2642
▁posteriores	-11.2647
▁saludo	-11.2651
▁moscú	-11.2651
▁ampliado	-11.2655
▁inevitablemente	-11.2657
▁garantizado	-11.2663
▁empleado	-11.2668
▁peores	-11.267
▁innovadores	-11.267
▁preventiva	-11.2672
▁marino	-11.2673
▁proceden	-11.2686
▁móviles	-11.2687
▁guarda	-11.2687
▁implican	-11.2698
▁establecerse	-11.2699
▁adherirse	-11.27
▁inteligentes	-11.2701
▁cálculo	-11.2704
▁recorte	-11.2704
▁acompañado	-11.2705
▁capítulos	-11.2708
▁legítima	-11.2716
▁temporales	-11.2716
▁haití	-11.2731
▁intensa	-11.2731
ge	-11.2734
▁teoría	-11.2736
▁diplomática	-11.2736
▁entero	-11.2736
▁compartido	-11.2736
▁significaría	-11.2737
▁azul	-11.2742
▁facilidad	-11.2742
▁felicitando	-11.2747
ad	-11.2751
teroperabilidad	-11.2763
▁instancias	-11.2767
▁ferroviaria	-11.2768
▁demográfico	-11.2768
▁ingreso	-11.2768
▁exportar	-11.2768
▁martin	-11.278
▁aliviar	-11.2781
▁mental	-11.2789
▁autónomos	-11.279
▁iii	-11.2797
▁vinculados	-11.28
▁emprendido	-11.28
▁inquietudes	-11.2802
▁índole	-11.2811
▁máximos	-11.2811
▁periódico	-11.2816
▁turcos	-11.2823
▁restricción	-11.2827
▁desarrolle	-11.2831
▁buscando	-11.2832
▁siglos	-11.2832
▁advertencia	-11.2833
▁cartas	-11.2833
▁competitivas	-11.2841
cha	-11.2841
▁transformar	-11.2845
▁atractivo	-11.2849
▁desventaja	-11.2849
▁retomar	-11.2855
▁iniciales	-11.286
▁negociado	-11.2862
▁descrito	-11.2865
▁surgir	-11.2872
▁danubio	-11.2876
▁ejerce	-11.2877
▁americanos	-11.288
cia	-11.2881
▁halla	-11.2881
ña	-11.2888
▁incapaz	-11.2892
▁prórroga	-11.2892
▁mueren	-11.2894
▁observamos	-11.2895
cr	-11.2896
▁incluirse	-11.2896
▁surgen	-11.29
▁llevó	-11.2908
▁fijación	-11.2908
▁sumas	-11.2911
▁emergentes	-11.2912
▁alarmante	-11.2914
▁seremos	-11.2918
▁salarial	-11.2919
▁hallar	-11.2921
▁queríamos	-11.2921
▁complejos	-11.2922
▁unificación	-11.2922
▁temprana	-11.293
▁educativo	-11.293
▁unir	-11.293
▁protegidos	-11.2937
▁adoptan	-11.2941
▁desfavorecidas	-11.2943
▁tratamos	-11.2944
▁biotecnología	-11.2946
▁satisfecha	-11.2946
pro	-11.2952
▁tenerse	-11.2954
▁causar	-11.2954
▁consideren	-11.2955
▁veto	-11.2957
▁planteada	-11.2958
▁astilleros	-11.2961
▁kilómetros	-11.2962
▁incidente	-11.2963
▁promueve	-11.2964
▁hable	-11.2966
▁avanza	-11.2966
▁inspectores	-11.2974
▁incentivo	-11.2979
▁restantes	-11.2979
▁posturas	-11.298
▁criminal	-11.2983
▁supondrá	-11.2984
▁comprometerse	-11.2993
▁32	-11.3005
▁aparición	-11.3006
▁portugués	-11.3006
▁propaganda	-11.3006
▁bloque	-11.3007
▁supuestamente	-11.3008
▁conferencias	-11.3008
▁acercamiento	-11.3009
su	-11.3011
▁arma	-11.3015
▁urbanas	-11.3015
▁mejorando	-11.3018
▁direcciones	-11.3022
▁discutiendo	-11.3022
▁poettering	-11.3022
▁reciprocidad	-11.3022
▁rentabilidad	-11.3022
)).	-11.3032
▁aftosa	-11.3039
▁prudencia	-11.304
▁muestras	-11.305
▁sueño	-11.3052
▁darfur	-11.3055
▁fomenta	-11.3057
▁proporcionan	-11.3059
▁vote	-11.3061
▁superado	-11.3074
▁costeras	-11.3083
▁buscan	-11.3084
▁duras	-11.3084
▁atmósfera	-11.3088
▁diversificación	-11.3088
▁estudiando	-11.3089
▁regulaciones	-11.3089
▁6,	-11.3089
▁quedarse	-11.309
▁titulares	-11.3091
▁celebrando	-11.3091
▁logramos	-11.3091
▁imponen	-11.3092
▁aquéllos	-11.3105
▁penas	-11.3105
▁notablemente	-11.3113
▁bar	-11.3117
▁mares	-11.3121
▁distinguir	-11.3125
▁vivo	-11.3128
▁austriaca	-11.3132
▁mu	-11.3135
▁notificación	-11.3138
▁visitar	-11.3139
▁ocupe	-11.3142
▁entidad	-11.315
▁malas	-11.3153
▁sigamos	-11.3154
▁equitativa	-11.3157
▁banda	-11.316
▁disculpas	-11.316
▁tono	-11.3164
▁estimado	-11.3165
▁sensibilización	-11.3171
▁potenciar	-11.3173
▁acercar	-11.3179
▁antiguas	-11.318
▁valentía	-11.3188
▁combinar	-11.3191
▁canales	-11.3192
▁suceda	-11.3196
▁funcionando	-11.3196
europa	-11.3199
▁territoriales	-11.3202
▁fechas	-11.3203
▁sentimos	-11.3205
▁observancia	-11.3205
▁diplomáticos	-11.3207
zo	-11.3208
sin	-11.321
▁incorporado	-11.3213
▁preventivas	-11.3216
▁tolerar	-11.3216
▁espacial	-11.3216
▁remuneración	-11.3221
▁bolkestein	-11.3221
▁fallos	-11.3224
▁paciente	-11.3229
▁dadas	-11.3229
03	-11.3231
▁once	-11.3238
▁provecho	-11.3251
▁equivocada	-11.3258
▁sentimientos	-11.3261
▁observa	-11.3261
▁prima	-11.3263
fe	-11.3263
5-02	-11.3263
▁llegamos	-11.3267
▁acierto	-11.3268
▁incapaces	-11.3272
▁ártico	-11.3272
▁ind	-11.3272
▁verificación	-11.3273
▁recorrer	-11.3275
▁atentado	-11.3281
▁formado	-11.3281
▁parar	-11.3283
um	-11.3288
▁recibió	-11.3289
▁zimbabwe	-11.3289
▁competidores	-11.3289
▁95	-11.329
▁entredicho	-11.3291
▁modernizar	-11.3293
▁crediticia	-11.3296
▁tra	-11.3297
▁malos	-11.3301
▁regresar	-11.3309
▁amplios	-11.3312
▁altas	-11.3313
▁verdaderas	-11.3313
▁cuestionar	-11.3316
▁sanitarias	-11.3321
▁asignados	-11.3325
▁intenso	-11.333
▁rechazada	-11.3333
▁profesor	-11.3334
▁discutido	-11.3339
ice	-11.3342
▁instamos	-11.3345
▁mencionadas	-11.3347
▁cambia	-11.3347
▁faltan	-11.3348
▁hoja	-11.3349
▁cría	-11.335
▁certificación	-11.3356
▁descubierto	-11.3356
▁votó	-11.3356
▁optar	-11.3359
▁esperado	-11.3361
▁situar	-11.3362
▁solicitamos	-11.3363
▁incomprensible	-11.3364
▁debilitar	-11.3366
▁agradecerle	-11.3369
▁restringir	-11.3377
▁árabes	-11.3381
▁gradualmente	-11.3381
▁interrumpido	-11.339
▁muchísimo	-11.3398
▁protege	-11.3403
▁reconocen	-11.3406
▁creatividad	-11.3408
▁conseguiremos	-11.3412
▁alarma	-11.3413
▁visible	-11.3428
▁círculo	-11.3432
▁estuviera	-11.3433
▁surge	-11.3434
▁comenzó	-11.3442
▁descubrir	-11.3442
bu	-11.3444
tan	-11.3444
▁aportado	-11.3445
ica	-11.3447
▁tren	-11.3448
ábamos	-11.3449
▁olvidado	-11.345
▁sugerido	-11.3459
▁miseria	-11.3459
ver	-11.3463
▁aplicaciones	-11.3463
▁alternativo	-11.3467
▁beneficioso	-11.3467
▁audiovisual	-11.3471
▁camboya	-11.3472
▁brecha	-11.3476
▁coincide	-11.3477
tos	-11.3482
▁equitativo	-11.3484
▁irresponsable	-11.3484
▁dirige	-11.3484
▁contribuyente	-11.3485
▁sustanciales	-11.3487
▁cualificados	-11.3487
▁preferible	-11.3489
▁definiciones	-11.3493
▁innovaciones	-11.3493
▁afirmaciones	-11.3497
▁increíble	-11.3497
gi	-11.3502
▁brutal	-11.3508
▁hecha	-11.351
▁subvención	-11.351
▁ocm	-11.3511
▁sobrevivir	-11.3512
▁romper	-11.3512
ac	-11.3516
▁adoptamos	-11.3516
▁étnica	-11.3518
▁inglaterra	-11.3528
▁ocuparnos	-11.3531
▁comparar	-11.3531
▁semejantes	-11.3533
▁perfecto	-11.3536
▁injusto	-11.3536
▁húngaro	-11.3536
▁urbana	-11.3538
▁hogar	-11.354
▁to	-11.3543
▁páginas	-11.3546
▁fija	-11.3559
▁phare	-11.3562
▁precaución	-11.3562
▁regreso	-11.3562
▁daneses	-11.3562
▁reflexiones	-11.3569
▁garantizan	-11.357
▁presentarse	-11.3573
▁cárcel	-11.3575
▁escaso	-11.3578
▁brindar	-11.3578
▁rigen	-11.3585
▁cielo	-11.3589
▁encontrarse	-11.359
▁pesados	-11.359
▁generalizada	-11.3591
▁votará	-11.3591
▁costumbre	-11.3605
ini	-11.3606
▁describir	-11.361
▁oradora	-11.3611
▁michel	-11.3614
▁estuve	-11.3615
▁estableciendo	-11.3615
▁l	-11.3619
▁limitados	-11.3621
▁estrecho	-11.3623
▁fusión	-11.3632
▁enhorabuena	-11.3632
▁masa	-11.3636
▁bálticos	-11.3639
▁reunido	-11.364
▁marítimas	-11.3642
▁universidad	-11.3645
▁conducido	-11.3649
▁contabilidad	-11.3649
▁compatibles	-11.3653
▁m	-11.3656
▁subida	-11.3658
▁obtenidos	-11.366
▁actúan	-11.366
▁38	-11.3662
▁amparo	-11.3667
▁36	-11.3675
▁someterse	-11.3676
▁geográficas	-11.3686
▁mediación	-11.3688
▁indirectamente	-11.3688
▁viviendas	-11.369
▁importar	-11.3692
▁vuelo	-11.3693
▁madres	-11.3694
▁recortar	-11.3701
▁paralelamente	-11.3704
du	-11.3706
▁inequívoca	-11.3706
▁asuma	-11.3708
▁empieza	-11.3711
▁deudas	-11.3712
▁reducidos	-11.3716
▁acepto	-11.372
▁arriba	-11.372
▁austeridad	-11.372
▁validez	-11.372
▁fría	-11.3721
▁centrarme	-11.3722
▁reciba	-11.3725
gu	-11.3728
▁traslado	-11.3729
▁correo	-11.3729
▁ferroviarias	-11.3731
▁aplicará	-11.3736
▁preadhesión	-11.3737
▁corrección	-11.3737
▁reciclado	-11.3741
▁barco	-11.3746
▁contenidas	-11.3749
▁aparecen	-11.3751
▁te	-11.3752
▁dispongo	-11.3755
▁eludir	-11.3756
▁queja	-11.3759
▁implantar	-11.376
▁inútil	-11.3763
▁incidencia	-11.3764
▁sensato	-11.3764
▁33	-11.3764
▁respaldado	-11.3766
▁oportunas	-11.3772
▁extradición	-11.3773
▁haciéndolo	-11.3773
▁voces	-11.3773
▁ba	-11.3782
▁defienden	-11.3787
▁contradicciones	-11.379
▁ofreciendo	-11.379
▁suecos	-11.3797
▁tercio	-11.3799
▁of	-11.3801
▁afirman	-11.3801
▁ejemplar	-11.3803
▁reafirmar	-11.3804
▁largas	-11.3805
proporcionalidad	-11.3806
▁recordemos	-11.3809
▁operativos	-11.381
▁abogado	-11.3819
▁planteamientos	-11.382
▁imágenes	-11.3826
▁foros	-11.3826
▁[	-11.3827
▁causados	-11.3828
▁denuncia	-11.3828
▁respectivas	-11.3828
▁55	-11.3834
▁motores	-11.3837
▁legítimas	-11.3838
▁convirtiendo	-11.3844
▁hice	-11.3844
▁dedicación	-11.3844
ec	-11.3848
▁resultará	-11.3848
▁elabore	-11.385
▁supera	-11.3852
▁participe	-11.3853
▁saludable	-11.3854
▁beneficiar	-11.3861
▁limpieza	-11.3862
▁conciliar	-11.387
▁ideología	-11.3871
▁riguroso	-11.3871
▁plátano	-11.3871
▁apreciar	-11.3874
▁vacas	-11.3875
▁dirigidos	-11.3875
esto	-11.3881
▁suministros	-11.3882
▁explícita	-11.3884
▁votaré	-11.3884
son	-11.3887
▁accesible	-11.3889
▁aceptadas	-11.389
▁na	-11.3894
▁meda	-11.3895
▁inició	-11.3898
▁regularmente	-11.3898
▁dis	-11.3904
▁atraer	-11.3909
▁golfo	-11.3916
era	-11.3917
▁65	-11.3917
▁mediterráneos	-11.3919
▁ceder	-11.3919
po	-11.3921
▁trans	-11.3924
▁deficiente	-11.3925
▁persigue	-11.3925
▁indicios	-11.3929
▁entregar	-11.3929
▁retrasar	-11.3931
▁constar	-11.3933
▁intercambiar	-11.3936
▁cumbres	-11.3942
▁recogido	-11.3943
▁contribuyendo	-11.3945
▁lanzado	-11.3947
▁li	-11.395
▁expreso	-11.3951
▁previsión	-11.3951
▁interrupción	-11.3952
▁actitudes	-11.3954
ré	-11.3955
▁reactores	-11.3971
▁celebre	-11.3976
▁permitirnos	-11.3984
▁paritaria	-11.3988
▁lanzamiento	-11.3988
▁electorado	-11.3988
▁significativas	-11.399
▁cometer	-11.3991
▁pronunciarse	-11.3992
▁acompañada	-11.3998
(	-11.4
▁correr	-11.4
▁garantizada	-11.4003
▁logra	-11.4004
▁elaborando	-11.4007
▁34	-11.401
▁prohíbe	-11.4015
▁terremoto	-11.4015
▁sitios	-11.4021
▁estaríamos	-11.4022
▁esperaba	-11.4023
▁lazos	-11.4025
▁ajustes	-11.4029
▁aplicadas	-11.4032
▁aduanas	-11.404
il	-11.4041
▁natura	-11.4044
ed	-11.4047
▁nombrar	-11.4048
▁lleno	-11.4052
▁impunidad	-11.406
▁perjudicar	-11.406
▁euratom	-11.4061
dem	-11.4064
▁viola	-11.4069
▁violentos	-11.4069
▁establecida	-11.407
ones	-11.4072
▁estabilizar	-11.4072
▁serbios	-11.4074
▁rusas	-11.4076
ásemos	-11.4078
▁meramente	-11.4087
▁sorpresa	-11.4088
▁sri	-11.409
▁calle	-11.4091
▁servirá	-11.4094
▁sepan	-11.4095
▁jean	-11.4097
▁lanka	-11.4097
▁declaro	-11.4098
▁intolerable	-11.4107
▁cumpliendo	-11.4115
▁anteproyecto	-11.4116
▁142	-11.413
▁excluidos	-11.413
▁efectivos	-11.4132
▁putin	-11.4133
▁negociando	-11.4134
▁mejore	-11.4135
▁subsidios	-11.414
▁fronterizas	-11.4148
▁malo	-11.4148
▁turcas	-11.4148
▁registros	-11.4149
▁objeción	-11.4152
▁posselt	-11.4152
▁profesiones	-11.4152
▁espacios	-11.4155
▁toca	-11.4156
▁últimamente	-11.4156
▁trabajamos	-11.4157
▁diera	-11.4158
▁concentrar	-11.4159
▁conocida	-11.4162
sobre	-11.4163
▁eléctricos	-11.4164
▁respetado	-11.4166
▁asciende	-11.418
▁breves	-11.4183
▁designación	-11.4189
▁8,	-11.4189
▁parámetros	-11.4193
▁bandera	-11.4199
▁sospecha	-11.4199
▁blanqueo	-11.4207
▁pornografía	-11.4207
▁semillas	-11.4211
▁generalmente	-11.4214
▁preguntarse	-11.4218
▁panorama	-11.4226
▁vietnam	-11.4226
▁tacis	-11.4226
▁reanudación	-11.4227
▁uen	-11.4234
▁sustancialmente	-11.4236
▁sugerir	-11.4237
▁armadas	-11.4238
▁liga	-11.4241
▁recae	-11.4242
▁decida	-11.4246
▁orales	-11.4249
▁abajo	-11.425
▁comprometidos	-11.4254
▁hechas	-11.4254
▁consultivo	-11.4255
▁representados	-11.4262
▁elevadas	-11.4264
▁anunció	-11.4269
▁gesto	-11.4272
▁7,	-11.4272
▁sensata	-11.4274
▁sujeto	-11.4274
▁reclamar	-11.4278
▁etapas	-11.4278
tivo	-11.428
▁mercosur	-11.4282
▁olímpicos	-11.4288
▁pasan	-11.429
▁comienza	-11.4292
▁desequilibrio	-11.4292
▁existido	-11.43
▁permito	-11.43
▁mejorará	-11.4302
▁consiga	-11.4307
th	-11.431
▁prohibido	-11.4311
▁transcurrido	-11.4311
mar	-11.4317
▁sudeste	-11.4319
▁excepto	-11.4319
▁suyo	-11.4324
▁transportistas	-11.4324
▁apoyará	-11.4326
▁debilidad	-11.433
▁orientado	-11.4335
▁desaparecido	-11.4349
▁acepten	-11.435
▁sentar	-11.4356
▁juez	-11.4356
▁trabajador	-11.4356
▁simultáneamente	-11.4358
▁proponga	-11.4363
▁ofertas	-11.4366
▁consistente	-11.4369
▁1989	-11.4375
▁levantamiento	-11.4375
▁aumentan	-11.4376
▁ánimo	-11.4386
▁tuberculosis	-11.4394
▁quedará	-11.4398
▁intensamente	-11.4399
▁climática	-11.4405
▁creará	-11.4406
▁marinos	-11.4407
▁colocar	-11.4414
tes	-11.4417
▁iv	-11.4422
▁pos	-11.4426
▁industrializado	-11.4427
▁contrarrestar	-11.4428
▁cuarenta	-11.4432
▁watson	-11.4432
▁frutas	-11.4433
▁1998.	-11.4437
▁actualizar	-11.4443
▁acabado	-11.4443
▁aceptada	-11.4448
▁impiden	-11.4449
▁tribuna	-11.4449
▁proporcione	-11.445
▁erasmus	-11.4451
▁padecen	-11.4454
▁expedientes	-11.4455
▁oit	-11.4458
▁oeste	-11.4459
▁regula	-11.446
▁trámites	-11.4462
▁saludar	-11.4471
▁dg	-11.4471
▁marcos	-11.4474
▁aborde	-11.4477
▁funcionado	-11.4478
men	-11.4478
▁simples	-11.4478
▁contener	-11.4481
▁plantearse	-11.4482
▁generan	-11.4484
▁nominal	-11.4484
▁azerbaiyán	-11.4489
▁quiebra	-11.45
▁enfoques	-11.4505
▁desarrolladas	-11.4506
▁defendemos	-11.4508
▁cuidadosamente	-11.4509
▁niñas	-11.4514
▁calles	-11.4517
▁pondrá	-11.4519
▁emitido	-11.4519
▁activas	-11.4524
▁raíces	-11.4527
▁socialmente	-11.4532
▁señaló	-11.4535
▁solos	-11.4537
▁acogido	-11.4539
nas	-11.4543
em	-11.4545
▁recibimos	-11.4546
▁burocráticos	-11.4548
▁reguladores	-11.4552
▁tecnológicos	-11.4555
▁sacrificio	-11.4558
▁rojo	-11.4558
▁sal	-11.4559
▁42	-11.4563
▁debían	-11.4567
▁chinas	-11.4572
▁2013	-11.4572
▁valiente	-11.4572
▁demuestre	-11.4576
▁expone	-11.458
▁kurdos	-11.4584
▁bloquear	-11.4584
más	-11.4591
▁ta	-11.4594
▁islámico	-11.4596
▁observo	-11.4603
▁facilitará	-11.4609
▁trabajen	-11.461
▁euromediterráne	-11.4612
▁planta	-11.4614
▁resumir	-11.4616
▁600	-11.4619
▁armenia	-11.4623
▁distorsión	-11.4623
▁oponerse	-11.4624
▁casas	-11.463
▁ayudarles	-11.464
▁interpretar	-11.4643
▁sectoriales	-11.4646
▁contribuyan	-11.4656
▁precedido	-11.4661
▁virus	-11.4661
▁represento	-11.4661
▁habló	-11.4661
▁disparidades	-11.4663
▁oro	-11.4669
▁alcanza	-11.468
utodeterminación	-11.4681
▁optimismo	-11.4681
▁planteados	-11.4683
▁lema	-11.469
▁castigar	-11.4692
▁armados	-11.4695
▁precisar	-11.4699
▁ayudando	-11.47
▁combate	-11.4704
▁libras	-11.4711
▁pagado	-11.472
▁convendría	-11.472
▁previas	-11.4721
rio	-11.4722
▁suscita	-11.4726
▁consultado	-11.4727
▁sentirse	-11.4727
▁visitas	-11.4727
▁dirigirse	-11.4732
▁vinculada	-11.4733
▁prioritarias	-11.4736
▁jarzembowski	-11.4739
▁comunistas	-11.4739
):	-11.4743
▁individuo	-11.4752
▁antemano	-11.4759
▁firmas	-11.4761
▁abordarse	-11.4761
▁unánimemente	-11.4769
▁restaurar	-11.4771
▁tela	-11.4772
▁atacar	-11.4775
▁ilegalmente	-11.4777
▁despliegue	-11.4778
▁extra	-11.4782
▁700	-11.4785
▁depender	-11.4786
▁fijados	-11.4787
▁desaparecer	-11.4789
▁duradero	-11.4791
▁laborista	-11.4793
▁arte	-11.4797
▁exenciones	-11.4798
▁proponiendo	-11.4798
▁humanitarios	-11.4799
▁r	-11.4805
▁44	-11.4806
▁0,	-11.481
▁generado	-11.4811
ment	-11.4814
▁gastado	-11.4815
▁rehabilitación	-11.4817
▁potable	-11.4818
▁opuesto	-11.4818
▁crecer	-11.4824
▁mayoritaria	-11.483
▁montaña	-11.483
▁noción	-11.4831
▁preocupantes	-11.4837
▁gotemburgo	-11.4837
▁wallström	-11.4837
▁reciclaje	-11.4837
▁omiso	-11.4837
▁piratería	-11.4837
▁salvaguarda	-11.4841
▁conjuntos	-11.4843
▁sólidas	-11.4843
▁opinamos	-11.4843
▁examine	-11.4845
▁describe	-11.4848
▁sometida	-11.4851
▁calcula	-11.4852
ico	-11.4853
▁negado	-11.4858
▁operar	-11.4859
▁ti	-11.4864
▁continuado	-11.4865
▁indispensables	-11.4867
▁complementar	-11.4869
▁permitió	-11.4877
▁deberes	-11.4878
▁ligeramente	-11.4879
▁radicalmente	-11.4887
▁islam	-11.4887
▁cambie	-11.4888
▁limpio	-11.489
▁moderno	-11.489
▁compañero	-11.489
▁lomé	-11.4896
▁erika	-11.4897
▁situ	-11.4898
▁ajustar	-11.4899
▁reformistas	-11.49
▁39	-11.4904
▁enérgica	-11.4905
▁medicina	-11.4909
▁antibióticos	-11.4917
▁carencias	-11.4918
▁daría	-11.492
tion	-11.492
sl	-11.492
▁expresando	-11.4922
ven	-11.4936
▁ridículo	-11.4936
▁vio	-11.4937
▁facilite	-11.4938
▁bebidas	-11.4941
▁enfermos	-11.4946
▁optimista	-11.4949
▁jerusalén	-11.4956
▁vivido	-11.4956
▁aditivos	-11.496
▁sincera	-11.4965
▁sorprendido	-11.4969
▁reputación	-11.4976
▁paciencia	-11.4976
▁fortaleza	-11.4977
▁ingredientes	-11.4981
▁salariales	-11.4982
▁disputa	-11.499
▁estadística	-11.499
▁coraje	-11.4996
▁eurojust	-11.4997
▁constituido	-11.4997
▁discapacitados	-11.4997
▁millardos	-11.5
▁prevén	-11.5006
▁circular	-11.5006
▁beneficiará	-11.501
▁deban	-11.5013
▁desconfianza	-11.5016
▁reding	-11.5018
▁post	-11.502
▁viejos	-11.502
rme	-11.5022
▁2001.	-11.5026
▁griegos	-11.5027
▁2011.	-11.5029
▁comprometida	-11.503
▁feliz	-11.5032
izado	-11.5038
▁reembolso	-11.505
▁iglesia	-11.505
▁abarcar	-11.5054
▁colaboradores	-11.5057
▁invita	-11.5058
▁representado	-11.5059
▁cuente	-11.5068
▁franco	-11.507
▁privilegio	-11.507
▁and	-11.5071
▁canal	-11.5074
▁religiosos	-11.5076
▁interesado	-11.5076
▁coexistencia	-11.5076
▁homosexuales	-11.5077
00	-11.5078
▁concluye	-11.5086
▁indirecta	-11.5086
▁complejas	-11.5089
▁vincular	-11.509
▁criticado	-11.5096
▁marfil	-11.5097
▁presentados	-11.5107
br	-11.5109
▁rentable	-11.5111
▁alegría	-11.5117
▁expensas	-11.5117
▁pudimos	-11.5117
▁partiendo	-11.5117
▁ferrero	-11.5117
▁vinculado	-11.512
▁viables	-11.5123
▁producidos	-11.5125
▁celebrarse	-11.5126
▁difícilmente	-11.5126
▁legislador	-11.5136
▁creciendo	-11.5137
▁tramitación	-11.5137
▁referentes	-11.5137
▁acoso	-11.5137
▁bombas	-11.5138
▁bo	-11.5143
▁progresivamente	-11.5144
▁escasos	-11.5148
▁burocrática	-11.5151
▁advertir	-11.5157
▁luxemburguesa	-11.5158
▁pekín	-11.5158
▁ó	-11.5158
▁dudo	-11.5159
▁9,	-11.5161
▁nacionalismo	-11.5165
▁transatlántico	-11.5172
▁urbano	-11.5173
▁termino	-11.5178
▁43	-11.5182
▁sientan	-11.5185
▁comprobado	-11.5198
▁caribe	-11.5198
▁dieron	-11.5199
▁regulares	-11.5201
▁anterioridad	-11.5201
▁autorizados	-11.5202
▁hu	-11.5204
fo	-11.5205
ka	-11.5207
▁cercano	-11.5208
▁digamos	-11.521
▁marcar	-11.5214
dic	-11.5219
▁aprueben	-11.5224
▁húngaros	-11.523
▁desventajas	-11.5232
▁donante	-11.5233
▁padre	-11.5233
▁escolar	-11.5234
▁mencionada	-11.5239
▁cotonú	-11.5239
▁conviertan	-11.5243
▁étnicos	-11.5245
▁considerados	-11.5248
▁buque	-11.5255
▁corbett	-11.526
▁rescate	-11.526
▁vacunación	-11.526
▁life	-11.526
▁australia	-11.5261
▁resultaría	-11.5266
▁ahorros	-11.5266
▁comentado	-11.527
▁barata	-11.5274
▁compatibilidad	-11.5288
▁servido	-11.5293
▁tomemos	-11.5293
▁mira	-11.5294
▁detenido	-11.5295
▁suscitado	-11.5299
▁pan	-11.53
▁eslovena	-11.5301
▁producciones	-11.5301
▁acabe	-11.5304
▁tomará	-11.5308
▁disponga	-11.531
▁luchan	-11.531
▁excluye	-11.5311
▁...	-11.5313
▁cerrada	-11.5316
▁asociadas	-11.5317
▁alcanzados	-11.5317
▁recién	-11.5322
fer	-11.5334
▁extranjera	-11.5336
▁sana	-11.5339
▁correctas	-11.534
▁mezcla	-11.5343
▁com	-11.5343
discriminaciones	-11.5345
gue	-11.5347
▁legisladores	-11.5347
van	-11.5353
▁gripe	-11.5363
▁lástima	-11.5363
▁danés	-11.5363
▁bordo	-11.5364
▁registrar	-11.5371
▁encantado	-11.5373
▁importados	-11.5373
▁facilitado	-11.5376
▁coche	-11.5379
id	-11.5379
▁orientadas	-11.538
▁roth	-11.5383
▁defendiendo	-11.5384
▁presenté	-11.5384
▁descripción	-11.5384
▁justificadas	-11.5393
▁códigos	-11.5396
▁convincente	-11.5399
▁llegará	-11.5404
▁estimaciones	-11.5407
▁propiedades	-11.541
▁ponernos	-11.5414
▁inferiores	-11.5415
io	-11.5418
▁atajar	-11.5426
▁barón	-11.5426
▁46	-11.5428
lla	-11.5434
▁muestre	-11.5439
aplausos	-11.544
▁escrita	-11.5441
▁negra	-11.5441
▁borrador	-11.5442
ita	-11.5443
remos	-11.5445
▁sarkozy	-11.5446
▁manipulación	-11.5447
▁derivan	-11.5451
▁indiscutible	-11.5462
▁revisado	-11.5462
▁correcciones	-11.5467
▁desregulación	-11.5468
▁diseñar	-11.5468
▁evitando	-11.5469
▁pack	-11.5471
▁rentas	-11.5472
▁ajusta	-11.5473
▁caro	-11.5481
▁integrarse	-11.5481
▁externas	-11.5484
▁vergonzoso	-11.5488
▁opresión	-11.549
▁vinos	-11.5492
▁étnico	-11.5504
waldner	-11.551
▁somalia	-11.551
▁convenciones	-11.551
▁entró	-11.551
▁pretender	-11.5518
▁asegure	-11.5519
▁llegando	-11.5522
▁reanudar	-11.5526
▁residen	-11.5528
▁promoviendo	-11.5531
▁contrabando	-11.5531
▁constancia	-11.5531
▁preservación	-11.5531
▁coincidimos	-11.5531
▁realizó	-11.5531
▁myanmar	-11.5532
bilidad	-11.5543
▁ayuden	-11.5544
▁signo	-11.5546
▁falsa	-11.5547
▁americano	-11.5547
der	-11.5547
▁documentación	-11.5552
▁estimo	-11.5552
▁fragmentación	-11.5552
▁reparación	-11.5552
▁agotado	-11.5552
▁juicios	-11.5556
▁trenes	-11.5558
▁averiguar	-11.5559
▁logre	-11.5565
▁envío	-11.5568
▁móvil	-11.5568
▁esclavitud	-11.5573
▁planteó	-11.5573
▁legítimos	-11.5575
▁instaurar	-11.5575
▁2013.	-11.5584
▁ensayos	-11.5586
▁hacerle	-11.5587
▁trabajadoras	-11.5587
▁autónoma	-11.5589
▁norteamericano	-11.5589
▁vacunas	-11.5589
▁estables	-11.5593
▁dolor	-11.5595
▁cimientos	-11.5596
▁periféricas	-11.5597
▁utilizadas	-11.56
▁fraudes	-11.5603
che	-11.5604
▁pida	-11.5606
euromediterránea	-11.5607
▁cubre	-11.5607
▁potencialmente	-11.5608
▁eje	-11.5608
ur	-11.5612
▁cualificación	-11.5617
▁francesas	-11.562
▁reunirse	-11.5623
▁vinculadas	-11.5624
▁fa	-11.5624
▁obligatorias	-11.5625
▁asuman	-11.5626
▁vitales	-11.5626
▁dramática	-11.5627
▁déficits	-11.5629
▁cuidar	-11.5631
▁consiguió	-11.5637
▁higiene	-11.5637
▁márgenes	-11.5637
▁mortalidad	-11.5637
▁intensificación	-11.5637
▁fósiles	-11.5637
▁frecuentes	-11.5639
▁ri	-11.5647
▁temer	-11.5648
▁exigido	-11.5653
▁financiado	-11.5654
▁bastantes	-11.5657
▁cuantía	-11.5658
▁visibilidad	-11.5658
▁caos	-11.5659
▁núms	-11.5661
▁1997.	-11.5663
▁desplazados	-11.5664
▁iraquíes	-11.5666
▁limpia	-11.567
▁refería	-11.5672
▁especializados	-11.5672
▁abandonado	-11.5675
▁significar	-11.5676
▁husein	-11.568
▁percepción	-11.568
▁prometió	-11.568
▁manifestantes	-11.568
▁demostró	-11.568
▁desprecio	-11.568
▁definidos	-11.5683
mp	-11.5687
▁apropiados	-11.5701
▁insistimos	-11.5701
▁readmisión	-11.5701
▁resultó	-11.5701
▁vitorino	-11.5701
▁hacienda	-11.5701
▁insulares	-11.5702
▁comprometer	-11.5703
▁partidas	-11.5704
▁cuantas	-11.5704
▁fomentando	-11.5705
tiva	-11.5706
▁denominados	-11.5706
▁sometidas	-11.5709
▁contamina	-11.5713
▁man	-11.5715
pre	-11.5717
▁dinámico	-11.5717
▁castigo	-11.5717
▁decirnos	-11.5718
▁fáciles	-11.572
▁ejecuciones	-11.5723
▁deseaba	-11.5723
▁reconsiderar	-11.5724
▁adoptará	-11.573
▁formales	-11.573
▁secretos	-11.573
▁socavar	-11.5739
▁invertido	-11.5739
▁gasoducto	-11.5739
▁expresó	-11.5744
▁liikanen	-11.5744
▁inmediatas	-11.5744
yo	-11.5746
▁feag	-11.5748
▁alimentar	-11.5749
40	-11.5753
▁condenamos	-11.5758
▁orgulloso	-11.5761
▁ecosistemas	-11.5761
▁acuicultura	-11.5766
▁instrucciones	-11.5766
▁quinta	-11.5766
▁migrantes	-11.5767
▁diaria	-11.5778
▁escaños	-11.578
▁dispositivo	-11.5782
▁aboga	-11.5788
▁asignaciones	-11.5788
▁11.00	-11.579
▁limitan	-11.5794
▁constructivas	-11.58
▁licencia	-11.5803
▁injusticia	-11.5805
▁dejó	-11.5808
▁confederal	-11.5809
▁compensaciones	-11.5809
▁vuelvo	-11.5809
▁querían	-11.5809
▁conocidos	-11.5813
▁mía	-11.5815
▁proporcionará	-11.5815
▁ofrezcan	-11.5822
▁lácteos	-11.5825
▁inminente	-11.5826
▁cuán	-11.5828
▁resulten	-11.5831
▁demostrando	-11.5831
▁coordinador	-11.5837
▁puente	-11.5848
▁viejo	-11.5848
▁roja	-11.5848
▁integrante	-11.5848
▁comunismo	-11.5853
▁publicó	-11.5853
▁esforzado	-11.5853
▁marcas	-11.5866
▁actúen	-11.5866
▁materna	-11.5866
▁cálculos	-11.5867
▁sólidos	-11.5872
▁telón	-11.5874
▁dijeron	-11.5876
▁reclama	-11.5877
▁importes	-11.5879
▁felicitarle	-11.5881
▁diputadas	-11.5882
▁trágica	-11.5887
▁compete	-11.5895
▁populares	-11.5897
▁perjudica	-11.5899
▁ne	-11.5907
▁parezca	-11.591
▁considerada	-11.5912
▁proporcional	-11.5912
▁frágil	-11.5913
▁respetuosa	-11.5914
▁drama	-11.5914
▁cancún	-11.5918
▁demostración	-11.5918
▁detectar	-11.5923
▁desee	-11.5924
▁corremos	-11.5926
▁productor	-11.5927
▁estadísticos	-11.5932
▁imparcial	-11.5935
▁activistas	-11.5946
▁reestructura	-11.5948
▁goza	-11.5952
▁añade	-11.5954
▁precisos	-11.5954
▁decepcionante	-11.5958
▁freno	-11.5958
▁universales	-11.596
▁instalación	-11.5962
▁?	-11.5963
▁personalidad	-11.5963
▁asean	-11.5964
he	-11.5965
▁800	-11.5976
▁discapacidades	-11.5977
▁250	-11.5978
▁pudiéramos	-11.5984
▁intervengo	-11.5984
▁beneficiado	-11.5984
▁alza	-11.5986
▁pronunciar	-11.599
▁for	-11.5994
▁ejercen	-11.5996
▁49	-11.5998
▁tranquilizar	-11.5998
15	-11.6002
▁renovar	-11.6002
▁producirá	-11.6005
▁lamenta	-11.601
▁condenados	-11.6011
▁masivo	-11.6024
cas	-11.6025
▁embriones	-11.6029
▁oomen	-11.6029
▁supremo	-11.6029
▁preocupada	-11.6038
▁detalladas	-11.6042
▁ofrecerá	-11.6043
▁factible	-11.6046
▁progresista	-11.6046
▁periodista	-11.6046
▁cese	-11.6051
▁conexiones	-11.6051
▁reconstruir	-11.6051
▁vinculación	-11.6051
▁túnel	-11.6068
▁basándo	-11.607
▁marina	-11.607
▁divisiones	-11.6073
▁rechazó	-11.6073
▁sobra	-11.6077
▁tomada	-11.6088
▁supranacional	-11.6089
▁convencionales	-11.6098
▁colonia	-11.6098
▁trabas	-11.6099
▁ecológicas	-11.6102
▁hoc	-11.6102
▁figurar	-11.6112
sis	-11.6113
▁química	-11.6114
▁chad	-11.6117
▁trazabilidad	-11.6118
▁criminalidad	-11.6119
▁enfrentarnos	-11.6119
▁discriminatoria	-11.612
▁asentamientos	-11.6123
▁recordarle	-11.6125
▁proceda	-11.6128
▁históricas	-11.613
▁seguida	-11.6131
▁120	-11.6136
▁mentalidad	-11.6136
▁seré	-11.6136
▁cuadro	-11.6136
▁insostenible	-11.6136
▁automovilística	-11.614
▁concertación	-11.614
▁canarias	-11.614
▁voté	-11.614
▁tu	-11.6141
▁examinamos	-11.6143
imos	-11.6146
▁reducirse	-11.6147
05	-11.615
▁precisas	-11.615
▁intimidad	-11.6155
▁piezas	-11.6158
▁bovino	-11.6159
▁continuada	-11.616
▁convertirá	-11.616
▁importantísimo	-11.6163
▁portugueses	-11.6163
▁solicitó	-11.6163
▁sis	-11.6171
▁renuncia	-11.6175
▁recibirán	-11.618
▁gubernamental	-11.618
ándolo	-11.6181
▁aduaneros	-11.6184
▁autobuses	-11.6185
▁detenimiento	-11.6185
▁tentación	-11.6185
▁heridos	-11.6189
▁concienciación	-11.6189
▁clarificar	-11.619
▁hablemos	-11.619
▁marítimos	-11.6193
▁reconocidos	-11.6194
▁dependientes	-11.6197
▁primaria	-11.6204
▁invitado	-11.6206
▁implementar	-11.6207
▁agresión	-11.6208
▁madeira	-11.6208
▁uniformes	-11.6208
▁construyendo	-11.6209
bendit	-11.621
▁estarían	-11.6211
▁aplicada	-11.6215
podemos	-11.6223
▁aceptó	-11.623
▁berlusconi	-11.623
▁böge	-11.623
▁paliar	-11.623
▁troika	-11.623
▁solidaria	-11.6232
▁ocupados	-11.6241
▁ambiciosas	-11.6245
▁bangemann	-11.6253
▁escandaloso	-11.6253
▁degradación	-11.6253
▁esforzarnos	-11.6253
▁repetidamente	-11.6254
▁tangibles	-11.6254
▁ho	-11.6257
▁subterráneas	-11.6258
▁veamos	-11.626
▁incorporarse	-11.6267
▁tuvieran	-11.6269
▁rápidos	-11.627
▁guardia	-11.6271
▁atenta	-11.6272
▁teléfono	-11.6272
▁modernas	-11.6275
▁recorrido	-11.6276
▁aprovecho	-11.6276
▁intolerancia	-11.6276
▁ancha	-11.6276
▁asegurado	-11.6282
▁obtienen	-11.6282
▁apoyaremos	-11.6284
▁incluirá	-11.6286
▁compromete	-11.6288
▁errónea	-11.629
▁emplea	-11.6292
▁reforzando	-11.6299
▁fábricas	-11.6301
5-04	-11.6302
▁presentaron	-11.6303
▁adoptados	-11.6304
▁mon	-11.6305
▁defectos	-11.6315
▁guía	-11.6317
▁liberalizar	-11.6321
▁congratulo	-11.6321
▁esforzarse	-11.6323
▁técnicamente	-11.6325
▁votemos	-11.6326
▁hallan	-11.6327
▁vísperas	-11.6328
▁ka	-11.633
▁volverá	-11.6332
▁llena	-11.6334
▁provocan	-11.6335
▁trágico	-11.6341
▁característica	-11.6341
▁fallo	-11.6341
gar	-11.6343
▁lukashenko	-11.6344
▁estatus	-11.6344
▁dirigirme	-11.6347
ándonos	-11.6356
▁dedica	-11.6363
▁complemento	-11.6364
▁lehne	-11.6367
▁uranio	-11.6367
▁repente	-11.6367
▁expuestas	-11.6378
▁coordinado	-11.6381
▁exacta	-11.6382
▁dólar	-11.6386
▁amplitud	-11.639
▁manifestó	-11.639
▁agradecemos	-11.6392
▁pi	-11.6393
▁echa	-11.6402
▁injusta	-11.6405
am	-11.6406
▁subyacentes	-11.6408
▁departamento	-11.641
▁comida	-11.641
▁insistiendo	-11.6413
▁radiodifusión	-11.6413
▁abolir	-11.6413
▁propagación	-11.6413
▁envía	-11.6428
▁fed	-11.6428
▁gozan	-11.6431
▁innovadora	-11.6437
▁obligadas	-11.6438
▁dispositivos	-11.6442
▁hablaba	-11.6442
mu	-11.6444
▁pierden	-11.6444
▁escalada	-11.6446
▁comporta	-11.6452
iza	-11.6454
▁limite	-11.6455
▁lento	-11.6456
▁pongamos	-11.6459
▁convicciones	-11.6459
▁expulsión	-11.6459
▁distribuir	-11.6463
▁usan	-11.6465
ente	-11.6469
▁accesibles	-11.6471
▁válida	-11.6479
▁afirmó	-11.6483
▁caído	-11.6483
▁confección	-11.6483
▁harbour	-11.6483
▁consideró	-11.6483
▁liquidación	-11.6483
▁baratos	-11.6483
▁sócrates	-11.6483
▁lamy	-11.6483
▁capitalismo	-11.6486
▁hospitales	-11.6486
▁ignora	-11.6487
▁financiados	-11.6489
▁modernos	-11.6491
▁pedirles	-11.6491
▁85	-11.6492
▁pretendía	-11.6494
▁tercios	-11.6494
restablecimiento	-11.6495
▁implique	-11.6497
▁flagrante	-11.6498
▁juvenil	-11.6501
▁controversia	-11.6503
▁testigo	-11.6503
▁dejamos	-11.6504
rr	-11.6509
▁conceden	-11.6511
ck	-11.6519
▁convierten	-11.6524
▁chernóbil	-11.6529
▁sostenido	-11.6529
▁oliva	-11.6529
▁estancia	-11.653
▁denominación	-11.653
▁50%	-11.6531
▁sanción	-11.6531
▁eldr	-11.6534
▁formula	-11.6536
▁diplomáticas	-11.6545
▁justos	-11.6545
esta	-11.6546
▁negativamente	-11.6546
▁diplomático	-11.6549
▁hijo	-11.6549
▁41	-11.6553
▁realismo	-11.6556
▁artistas	-11.6557
▁equilibrar	-11.6562
▁títulos	-11.6563
ina	-11.6564
▁denomina	-11.6567
▁be	-11.6567
▁interlocutor	-11.6571
ú	-11.6574
▁demócrata	-11.6574
▁transnacional	-11.6575
▁angola	-11.6576
▁redistribución	-11.6576
▁cohn	-11.6576
▁profundización	-11.6576
▁luchado	-11.658
▁cárceles	-11.6583
▁reflejado	-11.6584
▁extraña	-11.6585
▁crecientes	-11.6594
▁viva	-11.6598
sida	-11.6599
▁arquitectura	-11.6599
▁retribución	-11.6599
▁donación	-11.66
▁boca	-11.6603
▁ilustra	-11.6605
confidencialidad	-11.6612
▁avanzados	-11.6616
▁nacimiento	-11.662
▁sequía	-11.662
▁rehn	-11.6623
▁utilizada	-11.6626
▁agradecería	-11.6628
▁emplean	-11.663
▁pasará	-11.6631
▁desarrollen	-11.6636
▁elogiar	-11.6641
▁soberano	-11.6644
▁revisada	-11.6644
▁notables	-11.6647
▁cabida	-11.6647
▁equidad	-11.6647
▁reunificación	-11.6647
▁separar	-11.6655
▁fábrica	-11.6667
▁constituirá	-11.6668
▁prohibiciones	-11.667
▁barrot	-11.6671
▁du	-11.6673
▁aspira	-11.668
▁paquetes	-11.6682
▁navidad	-11.6689
▁dominante	-11.6691
▁electrónicas	-11.6693
▁prestan	-11.6693
▁dinamismo	-11.6694
▁franqueza	-11.6694
▁intercultural	-11.6694
▁fuertemente	-11.6698
▁únicas	-11.6698
▁autorizado	-11.6708
▁deciden	-11.6709
▁hito	-11.6715
▁sexos	-11.6717
▁simpatía	-11.6718
▁detección	-11.6718
▁acusación	-11.6718
▁generalizado	-11.672
▁ideales	-11.672
▁super	-11.6727
▁parejas	-11.673
▁acaso	-11.6732
considera	-11.6732
▁frecuente	-11.6734
▁sale	-11.6736
▁continúen	-11.6738
▁epidemia	-11.6739
▁cuento	-11.6741
▁mann	-11.6742
▁detenciones	-11.6742
▁turistas	-11.6746
▁asistentes	-11.6747
▁conocidas	-11.6752
cio	-11.6752
▁reduzca	-11.6753
▁reducen	-11.6758
▁pasaporte	-11.6763
▁encaminado	-11.6763
▁africano	-11.6763
▁retirado	-11.6764
▁privacidad	-11.6765
▁sumarme	-11.6767
▁restrictivas	-11.6767
amos	-11.677
▁decidan	-11.6777
▁ru	-11.6781
▁burocrático	-11.6787
▁techo	-11.6787
▁simbólico	-11.6789
▁indignación	-11.679
▁armadores	-11.679
▁deliberadamente	-11.6792
▁lograremos	-11.6794
▁concentrarse	-11.6796
▁controlada	-11.6797
▁serlo	-11.6807
▁efectuado	-11.6811
ruijten	-11.6813
▁asistido	-11.6813
▁mencionó	-11.6813
▁religiones	-11.6813
▁pasaportes	-11.6816
▁accionistas	-11.6816
▁estudiado	-11.6822
▁lograrse	-11.6824
▁amplía	-11.6829
▁promueva	-11.6829
sur	-11.6834
▁rectificativo	-11.6835
▁reglamentario	-11.6835
▁biomasa	-11.6837
▁extremismo	-11.6837
▁provisión	-11.6837
▁entren	-11.6847
izquierda	-11.6854
▁metodología	-11.6859
▁domingo	-11.6861
▁interferir	-11.6861
▁recibiendo	-11.6861
▁traficantes	-11.6861
▁eliminado	-11.6862
▁trágicos	-11.6865
▁chile	-11.6869
▁informarles	-11.6875
▁asume	-11.6877
▁embajador	-11.6881
▁determinante	-11.6884
▁terrenos	-11.6885
▁jacques	-11.6886
▁cigarrillos	-11.6887
▁calcular	-11.6889
ud	-11.6889
▁comerciantes	-11.689
▁envases	-11.6892
▁especialistas	-11.6898
▁pasados	-11.69
▁angular	-11.6905
pu	-11.6908
▁hortalizas	-11.691
▁apreciación	-11.691
▁impedido	-11.6913
▁tratamientos	-11.6914
▁regularidad	-11.6915
▁globalizado	-11.6916
▁falsas	-11.6916
▁saludables	-11.6923
▁vuelven	-11.6929
▁comparables	-11.693
▁acusado	-11.6931
▁contundente	-11.6932
▁apuesta	-11.6933
▁mirada	-11.6933
▁referir	-11.6943
▁sacado	-11.6952
▁fruta	-11.6956
▁paralelo	-11.6956
▁decidimos	-11.6958
▁venezuela	-11.6958
▁chocolate	-11.6959
▁perjuicios	-11.696
▁disfrutan	-11.6961
▁consigamos	-11.6963
▁resultante	-11.6964
▁fundamentalismo	-11.6967
▁desempeñando	-11.697
▁coinciden	-11.6977
▁aceptan	-11.698
▁carencia	-11.6981
▁apruebo	-11.6983
▁bielorrusia	-11.6983
▁desplazadas	-11.6983
▁traer	-11.6989
cer	-11.699
iera	-11.6993
▁implicado	-11.7
▁limitadas	-11.7003
▁culpable	-11.7006
▁exigiendo	-11.7007
▁mccreevy	-11.7007
▁reproductiva	-11.7007
▁sevilla	-11.7007
▁delors	-11.7008
▁desfavorecidos	-11.7009
▁pude	-11.7011
▁referirse	-11.7012
▁creada	-11.7014
▁fuimos	-11.7014
▁mejoren	-11.7015
▁disputas	-11.7015
cen	-11.7021
▁identificado	-11.7021
▁vayamos	-11.7026
▁erróneo	-11.703
▁celeridad	-11.7032
▁retención	-11.7032
▁recopilación	-11.7032
▁voluntariado	-11.7037
▁corrientes	-11.7041
▁beneficiosa	-11.7041
▁orientar	-11.7044
▁proteja	-11.7044
▁adoptemos	-11.7048
▁ja	-11.7051
▁imperio	-11.7053
sproporcionada	-11.7054
▁vieja	-11.7055
▁florencia	-11.7056
▁aprovechamiento	-11.7056
▁ojalá	-11.7057
cor	-11.7057
▁paraísos	-11.7063
tado	-11.7065
▁prerrogativas	-11.7066
jo	-11.7069
▁dictador	-11.708
▁envergadura	-11.7081
▁discriminatorio	-11.7082
▁dato	-11.7084
▁consiguen	-11.7084
▁cambiando	-11.7085
▁pa	-11.7086
▁mejorarse	-11.7093
▁anualmente	-11.7097
▁salga	-11.7097
▁productivo	-11.7104
▁afectará	-11.7104
▁suscribir	-11.7106
▁salónica	-11.7106
▁multas	-11.7119
▁traduce	-11.7122
▁intervenga	-11.7122
▁transatlánticas	-11.7123
todo	-11.7124
rusia	-11.7125
▁viajan	-11.7125
▁car	-11.7128
▁agente	-11.713
▁etiopía	-11.713
▁veintisiete	-11.713
▁crespo	-11.713
▁sabiendo	-11.713
▁recordamos	-11.713
▁frustración	-11.713
▁casualidad	-11.7131
▁escapar	-11.7139
▁bloques	-11.7146
▁pedía	-11.7146
contraproducente	-11.7152
▁practicar	-11.7153
▁coincidencia	-11.7154
▁admisión	-11.7155
▁estancamiento	-11.7155
▁spg	-11.7156
▁rico	-11.7157
▁abordan	-11.7158
nes	-11.7158
▁comer	-11.716
▁intérpretes	-11.716
▁dedican	-11.7162
▁tratará	-11.7174
▁sistemático	-11.7178
▁inadecuada	-11.7178
scentralización	-11.718
▁rotundamente	-11.7182
▁aprovechando	-11.7182
▁alumnos	-11.7184
▁duramente	-11.7192
▁prepara	-11.7194
▁neutral	-11.7196
▁sabrá	-11.7197
▁asesinados	-11.7199
▁provincia	-11.7202
▁geográfico	-11.7203
▁funcionario	-11.7204
▁invierno	-11.7205
▁sugiero	-11.7205
rios	-11.7207
▁dejará	-11.7207
▁revisten	-11.7209
▁haberlo	-11.7213
▁precisan	-11.7214
▁alentador	-11.7221
▁reina	-11.7223
▁restrictiva	-11.7228
▁constata	-11.723
▁baño	-11.723
▁pnr	-11.7232
▁expresarse	-11.7236
▁crece	-11.7243
▁adquiridos	-11.7249
▁llamamientos	-11.7249
▁determina	-11.725
▁suscrito	-11.7254
▁planteando	-11.7254
▁interrumpir	-11.7255
▁vasco	-11.7255
▁agrada	-11.7256
▁proteínas	-11.7258
▁pierde	-11.7272
▁1996.	-11.7274
den	-11.7275
▁2012.	-11.7275
▁sostener	-11.7275
▁símbolos	-11.7277
▁52	-11.7278
▁atmosférica	-11.728
▁extendido	-11.728
▁reforzamiento	-11.728
▁david	-11.728
▁resultantes	-11.7288
▁etiquetas	-11.7288
ren	-11.7295
▁retire	-11.7297
▁sienta	-11.7297
▁discrepancias	-11.7297
▁asegura	-11.7298
▁designado	-11.7305
▁dirigente	-11.7305
▁convencimiento	-11.7305
▁empezó	-11.7305
▁visitado	-11.7306
▁bu	-11.7307
ll	-11.731
▁actor	-11.7312
▁privilegios	-11.7313
▁proporcionando	-11.7315
▁deportivas	-11.7316
▁gana	-11.7317
▁artificial	-11.7321
▁electos	-11.7323
▁índices	-11.7326
ine	-11.7327
▁accesibilidad	-11.7331
▁declive	-11.7331
▁constantes	-11.7332
▁contado	-11.7333
▁cumplirse	-11.7333
▁rápidas	-11.7334
▁recogidas	-11.7335
▁mencionan	-11.7337
▁ampliaciones	-11.7342
▁venga	-11.7343
▁conseguirá	-11.7344
▁fusiones	-11.7356
▁duplicación	-11.7356
▁escuchando	-11.7358
▁annan	-11.736
▁ayudan	-11.7368
▁brote	-11.738
▁innumerables	-11.7381
▁recibo	-11.7381
▁entrará	-11.7387
▁pagando	-11.7389
▁costos	-11.7392
▁admisible	-11.7406
▁innecesario	-11.7406
▁luces	-11.7408
▁votando	-11.7409
▁bomba	-11.741
tre	-11.7412
▁incrementado	-11.7417
30	-11.7418
▁percibir	-11.7418
▁desarrollan	-11.7419
▁51	-11.7422
▁desempeñe	-11.7424
▁concedida	-11.7431
▁tangible	-11.7431
▁reconocida	-11.7431
▁informa	-11.7431
▁maíz	-11.7432
▁neutralidad	-11.7433
▁vegetales	-11.7434
▁departamentos	-11.7436
▁encargados	-11.7436
▁reducirá	-11.7438
▁garantizarse	-11.7448
▁refleje	-11.7449
▁termine	-11.7449
▁farmacéutica	-11.7457
▁productiva	-11.7457
▁josé	-11.7458
▁dispongamos	-11.7462
▁13,	-11.7466
tri	-11.7473
▁ampliarse	-11.7474
▁reúne	-11.7475
▁reflejo	-11.7482
▁orgullo	-11.7483
▁restauración	-11.7484
▁felicitación	-11.7484
▁intente	-11.7497
▁mitigar	-11.7497
▁perfecta	-11.7504
▁operativas	-11.7508
▁bangladesh	-11.7509
▁disminuido	-11.7509
▁celebrados	-11.751
▁aspirar	-11.751
▁exportadores	-11.7512
▁funcionen	-11.7512
bg	-11.7513
at	-11.7514
▁permanentemente	-11.7526
▁finalice	-11.753
▁robert	-11.7533
▁sujeta	-11.7534
▁balanza	-11.7535
lle	-11.7535
▁proveedor	-11.7536
▁irak	-11.7538
izada	-11.7538
▁actualización	-11.755
st	-11.7553
▁aportan	-11.7554
▁caracterizado	-11.7556
▁demográfica	-11.756
▁malmström	-11.7561
▁encaminados	-11.7564
ho	-11.7565
▁integradas	-11.7568
▁prejuicios	-11.7569
gen	-11.7579
ng	-11.758
▁fomente	-11.758
▁azar	-11.7582
▁éticos	-11.7586
▁asiático	-11.7586
▁norteamericana	-11.7586
▁azores	-11.7587
▁convocar	-11.7594
▁presentando	-11.7608
▁turístico	-11.7612
▁albaneses	-11.7613
▁invasión	-11.7613
▁enlace	-11.7614
▁propiamente	-11.7614
▁ganando	-11.7616
ponente	-11.7621
▁reduzcan	-11.7622
▁informáticos	-11.7625
▁atentos	-11.7626
▁solicitan	-11.7633
▁xx	-11.7635
ko	-11.7638
▁confirmó	-11.7639
▁segundos	-11.7641
▁respaldamos	-11.7645
▁globalmente	-11.7646
▁concretar	-11.7652
▁méritos	-11.7661
▁versa	-11.7664
▁fabricante	-11.7665
▁barrera	-11.7665
▁cesar	-11.7667
▁arancelarias	-11.7671
▁gestiones	-11.7672
▁excedentes	-11.7678
2/	-11.7681
és	-11.7682
▁juntas	-11.7685
iésemos	-11.7688
▁sectorial	-11.7688
▁contribuirán	-11.7688
▁hipótesis	-11.7691
▁combinado	-11.7692
▁minoritarias	-11.7702
▁adoptaron	-11.7703
tura	-11.7706
▁tiende	-11.7709
▁oculta	-11.7715
ese	-11.7716
▁otorgado	-11.7717
▁alimentario	-11.7717
▁belgrado	-11.7717
▁antelación	-11.7717
▁introduciendo	-11.7717
▁preferiría	-11.7717
▁motivación	-11.7717
▁colegios	-11.7723
▁fuga	-11.7727
▁plantee	-11.7731
▁cruel	-11.7734
▁fi	-11.7735
▁prestigio	-11.7735
▁pasamos	-11.7736
▁perfil	-11.7736
▁beneficien	-11.774
▁cadenas	-11.7741
▁completado	-11.7742
▁regulado	-11.7743
▁barato	-11.7743
▁amistad	-11.7744
▁multitud	-11.7744
▁sharon	-11.7744
▁experimentando	-11.7746
▁éticas	-11.7749
▁audiovisuales	-11.7751
señor	-11.7751
▁suministrar	-11.7757
▁causan	-11.7758
▁innovador	-11.776
▁rige	-11.7763
▁bonino	-11.777
▁colapso	-11.777
▁veinticinco	-11.777
▁financia	-11.777
▁yemen	-11.777
▁decepcionado	-11.7771
▁empleadores	-11.7772
▁transnacionales	-11.7775
▁ayudarnos	-11.7777
▁tratos	-11.7777
8/	-11.7785
▁podíamos	-11.7785
25	-11.7786
▁indicador	-11.7786
▁impida	-11.7788
ana	-11.7793
▁delicados	-11.7793
interpretaciones	-11.7794
▁belgas	-11.7795
▁islámica	-11.7797
▁parciales	-11.7799
▁preocuparse	-11.7801
▁iraníes	-11.7805
2.	-11.7805
▁difundir	-11.781
▁artes	-11.7813
ñ	-11.7816
▁gonzález	-11.7823
▁interconexión	-11.7823
▁cometen	-11.7827
▁contrarias	-11.7828
▁cuidados	-11.7833
▁salen	-11.7836
▁conservador	-11.784
▁encontraba	-11.7841
▁refuerce	-11.7841
▁mantendrá	-11.7841
cree	-11.7843
▁contractual	-11.7845
▁club	-11.7845
▁amnistía	-11.785
▁posesión	-11.785
▁candidatura	-11.785
▁polaca	-11.785
▁extracción	-11.785
▁interino	-11.785
▁constatado	-11.785
▁discapacitadas	-11.7851
▁acusados	-11.7853
pen	-11.7854
sti	-11.7854
▁habituales	-11.7865
▁ferroviarios	-11.7874
▁votaron	-11.7874
▁catorce	-11.7876
▁absurda	-11.7876
▁debatió	-11.7876
▁lujo	-11.7876
▁referiré	-11.7877
au	-11.788
▁digan	-11.7883
▁tecnológicas	-11.7884
▁metros	-11.7886
▁redunda	-11.7887
▁amenazadas	-11.7887
▁2015	-11.7888
▁volveremos	-11.7894
▁modifique	-11.7894
▁elogio	-11.7895
▁prepararse	-11.7899
▁definidas	-11.79
▁sinergias	-11.7901
▁cardiff	-11.7903
▁indemnizaciones	-11.7903
▁polémica	-11.7903
▁brevedad	-11.7903
▁amor	-11.7904
▁autorizaciones	-11.7904
▁reconocidas	-11.7904
▁acompañar	-11.7905
▁ancianos	-11.7905
▁cosméticos	-11.7905
▁especifica	-11.7911
▁daphne	-11.793
▁alcanzó	-11.793
▁pasó	-11.793
▁asalariados	-11.7933
▁destina	-11.7936
porque	-11.794
▁excesivos	-11.7946
▁apoyada	-11.7946
▁aplausos	-11.7952
▁designar	-11.7955
▁certificados	-11.7955
▁responden	-11.7955
▁reproducción	-11.7957
▁emigración	-11.7957
▁ejercida	-11.7957
▁cristiana	-11.7958
▁falsificados	-11.796
▁despedidos	-11.7961
▁cuántos	-11.7969
▁recogidos	-11.7969
▁monetarias	-11.797
▁basar	-11.797
▁compartidos	-11.7975
▁incorpora	-11.7975
▁empiece	-11.7975
▁rigurosas	-11.7975
ee	-11.7978
▁órdenes	-11.7984
▁elegida	-11.7984
▁progresado	-11.7984
▁cox	-11.7985
▁negociadores	-11.7987
▁sospechosos	-11.7993
▁regulan	-11.7994
▁evitado	-11.7999
▁cursos	-11.8
▁protestar	-11.8001
▁armonizado	-11.8001
▁transmita	-11.8002
▁ulterior	-11.8006
▁algodón	-11.8011
▁mandelson	-11.8011
▁portavoz	-11.8011
▁confirmación	-11.8013
▁literalmente	-11.8013
▁escolares	-11.8017
▁amenazados	-11.8019
▁conductor	-11.8023
ru	-11.8024
▁ben	-11.8025
▁terrestres	-11.8026
▁somete	-11.8028
▁recuerde	-11.8029
▁preliminar	-11.8033
▁desigual	-11.8033
▁valer	-11.8033
▁arafat	-11.8038
▁modulación	-11.8038
▁pudieron	-11.8038
▁maquinaria	-11.8038
▁sesenta	-11.8038
▁gasta	-11.8038
▁embarcaciones	-11.8038
▁intensiva	-11.8038
▁enemigo	-11.8038
▁contable	-11.8038
▁préstamo	-11.8038
▁usuario	-11.8038
▁agradable	-11.8038
▁refugio	-11.8038
▁asociado	-11.8039
▁caja	-11.804
▁hormonas	-11.8041
▁importadores	-11.8041
▁remitir	-11.8043
▁obtengan	-11.8045
▁sabrán	-11.8047
▁gira	-11.8048
sta	-11.8053
▁prolongar	-11.8054
▁contribuiría	-11.8057
▁lingüísticas	-11.8058
▁tragedias	-11.8063
▁ochenta	-11.8065
▁liquidez	-11.8065
▁incineración	-11.8065
▁visitantes	-11.8066
▁prolongado	-11.8066
▁aae	-11.8074
▁minimizar	-11.8082
▁niegan	-11.8084
▁firmó	-11.8092
▁ineficaz	-11.8092
▁ofensiva	-11.8092
▁ogm	-11.8092
▁lados	-11.8093
▁reclamación	-11.8093
▁religioso	-11.8093
▁cruz	-11.8094
▁británicas	-11.8095
▁heridas	-11.81
▁cia	-11.8104
▁comience	-11.8111
▁repita	-11.8111
▁sostiene	-11.8111
01	-11.8113
▁centre	-11.8114
▁permanece	-11.8116
▁estándar	-11.8119
▁escrutinio	-11.8119
▁fontaine	-11.8119
▁sinceridad	-11.8119
▁ejerciendo	-11.8119
▁oms	-11.812
▁encargada	-11.8122
▁españolas	-11.8128
▁planificar	-11.8138
▁go	-11.8139
hasta	-11.814
▁justifican	-11.8146
▁wogau	-11.8147
▁antecedentes	-11.8147
▁inadecuado	-11.8148
▁innecesarios	-11.8148
▁facilitación	-11.8148
▁apuntan	-11.816
sion	-11.8162
▁remediar	-11.8162
▁aclare	-11.8166
▁ocurridos	-11.8166
idades	-11.8167
des	-11.8168
▁moderación	-11.8174
▁rehenes	-11.8174
▁evans	-11.8174
▁adjudicación	-11.8175
▁injerencia	-11.8175
▁kurdo	-11.8175
ces	-11.8176
▁situado	-11.8176
▁refugiado	-11.8176
▁dedicada	-11.8177
▁enteramente	-11.8178
▁ponemos	-11.818
▁autora	-11.8181
▁gozar	-11.8182
▁brazos	-11.8187
▁introduzca	-11.819
▁números	-11.8192
▁participaron	-11.8193
▁incumbe	-11.8193
▁termina	-11.8196
▁colaborado	-11.8199
▁byrne	-11.8202
▁interrumpida	-11.8202
▁oostlander	-11.8202
▁razonamiento	-11.8202
▁ozono	-11.8202
▁obama	-11.8202
▁sujetas	-11.8203
▁sombra	-11.8203
land	-11.8207
▁indígenas	-11.8208
▁56	-11.8208
▁opera	-11.8213
▁diseñado	-11.8215
▁experimentos	-11.8219
▁reconozcan	-11.822
▁enfrentamientos	-11.8222
▁causando	-11.8229
▁óptima	-11.8231
▁dificulta	-11.8232
▁aduaneras	-11.8235
▁limpias	-11.8236
▁abra	-11.824
▁aplaudir	-11.8241
▁estuvieron	-11.8257
▁cuenca	-11.8258
▁aduanero	-11.8258
▁herman	-11.8259
▁auspicios	-11.8259
▁simplificado	-11.8259
▁cobrar	-11.826
▁2011,	-11.8261
▁consistir	-11.8266
▁deportivos	-11.827
▁reparar	-11.8271
▁aprobaron	-11.8272
▁sabía	-11.8274
cre	-11.828
▁gratuita	-11.8282
volvemos	-11.8285
▁espalda	-11.8286
▁falso	-11.8286
▁necesitaremos	-11.8288
▁mediodía	-11.8288
▁ético	-11.8289
▁asegurarle	-11.8301
▁continentes	-11.8301
▁lleguemos	-11.8302
▁nepal	-11.8302
▁protegidas	-11.8303
▁coloca	-11.8304
▁acordadas	-11.8308
▁lentitud	-11.8313
▁vanguardia	-11.8313
▁sierra	-11.8313
▁autorregulación	-11.8313
▁contemplan	-11.8313
▁suplementario	-11.8314
▁biocombustibles	-11.8315
▁sindicales	-11.8316
tada	-11.8326
▁periodos	-11.8329
▁papeles	-11.833
▁generalizadas	-11.8331
▁raras	-11.8331
pol	-11.8334
▁prorrogar	-11.8334
▁creados	-11.8338
▁acordamos	-11.8341
▁aeronaves	-11.8344
▁propiciar	-11.8347
▁limitaré	-11.8347
▁valientes	-11.8352
▁dictaduras	-11.8354
▁amenazan	-11.8356
▁exprese	-11.8357
ró	-11.8359
▁calificar	-11.8365
▁locas	-11.8367
▁mauritania	-11.8369
▁retroceso	-11.837
▁checo	-11.837
▁drásticamente	-11.8372
▁creíbles	-11.8373
sos	-11.8375
▁temen	-11.8376
▁examina	-11.8376
▁aparato	-11.8389
▁aporte	-11.8392
pusieron	-11.8393
▁chantaje	-11.8394
én	-11.8397
▁pondría	-11.8398
▁130	-11.8398
▁iban	-11.84
▁54	-11.8404
▁limitarnos	-11.8405
▁detalladamente	-11.8409
▁divergencias	-11.8411
▁complementarios	-11.8421
▁generosidad	-11.8425
▁asiáticos	-11.8426
▁concerniente	-11.8427
▁famoso	-11.8427
▁macroeconómica	-11.8427
▁medina	-11.8428
▁informada	-11.8429
▁morir	-11.8433
▁mejoran	-11.8436
▁celebren	-11.8439
▁vimos	-11.8439
▁reguladoras	-11.8443
▁incentivar	-11.8446
▁aparecer	-11.8447
▁morales	-11.8448
▁dividir	-11.845
▁calma	-11.8452
▁burundi	-11.8453
▁música	-11.8453
▁renovada	-11.8453
▁interacción	-11.8453
▁aliado	-11.8455
▁cristiano	-11.8457
▁pesquerías	-11.8459
▁conducen	-11.8466
▁cruzar	-11.8468
▁atraviesa	-11.8473
▁quedarán	-11.8477
▁agradeciendo	-11.8482
▁logística	-11.8482
▁reconversión	-11.8482
▁respectivamente	-11.8482
▁femenina	-11.8483
▁franja	-11.8483
▁dejarse	-11.8495
▁directores	-11.8497
▁extiende	-11.8501
▁obstaculizar	-11.8504
ante	-11.8505
▁alzheimer	-11.851
▁emigrantes	-11.851
▁trece	-11.851
▁eslovaca	-11.851
fic	-11.8514
▁griegas	-11.8518
▁concluya	-11.8519
▁12,	-11.8519
▁noventa	-11.8519
▁italianas	-11.8519
▁llamamos	-11.8521
▁aprovechado	-11.8527
10	-11.8529
▁confirman	-11.8534
▁garcía	-11.8539
▁violenta	-11.854
▁gales	-11.8542
▁ayudarán	-11.855
▁zu	-11.8552
▁unilaterales	-11.8552
▁experimentar	-11.8553
▁imponga	-11.8555
/99	-11.8556
▁probabilidad	-11.8562
▁automática	-11.8563
▁amenazada	-11.8564
cul	-11.8566
▁autobús	-11.8567
▁azufre	-11.8567
▁doctrina	-11.8567
▁lulling	-11.8567
▁11.30	-11.8567
▁rothley	-11.8567
▁mostró	-11.8567
▁íntegramente	-11.8569
▁atómica	-11.8569
▁construido	-11.8569
▁fructífera	-11.8569
▁biométricos	-11.8569
▁raza	-11.857
▁homólogos	-11.8574
▁fórmulas	-11.858
▁aumentos	-11.8585
▁austríaca	-11.8596
▁dilema	-11.8596
▁herencia	-11.8596
▁reitero	-11.8596
▁próximamente	-11.8596
▁probar	-11.8596
▁periódicamente	-11.8598
▁cartera	-11.8599
▁provocando	-11.8602
▁acordados	-11.8603
▁sacrificios	-11.8607
▁darán	-11.8607
ncia	-11.8618
▁rumanos	-11.862
▁ayudaría	-11.8621
▁presentaremos	-11.8624
▁fundadores	-11.8627
▁lesiones	-11.8629
tor	-11.8636
▁dispongan	-11.8636
▁ocurrirá	-11.8637
▁anima	-11.8639
▁estrechos	-11.864
▁hectáreas	-11.864
ts	-11.8641
▁certificado	-11.8644
▁admite	-11.8645
▁conversión	-11.8649
▁bourlanges	-11.8653
▁galicia	-11.8653
▁refiriendo	-11.8654
▁interferencia	-11.8656
▁contractuales	-11.8659
▁iglesias	-11.8663
▁fuere	-11.8665
▁estudie	-11.867
▁racistas	-11.8672
▁resistir	-11.8679
▁bancarias	-11.8679
▁coyuntura	-11.8681
▁neerlandeses	-11.8682
▁instauración	-11.8683
▁aptitudes	-11.8684
▁registrados	-11.8685
▁facultades	-11.8686
▁radiactivos	-11.8688
tivos	-11.8689
▁representada	-11.8691
▁afronta	-11.8694
▁58	-11.8696
▁supuestos	-11.8698
▁aumenten	-11.8698
▁digitales	-11.8698
▁abarque	-11.87
▁sustituye	-11.8701
▁cu	-11.8704
lar	-11.8706
ea	-11.8706
▁obtuvo	-11.8711
▁punta	-11.8711
▁introdujo	-11.8712
▁originales	-11.8712
▁daremos	-11.8713
▁sinergia	-11.8714
▁nombrado	-11.8714
▁soberanos	-11.8715
▁—	-11.8718
▁significará	-11.872
estamos	-11.8722
▁trabaje	-11.8729
▁dosis	-11.8734
▁reemplazar	-11.8738
▁historial	-11.874
▁penalizar	-11.874
▁esperábamos	-11.874
▁merkel	-11.874
▁swift	-11.874
▁forzar	-11.874
▁lenta	-11.8741
▁decenio	-11.8743
▁signos	-11.8748
▁salto	-11.875
▁amenazado	-11.8755
▁volveré	-11.8756
▁integrados	-11.8762
▁recogen	-11.8768
▁acorde	-11.8768
▁escribir	-11.8769
▁dimisión	-11.8769
▁repatriación	-11.877
▁repetido	-11.8772
▁vulnerable	-11.8772
▁20%	-11.8773
▁piensen	-11.8777
idas	-11.8781
▁umbrales	-11.8785
▁introducen	-11.879
▁constituya	-11.879
▁ford	-11.8794
▁usa	-11.8798
▁clandestina	-11.8799
▁configuración	-11.8799
▁mulder	-11.8799
▁adecuación	-11.8799
▁derogación	-11.8799
▁calor	-11.8799
▁tejido	-11.8801
▁10,	-11.8803
▁entienden	-11.8803
▁borde	-11.8803
▁surjan	-11.8805
▁logrados	-11.881
▁proporciones	-11.881
▁estuvieran	-11.8818
▁amplíe	-11.8819
antes	-11.882
▁neoliberal	-11.8823
11	-11.8824
▁vertidos	-11.8825
▁decenios	-11.8825
▁contables	-11.8827
▁john	-11.8828
▁ankara	-11.8828
▁juncker	-11.8828
▁promedio	-11.8828
▁software	-11.8828
▁procedencia	-11.8829
▁km	-11.8831
▁venden	-11.8833
▁res	-11.8839
▁involucrados	-11.884
▁ingresar	-11.8841
▁observador	-11.8844
▁valoro	-11.8845
▁transitorias	-11.8846
▁bis	-11.8847
▁traducir	-11.8847
▁indique	-11.8849
▁debiera	-11.8849
▁irá	-11.8849
▁vano	-11.885
▁w	-11.8852
▁11,	-11.8854
▁previsible	-11.8856
▁uclaf	-11.8857
▁contratar	-11.8858
▁lejano	-11.886
▁definida	-11.886
▁bancaria	-11.886
▁critica	-11.8861
▁constituiría	-11.8862
▁ejercido	-11.8863
bra	-11.8868
▁retira	-11.8869
▁hábitos	-11.8869
▁alcanzarse	-11.8882
quien	-11.8886
▁prematuro	-11.8887
▁atenas	-11.8887
▁equivalentes	-11.8888
▁agrario	-11.889
▁brillante	-11.889
▁registra	-11.8891
▁diferenciación	-11.8895
▁permanecen	-11.8896
▁demográficos	-11.8906
▁sacrificar	-11.891
▁obligan	-11.8916
▁basilea	-11.8916
▁abanico	-11.8917
▁diálogos	-11.8917
▁legado	-11.8919
▁adelantado	-11.892
▁relanzar	-11.892
▁aclara	-11.8926
▁finalizado	-11.8931
▁ejerza	-11.8938
▁indudable	-11.8942
02	-11.8943
▁ordenador	-11.8945
▁ríos	-11.8945
▁imponiendo	-11.8946
▁ecr	-11.8947
▁autoriza	-11.8949
▁hipócrita	-11.8949
▁rebeldes	-11.895
▁creencia	-11.8951
▁mediana	-11.8952
té	-11.8953
▁bajar	-11.8958
▁analizado	-11.8961
▁severas	-11.8962
▁evita	-11.8967
▁agricultor	-11.897
▁proximidad	-11.8971
ero	-11.8971
▁suponga	-11.8973
▁pat	-11.8974
▁acelerado	-11.8975
behrendt	-11.8976
▁coelho	-11.8976
▁florenz	-11.8976
▁kyi	-11.8976
▁intimidación	-11.8976
▁deslocalización	-11.8976
▁ppc	-11.8977
▁tendré	-11.8977
▁logremos	-11.8981
▁confundir	-11.8986
▁2007-2013	-11.8989
▁domésticos	-11.8994
▁resuelva	-11.8997
▁adquiere	-11.8997
dr	-11.8997
también	-11.8998
▁absorción	-11.9006
▁bösch	-11.9006
▁gasolina	-11.9006
▁ilusión	-11.9006
▁evasión	-11.9006
▁procesamiento	-11.9006
▁malaria	-11.9007
▁venideros	-11.9007
▁municipales	-11.9008
▁innecesarias	-11.9008
▁10%	-11.9009
▁matrimonio	-11.9009
▁vertido	-11.9009
▁tarjetas	-11.901
▁comprendemos	-11.9014
▁derivado	-11.9015
▁rentables	-11.9016
▁examinará	-11.9016
▁anticipar	-11.9017
▁posponer	-11.9017
wa	-11.9019
▁parados	-11.9025
▁ocupando	-11.9025
▁2.	-11.9035
▁claves	-11.9036
▁nabucco	-11.9036
▁suspendida	-11.9036
mb	-11.9039
▁incompatible	-11.9039
-01	-11.9039
▁revise	-11.9054
▁rechazadas	-11.9056
▁proponía	-11.9057
▁57	-11.9058
▁can	-11.9061
▁referimos	-11.9066
▁chirac	-11.9066
▁delicadas	-11.9066
▁pensemos	-11.9066
▁dieta	-11.907
▁normativo	-11.907
▁rigurosos	-11.908
dis	-11.9084
▁ofrecerles	-11.9087
▁obtiene	-11.9087
▁hospital	-11.9088
▁usos	-11.9088
▁66	-11.9089
▁color	-11.9091
▁armonía	-11.9096
▁produjeron	-11.9096
ito	-11.9097
▁ceca	-11.9099
▁aduana	-11.91
▁afirmativo	-11.9101
/2002	-11.9102
▁unilateralmente	-11.9109
ática	-11.911
▁prevalecer	-11.9114
▁dijera	-11.912
▁preguntamos	-11.912
▁comenzando	-11.9126
▁descontento	-11.9126
▁dictámenes	-11.9126
▁logró	-11.9126
▁nielson	-11.9126
▁natalidad	-11.9126
▁aspiración	-11.9127
▁aclaraciones	-11.9127
▁presionando	-11.9127
▁funcionará	-11.9128
slocalizaciones	-11.9129
▁testimonio	-11.913
▁eléctrica	-11.913
ber	-11.913
▁2013,	-11.9132
mina	-11.9138
▁auténticos	-11.9139
▁expresamos	-11.9141
rían	-11.9142
▁climáticos	-11.9143
▁inicie	-11.9144
06	-11.9152
▁inglesa	-11.9156
▁leonardo	-11.9156
▁uzbekistán	-11.9156
▁convivencia	-11.9156
▁atrocidades	-11.9157
▁navegables	-11.9161
▁necesiten	-11.9163
gr	-11.9163
▁suscitar	-11.9166
▁sir	-11.9175
▁decididos	-11.9176
▁consideradas	-11.9179
▁contradice	-11.9181
▁situados	-11.9186
▁prestige	-11.9187
▁donaciones	-11.9187
plath	-11.9189
▁ausente	-11.9191
▁horizonte	-11.9191
▁controvertido	-11.9191
▁impresionante	-11.9191
▁teléfonos	-11.9192
▁ganancias	-11.9192
▁significan	-11.9193
▁ajustarse	-11.9194
▁dispuestas	-11.9195
▁sentidos	-11.9197
▁aseguro	-11.9197
▁interrogantes	-11.9198
▁senda	-11.92
▁planteamos	-11.9201
mas	-11.9202
▁caminos	-11.9204
—	-11.921
▁randzio	-11.9217
▁cabría	-11.9217
▁comprometió	-11.9217
▁velzen	-11.9217
▁aceleración	-11.9217
▁centenares	-11.9218
▁versiones	-11.9219
▁dividida	-11.9221
▁aislado	-11.9221
▁actas	-11.9223
▁unificado	-11.9226
▁53	-11.9227
▁resalta	-11.9229
▁tiendas	-11.923
▁revelado	-11.9233
▁proteccionistas	-11.9233
ieron	-11.9238
creo	-11.9242
▁ambigüedad	-11.9243
▁señalan	-11.9245
▁temporalmente	-11.9247
▁restituciones	-11.9248
▁negligencia	-11.9252
▁secuestro	-11.9252
▁desplazamientos	-11.9253
encia	-11.9255
▁subir	-11.9255
▁decidirá	-11.9258
▁pacíficos	-11.926
▁plantearnos	-11.9262
▁mantengamos	-11.9262
▁hilo	-11.9265
▁confiere	-11.927
▁explique	-11.927
▁pensaba	-11.927
▁gala	-11.9272
▁aprobarse	-11.9273
▁creencias	-11.9275
▁15.00	-11.9278
▁encontremos	-11.9278
▁concentrarnos	-11.9281
▁malentendido	-11.9283
▁bosque	-11.9283
▁americana	-11.9283
▁langen	-11.9286
▁recibirá	-11.9289
▁matar	-11.929
▁alcancen	-11.9291
▁rechace	-11.9297
▁educativas	-11.93
▁liberalizado	-11.9303
▁capa	-11.9306
▁recepción	-11.9309
▁reconoció	-11.9309
▁volvamos	-11.9309
▁envió	-11.9309
▁decisivos	-11.931
han	-11.9311
▁condicionalidad	-11.9312
lic	-11.9312
▁encuesta	-11.9313
▁socioeconómico	-11.9314
▁suu	-11.9316
▁tender	-11.9317
▁prefieren	-11.9317
▁aplicarán	-11.9328
▁advertencias	-11.9329
▁imperialistas	-11.9331
▁protagonistas	-11.9332
▁abejas	-11.934
▁alivio	-11.934
▁talibanes	-11.934
▁deduce	-11.9341
▁queramos	-11.9341
▁soberana	-11.9344
▁doméstica	-11.9344
▁impuesta	-11.9345
▁mapa	-11.9346
bor	-11.9349
▁fundamenta	-11.9356
▁beneficiarán	-11.9356
tica	-11.9362
▁micro	-11.9362
▁exigentes	-11.9369
▁revelan	-11.9371
▁calefacción	-11.9371
▁impaciencia	-11.9371
▁innegable	-11.9371
▁fortuna	-11.9371
▁correspondencia	-11.9372
▁necesitará	-11.9373
▁preocuparnos	-11.9373
▁felicitamos	-11.9374
▁portuarios	-11.9377
▁loable	-11.9378
▁capitalista	-11.9378
▁facto	-11.9382
▁aprobará	-11.9383
▁formato	-11.9386
▁malentendidos	-11.9398
▁solar	-11.94
▁inclusive	-11.9403
▁sencillas	-11.9404
▁frecuentemente	-11.9408
▁rica	-11.9411
▁exigente	-11.9411
▁remonta	-11.9413
▁protegerse	-11.9415
▁aclarado	-11.9416
▁protegen	-11.9418
▁mando	-11.942
dora	-11.9421
▁compran	-11.9423
▁aung	-11.9429
out	-11.9432
▁socava	-11.9433
▁murieron	-11.9433
▁rübig	-11.9433
▁sáhara	-11.9433
▁reconociendo	-11.9433
▁subrayo	-11.9434
▁renovado	-11.9438
▁antiterrorista	-11.9438
▁nobel	-11.9438
▁paguen	-11.9439
▁trampa	-11.9439
▁99	-11.9439
▁contrariamente	-11.9445
▁interesada	-11.9446
▁dados	-11.9452
▁correos	-11.9458
▁controlado	-11.946
▁postal	-11.9461
▁obesidad	-11.9465
▁codificación	-11.9465
▁expresan	-11.9466
vis	-11.9468
▁lagos	-11.9469
▁fijo	-11.9469
▁controla	-11.9472
▁pescar	-11.9475
▁alimentarias	-11.9475
▁introducidas	-11.9475
6-00	-11.9476
▁rodea	-11.9477
▁totales	-11.9477
eron	-11.9479
▁dirigen	-11.9479
▁empiezan	-11.948
▁utilizamos	-11.948
▁copa	-11.9482
▁copia	-11.9483
▁pu	-11.9495
demócratas	-11.9495
▁interreg	-11.9496
▁pronta	-11.9496
▁constatación	-11.9497
▁problemático	-11.9501
▁ordenadores	-11.9503
▁islámicos	-11.9508
▁creamos	-11.9518
rm	-11.9518
▁contraste	-11.9525
▁catálogo	-11.9527
▁cápita	-11.9527
▁licitación	-11.9527
▁permítaseme	-11.9527
▁sobremanera	-11.9527
▁litigios	-11.9528
▁mortales	-11.953
▁pesada	-11.9533
▁urge	-11.9537
ent	-11.9538
▁desleales	-11.9539
▁alturas	-11.954
▁receta	-11.9541
0.000	-11.9545
▁visibles	-11.9545
▁netos	-11.9546
▁bali	-11.9548
▁exija	-11.9548
oc	-11.9548
▁congestión	-11.9548
▁romano	-11.9549
▁quedaron	-11.955
▁previos	-11.9552
▁aunar	-11.9554
▁abstención	-11.9559
▁discutimos	-11.9559
▁elaboró	-11.9559
▁escepticismo	-11.9559
▁exactitud	-11.9559
▁ruptura	-11.9559
▁generosa	-11.9559
▁calificaciones	-11.9559
▁mas	-11.9563
▁magnífica	-11.9564
▁fronterizo	-11.9564
osa	-11.9566
▁delegados	-11.9568
▁desarrollos	-11.9569
tivas	-11.9577
▁contempladas	-11.9577
▁elimina	-11.9578
▁distancias	-11.9584
▁apelar	-11.9595
▁kurda	-11.9596
▁exclusivo	-11.9596
▁prisa	-11.9596
▁complementario	-11.9596
▁separa	-11.9596
▁logrará	-11.9601
▁compras	-11.9608
▁fumar	-11.9609
▁descartar	-11.9609
▁reservado	-11.9609
▁audiencias	-11.9619
▁engaño	-11.9622
▁apuntar	-11.9622
▁encarcelamiento	-11.9622
▁rey	-11.9622
▁plomo	-11.9623
▁ligera	-11.9623
▁vieron	-11.9624
▁ten	-11.9627
▁pragmática	-11.9627
▁rumano	-11.9628
▁clubes	-11.9628
▁nocivos	-11.9632
▁abordando	-11.9632
▁estimamos	-11.9634
aciones	-11.9643
▁crearse	-11.9644
/2003	-11.9644
▁conducirá	-11.9653
▁tsunami	-11.9654
▁unirme	-11.9656
▁acordada	-11.9659
▁comparable	-11.966
par	-11.966
▁huellas	-11.9666
2,	-11.9666
▁transmite	-11.9678
▁ricas	-11.9682
rt	-11.9684
▁celebradas	-11.9684
▁tailandia	-11.9686
▁atravesando	-11.9686
▁persuadir	-11.9686
▁vota	-11.9687
▁escuchamos	-11.969
doras	-11.9694
▁acusa	-11.9695
▁desarrollada	-11.9695
▁centralizado	-11.9698
▁supuesta	-11.9699
▁masivas	-11.9704
▁veterinarios	-11.9709
▁defienda	-11.971
▁inconvenientes	-11.9711
▁atribuir	-11.9713
▁dimas	-11.9718
▁reaccionado	-11.9719
▁gitanos	-11.9721
▁respetuoso	-11.9724
▁excesivas	-11.9724
▁hallamos	-11.9725
▁círculos	-11.9736
▁existían	-11.9736
▁comprobación	-11.975
▁hidrógeno	-11.975
▁indiferencia	-11.975
▁partículas	-11.975
▁temprano	-11.975
▁protocolos	-11.9753
▁pen	-11.9753
▁compuesto	-11.9756
▁difieren	-11.9757
▁solicitando	-11.9758
ry	-11.9759
ger	-11.977
tur	-11.9779
▁caras	-11.9779
▁leona	-11.978
▁mostrando	-11.9783
▁trasfondo	-11.9783
▁do	-11.9784
▁divergentes	-11.9785
▁aplicados	-11.9786
▁medias	-11.9788
▁destruido	-11.9788
▁arresto	-11.9789
▁gra	-11.979
▁cuestiona	-11.9792
▁introduzcan	-11.9793
ke	-11.9807
▁porcentajes	-11.9808
▁anuncios	-11.981
▁comp	-11.9815
▁ingeniería	-11.9815
▁multilingüismo	-11.9815
▁marginación	-11.9815
▁concentraciones	-11.9816
▁racionalización	-11.9816
▁protegido	-11.9821
▁emprendidas	-11.9829
▁alma	-11.983
▁privar	-11.983
▁estructurado	-11.9836
▁manejar	-11.9836
▁requerirá	-11.984
▁analiza	-11.9841
lv	-11.9846
▁arabia	-11.9847
▁radiación	-11.9847
▁respondió	-11.9847
▁verhofstadt	-11.9847
▁castro	-11.9848
▁grados	-11.9849
▁pilas	-11.9849
▁distribuida	-11.985
▁mostrarse	-11.985
▁elaborados	-11.9852
▁rectificar	-11.9852
▁externo	-11.9853
▁dotado	-11.9854
▁mama	-11.9856
4/	-11.9863
04	-11.9863
▁63	-11.9867
▁piense	-11.9872
▁bancarios	-11.9873
▁transportar	-11.9875
▁unificada	-11.9876
▁advertido	-11.988
▁dúmping	-11.988
▁expresiones	-11.988
▁presupone	-11.988
▁quo	-11.988
▁aportará	-11.9883
▁próspera	-11.9886
▁océano	-11.9886
▁llegaron	-11.9886
▁lama	-11.9888
▁encarcelados	-11.9892
arse	-11.9894
▁repartir	-11.9897
ag	-11.9897
▁carburantes	-11.9897
▁extraordinarias	-11.9897
ol	-11.9897
▁continuaremos	-11.9899
▁despertar	-11.9913
▁jerarquía	-11.9913
▁apelación	-11.9913
▁recomendado	-11.9914
▁extensa	-11.9914
▁senado	-11.9914
▁físicas	-11.9918
▁burocráticas	-11.9923
▁judíos	-11.9925
▁faciliten	-11.9927
▁contrarios	-11.9931
▁afecte	-11.9937
▁añadiría	-11.9937
▁satisfactorios	-11.994
▁provocó	-11.9945
▁confrontación	-11.9946
▁sinceros	-11.9947
▁gestores	-11.9947
▁acordaron	-11.9949
▁escucha	-11.995
▁rasero	-11.9952
▁selectiva	-11.9952
▁privilegiada	-11.9952
▁grasas	-11.9956
▁francos	-11.9956
▁fomentan	-11.996
sp	-11.9961
▁promocionar	-11.9963
▁sano	-11.9963
▁asequibles	-11.9964
▁refuerzan	-11.9968
▁data	-11.997
▁considerandos	-11.9972
▁nacionalistas	-11.9973
▁titular	-11.9977
▁vulnerabilidad	-11.9978
▁soja	-11.9979
▁enfrentar	-11.9979
▁procesales	-11.998
▁exacto	-11.9985
▁transeuropea	-11.9985
▁tóxicos	-11.9986
▁cine	-11.9987
▁47	-11.9992
▁voluntariamente	-11.9993
▁pertenecer	-11.9998
▁llenar	-11.9998
▁cal	-12
lin	-12.0001
▁celebrarán	-12.0002
▁valora	-12.0002
▁defenderse	-12.0003
▁argentina	-12.0011
▁contrapartida	-12.0011
▁decidieron	-12.0011
▁medición	-12.0011
▁2014	-12.0012
▁practica	-12.0013
▁excluido	-12.0018
▁razonablemente	-12.0024
▁contemplado	-12.0027
▁62	-12.0029
▁comprenda	-12.0033
&	-12.0037
▁apreciado	-12.0042
▁falsos	-12.0043
▁desearíamos	-12.0044
▁sterckx	-12.0044
▁síntesis	-12.0044
▁acompañamiento	-12.0045
▁pretendo	-12.0045
▁orgullosa	-12.0045
▁piel	-12.0046
▁componen	-12.0049
▁facilitando	-12.005
▁cor	-12.0056
▁reforzarse	-12.0069
▁hacerla	-12.0074
▁enemigos	-12.0077
▁rocard	-12.0078
▁solemne	-12.008
▁usando	-12.0083
▁vertederos	-12.0083
▁experto	-12.0084
▁ordenamiento	-12.0087
▁sepamos	-12.0087
▁ejes	-12.0088
can	-12.0088
omplementariedad	-12.0089
▁participando	-12.009
▁centrada	-12.0091
ut	-12.0092
2001)	-12.0093
▁redoblar	-12.0093
▁59	-12.0101
▁rechazan	-12.0105
▁formada	-12.0106
entre	-12.0109
▁saudí	-12.0111
▁pusiera	-12.0111
▁ga	-12.0113
▁extremos	-12.0113
▁contemple	-12.0114
▁secundaria	-12.0118
▁nórdicos	-12.012
▁provocada	-12.0123
▁debilita	-12.0127
▁pretenda	-12.0129
▁resuelve	-12.0136
▁mor	-12.0136
▁continental	-12.014
▁policías	-12.0141
ld	-12.0141
▁mejorada	-12.0143
▁cisjordania	-12.0144
▁kazajstán	-12.0144
▁saneamiento	-12.0144
▁acumulación	-12.0145
▁quitar	-12.0145
▁exigirá	-12.0148
▁transmitido	-12.0151
▁eurodiputados	-12.0151
▁físico	-12.0151
▁fronteriza	-12.0151
▁ecosistema	-12.0151
▁invitados	-12.0152
▁cercana	-12.0156
▁abarcan	-12.0159
▁costumbres	-12.0162
cho	-12.0164
▁facultad	-12.0165
▁obtenga	-12.0166
▁administrar	-12.0167
▁respetarse	-12.0168
tt	-12.0171
▁novedad	-12.0173
▁cliente	-12.0175
▁schreyer	-12.0178
▁sentirnos	-12.0181
▁valle	-12.0182
▁giro	-12.0183
▁fiel	-12.0186
▁pieza	-12.0186
▁forzados	-12.0194
ner	-12.0196
▁establecerá	-12.0197
▁presidir	-12.0198
ab	-12.0199
▁acompaña	-12.0199
▁realizará	-12.0211
▁traído	-12.0212
▁relanzamiento	-12.0212
▁enmendar	-12.0214
cal	-12.0217
▁contento	-12.0219
▁elaborada	-12.022
▁comprendan	-12.022
▁involucrar	-12.0221
▁representamos	-12.0226
▁abordamos	-12.0229
▁sucederá	-12.0229
▁definen	-12.023
▁financiadas	-12.0233
▁conduzca	-12.0237
▁juega	-12.0237
▁broek	-12.0245
▁imposibilidad	-12.0245
▁especificar	-12.0248
▁engañar	-12.0251
▁abrumadora	-12.0252
▁afrontan	-12.0253
▁conste	-12.0253
▁hacerles	-12.0261
▁lu	-12.0269
▁cubiertos	-12.0269
▁prudentes	-12.0269
▁presten	-12.027
tenemos	-12.0277
▁diligencia	-12.0279
▁divorcio	-12.0279
▁décimo	-12.0279
▁sabiduría	-12.0279
▁sucesivas	-12.0279
▁surgió	-12.0279
▁suprimido	-12.0279
▁afán	-12.028
▁pronunció	-12.028
▁imaginación	-12.028
▁nitratos	-12.0283
▁comprenden	-12.0301
▁anular	-12.0302
▁respetuosos	-12.0307
▁amianto	-12.0313
▁hezbolá	-12.0313
▁prescindir	-12.0313
▁seattle	-12.0313
▁supuso	-12.0313
▁sufragio	-12.0313
▁capacitación	-12.0313
▁procedo	-12.0314
▁cuerpos	-12.0315
▁asegurando	-12.0317
▁estrechas	-12.0317
▁enseñar	-12.0317
▁implicaría	-12.032
▁trastornos	-12.032
▁inmenso	-12.0321
▁atractiva	-12.0321
▁frágiles	-12.0321
eo	-12.0322
▁fuesen	-12.0326
▁provisionales	-12.0336
▁dirija	-12.0339
especificaciones	-12.034
▁poderosos	-12.0342
▁arroz	-12.0347
▁desplegar	-12.0347
▁inversa	-12.0347
▁merced	-12.0347
▁prefiero	-12.0347
▁traducido	-12.0347
▁tripartito	-12.0347
▁jordania	-12.0348
▁wynn	-12.0348
▁recordarán	-12.0349
▁alcohólicas	-12.0351
▁desechos	-12.0351
▁laguna	-12.0355
▁impulsado	-12.0359
▁autopistas	-12.0361
▁reafirma	-12.0364
▁evitarse	-12.0369
▁identifica	-12.0375
▁centran	-12.0376
▁guardar	-12.0378
ki	-12.0381
▁incrementa	-12.0381
▁baringdorf	-12.0382
▁deforestación	-12.0382
▁ilusiones	-12.0382
▁maravilloso	-12.0382
▁enviando	-12.0382
▁karas	-12.0382
▁eliminando	-12.0384
▁concebido	-12.0389
▁inconveniente	-12.0389
▁esquema	-12.039
▁negarse	-12.0398
▁103	-12.0399
▁añada	-12.0408
▁vigo	-12.0414
▁almunia	-12.0416
▁ganadería	-12.0416
▁trayectoria	-12.0416
▁jugadores	-12.0417
▁partidaria	-12.0417
▁denominaciones	-12.0418
▁neumáticos	-12.0418
▁factura	-12.0423
▁mixta	-12.0424
▁llevaron	-12.0425
▁consideraba	-12.0428
▁110	-12.044
▁curar	-12.0443
▁opt	-12.045
▁titley	-12.0451
▁tranquilidad	-12.0451
▁imagino	-12.0451
▁cachemira	-12.0451
▁trató	-12.0451
▁tropicales	-12.0452
▁operador	-12.0452
▁vacuna	-12.0456
▁consumen	-12.0456
▁titulado	-12.0459
▁persistente	-12.0459
via	-12.0465
▁tenerlo	-12.0473
ario	-12.0475
▁contraídos	-12.0476
▁violan	-12.0477
▁simbólica	-12.0481
▁eléctricas	-12.0481
▁singapur	-12.0485
▁drástica	-12.0489
▁beneficie	-12.0491
▁paisaje	-12.0493
gre	-12.0493
▁apoyemos	-12.05
▁traten	-12.05
▁acogerse	-12.0504
▁fabricar	-12.0508
▁anexos	-12.0509
▁individualmente	-12.0509
ió	-12.0512
▁contentos	-12.0513
▁14,	-12.0514
▁1991	-12.0514
reglamentaciones	-12.0515
▁1980	-12.052
▁calzado	-12.052
▁endeudamiento	-12.052
▁setenta	-12.052
▁dedicadas	-12.052
▁oslo	-12.0521
▁eta	-12.0522
▁válidas	-12.0525
▁escándalos	-12.0529
▁susceptibles	-12.0538
▁po	-12.0539
▁ci	-12.0539
▁tic	-12.0542
▁tratadas	-12.0542
▁proviene	-12.0546
▁máximas	-12.0547
▁ocupamos	-12.0552
▁cualitativa	-12.0555
▁graefe	-12.0555
▁hautala	-12.0555
▁minucioso	-12.0555
▁osetia	-12.0555
▁respondiendo	-12.0555
▁actuamos	-12.0555
▁misiles	-12.0555
▁ubicación	-12.0555
▁presidido	-12.0556
▁solas	-12.0558
▁militarización	-12.056
▁persisten	-12.056
▁diariamente	-12.0562
▁decente	-12.0563
▁rebajar	-12.0564
▁ocasionado	-12.0565
▁duplicar	-12.0565
▁impongan	-12.0565
▁interesan	-12.0566
▁denuncias	-12.0568
▁petroleros	-12.0569
▁dedicados	-12.0572
ín	-12.0572
▁evite	-12.0578
▁concebir	-12.0585
▁alusión	-12.059
▁berès	-12.059
▁volatilidad	-12.059
▁prisiones	-12.059
ik	-12.059
▁abismo	-12.059
▁secciones	-12.059
▁apelo	-12.059
▁inventario	-12.0591
▁concedidas	-12.0591
eso	-12.0594
▁cuarteto	-12.0594
▁lentamente	-12.0595
▁mancha	-12.0595
▁subyacente	-12.0599
▁plataformas	-12.0599
▁aceptarlo	-12.0599
▁asesinado	-12.0599
▁urbanos	-12.0601
▁poderoso	-12.0601
▁cuenten	-12.0605
▁depósitos	-12.0606
▁superan	-12.0606
▁entrevista	-12.0607
▁conseguirse	-12.061
▁dista	-12.0612
▁escuche	-12.0613
▁armonizadas	-12.0616
▁anuncia	-12.0618
▁valiosas	-12.0618
▁agravar	-12.0622
▁cashman	-12.0625
▁cualesquiera	-12.0625
▁dependiendo	-12.0625
▁kirguistán	-12.0625
▁pnb	-12.0625
▁apostar	-12.0625
▁patria	-12.0625
▁civilizaciones	-12.0626
▁eurodac	-12.0626
vamos	-12.0626
▁deliberada	-12.0627
▁analizando	-12.0627
▁tóxicas	-12.0629
nu	-12.0632
▁intervienen	-12.0632
▁moderado	-12.0633
▁mercancía	-12.0633
plan	-12.0633
▁engañosa	-12.0634
▁1995.	-12.0635
▁horario	-12.0637
▁declarada	-12.0638
▁intentaré	-12.064
▁desempeñará	-12.0641
▁alterar	-12.0648
▁vería	-12.0649
▁ampliando	-12.0651
ton	-12.0658
▁continuas	-12.0658
▁sanos	-12.0658
sh	-12.0659
▁espectáculo	-12.066
▁lamfalussy	-12.066
▁telefonía	-12.066
▁dossier	-12.066
▁gatt	-12.066
▁reorganización	-12.066
▁desmantelar	-12.066
▁densidad	-12.0661
▁cerebros	-12.0672
▁pautas	-12.0672
▁preguntan	-12.0682
▁propósitos	-12.0692
▁subestimar	-12.0693
▁condenas	-12.0694
▁represente	-12.0695
▁dijimos	-12.0695
▁estuvimos	-12.0695
▁impotencia	-12.0695
▁johanesburgo	-12.0695
▁mitchell	-12.0695
▁salmón	-12.0695
▁sábado	-12.0695
▁estriba	-12.0696
▁inspiración	-12.0696
▁anticipada	-12.07
▁equipamiento	-12.0704
▁sello	-12.0704
▁socioeconómica	-12.0704
▁personalidades	-12.0705
▁reiterado	-12.0706
▁promuevan	-12.0708
▁practican	-12.0709
▁dotarse	-12.071
▁biológicos	-12.0711
▁contará	-12.0713
▁desastrosas	-12.0715
▁velocidades	-12.0716
▁coordinadas	-12.0719
▁dignas	-12.0725
▁horarios	-12.0725
▁auténticas	-12.0729
▁apoyó	-12.0731
▁constituciones	-12.0731
▁informó	-12.0731
▁kaliningrado	-12.0731
▁lampedusa	-12.0731
▁recordando	-12.0731
▁solicite	-12.0735
▁ambigüedades	-12.0736
▁subsanar	-12.0738
19	-12.0739
▁causada	-12.0739
▁soviético	-12.074
▁dividido	-12.074
▁sospechas	-12.0743
▁contengan	-12.0743
▁plurianuales	-12.0747
▁ocupen	-12.0749
▁divisas	-12.0752
▁sumar	-12.0755
▁encuestas	-12.0761
▁dejarlo	-12.0763
▁hablaré	-12.0764
ö	-12.0766
▁objetividad	-12.0766
▁tripulación	-12.0766
▁aislar	-12.0766
▁compuesta	-12.0766
▁bonn	-12.0767
▁descentralizada	-12.0768
▁quedando	-12.0768
ip	-12.0773
ándola	-12.0773
▁afectando	-12.0774
ced	-12.0777
▁kenia	-12.0781
▁varía	-12.0784
ici	-12.0785
▁tac	-12.0787
▁equitativas	-12.0788
ez	-12.0792
▁reforzará	-12.0793
▁prefiere	-12.0794
tividad	-12.0794
▁torturas	-12.0795
▁obvia	-12.0798
▁dietas	-12.0798
▁encontraremos	-12.0801
▁derrota	-12.0802
▁desguace	-12.0802
▁empezamos	-12.0802
▁ortega	-12.0802
▁progresivo	-12.0802
▁vigencia	-12.0802
hi	-12.0806
▁indicio	-12.0811
▁intermedio	-12.0811
chi	-12.0812
▁porqué	-12.0812
▁condolencias	-12.0813
▁enfrentamiento	-12.0813
▁quiénes	-12.0814
▁proporcionada	-12.0822
▁aprobara	-12.0824
▁contingentes	-12.0825
▁existencias	-12.0829
▁ratifique	-12.0829
ou	-12.0834
▁blokland	-12.0838
▁desesperación	-12.0838
▁wallis	-12.0838
▁reutilización	-12.0838
▁centralizada	-12.0838
▁reiteradamente	-12.084
▁z	-12.0844
ándoles	-12.0845
▁provenientes	-12.0847
▁forzada	-12.0847
▁eslovaco	-12.0847
▁iría	-12.0848
▁asociada	-12.0848
▁empresario	-12.0849
▁daré	-12.0855
▁tomaron	-12.0856
til	-12.0861
4-00	-12.0865
▁concentra	-12.0866
▁puestas	-12.0867
▁explorar	-12.0867
▁dr	-12.0869
▁racial	-12.0869
▁humo	-12.0871
▁pop	-12.0871
▁contemplados	-12.0871
▁exitosa	-12.0874
▁municiones	-12.0874
▁plus	-12.0874
▁reasentamiento	-12.0874
▁llevo	-12.0874
▁tenor	-12.0874
▁fundamentalista	-12.0875
▁protagonista	-12.0883
▁contraído	-12.0883
ísima	-12.0884
▁acometer	-12.0884
▁intermediarios	-12.0884
▁facilidades	-12.0885
▁consagrado	-12.0885
▁comportamientos	-12.0887
▁respalde	-12.0888
▁ruedas	-12.089
▁señalando	-12.0891
▁concedemos	-12.0893
▁garantizados	-12.0904
▁denegación	-12.091
▁expedición	-12.091
▁tuviéramos	-12.0911
▁superación	-12.0912
▁daul	-12.0913
▁recíproca	-12.0915
ino	-12.0916
▁ratifiquen	-12.0919
▁seminario	-12.092
▁dramático	-12.092
▁aprecia	-12.0923
▁distribuido	-12.0928
▁promueven	-12.0929
▁destruye	-12.0936
▁prestada	-12.0939
▁quedaría	-12.0942
▁praga	-12.0946
▁aparecido	-12.0947
▁crudo	-12.0947
▁receptores	-12.0949
▁municipios	-12.0953
▁lácteo	-12.0956
▁consolidada	-12.0957
▁consideremos	-12.096
▁muestren	-12.0961
▁cuántas	-12.0961
▁serbio	-12.0962
▁pronuncie	-12.0963
▁inherentes	-12.0966
▁perjudicados	-12.0966
▁asigna	-12.0967
▁contenga	-12.0969
▁supervisor	-12.0972
▁complicadas	-12.0974
▁ocasionar	-12.0978
▁multinacional	-12.0978
▁rango	-12.0983
▁malasia	-12.0984
▁colaborando	-12.0985
idos	-12.0986
▁incorrecta	-12.0988
▁guiar	-12.0988
▁paralela	-12.0988
▁reanudado	-12.0989
▁irreversible	-12.0992
▁brindado	-12.0995
val	-12.0995
▁bi	-12.0995
▁tienden	-12.0996
▁marcada	-12.0998
▁afirmando	-12.0999
▁imponerse	-12.1005
▁olvida	-12.1011
▁act	-12.1011
piensa	-12.1012
▁tejidos	-12.1016
▁reitera	-12.1016
mis	-12.1018
▁asistimos	-12.1019
▁aznar	-12.1019
comunitarización	-12.1019
▁fauna	-12.102
▁ultramar	-12.102
▁"¿	-12.1021
▁auditorías	-12.1022
▁miel	-12.1024
▁financieramente	-12.1024
▁cónyuges	-12.1026
▁descartes	-12.1026
▁millas	-12.1027
▁coordinadores	-12.1028
▁posibilitar	-12.1028
▁molesta	-12.1029
▁famosa	-12.1029
▁potente	-12.1029
▁veterinario	-12.1029
▁despido	-12.1029
ju	-12.103
▁hábitats	-12.1031
▁chipriota	-12.1031
▁extenderse	-12.1032
▁enteras	-12.1038
tic	-12.1044
▁creía	-12.1045
▁contenta	-12.1046
▁envíe	-12.1047
▁terceras	-12.1053
▁deducir	-12.1056
▁suscribo	-12.1056
▁theato	-12.1056
▁revés	-12.1056
▁tardado	-12.1057
sión	-12.1059
responsabilidad	-12.1064
▁extenso	-12.1066
▁informativa	-12.1066
▁armonizada	-12.1067
▁bombardeos	-12.1069
▁orientados	-12.1072
▁67	-12.1074
▁empeorar	-12.1075
▁bandos	-12.1076
▁buscado	-12.1077
▁2015.	-12.1078
▁alarmantes	-12.1079
nia	-12.1083
▁orientales	-12.1087
▁presenciado	-12.1087
eros	-12.1091
▁bowis	-12.1093
▁consumir	-12.1093
▁despilfarro	-12.1093
▁enseguida	-12.1093
▁invenciones	-12.1093
▁solvit	-12.1093
▁abriendo	-12.1093
▁deprisa	-12.1093
▁minerales	-12.1094
▁solucionado	-12.1096
▁constatamos	-12.1098
▁interpretarse	-12.1102
▁bibliotecas	-12.1103
▁horizontales	-12.1104
▁rasgos	-12.1105
▁puro	-12.1105
▁costoso	-12.1106
▁varían	-12.1106
▁consigan	-12.1109
▁examinaremos	-12.111
▁forme	-12.1113
▁colonial	-12.1113
▁haug	-12.1113
▁socioeconómicas	-12.112
▁discute	-12.1121
▁saca	-12.1123
▁modalidad	-12.1125
▁lange	-12.1125
▁recuerdan	-12.1126
▁responsabilizar	-12.1126
▁jo	-12.1127
▁asumiendo	-12.1129
▁empobrecido	-12.1129
▁rompuy	-12.1129
▁jackson	-12.1129
▁subcomisión	-12.1129
▁colectivas	-12.113
▁configurar	-12.113
▁palestinas	-12.1136
▁pragmático	-12.114
▁suplementaria	-12.114
▁salvaje	-12.114
▁defecto	-12.114
▁climáticas	-12.1144
▁conserva	-12.1147
ste	-12.1148
▁caracterizan	-12.1155
▁corresponda	-12.1158
▁comprometa	-12.1158
▁moda	-12.1161
▁preconiza	-12.1162
▁inspira	-12.1163
▁satélites	-12.1165
interdependencia	-12.1166
▁gebhardt	-12.1166
▁perdieron	-12.1166
del	-12.1167
▁predecesor	-12.1167
▁crearía	-12.1171
▁vistazo	-12.1174
▁agilizar	-12.1175
▁óptica	-12.1177
▁táctica	-12.1177
▁demuestren	-12.1183
▁destacados	-12.1183
▁racionalizar	-12.1185
▁masas	-12.1186
ándolos	-12.1187
▁tibetanos	-12.1189
▁ganarse	-12.1193
▁cheque	-12.1194
▁respondan	-12.1195
▁competición	-12.1204
▁locura	-12.1204
▁norteamericanas	-12.1205
euro	-12.1205
▁estaré	-12.1205
▁oídos	-12.1206
▁llegados	-12.1214
▁bolsa	-12.1214
▁comparativa	-12.1214
▁salgan	-12.1217
▁provocados	-12.1219
tr	-12.1221
zi	-12.1224
▁68	-12.1226
▁sancionar	-12.1226
▁usarse	-12.1229
▁compuestos	-12.1234
▁cristianas	-12.124
▁aprobemos	-12.1241
▁barbarie	-12.1241
▁disturbios	-12.1241
▁guatemala	-12.1241
▁remito	-12.1241
▁paradoja	-12.1241
▁dignos	-12.1242
▁adelantar	-12.1244
▁predominante	-12.1244
▁fao	-12.1244
▁labores	-12.1246
▁óptimo	-12.1252
▁acusar	-12.1252
▁educativa	-12.1252
▁culpar	-12.1254
▁granjas	-12.1257
▁acabará	-12.1257
▁78	-12.126
▁debidas	-12.1262
▁harinas	-12.1263
▁presentara	-12.1268
▁imperativos	-12.1269
▁entienda	-12.127
▁pedí	-12.1272
▁invirtiendo	-12.1278
▁recibieron	-12.1278
▁pirker	-12.1278
▁frío	-12.1278
▁promovido	-12.1279
▁distribuidores	-12.128
▁profundos	-12.1282
▁sustenta	-12.1283
▁encontrará	-12.1283
▁denominador	-12.1285
▁favorecidas	-12.1287
▁dramáticas	-12.1288
▁ola	-12.1288
▁costo	-12.1289
▁espectacular	-12.1292
▁fracasar	-12.1293
▁poderosa	-12.1293
▁mencionaré	-12.1295
▁21.00	-12.1296
▁subvencionar	-12.1298
▁inscribe	-12.1307
▁aislados	-12.1311
▁agradecidos	-12.1311
▁encarga	-12.1312
om	-12.1313
▁checos	-12.1314
▁cairo	-12.1316
▁conectar	-12.132
▁avanzadas	-12.1322
▁autónomas	-12.1325
▁deplorable	-12.1327
▁máquinas	-12.1338
ster	-12.1345
▁pudiese	-12.1345
tarjeta	-12.1346
▁dactilares	-12.1354
▁gitana	-12.1354
▁gradin	-12.1354
▁crecido	-12.1354
▁defiendo	-12.1354
▁guardiana	-12.1356
▁aspiran	-12.1356
▁bonos	-12.136
▁manifestarse	-12.1361
▁automático	-12.1365
▁tarifa	-12.1365
ias	-12.1365
▁aseguren	-12.1369
▁felicita	-12.1369
▁ascienden	-12.1371
▁películas	-12.1372
▁celebran	-12.1373
nta	-12.1375
▁perseguidos	-12.1376
▁gestiona	-12.1385
▁prestarse	-12.1385
▁aviso	-12.1387
▁eventual	-12.1389
desde	-12.1391
▁fischer	-12.1392
▁lannoye	-12.1392
▁destacan	-12.1392
▁guste	-12.1393
▁montañosas	-12.1394
▁demostrada	-12.1394
ish	-12.1394
▁fitosanitarios	-12.1395
▁pareció	-12.1395
▁ignorando	-12.1396
▁diversificar	-12.1399
▁dictadores	-12.1399
▁electo	-12.1403
▁austriaco	-12.1406
▁entera	-12.1408
▁enfocar	-12.141
rd	-12.1412
política	-12.1422
especialmente	-12.1422
▁cacao	-12.143
▁primacía	-12.143
▁pésame	-12.143
▁solvencia	-12.143
▁adición	-12.143
▁cualidades	-12.1434
▁conozcan	-12.1436
▁provechoso	-12.1438
▁equivoca	-12.1438
▁afecten	-12.144
▁imperialista	-12.1442
▁respetamos	-12.1444
oso	-12.1448
▁funcional	-12.1452
ib	-12.1453
▁incorpore	-12.1454
▁aproveche	-12.1456
reivindicaciones	-12.1457
▁aparente	-12.1463
▁frentes	-12.1467
▁récord	-12.1468
▁anoche	-12.1468
▁kallas	-12.1468
▁vocación	-12.147
▁mencione	-12.1471
▁cometidas	-12.1473
▁pies	-12.1474
▁preliminares	-12.1475
sar	-12.1475
▁deseando	-12.1477
tin	-12.1479
▁problemáticas	-12.1479
▁cubierto	-12.1479
▁macroeconómico	-12.1479
▁ostenta	-12.148
▁párrafos	-12.148
▁medicinas	-12.1481
▁ignorado	-12.1483
▁indirectos	-12.1484
▁informales	-12.1487
▁ovino	-12.1488
▁dell	-12.1494
▁preveía	-12.1496
▁circulan	-12.1497
▁reunió	-12.1498
▁mandar	-12.1502
▁promete	-12.1505
▁bovina	-12.1506
▁curioso	-12.1506
▁dieciocho	-12.1506
▁gravámenes	-12.1506
▁remitido	-12.1506
▁aludido	-12.1506
gan	-12.1512
▁dictar	-12.1513
▁cultivar	-12.1514
▁harían	-12.1515
▁provienen	-12.1515
▁inútiles	-12.1517
▁cualitativo	-12.1518
▁vencer	-12.1518
▁pymes	-12.1522
amiento	-12.1526
▁prestará	-12.1538
▁collins	-12.1545
▁desafortunado	-12.1545
▁špidla	-12.1545
▁impulsando	-12.1547
▁apreciamos	-12.1548
▁disidentes	-12.155
▁violando	-12.155
▁muchísimas	-12.1552
▁asociar	-12.1553
▁abu	-12.1554
▁encontrarán	-12.1555
▁situada	-12.1557
▁limpios	-12.1558
▁agrarias	-12.1558
▁tratada	-12.1559
▁implicarse	-12.1566
▁sirvan	-12.1567
▁trae	-12.1568
▁cosecha	-12.1572
▁incluía	-12.1575
▁superficies	-12.1576
▁alemanas	-12.1576
▁urban	-12.1576
▁originalmente	-12.1581
▁concedió	-12.1583
▁tesis	-12.1583
▁feira	-12.1583
▁green	-12.1584
▁izquierdas	-12.1585
▁abogar	-12.1586
▁postre	-12.1586
▁cobro	-12.1586
▁adolescentes	-12.1586
▁agravado	-12.1587
▁derechas	-12.1587
▁trabajemos	-12.1589
▁omi	-12.1593
▁basura	-12.1595
▁horrible	-12.1595
▁autónomo	-12.1596
5/	-12.16
▁asem	-12.1602
▁recibidas	-12.1609
▁armado	-12.1609
▁alegramos	-12.161
▁coincidir	-12.1613
▁reconciliar	-12.1617
bar	-12.1619
▁recompensa	-12.162
▁ponerlo	-12.1621
▁combustión	-12.1622
▁explícito	-12.1622
▁merluza	-12.1622
▁brittan	-12.1622
▁congelación	-12.1622
▁leinen	-12.1623
▁signatarios	-12.1627
▁firmaron	-12.1631
▁transponer	-12.1634
▁injustificada	-12.1634
▁temperatura	-12.1634
▁contenida	-12.1634
▁eléctrico	-12.1634
eta	-12.1636
▁realizamos	-12.1638
▁proporcionen	-12.1639
▁dedicarse	-12.164
▁evaluado	-12.1647
▁is	-12.1649
izadas	-12.1651
▁piedras	-12.1653
▁costado	-12.1653
▁catalizador	-12.1656
▁conversación	-12.1661
▁medioambiente	-12.1661
▁savary	-12.1661
▁uganda	-12.1661
▁permanecido	-12.1661
▁reactivación	-12.1661
▁fu	-12.1663
▁puentes	-12.1669
35	-12.1673
▁inequívoco	-12.1673
udi	-12.1678
▁facilitan	-12.168
▁cargar	-12.1681
▁tomarán	-12.169
▁pierda	-12.1691
▁reconocerlo	-12.1695
▁debilitado	-12.1695
▁dalai	-12.17
▁estupefacientes	-12.17
▁groenlandia	-12.17
▁magreb	-12.17
▁ruanda	-12.17
▁farsa	-12.17
▁recaudación	-12.17
▁tributo	-12.1701
▁intentemos	-12.1706
▁desviar	-12.1708
▁arbitraria	-12.1708
▁embarazo	-12.1711
▁16,	-12.1712
▁discrepancia	-12.1713
▁matanza	-12.1713
▁objetivamente	-12.1713
/2005	-12.1713
tanto	-12.1721
▁aceptarse	-12.1723
▁enumerar	-12.1724
▁multi	-12.1729
▁disminuye	-12.1729
▁manifiestan	-12.1729
▁regule	-12.1731
▁reclaman	-12.1733
▁bal	-12.1734
▁dopaje	-12.1739
▁nassauer	-12.1739
▁tributación	-12.1739
▁suyas	-12.1739
▁propusimos	-12.1739
▁adaptaciones	-12.174
▁presento	-12.174
▁rodean	-12.1744
▁61	-12.1744
▁mandatos	-12.1746
nacionalización	-12.1747
▁atribuye	-12.1749
▁separada	-12.175
▁elogios	-12.1751
▁lingüístico	-12.1752
▁quedarnos	-12.1752
▁recalca	-12.1755
▁llaman	-12.1761
▁contemos	-12.1767
▁pasen	-12.1769
▁favorezca	-12.177
▁confía	-12.1771
▁supere	-12.1772
▁valiosos	-12.1774
▁implicada	-12.1778
▁enriquecimiento	-12.1778
▁mckenna	-12.1778
▁pesticidas	-12.1778
▁provocación	-12.1781
▁ocurren	-12.1782
6/	-12.1785
versión	-12.1785
▁miramos	-12.1785
▁cerradas	-12.179
▁mayoritario	-12.1791
▁reúnen	-12.1792
▁dudar	-12.1794
mento	-12.1795
▁cambian	-12.1796
▁ira	-12.18
▁emplearse	-12.18
▁roto	-12.18
▁edades	-12.1804
rle	-12.1805
▁expresarle	-12.1814
▁decisivas	-12.1815
▁congratula	-12.1818
▁cabotaje	-12.1818
▁extinción	-12.1818
▁mutilación	-12.1818
▁siguió	-12.1818
▁agradecida	-12.1818
▁ignorancia	-12.1818
▁necesito	-12.1818
gas	-12.1821
50	-12.1821
▁introducirse	-12.1824
▁aviar	-12.1826
▁86	-12.1827
▁convocatoria	-12.1831
▁preventivo	-12.1831
▁distinguido	-12.1831
▁asumen	-12.1832
▁bloqueado	-12.1833
▁regulada	-12.1835
▁cambien	-12.1835
▁17,	-12.1836
▁horror	-12.184
13	-12.184
▁sueldos	-12.1843
lidad	-12.1846
▁emita	-12.1851
▁dirá	-12.1852
▁espiral	-12.1858
▁madurez	-12.1858
▁pabellón	-12.1858
▁arrogancia	-12.1858
▁malestar	-12.1858
▁constato	-12.1859
▁financiando	-12.1862
▁observando	-12.1863
▁1%	-12.1865
▁artificiales	-12.1865
▁agradece	-12.1867
▁bio	-12.1876
▁entregado	-12.1878
▁habitualmente	-12.1879
▁teme	-12.1882
▁cruce	-12.1884
▁complicados	-12.1888
▁incompatibles	-12.1893
legislar	-12.1893
▁convirtió	-12.1898
▁precoz	-12.1898
▁méndez	-12.1898
▁toque	-12.19
▁supervisores	-12.1903
▁optimizar	-12.1904
▁vergonzosa	-12.1911
▁temática	-12.1911
▁modificarse	-12.1912
▁enseña	-12.1914
▁denunciado	-12.1921
▁ju	-12.1924
▁necesitar	-12.1924
▁prevalece	-12.1926
12	-12.1927
▁debata	-12.1928
ic	-12.1929
▁aprueban	-12.193
▁convencional	-12.1933
able	-12.1934
▁priva	-12.1936
▁cualificado	-12.1936
▁encargadas	-12.1937
°	-12.1938
▁howitt	-12.1938
▁suspendido	-12.1938
▁seleccionar	-12.1938
▁gobernar	-12.194
▁traducirse	-12.1944
▁82	-12.1945
▁recuerden	-12.195
▁concertada	-12.1951
▁insuficiencia	-12.1951
▁indicativo	-12.1952
▁federalista	-12.1953
▁incertidumbres	-12.1954
▁ramas	-12.1958
▁históricamente	-12.1962
(2001)	-12.1962
puedo	-12.197
▁organizados	-12.1976
▁2000-2006	-12.1978
▁arranque	-12.1978
▁haarder	-12.1978
▁inconcebible	-12.1978
▁izquierdo	-12.1978
▁microempresas	-12.1978
▁preámbulo	-12.1978
▁rostro	-12.1978
▁revisiones	-12.1978
▁350	-12.1978
mediados	-12.1979
▁opinan	-12.198
▁soportan	-12.198
▁caladeros	-12.1981
▁expresados	-12.1982
▁contestado	-12.1985
▁alimento	-12.1991
▁protejan	-12.1992
▁inscritos	-12.1995
▁parto	-12.1997
▁biológicas	-12.2008
▁extienda	-12.2009
▁felicitarnos	-12.2009
▁contenía	-12.2009
▁resolverá	-12.201
▁informará	-12.2011
▁especificidad	-12.2013
▁1988	-12.2018
▁antisemitismo	-12.2018
▁credenciales	-12.2018
▁totalitarismo	-12.2018
▁divulgación	-12.2018
▁imparcialidad	-12.2019
▁atrevo	-12.2019
▁papa	-12.202
▁árboles	-12.2021
▁viejas	-12.2021
▁asesores	-12.2023
▁restos	-12.2024
▁fijamos	-12.2026
▁ganan	-12.203
▁98	-12.203
14	-12.2031
▁recibida	-12.2032
5-00	-12.2032
mit	-12.2032
▁alcanzan	-12.2034
▁pagados	-12.2037
▁voluntarias	-12.204
]	-12.2043
▁acercarse	-12.2044
▁conseguidos	-12.2046
▁arrojar	-12.2046
▁poli	-12.205
ct	-12.2053
▁preside	-12.2058
▁ceremonia	-12.2059
▁clinton	-12.2059
▁escocés	-12.2059
▁napolitano	-12.2059
▁pánico	-12.2059
▁17.30	-12.2059
▁negación	-12.2059
▁intentó	-12.2059
▁anulación	-12.2059
▁aplicamos	-12.2059
▁alpes	-12.2059
▁rumores	-12.2059
▁necesitados	-12.2062
▁elementales	-12.2063
▁aprovechan	-12.2063
▁ilustrar	-12.2063
5-05	-12.2064
▁comprometan	-12.2068
▁asumidos	-12.2069
▁violar	-12.207
▁caros	-12.207
▁premisa	-12.2073
▁escaño	-12.2073
▁buscamos	-12.2074
▁farmacéuticos	-12.2075
▁deseados	-12.208
▁evolucionar	-12.2082
ló	-12.2083
▁someterá	-12.2086
▁enfrentado	-12.2088
▁confirme	-12.2091
incluso	-12.2092
▁habilidad	-12.2094
▁eritrea	-12.2099
▁ineludible	-12.2099
▁sajarov	-12.2099
▁merecido	-12.2099
▁antidemocrática	-12.2099
▁complicaciones	-12.21
▁turísticos	-12.21
▁venimos	-12.21
▁perfiles	-12.2107
▁iniciarse	-12.2107
▁entiendan	-12.2108
▁incorporen	-12.2109
▁aislada	-12.2109
▁estadístico	-12.2113
▁arena	-12.2114
▁encargar	-12.212
▁verlo	-12.2124
▁representadas	-12.2124
")	-12.2129
bol	-12.213
▁satisfactorias	-12.213
▁apoyarse	-12.2138
▁adquisitivo	-12.214
▁dayton	-12.214
▁estupendo	-12.214
▁morillon	-12.214
▁tajani	-12.214
▁suponía	-12.214
▁volvió	-12.2141
▁normalidad	-12.2143
▁valoramos	-12.2147
▁encuentros	-12.2149
▁controlados	-12.215
▁convincentes	-12.2151
▁rara	-12.2152
▁concederse	-12.2153
▁optimistas	-12.2154
▁austríaco	-12.2154
▁múltiple	-12.2154
▁respaldada	-12.2159
▁revista	-12.2159
osos	-12.2163
▁señalo	-12.2166
▁implicará	-12.217
▁correctos	-12.2172
▁científicamente	-12.2172
toria	-12.2172
▁interviene	-12.2172
▁disipar	-12.2174
▁hi	-12.2178
existe	-12.2179
▁alexander	-12.2181
▁angustia	-12.2181
▁hidrocarburos	-12.2181
▁paternidad	-12.2181
▁veredicto	-12.2181
▁subsistencia	-12.2181
▁escape	-12.2183
▁motivado	-12.2184
▁pierdan	-12.219
▁falla	-12.219
▁destinan	-12.2192
▁doyle	-12.2192
▁escépticos	-12.2194
▁extensiva	-12.2195
▁delictivas	-12.2195
▁retrasado	-12.2196
▁aumentaría	-12.2199
▁derivada	-12.2203
▁favorecen	-12.2204
lí	-12.2204
▁concedan	-12.2204
ect	-12.2208
▁concurso	-12.2211
▁tri	-12.2211
▁concedidos	-12.2221
▁crowley	-12.2222
▁gibraltar	-12.2222
▁ludford	-12.2222
▁mantuvimos	-12.2222
▁resumiendo	-12.2222
▁sájarov	-12.2222
▁turkmenistán	-12.2222
▁vitivinícola	-12.2222
▁flora	-12.2223
▁farmacéuticas	-12.2224
▁afrontamos	-12.2227
▁involucradas	-12.223
▁88	-12.2231
▁increíblemente	-12.2233
iéndose	-12.2237
▁excluidas	-12.2237
▁precaria	-12.2237
▁racista	-12.2237
6-02	-12.2237
multilateralismo	-12.2241
▁aborden	-12.2241
▁entenderse	-12.2249
▁autorizadas	-12.225
▁someta	-12.2251
▁investigue	-12.2255
este	-12.2259
▁berg	-12.226
▁detallados	-12.2261
▁airbus	-12.2263
▁aprobando	-12.2263
▁emitió	-12.2263
▁incorrecto	-12.2263
▁permitimos	-12.2263
▁repetición	-12.2263
▁helms	-12.2263
▁mantuvo	-12.2263
▁formuló	-12.2264
▁tratándose	-12.2264
▁debilitamiento	-12.2264
▁cuestores	-12.2264
▁abrirse	-12.2264
▁80%	-12.2265
▁ge	-12.2265
ion	-12.2268
▁habilidades	-12.2268
▁comprenderá	-12.2271
▁registran	-12.2273
▁complacido	-12.2273
▁talento	-12.2273
▁continuarán	-12.2274
tiendo	-12.2276
▁turística	-12.2278
ísimo	-12.2278
▁prohibida	-12.2278
▁protegida	-12.2279
▁firmados	-12.228
iz	-12.2281
▁contradictorias	-12.2282
▁suelos	-12.2283
▁negociadora	-12.2284
▁reglamentarias	-12.2289
▁aventura	-12.229
▁repetirse	-12.2296
▁traerá	-12.23
▁liberado	-12.2305
▁zaire	-12.2305
▁concluyo	-12.2305
▁unesco	-12.2305
▁singular	-12.2308
▁experimentan	-12.2309
?"	-12.2314
▁reservar	-12.2316
ivo	-12.2319
▁nacido	-12.232
▁masacre	-12.232
▁sueldo	-12.232
izados	-12.2327
▁intentaremos	-12.2327
▁polo	-12.2328
siones	-12.2328
▁distinguida	-12.2329
▁honestos	-12.2331
▁resaltado	-12.2332
▁137	-12.2334
▁puntual	-12.2337
▁anticipado	-12.2337
▁flynn	-12.2347
▁salafranca	-12.2347
▁subsahariana	-12.2347
▁influyen	-12.2349
▁silvestres	-12.2351
▁apuntado	-12.2352
▁neoliberales	-12.2354
▁equilibradas	-12.2355
▁ideológica	-12.2357
▁exagerado	-12.236
▁causadas	-12.236
▁próspero	-12.2362
▁psicológica	-12.2362
▁recordarlo	-12.2362
▁im	-12.2367
▁traslados	-12.2368
▁marginal	-12.2368
▁parque	-12.2369
áfrica	-12.2381
▁alojamiento	-12.2388
▁monnet	-12.2388
▁excesos	-12.2389
▁provocará	-12.2389
▁cooperaciones	-12.2389
▁tardía	-12.2389
▁fumadores	-12.2389
▁cooperando	-12.239
▁cabezas	-12.2392
▁obedece	-12.2392
así	-12.2401
▁sostienen	-12.2402
▁femenino	-12.2404
▁adquirida	-12.2404
▁modesto	-12.2404
▁manifiestamente	-12.2405
▁celebraron	-12.2407
▁animado	-12.2415
▁cubano	-12.2416
▁escoger	-12.2416
illo	-12.2425
queremos	-12.2425
burton	-12.243
▁eólica	-12.243
▁mozambique	-12.243
▁creído	-12.2431
▁omisión	-12.2433
▁col	-12.2437
▁calculado	-12.244
▁cola	-12.2442
▁cámaras	-12.2442
▁situarse	-12.2442
▁2007-2013.	-12.2443
izando	-12.2444
▁darme	-12.2445
▁sustituido	-12.2446
▁transitoria	-12.2446
▁precipitada	-12.2446
▁inquietante	-12.2446
▁usado	-12.2449
▁citada	-12.2451
▁condenada	-12.2459
21	-12.2468
▁cop	-12.2469
▁erosión	-12.2473
▁finlandés	-12.2473
▁lanzó	-12.2473
▁signifique	-12.2473
▁sánchez	-12.2473
▁denegar	-12.2473
▁admiración	-12.2473
▁homologación	-12.2473
▁clarificación	-12.2473
vin	-12.2477
▁exponga	-12.2477
iente	-12.2478
▁controlan	-12.248
▁3%	-12.2481
▁avanzamos	-12.2482
▁oportunamente	-12.2487
▁contingente	-12.2488
▁persiguen	-12.2493
aba	-12.2495
▁77	-12.2495
▁combina	-12.2506
▁formen	-12.2511
▁96	-12.2513
▁multifuncional	-12.2515
▁concediendo	-12.2515
▁holanda	-12.2515
▁macrofinanciera	-12.2515
▁restringe	-12.2515
▁especuladores	-12.2515
▁propondrá	-12.2515
▁memorando	-12.2516
zar	-12.2516
▁40%	-12.2517
▁consiguiendo	-12.2522
▁lanza	-12.2527
55	-12.2529
icas	-12.253
▁encomiable	-12.2531
▁informática	-12.2531
▁probado	-12.2531
▁controvertida	-12.2531
▁trámite	-12.2531
▁típico	-12.2531
▁propugna	-12.2531
▁seguiré	-12.2532
▁detectado	-12.2532
▁gestionado	-12.2533
▁elaboren	-12.2535
▁procura	-12.254
▁sitúan	-12.254
▁prohibidas	-12.2542
▁64	-12.2544
▁reducidas	-12.2548
▁cortos	-12.2549
9/	-12.2549
▁hambruna	-12.2558
▁lamassoure	-12.2558
▁visitó	-12.2558
▁prolongación	-12.2558
▁lucro	-12.2558
▁marín	-12.2559
▁destruyendo	-12.2561
▁intracomunitari	-12.2563
▁mantenernos	-12.2564
fu	-12.2565
▁nominales	-12.2569
▁debilidades	-12.2569
▁estrechar	-12.2571
▁registradas	-12.2573
▁reglamentaria	-12.2574
▁desaparecidos	-12.2575
▁autorizada	-12.2577
▁cambiará	-12.2578
▁blanca	-12.2579
▁costosa	-12.2582
▁secundarios	-12.2583
▁adam	-12.2584
▁esconde	-12.2586
▁prometer	-12.2592
▁llevaría	-12.2594
▁utilizará	-12.2594
▁suave	-12.2598
▁grano	-12.26
▁andersson	-12.26
▁confederación	-12.26
▁empecemos	-12.26
▁martens	-12.26
▁alegaciones	-12.2601
▁seae	-12.2603
algo	-12.2604
▁revelar	-12.2605
▁eventuales	-12.2606
▁ovejas	-12.2608
▁vengo	-12.261
▁aprovechen	-12.261
cido	-12.2613
▁atraviesan	-12.2613
▁perciben	-12.2614
▁refuercen	-12.2614
▁ideológico	-12.2617
▁viento	-12.2617
▁doméstico	-12.2617
▁experimento	-12.2617
▁exentos	-12.2617
▁cuantitativos	-12.2619
▁aumentarán	-12.2622
tina	-12.2624
▁calificado	-12.2626
▁escasas	-12.2628
▁unificar	-12.263
▁separados	-12.2634
▁vendrá	-12.2635
▁internamente	-12.2636
tir	-12.2639
▁protegiendo	-12.2643
có	-12.2644
▁esterlinas	-12.2648
▁eventualmente	-12.2648
▁incitar	-12.2648
▁orgánicos	-12.2649
▁congelar	-12.2654
▁cerdos	-12.2655
▁intenten	-12.2658
▁fructífero	-12.266
▁afgano	-12.266
▁tor	-12.266
▁creativa	-12.266
▁cubren	-12.266
▁extrañar	-12.2665
▁vengan	-12.2665
);	-12.2666
▁comprensibles	-12.2667
▁vacías	-12.2669
▁recopilar	-12.2671
▁allanar	-12.2672
▁percibe	-12.2673
▁consistía	-12.2679
▁tocar	-12.2679
▁socioeconómicos	-12.268
▁superficial	-12.2681
▁buitenweg	-12.2686
▁desempeño	-12.2686
▁klaus	-12.2686
▁leader	-12.2686
▁pasión	-12.2686
▁indebido	-12.2687
▁llevarnos	-12.2687
imiento	-12.2687
▁llamo	-12.2688
▁tremendamente	-12.2689
ek	-12.269
▁consagra	-12.2691
▁cooperen	-12.2691
pres	-12.2693
▁cha	-12.2697
▁continuos	-12.2697
▁900	-12.2697
▁dificultan	-12.2697
▁gastan	-12.2699
▁pasemos	-12.27
ji	-12.27
▁constitutivo	-12.2703
▁honesto	-12.2703
▁reiteradas	-12.2703
▁corral	-12.2705
▁continuamos	-12.2706
▁desbloquear	-12.2707
▁tirar	-12.2708
lia	-12.2708
▁instado	-12.2709
▁laboratorios	-12.2709
puesto	-12.2713
▁integra	-12.2713
▁consolidado	-12.2718
▁listo	-12.2719
▁facturas	-12.272
▁intelectuales	-12.2721
▁reúna	-12.2721
▁firmada	-12.2727
ot	-12.2727
▁dührkop	-12.273
▁grossetête	-12.273
▁racimo	-12.273
▁plantilla	-12.273
▁recurriendo	-12.273
▁nu	-12.2731
▁rec	-12.2744
▁impliquen	-12.2746
▁recíproco	-12.2746
▁ejecutiva	-12.2746
▁instante	-12.2747
▁necesitarán	-12.2748
▁parecería	-12.2748
▁dialogar	-12.2751
▁reunidos	-12.2752
▁necesite	-12.2761
▁pacíficas	-12.2763
▁difiere	-12.2765
▁imp	-12.2767
▁surja	-12.2769
▁3.	-12.2769
▁sencillos	-12.2772
▁edimburgo	-12.2773
▁explosión	-12.2773
▁superávit	-12.2773
▁trascendencia	-12.2773
▁culminación	-12.2773
▁liese	-12.2774
▁admirable	-12.2775
▁asesor	-12.2775
▁corredores	-12.2778
▁masivos	-12.2782
▁tomarnos	-12.2782
▁marinas	-12.2782
▁trágicas	-12.2782
▁asesinos	-12.2785
▁modesta	-12.2786
▁resueltos	-12.2789
▁vacía	-12.2791
▁sucesivos	-12.2793
▁comercializar	-12.2797
▁nacionalista	-12.2802
▁intensas	-12.2802
ño	-12.2802
▁inmediatos	-12.2803
▁permitirles	-12.2803
▁mueve	-12.2808
▁repite	-12.2808
▁cerrados	-12.2809
18	-12.2813
▁negociador	-12.2813
▁comparado	-12.2815
▁azucarera	-12.2817
▁fluctuaciones	-12.2817
▁indiscriminada	-12.2817
▁montón	-12.2817
▁superestado	-12.2817
▁hughes	-12.2817
▁oponernos	-12.2818
▁decae	-12.2818
▁granjeros	-12.2819
▁presidencial	-12.282
▁influye	-12.2822
▁universitarios	-12.2829
▁rigurosamente	-12.2829
▁resuelta	-12.2829
▁escandalosa	-12.2834
▁oleada	-12.2834
▁interminable	-12.2834
▁tibetano	-12.2834
▁ensayo	-12.2834
▁producida	-12.2834
▁pasaje	-12.2835
ler	-12.2835
▁debatirá	-12.2836
▁adaptado	-12.2836
eg	-12.2838
▁reactivar	-12.2839
▁hicieran	-12.2843
▁pasadas	-12.2846
▁distinguidos	-12.2846
▁irlandesas	-12.2854
▁george	-12.2858
estados	-12.2858
▁ferber	-12.2861
▁gasóleo	-12.2861
▁pvc	-12.2861
▁solidez	-12.2861
▁atenerse	-12.2861
▁pluralidad	-12.2861
▁fatuzzo	-12.2861
▁productivas	-12.2862
▁residuales	-12.2862
▁huir	-12.2864
▁mirando	-12.2865
▁defina	-12.2866
▁embarazadas	-12.2869
▁directivos	-12.2872
▁legítimamente	-12.2873
▁entrando	-12.2874
▁impidan	-12.2875
▁finalización	-12.2878
▁negociada	-12.2879
▁pesado	-12.288
1)	-12.288
▁cooperativas	-12.288
▁calendarios	-12.2883
▁importan	-12.2885
▁elimine	-12.2893
san	-12.2893
▁desembocar	-12.2894
▁cobra	-12.2894
▁diferenciar	-12.2897
▁consisten	-12.2899
▁turismos	-12.29
estoy	-12.2904
▁acústica	-12.2905
▁concluyó	-12.2905
▁lealtad	-12.2905
▁trichet	-12.2905
▁mantendremos	-12.2905
▁abstenernos	-12.2905
▁indicó	-12.2905
▁regulados	-12.2907
▁incluyera	-12.2908
▁empeorado	-12.2909
▁estimula	-12.291
07	-12.2914
cosa	-12.2914
eu	-12.2915
▁adquieren	-12.2917
▁totalitario	-12.2922
▁combinada	-12.2924
▁proclama	-12.2926
▁reduciría	-12.2928
▁ciencias	-12.2931
▁inversor	-12.2937
tienen	-12.294
▁permitiera	-12.294
rte	-12.2941
▁agradecerles	-12.2942
▁estatutos	-12.2943
smo	-12.2948
▁minsk	-12.2949
▁reuní	-12.295
3/	-12.2951
1999	-12.2952
▁0	-12.2953
▁lucas	-12.2954
▁resumidas	-12.2954
▁cae	-12.2958
▁compatriotas	-12.2962
▁medicamento	-12.2966
▁importantísima	-12.2967
▁actualizada	-12.2973
alba	-12.2974
▁costera	-12.2978
gran	-12.2979
▁abandone	-12.2981
▁goce	-12.2986
wi	-12.2987
▁honesta	-12.2989
▁salvaguardias	-12.299
▁impidiendo	-12.2993
▁schröder	-12.2993
▁whitehead	-12.2993
▁business	-12.2994
▁weber	-12.2994
▁oímos	-12.2995
▁productivos	-12.2997
▁deseada	-12.2998
▁montañas	-12.3009
▁alejadas	-12.3009
▁filas	-12.3011
▁regalo	-12.3011
▁variable	-12.3011
▁contradictorio	-12.3011
▁secundario	-12.3011
▁financiada	-12.3014
▁armada	-12.3016
01)	-12.3022
▁salvajes	-12.3025
▁virtual	-12.3029
▁trabajadora	-12.3029
▁colocado	-12.3031
▁enseñanzas	-12.3032
▁genuina	-12.3033
▁afluencia	-12.3038
▁café	-12.3038
▁multicultural	-12.3038
▁absorber	-12.304
96	-12.3041
▁jubilados	-12.3042
▁huevos	-12.3045
▁modificadas	-12.3045
▁eu	-12.3047
▁descarga	-12.305
▁resuelvan	-12.3051
▁inicia	-12.3058
▁medianos	-12.3066
▁llegara	-12.307
▁nombramientos	-12.307
▁resta	-12.307
▁encierra	-12.3074
▁culminar	-12.3075
▁rector	-12.3079
▁desplazar	-12.3082
▁comisionado	-12.3083
▁filipinas	-12.3083
▁intencionada	-12.3083
▁península	-12.3083
▁actuemos	-12.3083
▁experimentación	-12.3083
▁atlántica	-12.3084
▁escrúpulos	-12.3085
▁estereotipos	-12.3086
▁dándole	-12.3086
▁dicta	-12.3086
▁encantada	-12.3093
▁invocar	-12.3093
▁repitan	-12.3097
▁fomenten	-12.3098
▁equilibrios	-12.31
▁añadiré	-12.3101
▁plaza	-12.3101
▁trazar	-12.3102
▁tratara	-12.3103
▁examinen	-12.3103
▁inmunidades	-12.3103
▁anunciada	-12.3104
▁aisladas	-12.3112
▁lee	-12.3114
▁situadas	-12.3114
▁separadas	-12.3115
▁infantiles	-12.3115
▁valorado	-12.3118
▁obligue	-12.3119
▁encaja	-12.3123
▁colegislador	-12.3123
▁pasiva	-12.3124
▁stream	-12.3128
▁ámsterdam	-12.3128
▁abstenerse	-12.3129
▁imprescindibles	-12.3129
▁burla	-12.3131
▁desplazarse	-12.3133
08	-12.3133
▁genéricos	-12.3134
for	-12.314
▁cites	-12.314
▁amenazar	-12.3144
▁contando	-12.3146
▁exhorta	-12.3146
▁máquina	-12.3147
▁generados	-12.3148
▁amables	-12.3154
liza	-12.3155
▁asumió	-12.3159
▁bastan	-12.3162
5-06	-12.3165
▁instalar	-12.3169
mer	-12.317
▁suplementarios	-12.3171
▁honestidad	-12.3173
▁participó	-12.3173
▁fundaciones	-12.3174
▁transbordadores	-12.3174
▁volar	-12.3175
▁dominar	-12.3176
torio	-12.3177
ible	-12.3178
▁tememos	-12.3178
▁facilitaría	-12.3178
▁canalizar	-12.3178
▁aproximar	-12.3178
▁existirá	-12.3179
▁reestructurar	-12.318
▁resultas	-12.3185
▁financiarse	-12.3187
ificación	-12.3188
▁metales	-12.3191
▁divisa	-12.3192
▁ofrecemos	-12.3193
▁comienzan	-12.3194
▁suena	-12.3194
port	-12.3195
▁comparecer	-12.3196
▁saco	-12.3198
▁contradictorios	-12.32
▁colmar	-12.3201
▁feder	-12.3207
ase	-12.3207
▁ob	-12.3211
ieran	-12.3211
▁aprovecharse	-12.3215
▁arduo	-12.3219
▁breyer	-12.3219
▁complicidad	-12.3219
▁antidemocrático	-12.3219
▁expresaron	-12.3219
▁negó	-12.322
▁alianzas	-12.3221
▁quita	-12.3221
▁extraordinarios	-12.3225
▁codo	-12.3227
▁atrevería	-12.3229
▁destinatarios	-12.323
▁reflejen	-12.3234
icos	-12.3234
▁leon	-12.3236
▁disfruta	-12.3237
▁pandemia	-12.3237
▁comparecencia	-12.3238
▁perseguido	-12.3238
▁decreto	-12.3238
▁terrestre	-12.3238
▁neto	-12.3238
▁empezaré	-12.3238
▁fijan	-12.3239
▁brindará	-12.3245
▁materializar	-12.3247
▁macroeconómicos	-12.325
▁acompañados	-12.325
▁72	-12.3251
▁cura	-12.3254
▁subyace	-12.3255
▁mantengo	-12.3264
pac	-12.3264
▁abogo	-12.3265
▁textualmente	-12.3265
▁válidos	-12.3265
▁oponentes	-12.3265
▁localización	-12.327
▁alude	-12.327
▁transmitiré	-12.3271
▁vacíos	-12.3273
cuando	-12.3273
▁69	-12.3273
▁vincula	-12.3273
▁agrava	-12.3275
rc	-12.3275
▁em	-12.3276
▁sinceras	-12.3279
▁aceptando	-12.328
▁albanesa	-12.3283
▁generoso	-12.3284
▁billete	-12.3284
▁harina	-12.3284
▁primeramente	-12.3286
▁honra	-12.3287
▁ejecutivas	-12.3292
▁don	-12.3296
▁civilizada	-12.3298
▁moderados	-12.3299
▁construye	-12.33
▁persiste	-12.3301
▁adherir	-12.3304
▁sospecho	-12.3309
▁admito	-12.331
▁duisenberg	-12.331
▁escribió	-12.331
▁extensivo	-12.331
▁frassoni	-12.331
▁gustosamente	-12.331
▁reintegración	-12.331
▁cortar	-12.3311
▁derogaciones	-12.3311
▁olvido	-12.3311
▁polvo	-12.3312
▁liberalismo	-12.3312
▁excluya	-12.3314
▁analizamos	-12.3315
▁br	-12.3317
▁necesitaba	-12.3317
▁centrará	-12.3324
▁gestionan	-12.3324
▁guardan	-12.3324
cé	-12.3325
▁suceso	-12.3327
▁salta	-12.3329
▁botella	-12.333
▁etnia	-12.333
▁desagradable	-12.333
▁asequible	-12.333
▁restringido	-12.333
▁ramos	-12.3336
▁intensos	-12.3336
▁creativas	-12.3339
▁conduciría	-12.3345
▁reza	-12.3346
unión	-12.3348
▁rebaja	-12.3353
▁goebbels	-12.3356
▁macao	-12.3356
▁identidades	-12.3356
▁1986	-12.3356
▁serviría	-12.3358
▁categóricamente	-12.3358
▁marroquíes	-12.336
▁30%	-12.336
▁firmantes	-12.3363
▁emite	-12.3363
▁especulativos	-12.3365
▁logren	-12.3375
▁requerido	-12.3376
▁académico	-12.3376
▁tormenta	-12.3377
▁bajada	-12.3382
▁especializado	-12.3383
▁engloba	-12.3385
▁reguladora	-12.3392
marco	-12.3396
▁sindical	-12.3397
▁cotidianas	-12.34
▁preparadas	-12.3401
ov	-12.3402
▁deportes	-12.3402
▁emoción	-12.3403
▁impensable	-12.3403
▁triunfo	-12.3403
▁visité	-12.3403
▁superpotencia	-12.3403
▁sustento	-12.3403
▁dificultar	-12.3404
▁mg	-12.3404
▁porcino	-12.3405
▁dominado	-12.3405
▁pr	-12.3405
▁140	-12.3406
▁citados	-12.3409
▁controversias	-12.3409
if	-12.3412
▁noble	-12.3413
▁mentales	-12.3417
▁129	-12.3419
▁dioxinas	-12.3419
▁eventos	-12.342
▁insignificante	-12.3422
▁colectivamente	-12.3426
▁motivar	-12.3428
▁duros	-12.343
▁extremas	-12.3431
▁listos	-12.3431
▁cl	-12.3432
▁retirarse	-12.3432
▁fije	-12.3437
▁cercanos	-12.344
▁alcalde	-12.3441
▁desesperada	-12.3442
▁insatisfactoria	-12.3449
▁jurisdiccional	-12.3449
▁maravillosa	-12.3449
▁remolacha	-12.3449
▁trakatellis	-12.3449
▁tristeza	-12.345
▁eurogrupo	-12.345
cie	-12.3451
▁pres	-12.3453
▁titulada	-12.3453
▁generará	-12.3453
▁moverse	-12.3454
▁publica	-12.3457
▁invierten	-12.3457
▁remotas	-12.3458
▁asesinadas	-12.3459
▁aceptados	-12.3464
▁efectuadas	-12.3466
institucionales	-12.3469
▁vigilantes	-12.3469
▁clásico	-12.3469
▁inestable	-12.3469
▁insulto	-12.3469
▁solidario	-12.3469
▁solicitante	-12.3471
▁drásticas	-12.3485
idi	-12.3485
▁complementa	-12.3485
▁otorgue	-12.3487
▁fracasos	-12.3489
▁elemental	-12.3491
gubernamentales	-12.3493
▁descendido	-12.3496
▁naufragio	-12.3496
▁orígenes	-12.3496
▁trimestre	-12.3496
▁culto	-12.3496
▁reagrupación	-12.3496
▁cancelación	-12.3496
▁aconsejable	-12.3497
▁flexiguridad	-12.3497
▁1985	-12.3499
▁campesinos	-12.3499
▁resultaba	-12.3505
▁rte	-12.3505
▁archivos	-12.3506
▁conllevan	-12.3507
▁lacra	-12.3509
▁carreras	-12.351
▁amable	-12.3512
▁notar	-12.3514
90	-12.3519
▁concentrado	-12.3523
esa	-12.3524
▁arreglar	-12.3527
▁decidirse	-12.3529
▁adoptara	-12.353
▁emprenda	-12.3531
▁dedique	-12.3531
▁reflejada	-12.3534
▁prevea	-12.3537
8(	-12.3539
▁burg	-12.3542
▁falsificaciones	-12.3543
▁habsburg	-12.3543
▁predecir	-12.3543
▁sjöstedt	-12.3543
▁tomlinson	-12.3543
▁pausa	-12.3543
▁vulneración	-12.3543
▁incitación	-12.3544
▁llam	-12.3545
▁incrementos	-12.3549
▁71	-12.355
▁confían	-12.3553
▁contrasta	-12.3554
▁mataderos	-12.3555
▁fabricados	-12.3556
▁secreta	-12.3561
▁ordinario	-12.3563
▁retroceder	-12.3567
sesperadamente	-12.357
▁tope	-12.357
▁minar	-12.357
émonos	-12.3575
▁libra	-12.3578
▁organizarse	-12.3581
▁evalúa	-12.3581
▁despierta	-12.3581
▁saldrá	-12.3581
▁reactor	-12.3585
▁recibí	-12.3586
todos	-12.3586
▁institutos	-12.3587
▁violentas	-12.3587
▁holandesa	-12.359
▁incuestionable	-12.359
▁infección	-12.359
▁cinismo	-12.359
▁acento	-12.359
▁historias	-12.359
▁peco	-12.3593
▁saludamos	-12.3598
▁alcanzará	-12.36
▁revitalizar	-12.3602
▁1,5	-12.3606
▁lamentables	-12.3606
▁preferente	-12.3606
▁ardua	-12.3606
▁perjudican	-12.3606
▁traspaso	-12.3611
▁debíamos	-12.3612
▁inspirar	-12.3614
▁objetos	-12.3619
▁450	-12.362
rra	-12.3624
▁modifican	-12.3625
▁objetivas	-12.3633
▁licitaciones	-12.3637
▁crueldad	-12.3637
▁agrupaciones	-12.3638
▁stalin	-12.3639
▁97	-12.364
▁sabios	-12.3649
▁creadas	-12.3651
0/	-12.3652
▁empiecen	-12.3652
▁representaría	-12.3657
▁ilícito	-12.3658
▁desastrosa	-12.3658
▁nacionalidades	-12.3659
ly	-12.3659
▁respetados	-12.3663
▁apoyarlo	-12.3664
(1999)	-12.3667
▁encargue	-12.3676
herzegovina	-12.3677
▁educar	-12.3678
▁capas	-12.3679
▁dañar	-12.3679
▁irregular	-12.368
▁sucesor	-12.3682
▁abjasia	-12.3685
▁cerveza	-12.3685
▁eurobarómetro	-12.3685
▁igualitario	-12.3685
▁thyssen	-12.3685
▁aplace	-12.3685
▁sinónimo	-12.3685
▁vicioso	-12.3685
op	-12.3685
▁fava	-12.3685
▁inquieta	-12.3686
▁llegaremos	-12.3686
▁nutricionales	-12.3687
▁disminuyendo	-12.3688
▁comprometernos	-12.3688
▁excusas	-12.369
sestabilización	-12.3691
(2000)	-12.3692
hemos	-12.3692
▁fieles	-12.3692
nada	-12.3695
▁enfatizar	-12.3695
▁dirán	-12.3696
▁generando	-12.3698
cuánto	-12.3699
▁encontraban	-12.37
▁expulsar	-12.3702
6-03	-12.3703
▁comprometen	-12.3703
▁acaben	-12.3705
▁inhumano	-12.3706
▁vis	-12.3706
▁privilegiado	-12.3707
▁totalitarios	-12.3714
▁pacíficamente	-12.3716
▁estaciones	-12.3717
▁físicos	-12.3723
▁invierte	-12.3724
▁americanas	-12.3726
▁jan	-12.373
▁81	-12.3731
▁fomentará	-12.3732
▁senegal	-12.3733
▁piebalgs	-12.3733
▁tony	-12.3733
▁tocado	-12.3736
▁auditores	-12.3737
▁minuciosamente	-12.3737
▁prestados	-12.3743
pusimos	-12.3746
▁ocio	-12.3746
▁ignoran	-12.3749
▁provocaría	-12.375
ser	-12.3757
▁representativa	-12.3757
▁facilitada	-12.376
▁sueños	-12.3762
▁sugieren	-12.3766
▁generada	-12.377
▁abren	-12.3771
▁fiscalía	-12.3772
▁mover	-12.3775
▁aparta	-12.3779
▁beijing	-12.3781
▁latinoamérica	-12.3781
▁comenzamos	-12.3781
▁belder	-12.3781
▁quiso	-12.3781
▁fraga	-12.3781
▁azote	-12.3781
▁eurocontrol	-12.3781
▁exporta	-12.3784
16	-12.3784
rar	-12.3785
▁apoyaré	-12.3786
▁sabíamos	-12.3787
▁proclamar	-12.379
▁abandonados	-12.3793
▁profesionalidad	-12.3794
▁enérgicas	-12.3797
▁prematura	-12.3798
▁discutible	-12.3802
▁admitido	-12.3802
▁habitante	-12.3803
▁ocasiona	-12.3811
ef	-12.3812
▁dramáticos	-12.3816
ua	-12.3817
▁ueo	-12.3817
▁sustituya	-12.3821
continuación	-12.3822
▁mina	-12.3824
▁simultánea	-12.3825
▁corredor	-12.3825
▁clausura	-12.3828
▁abordará	-12.3828
▁domicilio	-12.3829
▁matriculación	-12.3829
▁rotundo	-12.3829
▁tenacidad	-12.3829
▁tobin	-12.3829
▁planteo	-12.3829
▁lancker	-12.3829
▁provechosa	-12.383
▁eeuu	-12.3832
▁incrementando	-12.3832
▁males	-12.3833
▁ropa	-12.3834
▁presentarán	-12.3837
▁sumarse	-12.384
transformaciones	-12.384
▁juegan	-12.3841
jarán	-12.3844
▁plenos	-12.3844
▁plaga	-12.3846
▁portuarias	-12.3846
▁vivan	-12.3847
▁ajustan	-12.3848
▁logran	-12.3848
▁votarán	-12.3849
▁alimenticia	-12.3851
▁moderada	-12.3851
▁ajena	-12.3851
▁inherente	-12.3851
▁natal	-12.3857
▁especializada	-12.3857
ima	-12.3858
▁trazado	-12.3858
▁afganos	-12.3859
▁fo	-12.3864
▁debatirse	-12.3865
▁océanos	-12.3869
▁justificados	-12.387
▁interregional	-12.3873
▁creyendo	-12.3878
▁fécula	-12.3878
▁johannesburgo	-12.3878
▁tayikistán	-12.3878
▁teherán	-12.3878
▁cotizaciones	-12.3878
dad	-12.3881
▁triple	-12.3881
▁4.	-12.3882
▁empleando	-12.3886
▁respetuosas	-12.3888
▁tramitar	-12.3888
▁injusticias	-12.3889
od	-12.3897
▁suyos	-12.3898
▁controladas	-12.39
▁choque	-12.39
▁laboristas	-12.3901
▁aproxima	-12.3902
▁nace	-12.3908
ling	-12.3912
▁formule	-12.3914
▁recabar	-12.3915
▁adoptarán	-12.3917
▁fortalece	-12.3918
▁reco	-12.3921
▁manual	-12.3922
debemos	-12.3922
▁paramilitares	-12.3926
▁intergrupo	-12.3927
▁60%	-12.3928
▁qua	-12.3929
▁inadecuadas	-12.393
▁inevitables	-12.3934
▁reúnan	-12.3936
▁centralización	-12.3941
▁invit	-12.3942
▁retiren	-12.3943
▁contaminados	-12.3946
▁bolsillos	-12.3946
▁traslada	-12.3947
▁consultivos	-12.3947
▁ejecutivos	-12.3948
▁pondrán	-12.3948
▁casco	-12.3949
▁doloroso	-12.3949
▁iniciada	-12.3951
icen	-12.3956
▁eleva	-12.3956
▁estimada	-12.3958
▁destacada	-12.396
ide	-12.3962
▁satisfaga	-12.3967
▁artesanal	-12.3971
▁distorsionar	-12.3971
▁biogás	-12.3975
▁cappato	-12.3975
▁imponible	-12.3975
▁inducir	-12.3975
▁precauciones	-12.3975
▁rendición	-12.3975
▁cometiendo	-12.3975
▁fijó	-12.3975
▁jornadas	-12.3976
▁108	-12.3979
▁pronuncia	-12.398
▁ocupará	-12.398
min	-12.3981
▁euroescépticos	-12.3982
▁hacerlas	-12.3983
▁minoritarios	-12.3983
gh	-12.3984
▁nocivas	-12.3984
▁controle	-12.3984
▁juveniles	-12.3986
espero	-12.3987
▁2007-2013,	-12.3988
▁reabrir	-12.399
▁carecemos	-12.3997
▁veterinaria	-12.3998
▁precario	-12.3998
▁peaje	-12.3998
▁honorable	-12.3998
▁patata	-12.3998
▁ingente	-12.3999
▁estructurada	-12.4001
▁tratemos	-12.4005
▁abusar	-12.4014
▁refiera	-12.4016
▁capitalistas	-12.4022
▁saque	-12.4023
lista	-12.4023
sec	-12.4024
▁hundimiento	-12.4025
▁pabellones	-12.4025
▁partenariado	-12.4025
▁reunimos	-12.4025
▁temporada	-12.4025
▁comprobamos	-12.4025
▁derroche	-12.4025
▁paul	-12.4025
▁echelon	-12.4025
▁cortesía	-12.4025
▁colaboren	-12.4029
▁abandonan	-12.403
▁mire	-12.403
▁sufran	-12.4031
▁logrando	-12.4031
▁suspende	-12.4034
▁leo	-12.4036
▁atendiendo	-12.404
ang	-12.4045
▁mini	-12.4046
▁deficiencia	-12.4048
▁mediador	-12.405
ep	-12.4052
▁organizadas	-12.4053
▁cre	-12.4054
▁boicot	-12.4058
▁conozca	-12.4062
7/	-12.4066
▁gil	-12.4068
▁mccarthy	-12.4074
▁causó	-12.4074
▁columna	-12.4074
▁estambul	-12.4074
▁génova	-12.4074
▁rescatar	-12.4074
▁uniformidad	-12.4074
▁brinde	-12.4074
▁agotamiento	-12.4074
▁jugando	-12.4074
▁rotación	-12.4075
▁condeno	-12.4075
stru	-12.4077
▁vele	-12.4077
▁deportistas	-12.4077
▁encargarse	-12.408
▁reparos	-12.4083
ral	-12.4083
▁recalcado	-12.4085
▁supermercados	-12.4085
▁durar	-12.4091
vers	-12.4093
▁prosperar	-12.4093
▁extendida	-12.4097
▁pasivo	-12.4097
▁laboratorio	-12.4097
▁susceptible	-12.4097
realmente	-12.4101
2(	-12.4107
▁tácticas	-12.411
▁existiera	-12.4115
▁pague	-12.4116
vengo	-12.4117
feag	-12.4117
▁deroga	-12.4122
è	-12.4123
▁conciernen	-12.4124
▁aarhus	-12.4124
▁apéndice	-12.4124
▁pertenezco	-12.4124
▁xix	-12.4124
▁musulmán	-12.4124
▁pesd	-12.4125
▁progresando	-12.4125
▁volverán	-12.4128
▁europe	-12.4132
▁transformado	-12.4133
▁2050	-12.4137
▁lácteas	-12.4137
▁docenas	-12.4139
9(	-12.4139
▁ejercicios	-12.4139
▁ligeros	-12.414
▁sensibilizar	-12.4141
▁santa	-12.4145
6(	-12.4146
▁enérgico	-12.4147
▁distrito	-12.4147
▁proteccionista	-12.4147
▁permitirían	-12.4148
▁pareja	-12.4148
▁tramo	-12.415
70	-12.4156
▁ocasionados	-12.4163
▁fijarse	-12.4163
▁incremente	-12.4165
gó	-12.4169
▁macroeconómicas	-12.4171
▁consentir	-12.4174
▁holocausto	-12.4174
▁propuse	-12.4174
▁varsovia	-12.4174
▁debió	-12.4174
▁perú	-12.4174
▁sitúe	-12.4175
▁afirmaba	-12.4175
▁geográficos	-12.4177
▁recaer	-12.4178
▁llevarlo	-12.4179
av	-12.4183
▁1990.	-12.4185
▁determinan	-12.4189
▁trasladarse	-12.419
dar	-12.4191
▁añaden	-12.4193
▁telefónicas	-12.4194
▁hectárea	-12.4198
cc	-12.4199
▁constituyó	-12.4199
▁embajadas	-12.4199
▁bienvenido	-12.42
dia	-12.42
▁22,	-12.4206
▁madura	-12.4206
▁adapte	-12.4208
▁prosiga	-12.4212
▁elaboradas	-12.4215
▁problemáticos	-12.4216
sco	-12.4218
▁parental	-12.4219
▁asistiendo	-12.4224
▁compañera	-12.4224
▁establecieron	-12.4224
▁jensen	-12.4224
▁manifestando	-12.4224
▁impulsa	-12.4226
▁realizaron	-12.4226
▁designados	-12.4227
▁origina	-12.4227
▁estudiará	-12.4228
▁posteriori	-12.4228
▁olvidamos	-12.4229
ñas	-12.4231
▁ordenar	-12.4233
▁representará	-12.4239
▁ilegalidad	-12.4239
rv	-12.424
▁turcochipriotas	-12.4245
▁paneuropeo	-12.4248
24	-12.425
▁frases	-12.4253
▁87	-12.4261
izan	-12.4262
árselo	-12.4264
▁enviados	-12.4264
▁genere	-12.4266
▁agrarios	-12.427
▁ki	-12.4273
▁aumentó	-12.4275
▁talibán	-12.4275
▁bonito	-12.4275
fl	-12.4275
▁acnur	-12.4275
▁procesar	-12.4276
▁calurosamente	-12.4278
▁73	-12.4279
▁debatamos	-12.4279
▁becas	-12.428
ega	-12.4282
▁corresponder	-12.4282
▁ulteriores	-12.4284
▁injustamente	-12.4285
▁prepararnos	-12.4286
▁durado	-12.4286
▁organiza	-12.4286
▁integre	-12.4291
▁impresionado	-12.4291
▁variedades	-12.4292
▁plasma	-12.4293
▁incoherente	-12.4299
▁multa	-12.4299
▁primario	-12.4299
▁acompañadas	-12.43
▁ejecutado	-12.4301
▁consulte	-12.4302
▁vol	-12.4309
▁bando	-12.4309
illa	-12.4314
▁maniobras	-12.4314
ure	-12.4315
▁presentaré	-12.4316
▁enterado	-12.4316
az	-12.4316
▁manifieste	-12.4317
▁recupere	-12.4317
▁acertadas	-12.4318
▁recordará	-12.432
▁padece	-12.4322
▁automovilístico	-12.4325
▁bolivia	-12.4325
▁contagio	-12.4325
▁oreja	-12.4325
▁perdió	-12.4325
▁precariedad	-12.4325
▁rasmussen	-12.4325
▁tutela	-12.4326
bre	-12.4326
▁paridad	-12.4328
▁enseñado	-12.433
▁abandonen	-12.4335
▁embajadores	-12.4336
▁il	-12.4339
▁librar	-12.4339
▁mentes	-12.4339
▁torres	-12.434
▁inicien	-12.434
▁brutales	-12.4341
▁conferir	-12.4342
▁empleadas	-12.4345
▁agresiva	-12.435
▁inocente	-12.435
▁multiplicar	-12.4353
▁ligada	-12.4355
▁cri	-12.4356
▁transitorios	-12.4361
▁or	-12.4361
▁servirán	-12.4362
▁atañen	-12.4365
▁rendimientos	-12.4367
▁recoja	-12.4368
▁compara	-12.4368
▁secuestros	-12.437
▁asunción	-12.4377
▁bagdad	-12.4377
▁cunha	-12.4377
▁esclavos	-12.4377
▁katiforis	-12.4377
▁menciono	-12.4377
▁schuman	-12.4377
▁lambert	-12.4377
▁urnas	-12.4377
▁empeoramiento	-12.4377
ier	-12.4379
▁compartidas	-12.438
▁apoyos	-12.4382
▁detenerme	-12.4383
▁planteen	-12.4393
▁costará	-12.4394
▁92	-12.4395
▁severa	-12.4397
▁quedamos	-12.4397
▁asegurará	-12.4398
▁banderas	-12.4399
▁beneficiaría	-12.44
[...]
