<unk>
<eos>
<pad>
▁the
,
.
▁of
▁to
▁and
▁in
▁that
▁a
▁is
▁for
▁we
▁i
▁this
▁on
▁it
▁be
▁are
▁have
▁as
▁not
▁with
▁which
▁european
s
▁will
▁by
-
▁has
'
▁mr
▁at
▁commission
▁an
▁would
▁also
▁all
▁should
▁but
▁our
▁from
▁president
▁-
▁must
▁there
▁been
▁union
▁you
▁parliament
▁can
▁states
▁member
▁more
▁was
▁report
▁or
▁these
▁its
▁they
▁do
▁their
▁council
▁like
▁what
▁very
▁one
▁if
▁europe
▁so
▁eu
▁countries
▁who
▁us
▁my
▁(
▁no
▁other
▁about
▁people
▁need
▁only
▁policy
▁important
▁new
▁time
:
▁because
)
▁now
▁such
▁rights
▁up
▁am
▁therefore
▁support
?
▁out
▁when
▁those
▁however
▁take
▁make
▁between
▁into
▁work
▁some
▁committee
▁economic
▁any
▁being
▁political
▁them
▁made
▁were
▁first
▁many
▁than
▁way
▁commissioner
▁believe
▁social
▁development
▁say
▁against
▁market
;
▁proposal
▁fact
▁human
▁debate
▁group
▁just
▁well
▁question
▁think
▁even
▁today
▁agreement
▁here
▁issue
▁point
▁
▁years
▁does
▁citizens
▁two
’
▁public
▁future
▁situation
▁right
▁order
▁community
▁country
▁how
▁cannot
▁'
▁could
▁measures
▁want
▁same
▁had
▁possible
▁most
▁world
▁part
▁financial
▁where
▁international
▁directive
▁national
▁said
▁state
▁much
▁good
▁already
▁me
▁within
▁common
▁clear
▁too
▁year
▁both
▁cooperation
▁–
▁over
▁under
▁vote
▁still
▁may
▁know
▁members
▁why
▁see
▁particular
▁use
▁your
▁mrs
▁energy
▁system
▁view
▁he
▁course
▁then
▁hope
▁action
▁taken
▁level
▁his
▁area
▁ensure
▁thank
▁own
▁case
▁able
▁last
▁process
▁security
▁place
▁without
▁information
▁put
▁rapporteur
▁house
▁treaty
▁number
▁through
▁government
▁problem
▁means
▁example
▁protection
▁before
▁given
▁gentlemen
▁since
▁ladies
▁legal
▁budget
▁amendments
▁problems
▁programme
▁great
▁women
▁rules
▁particularly
▁madam
ing
▁resolution
▁necessary
▁trade
▁give
▁long
▁end
▁health
▁issues
▁far
▁law
▁united
▁respect
▁presidency
▁position
▁regard
▁areas
▁decision
▁matter
▁whether
▁again
▁after
▁further
▁sector
▁framework
▁set
▁services
▁role
▁next
▁favour
▁let
▁amendment
▁regulation
▁basis
▁proposals
▁certain
▁terms
▁behalf
▁aid
▁come
▁done
▁crisis
▁better
▁legislation
▁different
▁adopted
▁help
▁agree
▁present
▁strategy
▁change
▁needs
▁subject
▁institutions
▁continue
▁opinion
▁progress
▁ask
▁working
▁wish
▁employment
▁transport
▁three
▁general
▁concerned
▁s
▁result
▁another
▁high
▁going
▁during
▁welcome
▁whole
▁environment
▁something
▁towards
▁forward
▁few
▁approach
▁voted
▁research
▁safety
▁second
▁industry
▁every
▁current
▁clearly
▁conditions
▁principle
▁resources
▁together
▁go
▁procedure
▁including
▁finally
▁fundamental
▁did
▁importance
▁opportunity
▁once
▁proposed
▁really
▁shall
▁while
▁yet
▁authorities
▁provide
▁million
▁specific
▁especially
▁quite
▁policies
▁third
▁increase
▁affairs
▁used
▁funds
▁environmental
▁rather
▁internal
▁greater
▁find
▁negotiations
▁account
▁small
▁responsibility
▁democracy
▁become
▁products
▁itself
▁down
▁serious
▁least
▁democratic
▁indeed
▁freedom
▁regions
▁reason
▁making
▁always
▁effective
▁attention
▁free
▁call
▁control
▁real
▁difficult
▁essential
▁having
▁society
▁access
▁taking
▁things
▁growth
▁food
▁based
▁deal
▁allow
▁major
▁each
▁implementation
▁single
▁achieve
▁interests
▁economy
▁efforts
▁although
▁various
▁money
▁large
▁get
▁positive
▁following
▁words
▁reform
▁hand
▁region
▁court
▁points
▁workers
▁back
▁children
▁competition
▁peace
▁look
▁less
▁euro
▁consider
▁involved
▁foreign
▁full
▁global
▁agreements
▁concerns
▁regional
▁certainly
▁companies
▁power
▁article
▁step
▁quality
▁objectives
▁relations
▁programmes
▁agricultural
▁recent
▁lisbon
▁standards
▁fully
▁interest
▁objective
▁best
▁solution
▁dialogue
▁eur
▁majority
▁often
▁her
▁simply
▁justice
in
▁decisions
▁initiative
▁force
▁bring
▁questions
▁production
▁extremely
▁concern
▁groups
▁turkey
▁aware
▁education
▁life
▁party
▁perhaps
▁accept
▁main
▁enlargement
▁climate
▁concerning
▁text
▁ago
▁create
▁actually
▁non
▁context
▁risk
▁agenda
▁might
▁period
▁fund
▁form
▁joint
▁fight
▁developing
▁jobs
▁currently
▁mentioned
▁available
▁improve
▁plan
ed
▁meeting
▁consumers
▁consumer
▁convention
▁start
▁impact
▁results
▁open
▁appropriate
▁stability
▁conference
▁others
▁field
▁data
▁day
▁russia
▁secondly
▁management
▁understand
▁act
▁writing
▁responsible
▁labour
▁rule
▁doing
a
▁summit
▁themselves
▁firstly
▁central
▁cases
▁months
▁among
▁needed
▁thing
▁key
▁systems
▁reasons
▁civil
▁matters
▁regarding
▁enough
!
▁individual
▁solidarity
▁special
▁parties
▁principles
▁above
▁kind
▁compromise
▁costs
▁though
▁tax
▁longer
▁unfortunately
▁regards
▁activities
▁projects
/
▁nothing
▁governments
▁priority
▁1
▁achieved
▁feel
▁funding
▁local
▁nuclear
▁investment
▁significant
▁true
▁commitment
▁due
▁lack
▁legislative
▁sustainable
▁idea
▁aim
▁draft
▁past
▁little
▁promote
▁minister
▁reports
▁young
▁structural
▁agriculture
▁thus
▁mean
▁sure
▁strong
▁congratulate
▁several
▁final
▁provided
▁line
▁service
▁un
▁excellent
▁nations
▁guarantee
▁effect
▁prevent
de
▁lead
office
▁cohesion
▁transparency
▁include
▁fisheries
▁markets
▁communication
▁agreed
▁external
▁project
▁integration
▁aspects
▁budgetary
▁tomorrow
▁remain
▁play
▁seen
▁war
▁everyone
▁moment
▁business
▁response
▁terrorism
▁until
▁relation
▁technical
▁accession
▁contribution
▁makes
▁comes
▁addition
▁pay
▁apply
▁benefit
▁voting
▁discussion
▁colleagues
▁population
▁actions
▁upon
▁speak
▁move
▁values
▁short
▁share
▁elections
▁she
▁him
▁existing
▁answer
▁despite
▁criteria
▁practice
▁violence
▁seems
▁provisions
▁poverty
▁000
▁assistance
▁procedures
▁pleased
▁regulations
▁changes
▁equal
▁china
▁soon
term
▁statement
▁according
▁farmers
▁never
▁‘
▁everything
▁ourselves
▁success
se
▁basic
▁express
▁mind
▁creation
▁cultural
▁crucial
▁carried
▁consequences
▁left
▁adopt
▁saying
▁military
▁asked
▁increased
▁opportunities
▁instead
▁training
▁fishing
▁increasing
▁item
▁term
▁monetary
▁off
▁held
▁sense
▁balance
▁protect
▁application
▁reduce
▁close
▁relating
▁tabled
▁organisations
▁throughout
m
▁namely
▁parliamentary
▁request
▁requirements
▁develop
▁nor
▁show
▁times
▁either
▁meet
▁draw
▁job
▁presented
▁instruments
▁monitoring
the
▁value
▁instrument
▁partnership
▁nature
▁required
▁around
▁cost
▁movement
▁closed
▁week
▁stage
▁road
▁five
▁priorities
▁mention
▁bank
▁initiatives
▁face
▁constitution
▁demand
▁keep
d
▁tell
▁thanks
▁conflict
▁called
▁water
▁furthermore
▁culture
▁across
▁previous
▁using
▁pressure
▁four
▁reach
▁task
▁recently
▁potential
▁illegal
▁immigration
▁experience
▁decided
▁address
▁prepared
▁minutes
▁package
▁challenges
▁borders
▁talking
▁waste
▁reading
▁review
▁reached
▁ireland
▁conclusion
▁powers
▁defence
▁fair
▁raised
▁try
▁effort
▁implemented
▁expressed
▁direction
▁nevertheless
▁rural
▁establish
▁fellow
▁east
▁medium
▁levels
▁coming
▁ever
▁included
▁absolutely
▁crime
▁focus
▁implement
▁billion
▁partners
▁victims
▁doubt
▁vital
▁private
▁organisation
▁established
▁quickly
▁outside
▁home
▁enable
▁ministers
▁talk
▁sectors
▁effects
▁giving
▁reality
▁supported
▁unemployment
▁reduction
▁almost
▁sea
▁completely
▁air
▁emissions
▁note
▁representatives
▁along
▁motion
▁businesses
▁coordination
▁list
▁criminal
▁additional
▁moreover
▁prices
▁found
e
▁authority
▁reforms
▁live
▁price
▁france
▁french
▁brought
▁competitiveness
▁africa
▁received
▁encourage
▁extent
▁document
▁stress
▁light
▁ensuring
▁agency
▁december
▁direct
▁amount
▁cross
▁cause
▁republic
▁took
▁democrats
▁heard
▁paper
▁living
▁south
▁co
▁natural
▁model
▁men
▁applied
▁assessment
▁discussed
▁creating
▁approved
▁behind
▁possibility
▁treatment
▁confidence
▁relevant
▁follow
▁events
▁away
▁adoption
▁discussions
▁innovation
▁obviously
ly
▁guidelines
▁british
▁practical
▁strengthen
▁proper
▁care
▁offer
▁six
▁media
▁unacceptable
▁de
▁add
▁begin
▁10
▁technology
▁asylum
▁remains
▁honourable
▁knowledge
▁days
▁turn
▁discuss
▁expect
▁precisely
▁discrimination
▁capacity
▁lot
▁humanitarian
▁considered
▁solutions
▁family
▁old
▁effectively
▁scope
▁reference
▁takes
▁affected
▁avoid
▁rate
▁sitting
▁goods
▁administrative
▁independent
▁stop
▁side
▁difficulties
▁june
▁trying
▁aimed
▁developed
▁industrial
▁efficiency
▁contribute
▁green
▁shown
▁equality
▁carry
▁conclusions
▁improving
▁huge
▁overall
▁remind
▁active
▁connection
▁message
▁challenge
▁institutional
▁20
▁%
▁yesterday
▁forces
▁15
▁specifically
▁circumstances
▁accordance
▁providing
▁scientific
▁speech
▁regime
▁capital
▁combat
▁status
▁re
▁committed
▁consideration
▁date
▁half
▁allowed
▁duty
▁personal
▁minimum
▁beginning
▁implementing
▁enterprises
▁total
▁paragraph
▁created
▁considerable
▁hard
▁germany
▁self
▁comments
▁rightly
▁oil
▁benefits
▁propose
▁return
▁accepted
▁promoting
▁successful
▁provides
▁stand
▁supply
▁brussels
▁history
▁participation
▁goes
▁beyond
▁strategic
▁stated
▁death
▁provision
▁receive
▁purpose
▁2000
▁anti
▁content
▁lives
▁seriously
▁wto
▁calls
▁forms
▁dealing
▁referred
▁closely
▁plans
▁colleague
▁urgent
▁kosovo
▁12
▁police
▁israel
▁introduction
▁decide
t
▁exchange
▁views
▁per
▁speaking
▁wanted
▁steps
▁constitutional
▁ban
▁financing
▁2
▁representative
▁tourism
european
▁irish
▁pact
▁leave
▁"
▁happen
▁produce
▁setting
▁measure
▁mediterranean
▁low
▁animal
▁prime
▁requires
▁annual
▁complete
▁directly
▁january
▁commitments
sized
▁anything
▁expenditure
▁ten
▁activity
▁maintain
▁looking
▁supporting
▁wrong
▁similar
▁entire
▁myself
▁3
▁intended
▁german
▁middle
▁poor
▁efficient
▁highly
▁ways
▁sometimes
▁gas
▁demands
▁border
▁office
▁event
▁product
▁internet
▁exist
▁establishing
▁bodies
▁eastern
▁aspect
▁paid
▁sufficient
▁former
▁greece
▁perspective
▁competitive
▁properly
▁increasingly
▁type
▁higher
▁alone
▁represent
▁known
▁early
▁weeks
▁led
▁budgets
▁join
▁combating
▁iraq
▁discussing
▁animals
▁shows
▁statements
▁limited
▁achieving
▁study
▁risks
▁strengthening
▁opposition
▁calling
▁later
▁delegation
▁conclude
▁respond
▁ambitious
▁north
▁genuine
▁march
▁caused
▁reducing
▁c
▁improved
▁refer
▁prevention
▁language
▁happened
▁documents
▁represents
up
▁whom
▁aims
▁remember
▁threat
▁earlier
▁urge
▁contrary
▁produced
▁name
border
▁hear
▁emphasise
▁currency
▁infrastructure
▁manner
▁convinced
▁producers
▁broad
▁developments
▁limit
▁outcome
called
▁network
▁rise
▁candidate
▁useful
▁require
▁declaration
▁otherwise
fr
▁gives
▁comprehensive
▁recognise
▁regret
▁charter
▁hold
▁analysis
▁building
▁11
▁spanish
▁italy
▁balanced
▁thinking
▁influence
▁staff
▁opening
▁concrete
▁thought
▁recognition
▁cut
▁elements
responsibilities
▁consensus
▁dimension
▁reduced
▁comment
▁acceptable
▁becoming
▁spirit
▁refugees
▁company
▁5
▁damage
▁pointed
▁flexibility
▁origin
▁concept
▁directives
▁introduce
▁facing
▁entirely
2
▁thirdly
▁added
▁wants
▁american
▁25
▁liberalisation
▁globalisation
▁sources
▁word
▁naturally
▁asking
▁negative
▁differences
▁introduced
▁alternative
▁relationship
▁recommendations
▁rest
▁romania
▁press
making
▁september
▁commercial
▁probably
▁rapporteurs
▁networks
▁morning
▁spain
▁raise
▁establishment
▁else
▁met
▁failure
▁forget
▁mechanism
▁dangerous
▁closer
▁treaties
▁administration
▁body
▁uk
▁practices
▁strongly
▁exactly
▁laws
▁parts
▁says
▁fraud
▁methods
▁sanctions
▁applies
es
▁integrated
▁america
▁trust
▁agencies
▁institution
y
▁governance
▁bear
▁attempt
▁chance
▁ideas
▁november
▁child
▁happy
▁meps
▁putting
▁chamber
▁intervention
▁palestinian
▁gender
▁dealt
▁reply
▁improvement
▁critical
▁finance
▁laid
▁drawn
▁person
▁submitted
▁constructive
▁big
▁sort
▁western
▁immediately
▁recommendation
▁ukraine
▁whilst
▁operation
▁correct
▁obligations
▁targets
▁growing
▁30
▁anyone
▁addressed
▁association
▁informed
▁written
▁seek
▁kingdom
▁p
▁mandate
▁enormous
▁italian
▁thousands
▁choice
▁read
▁ground
▁communities
▁mutual
▁ahead
▁method
▁unable
▁managed
▁send
▁transparent
▁fall
▁understanding
▁organised
▁mainly
▁october
▁independence
▁consultation
▁persons
▁faced
pl
▁age
▁build
▁burden
tergovernmental
▁simple
▁resolutions
▁discharge
▁seem
▁contains
▁iran
▁merely
▁rejected
it
▁definition
▁sensitive
▁turkish
▁leaders
▁russian
▁protocol
▁continuing
▁easy
▁neither
▁centre
▁signed
▁fear
▁leading
▁official
▁membership
▁instance
▁trafficking
▁mechanisms
▁goals
▁told
▁4
▁exercise
▁evidence
▁renewable
▁technologies
▁complex
▁figures
▁run
▁resolve
▁subsidiarity
▁freedoms
▁payments
▁drugs
▁lost
▁elected
▁please
▁disaster
▁socialist
▁adequate
▁came
▁board
▁round
▁worked
▁debates
▁approval
▁land
▁impossible
▁traffic
▁guarantees
▁positions
▁totally
▁substantial
▁speakers
▁income
▁intention
▁attitude
▁repeat
▁fish
▁wishes
▁amsterdam
▁economies
▁extend
▁ought
▁includes
▁promotion
▁degree
▁bringing
▁related
▁desire
▁smes
▁europeans
▁parliaments
▁expression
▁failed
▁schengen
▁disease
▁structure
▁obvious
▁intend
▁families
▁secure
▁conduct
▁table
▁cover
▁grateful
▁protecting
▁involvement
▁acts
▁territory
▁opposed
▁getting
▁weapons
▁immediate
▁cyprus
▁talks
▁rates
▁happening
▁goal
▁plenary
▁election
▁6
▁sound
▁controls
▁actual
▁linked
▁customs
▁forced
▁involving
▁appeal
▁adopting
▁portugal
▁highlight
▁starting
▁original
▁ready
▁personally
▁poland
▁votes
▁lines
▁mobility
▁travel
▁situations
▁northern
▁diversity
▁enter
▁greatest
▁defend
▁arms
▁consequently
▁vice
▁evaluation
▁advantage
▁auditors
▁substances
▁heart
▁recognised
▁sides
▁followed
▁2007
▁july
▁truly
▁maritime
▁bad
▁minorities
▁credit
b
▁appear
▁oral
▁tackle
▁peoples
▁pollution
▁interesting
▁meetings
▁ones
▁granted
▁safe
▁shared
▁2004
▁vehicles
▁recovery
▁detailed
▁assembly
▁seeking
▁danger
▁supports
▁subsidies
▁equally
▁floor
▁amongst
▁van
▁involve
▁voice
▁judicial
▁comply
▁explain
▁suffering
▁barroso
▁ability
▁sign
▁element
▁export
▁african
▁bilateral
▁carefully
▁sweden
▁committees
▁designed
▁changed
▁covered
▁criticism
▁target
▁reject
▁swedish
▁generally
▁range
▁presence
▁competence
▁harmonisation
▁belarus
▁rail
▁thereby
▁serve
▁proposing
▁minority
▁spent
▁emphasis
▁hours
▁delay
▁structures
▁standard
▁8
▁planning
▁taxation
▁binding
▁continues
▁improvements
▁7
▁consumption
▁heads
▁session
▁27
▁50
▁politicians
▁consistent
▁lower
▁late
▁campaign
▁2009
▁moving
▁employees
▁rapid
▁expected
▁causes
▁immigrants
▁1999
▁series
▁credibility
▁b
▁detail
▁reasonable
▁conciliation
▁bulgaria
▁entry
▁acp
▁regulatory
▁april
▁experts
▁2005
▁2020
▁terrorist
▁limits
▁affect
▁migration
▁yes
▁worth
▁encouraging
pt
▁permanent
▁participate
▁monitor
▁unless
▁factor
▁greek
▁commissioners
▁signal
▁compensation
▁arrangements
▁politics
▁domestic
▁tobacco
▁speaker
▁initial
▁attacks
▁whatever
▁g
▁religious
▁factors
▁languages
▁alliance
▁easier
▁maximum
▁citizen
▁ppe
▁ultimately
▁gave
▁source
▁obtain
▁banks
▁welfare
▁visa
▁nos
▁lies
▁lastly
▁voluntary
▁started
▁obligation
▁functioning
▁grounds
▁roma
▁transfer
th
▁temporary
▁professional
▁liberal
based
▁month
▁labelling
▁imposed
▁9
▁continent
▁respected
▁contributions
▁inform
▁debt
▁facilitate
▁fail
▁14
▁trading
▁code
▁flexible
▁century
▁capable
▁apart
▁appears
▁numerous
▁18
▁crimes
▁scheme
▁mission
▁fighting
▁delighted
▁13
er
▁conflicts
▁chairman
▁ombudsman
▁construction
▁requirement
▁inclusion
▁awareness
▁payment
n
▁restrictions
▁technological
▁nato
▁modern
▁proposes
▁sent
▁partner
▁forthcoming
▁compliance
president
▁endorse
▁helping
▁evening
▁netherlands
▁referendum
▁cap
▁czech
▁spending
▁placed
▁impose
▁2003
▁operations
▁passengers
▁worse
▁solve
▁nonetheless
▁scale
▁firm
▁ecu
▁diseases
▁interested
▁allowing
▁investments
▁negotiating
▁link
▁car
"
▁copenhagen
▁afghanistan
▁likely
▁guaranteed
▁millions
▁defined
▁continued
▁opinions
▁safeguard
▁via
▁separate
h
▁learn
▁21
▁appropriations
▁reflect
▁purposes
ec
▁effectiveness
▁distribution
▁tasks
▁strasbourg
▁operators
▁balkans
▁india
▁resolved
▁officials
▁luxembourg
▁glad
▁letter
▁protected
▁baltic
▁white
▁demonstrated
▁disasters
▁traditional
▁average
▁operate
▁statistics
▁associated
▁peaceful
▁corruption
▁demonstrate
▁primarily
▁base
▁existence
▁exists
▁remarks
▁option
▁works
▁man
▁strict
▁occasions
▁examples
to
▁post
▁top
▁assure
▁path
▁portuguese
▁sexual
▁approve
▁wide
▁usa
▁justified
▁manage
▁speed
▁contained
▁truth
▁individuals
▁entitled
▁attack
▁collective
▁tried
▁suggest
▁2002
▁legitimate
▁difference
▁ii
▁chinese
▁operational
▁space
▁pre
▁considering
▁cooperate
▁undoubtedly
▁examine
▁austria
▁concluded
▁realise
▁surely
▁overcome
▁southern
▁dignity
▁amounts
▁substance
▁imports
▁played
▁passed
▁dutch
▁sport
▁planned
▁compared
▁loss
▁involves
▁violations
▁allocated
i
▁material
▁insurance
▁emergency
▁electronic
general
▁excessive
▁vulnerable
▁revision
▁hence
▁visit
▁clause
▁got
▁february
▁firmly
▁extended
no
▁treated
▁ethnic
▁contact
▁farming
▁pension
▁mass
▁abuse
▁taxes
▁vision
▁requested
▁preventing
▁fishermen
▁property
▁hands
▁noted
▁supervision
▁decisive
▁industries
▁studies
▁100
▁proceed
ro
▁knows
▁obstacles
▁croatia
▁universal
▁quotas
▁lose
▁statute
▁confirm
▁exclusion
▁happens
▁pillar
▁youth
▁somewhat
▁impression
▁gone
▁spoke
▁record
▁fuel
▁lay
▁preparing
▁highest
▁urgently
▁relates
▁appreciate
▁processes
▁keeping
▁nice
▁behaviour
▁latter
el
▁constantly
▁spoken
▁seven
▁exploitation
▁2001
▁ratification
▁introducing
▁drawing
▁offers
▁extension
▁details
▁phase
c
▁pursue
▁prepare
▁israeli
▁stronger
▁applying
▁stocks
▁proceedings
▁latest
▁prodi
▁gain
▁described
▁announced
▁coordinated
▁ngos
▁prosperity
▁allows
▁aviation
▁penalty
▁welcomed
▁duties
▁fiscal
▁brief
▁16
▁prove
▁patients
▁occasion
▁equipment
▁wonder
▁strengthened
▁accounts
▁expectations
▁confirmed
▁convergence
▁politically
▁courage
▁amending
▁precise
▁sensible
▁types
▁operating
▁asia
▁largest
▁fulfil
▁e
▁west
▁maintaining
▁submit
▁barriers
▁places
▁codecision
▁clarify
▁normal
▁cars
▁represented
▁arguments
▁strategies
▁intends
▁urban
al
▁historic
nl
▁briefly
▁pass
▁tool
▁finding
▁drug
▁function
▁serbia
▁determined
▁materials
▁unfair
▁willing
▁leadership
▁significantly
▁debating
▁innovative
▁kept
▁territorial
▁1998
▁sovereignty
▁electricity
▁succeed
▁largely
▁17
▁published
▁ongoing
▁learning
▁transition
▁offered
▁fine
▁contracts
▁d
▁changing
▁follows
▁urgency
▁waiting
▁facts
▁legally
▁near
▁insist
terinstitutional
▁fields
▁head
▁identity
▁realistic
▁dependent
▁condemn
▁careful
▁trans
▁answers
▁perfectly
▁wine
▁suffer
▁brings
▁test
▁argument
▁stable
▁nation
▁reconstruction
▁absence
▁someone
▁acknowledge
▁advance
▁40
▁accidents
▁medical
year
▁significance
▁felt
▁1997
▁difficulty
▁vessels
▁define
▁school
▁driving
▁understood
▁undertaken
▁seeing
▁wait
▁restructuring
▁determination
▁exports
▁hungarian
▁referring
▁choose
▁resulting
▁proved
l
▁sustainability
▁qualified
▁television
▁front
▁holding
8
▁coherent
▁shadow
▁invest
▁2006
▁valuable
▁assess
▁petitions
▁highlighted
▁zone
▁figure
▁socialists
▁medicines
▁beings
▁amended
▁genuinely
▁georgia
▁milk
▁neighbours
▁counter
▁negotiation
▁deficit
1
▁disposal
▁meat
▁vat
▁primary
▁satisfactory
▁europol
▁remove
▁inter
▁actively
▁users
▁investigation
▁preparation
▁claim
▁regular
▁absolute
▁condition
▁friends
▁built
▁leads
o
▁extra
▁identify
▁elsewhere
▁speeches
▁room
▁partly
▁previously
▁britain
▁possibly
▁waters
▁forum
▁latin
▁deliver
▁daily
▁suggested
▁finland
▁plants
▁transitional
▁turning
▁thursday
▁enforcement
▁listen
▁formal
▁enjoy
▁assume
▁playing
▁destruction
▁saw
▁neighbouring
▁2008
▁greens
▁belgian
▁constitute
▁plant
▁opposite
▁species
▁wider
▁grant
▁gdp
▁honour
▁stands
christian
▁governing
▁indicated
▁multilateral
▁believes
▁requests
▁identified
▁concentrate
▁inadequate
▁deep
▁sufficiently
▁black
▁satisfied
▁topic
▁compulsory
▁19
▁maintained
▁secretary
▁running
7
▁interpretation
▁double
▁meant
▁attempts
▁links
▁societies
▁version
▁release
▁guaranteeing
▁check
▁1996
▁essentially
▁obliged
▁greatly
▁schools
▁hundreds
▁considers
▁sugar
▁pakistan
▁deserves
▁whereas
▁launched
▁possibilities
▁cities
▁proportion
▁contain
com
▁afternoon
▁options
▁prisoners
▁proof
▁thanking
▁bse
▁neighbourhood
▁issued
▁conducted
▁tragic
▁suffered
▁completed
▁worldwide
▁500
▁carrying
▁becomes
▁himself
▁affects
▁kyoto
▁implications
▁hearing
▁timetable
▁leader
▁sorry
▁helped
▁numbers
on
▁advertising
▁diplomatic
▁facilities
▁definitely
▁complicated
▁uniform
▁gap
▁debated
▁ratified
▁seeks
▁assist
▁chosen
▁eight
▁passenger
▁spite
▁etc
▁exception
▁24
▁schemes
▁went
▁none
▁purely
▁feed
▁nobody
▁moral
▁news
▁austrian
▁belgium
▁bearing
▁centres
▁texts
▁massive
▁competent
▁danish
▁whereby
▁successfully
▁heritage
▁poorest
▁extensive
▁prior
▁addressing
▁tragedy
▁openness
▁spread
▁prospects
▁racism
▁hungary
▁red
free
▁heavy
▁generation
▁heading
▁constant
▁save
▁mistake
▁everybody
▁taxpayers
▁healthy
▁adapt
▁phenomenon
▁imagine
▁intentions
▁dispute
▁japan
▁korea
▁bit
▁transatlantic
▁section
▁ports
▁extending
▁polish
▁crises
▁sets
▁foremost
▁demanding
▁threats
▁pensions
▁worst
▁considerations
▁bosnia
▁savings
▁achievement
▁correctly
▁2010
▁depend
scale
▁depends
▁solely
▁easily
▁opened
▁intellectual
▁category
▁rapidly
▁producing
▁accordingly
▁stressed
▁stake
▁skills
▁players
▁determine
▁quote
▁remaining
▁unanimously
▁acting
▁barcelona
▁island
▁stock
▁manufacturers
out
▁city
▁accident
▁promised
▁background
▁enabling
▁advice
▁charges
▁tools
▁deals
▁environmentally
▁focused
▁claims
▁granting
▁profits
▁extreme
▁clarity
st
▁reliable
▁spend
▁patent
▁strength
▁bureaucracy
▁geographical
▁airlines
▁harmful
▁paying
▁considerably
▁worrying
▁beef
▁cuts
▁reaction
▁federal
▁suitable
▁arrest
▁decades
▁emphasised
▁declared
▁increases
▁healthcare
▁railway
▁core
▁oppose
▁regrettable
economic
▁23
▁size
▁recall
▁proud
▁encouraged
▁biggest
▁performance
▁rich
▁refers
▁communications
▁mark
▁doubts
▁enhance
▁twenty
▁undertakings
▁supplementary
▁removed
▁favourable
▁spring
▁launch
▁wealth
▁sum
▁legitimacy
▁unnecessary
related
▁advantages
▁powerful
▁carbon
▁feeling
▁entered
and
▁replace
5
▁reflected
▁aside
▁te
▁...
▁willingness
▁certainty
▁modified
▁violation
▁historical
▁succeeded
▁courts
▁applicable
▁regarded
▁contributed
▁arise
▁experienced
▁break
▁leaving
▁adjustment
▁thorough
session
▁supposed
r
▁1995
▁competences
▁constitutes
▁fourth
▁summer
▁citizenship
▁ships
▁sake
▁basically
▁port
parliament
▁respects
▁firms
▁foundation
▁raising
▁restore
▁science
▁targeted
▁retain
relatively
▁applications
▁26
▁consequence
▁affecting
▁fairly
▁dynamic
▁tests
▁negotiated
▁radical
▁nearly
▁christian
▁deeply
▁nationals
▁cuba
▁employers
▁smaller
▁explanation
▁reaching
▁applicant
▁simplification
▁greenhouse
▁engage
▁cancer
▁denmark
▁army
▁hopes
▁intervene
▁200
▁afraid
▁armed
▁ordinary
▁electoral
▁liberties
▁weak
▁noon
▁utmost
▁31
▁reservations
▁piece
▁sought
▁reiterate
▁incorporated
▁fruit
▁ecb
▁ec
▁maastricht
▁eliminate
▁22
▁religion
▁marketing
▁islands
▁presenting
▁20%
▁negotiate
▁undertaking
▁buildings
▁settlement
▁meaning
▁millennium
▁complaints
▁combined
▁excluded
▁tonnes
▁bureau
▁disabled
▁berlin
▁fleet
▁commit
▁unity
▁multi
▁burma
▁deserve
▁importantly
3
▁bureaucratic
▁obtained
▁jointly
▁showing
▁vast
▁tackling
▁declarations
▁representation
▁prospect
▁profit
▁congratulations
▁checks
▁eye
▁shortcomings
▁slovakia
▁communist
▁terrible
▁incentives
▁suggestions
▁charge
▁hardly
▁preparations
▁60
▁eyes
▁surprised
▁repeatedly
▁creates
▁economically
▁fewer
▁organization
▁educational
▁shape
▁trend
▁credible
▁examined
▁clean
▁necessarily
▁chapter
▁students
▁ambition
▁underline
▁losses
▁wording
▁alongside
lecommunications
▁justify
▁drafting
▁admit
▁liability
6
▁delays
▁expressing
▁revised
▁regardless
▁procurement
▁airports
▁foundations
▁import
▁widespread
▁candidates
4
▁hit
▁resulted
▁albania
▁pleasure
▁articles
▁reflects
▁physical
▁forest
▁transactions
▁honest
▁yugoslavia
▁quota
▁qualifications
▁28
▁below
▁suspended
▁unfortunate
▁inflation
▁repeated
▁stance
▁lasting
▁exceptional
▁deadline
▁outstanding
▁picture
▁arab
▁became
or
▁enhanced
▁gaza
▁extraordinary
sv
▁undermine
▁unemployed
▁broader
▁alcohol
▁author
▁penalties
▁preserve
wide
▁m
▁executive
▁macedonia
▁widely
▁parents
▁morocco
▁prison
▁falls
▁pse
▁terrorists
▁relate
▁standing
▁belief
▁subjects
▁aircraft
▁conventions
▁drafted
▁amend
▁territories
▁permit
▁demographic
▁warmly
▁expense
▁invite
▁fast
▁fresh
▁boost
▁allocation
▁periods
▁lithuania
▁annex
▁digital
▁lessons
▁turned
▁condemned
▁banking
▁civilian
eu
▁larger
▁regulate
▁stay
▁kinds
▁indicators
▁gradually
▁offering
▁expensive
▁satisfaction
▁raw
▁emu
▁islamic
▁secret
▁marine
▁abolition
▁welcomes
▁insufficient
▁regulated
▁fifth
▁uncertainty
▁declare
▁ethical
▁withdraw
▁similarly
▁register
▁collaboration
▁explained
▁reserve
▁unanimous
▁acquis
▁drivers
▁interim
▁door
▁biodiversity
▁pursuan
▁approximately
▁buy
▁freely
▁zimbabwe
▁elderly
▁indicate
▁palestinians
▁bound
▁processing
▁ecological
▁team
▁causing
▁began
▁covers
▁geneva
▁occurred
level
▁restricted
▁suggestion
▁promises
▁journalists
hu
▁chain
▁outset
▁warning
▁informal
▁shares
▁recommend
▁presentation
▁minute
▁night
▁motions
▁tribute
▁deaths
▁couple
▁lie
▁finances
▁shortly
▁receiving
▁ignore
▁noise
▁belong
▁coordinate
▁battle
▁english
▁killed
▁listened
▁torture
▁frequently
▁populations
▁inquiry
▁trial
▁strike
▁viable
▁contract
▁observed
▁contacts
g
▁pro
▁promise
▁faith
▁undertake
▁familiar
▁observation
▁generations
▁financed
▁abstained
▁slow
▁struggle
▁london
▁sovereign
▁severe
▁sphere
▁sincerely
▁aids
▁division
▁forests
▁beneficial
▁count
▁engaged
▁dumping
▁looked
▁compatible
▁demonstrates
▁fifteen
▁soviet
▁vehicle
▁transit
▁collection
▁weight
▁occur
▁reinforce
▁emerging
▁blame
▁prefer
▁institute
▁unique
▁necessity
▁rising
▁push
▁hopefully
▁associations
▁conservation
▁arising
▁promoted
▁supervisory
▁sending
▁supplies
▁pursued
▁olaf
▁clearer
▁subsequently
▁prevented
▁exclusively
▁harmonised
▁crops
▁clarification
▁rome
▁presidents
▁textile
▁talked
▁distinction
▁strictly
▁afford
▁rejection
▁grow
able
▁revenue
▁efficiently
▁egypt
▁igc
▁moved
▁organise
▁mid
▁americans
▁surveillance
▁divided
20
country
▁parallel
▁percentage
▁coherence
▁compete
▁wage
▁mere
▁finnish
▁postal
▁roads
▁canada
▁timely
▁troops
▁alternatives
▁chechnya
▁perspectives
▁campaigns
▁apparent
▁accompanied
fi
▁loans
▁begun
▁experiencing
▁reconciliation
▁simplify
▁puts
▁congratulating
▁disappointed
debate
▁progressive
▁choices
▁railways
▁defending
▁acceptance
▁organizations
▁respecting
▁friendly
▁directed
▁friend
▁ruling
▁reflection
▁explanations
▁atlantic
▁tangible
▁evident
mediterranean
▁tradition
▁unanimity
▁accessible
▁connected
▁judgment
▁stations
▁desirable
▁card
▁liberals
▁disagree
▁coal
▁mobile
▁items
▁chemical
▁malta
▁route
▁refuse
▁prize
▁imposing
▁threshold
▁1990
eec
▁genetically
▁migrants
▁consulted
▁usual
▁judge
▁enlarged
▁refugee
▁socio
▁opt
▁categories
▁replaced
▁net
▁yourself
▁intensive
ers
▁raises
▁joining
▁permitted
▁threatened
▁agrees
▁hoped
▁restrict
▁moldova
▁dramatic
▁treat
▁lacking
▁29
▁emission
▁observers
▁logical
▁soil
▁housing
▁palestine
▁traditions
▁closure
▁react
▁integrity
▁dublin
▁achievements
▁confusion
▁forgotten
▁image
▁procedural
▁resumed
▁protest
▁contributing
▁solid
▁equivalent
▁controversial
▁slightly
▁sales
▁worthy
▁assessments
▁valid
▁sub
▁sharing
u
▁defining
▁freight
▁nine
▁preventive
▁echo
▁fire
▁signing
▁highlights
▁keen
▁residence
▁refused
▁authorisation
▁whatsoever
▁helpful
▁listening
▁missing
▁advocate
▁underlying
▁showed
▁ms
▁farms
▁victim
▁blood
▁title
▁cultures
▁joined
▁scrutiny
▁respective
▁characteristics
▁win
▁comparison
▁failing
▁investors
▁preliminary
▁coastal
▁impetus
▁regularly
▁ill
▁exchanges
▁chemicals
▁managing
▁estimated
▁plays
▁systematic
▁50%
▁universities
▁popular
▁resistance
▁ratify
▁motor
▁surrounding
▁notably
▁eventually
▁notice
ness
quality
▁block
▁woman
▁sadly
▁destroyed
▁inhabitants
▁approaches
▁flows
▁observe
▁justification
▁representing
▁imported
▁mistakes
outermost
▁funded
▁thousand
▁tolerance
rule
▁harm
▁advanced
▁subsequent
▁error
▁reported
▁resource
yes
▁chair
▁integrate
▁participating
▁inside
us
▁brazil
▁track
▁disputes
▁envisaged
▁safeguarding
▁apparently
▁infringement
▁fails
▁conviction
governmental
▁ambitions
▁accounting
▁airport
▁alde
▁drive
▁appointment
▁losing
▁exceptions
▁bush
▁covering
▁convince
▁controlled
▁unlike
▁occupation
▁expansion
0
▁banned
▁lebanon
▁delegations
▁monday
▁gained
▁accepting
▁restrictive
▁usually
▁wages
▁concentration
▁incorporate
▁organic
▁fixed
▁solved
▁providers
▁monitored
▁mandatory
▁registration
▁hundred
▁facility
▁distributed
▁tonight
▁regimes
▁abroad
▁assurance
▁fuels
▁doha
▁maybe
as
▁humanity
▁pilot
▁pursuing
▁multiannual
▁consent
▁august
▁functions
▁300
▁decline
▁anniversary
▁female
▁accountability
▁assets
▁dead
sk
▁founded
▁stringent
▁tunisia
▁acknowledged
▁infrastructures
▁solana
▁examination
▁autonomy
▁ignored
▁confident
▁breach
▁experiences
▁syria
▁reductions
▁withdrawal
▁stakeholders
▁decent
▁containing
▁patten
▁resolving
▁older
▁consistency
▁ashton
▁abuses
▁movements
▁swift
▁except
▁sentence
▁answered
▁investigations
▁models
▁initially
▁warm
ale
▁die
▁falling
▁ideal
▁2009.
▁perfect
▁expertise
▁rely
▁2010.
▁reporting
▁fortunately
▁arrive
▁variety
▁excuse
▁signs
▁dangers
▁eib
▁violent
▁virtually
one
▁jurisdiction
▁hour
▁criminals
▁sad
▁10%
▁libya
▁gross
▁sympathy
▁marked
▁outlined
▁ecofin
▁meantime
▁compromises
reaching
▁wednesday
▁fourthly
▁verheugen
▁search
▁liked
est
▁warrant
▁offices
▁visas
▁looks
▁visited
▁stages
▁fate
▁absurd
▁suggests
▁invited
▁length
▁revolution
▁iraqi
▁consolidation
▁modernisation
▁birth
▁sight
▁voters
▁fears
▁composition
▁cutting
▁fires
▁safeguards
▁lifelong
cs
▁albeit
▁catch
▁backing
▁substantially
▁contrast
▁stabilisation
vote
▁dossier
▁inspection
▁sudan
▁denied
▁privacy
▁train
▁slovenia
▁renewed
▁actors
▁proven
▁concludes
▁everywhere
time
▁schulz
▁collapse
▁host
▁pretext
▁appointed
▁commend
▁scientists
▁football
▁criterion
▁visible
▁entering
▁employed
▁gradual
▁wherever
▁badly
▁ageing
▁endeavour
▁maintenance
▁indication
▁tough
▁galileo
▁names
▁friday
▁university
▁cope
▁clauses
▁fit
▁santer
▁incentive
▁productivity
▁osce
▁destroy
▁flow
▁learned
▁adequately
▁autumn
▁vocational
lt
▁finish
▁sincere
▁argue
▁federation
▁paragraphs
isation
▁shipping
▁died
▁2000.
▁partnerships
▁features
▁detention
▁scotland
▁presidential
▁game
▁completion
▁farm
▁consistently
▁gmos
▁recognises
▁released
▁endorsed
discrimination
re
▁focusing
▁1994
▁minor
▁consultations
▁devoted
▁essence
▁dictatorship
▁unilateral
day
▁borne
▁sites
▁storage
▁examining
▁ceiling
▁immunity
▁personnel
▁evaluate
▁intelligent
▁avoided
▁democrat
▁acted
▁democratically
▁arrived
▁deficits
▁testing
▁statistical
▁irrespective
▁attend
▁ship
▁disastrous
▁exclusive
▁tackled
▁sit
▁hazardous
ising
▁fundamentally
▁irregularities
▁xenophobia
▁damaging
▁leaves
▁observations
▁imperative
▁recommended
▁enterprise
▁productive
▁emerged
▁recital
▁murder
▁wise
▁brok
▁sections
▁forestry
▁false
▁micro
▁enables
▁expert
▁fischler
▁reserves
▁sold
▁80
▁programming
▁precautionary
▁2006,
▁repression
▁sums
▁ensured
▁accused
▁college
▁rigorous
▁repercussions
▁component
▁tibet
▁removal
▁story
▁[
▁mep
▁frankly
▁donors
▁exemption
▁conservative
▁wall
▁switzerland
▁originally
▁foot
▁biofuels
▁struck
▁simplified
for
initiative
▁delivered
by
▁disabilities
▁explicitly
▁inequalities
▁congo
▁broadly
▁seekers
▁responses
▁exposed
▁straight
▁cheap
▁fought
ngl
▁socially
an
▁innocent
▁stockholm
▁notes
▁volume
▁meets
▁inevitably
▁hiv
▁satellite
▁director
▁exploit
▁flights
▁notion
▁enabled
▁harmonise
▁initiated
▁corresponding
▁foodstuffs
▁unit
▁investigate
▁steel
▁speculation
▁shift
▁laying
▁gue
▁adapted
▁resort
▁helps
▁platform
▁consolidate
▁errors
▁attached
▁touch
▁sole
▁enshrined
▁parliamentarian
friendly
▁continuation
▁participants
▁deny
▁character
▁surprise
▁whenever
▁pace
▁disadvantaged
▁recycling
of
▁objections
▁preparatory
▁fulfilled
▁iranian
▁frontex
▁inspections
▁researchers
9
▁practically
▁mother
▁twice
▁silence
▁relative
▁attractive
▁tuna
▁hunger
▁saving
▁ministerial
▁linguistic
▁sale
▁distance
▁logic
▁tampere
▁stricter
▁internationally
▁soldiers
▁2008,
▁potentially
▁sex
▁dependence
▁35
▁won
▁stick
▁label
▁transferred
▁pressing
▁lists
▁class
▁closing
▁missions
▁desired
▁2008.
▁adverse
▁obstacle
▁democratisation
▁ownership
▁comitology
▁concessions
▁accurate
▁era
▁embargo
▁planet
placing
▁rating
▁travelling
▁assessing
▁2010,
medicinal
▁systematically
▁draftsman
▁principal
▁survival
▁posts
▁romanian
▁detriment
▁latvia
▁fallen
▁floods
▁object
▁serves
ic
▁transposition
▁comparable
▁civilians
▁games
▁euros
▁grave
▁feature
▁helsinki
▁handling
▁marks
▁topical
▁generate
▁persecution
▁40%
▁presents
▁pharmaceutical
▁assured
▁wished
ism
▁investing
▁horizontal
▁incidentally
▁pillars
▁constraints
▁openly
▁discipline
▁deciding
▁genocide
▁retirement
▁cold
off
▁ended
▁blind
▁quick
▁stopped
da
▁sell
▁tape
▁hamas
▁homes
▁verts
▁coordinating
▁producer
▁usd
▁telling
▁zero
▁macro
▁democracies
▁stating
▁decade
▁congress
▁mexico
▁transfers
▁remained
▁sports
▁constituency
▁normally
▁appreciation
▁characterised
we
▁map
▁corporate
▁kurdish
▁earth
▁subjected
▁audiovisual
▁interference
▁adaptation
▁criticised
▁radio
▁demonstration
▁alarming
▁80%
▁wholeheartedly
▁inappropriate
▁complied
▁monopoly
▁bases
▁town
▁minds
▁design
▁foster
▁estimates
▁automatically
▁banana
▁recorded
▁terror
▁race
▁besides
▁pays
depth
▁avoiding
▁differ
▁bill
▁findings
▁30%
employed
▁attach
▁protectionism
▁indirect
▁audit
▁assessed
▁routes
▁mine
▁likewise
▁abandon
▁deadlines
▁2007.
▁rational
▁pesticides
▁facilitating
▁guilty
▁seat
▁criticisms
▁book
▁refusal
▁stimulate
▁secretariat
▁demanded
▁victory
▁algeria
▁cent
▁1992
▁relief
▁patient
▁remark
▁baroness
▁den
▁references
▁heavily
▁delicate
▁worried
▁authorised
▁moratorium
▁scheduled
▁incidents
▁2013
▁empty
▁obtaining
▁realised
▁70
▁offences
▁presidencies
▁appalling
▁atmosphere
▁channels
▁contradiction
▁onto
▁2011
▁wake
▁posed
▁arrested
▁estonia
▁pan
▁generous
▁tens
▁beneficiaries
▁grants
▁lesson
▁unprecedented
▁livestock
▁arises
▁arrangement
▁foods
▁al
▁thoroughly
▁biological
▁await
▁withdrawn
cod
▁camps
▁cease
▁sixth
))
▁ideological
▁workforce
▁addresses
▁asian
▁bottom
▁solving
▁iceland
▁reminded
▁persuade
▁vienna
▁timor
▁pensioners
▁emphasize
▁everyday
▁towns
▁kinnock
▁identification
▁meanwhile
▁remit
▁praise
▁analyse
▁remarkable
▁sustained
▁mental
▁integral
▁passing
▁formally
▁2006.
▁seventh
▁incident
▁cast
▁contributes
▁incomes
▁punishment
▁exclude
▁attempting
▁root
▁reverse
▁removing
▁christians
▁governed
▁indicates
▁consists
▁elimination
▁returned
▁stresses
▁illegally
▁creative
▁ultimate
▁dual
▁roll
▁prerequisite
▁400
▁shame
▁recognising
▁arctic
▁smoking
▁devote
▁donor
▁cattle
▁differently
▁witnessed
▁registered
▁genetic
▁topics
▁translation
▁instability
▁rare
▁abolish
▁eurostat
▁conscience
▁diverse
▁caucasus
▁interventions
▁irresponsible
▁believed
▁olympic
▁patents
▁2004.
▁fashion
▁abolished
▁survive
▁monopolies
▁occupied
▁montenegro
▁safer
▁reinforced
▁securing
▁expenses
▁pipeline
▁affair
▁indispensable
▁advisory
▁orientation
▁satisfy
▁born
▁reviewed
▁combination
▁footing
▁caught
▁hague
▁aspirations
▁flag
▁uses
▁clarified
▁enforce
▁criticise
▁divide
▁wars
▁transnational
▁madrid
▁adding
▁isolation
▁isolated
▁concepts
▁coast
▁precedent
▁condemnation
▁publicly
▁guinea
▁quantity
▁manufacturing
▁confirms
▁2,
▁anywhere
▁cycle
▁tariff
▁limiting
▁dear
▁strive
▁wonderful
▁drop
▁civilisation
▁pointing
▁served
▁licences
▁wind
▁doctors
▁disparities
▁trends
▁gases
▁messages
▁emphasises
▁advances
▁tremendous
▁responding
▁poorer
▁doors
▁inequality
▁saddam
▁veterinary
▁describe
▁moves
▁directorate
▁licence
▁relationships
▁profound
▁modest
▁2005.
▁publication
▁90
▁sectoral
▁scandal
▁nigeria
▁strikes
▁monti
▁kong
▁von
▁emerge
▁fault
▁warming
▁copyright
▁organized
▁fleets
▁blair
▁dioxide
▁cfsp
▁energies
▁enjoyed
▁announcement
▁burdens
▁plus
f
▁claimed
▁mobilisation
▁enthusiasm
▁cells
▁postponed
▁autonomous
▁interpreted
▁lowest
▁2012
▁hong
▁combine
▁workplace
▁suspension
▁player
▁entrepreneurs
▁inevitable
▁preferred
▁displaced
▁recession
▁computer
▁earmarked
▁unions
▁neighbour
▁multinational
▁philosophy
▁encouragement
east
▁toys
▁preference
▁online
▁concluding
▁gratitude
▁requiring
▁teachers
▁threatening
▁recognize
▁vague
▁harmonization
▁availability
▁abandoned
▁pose
▁watch
▁frontiers
▁faces
▁understandable
ranging
ity
▁location
▁initiate
▁drinking
▁disadvantage
▁delayed
▁complaint
▁paris
▁dairy
▁taiwan
▁remote
▁appeared
▁disappointment
▁strange
▁definitive
▁gulf
▁exploited
▁problematic
▁uphold
▁1%
▁handled
▁attract
▁simplifying
▁frattini
▁quantities
▁banning
▁aiming
▁regulating
▁controlling
▁broken
▁dream
▁flight
▁selection
accession
▁brutal
▁guidance
▁privatisation
▁deregulation
▁focuses
▁medicine
▁pragmatic
▁intelligence
▁weaknesses
▁exert
▁driven
▁ad
▁minors
▁promotes
▁conjunction
▁mercury
▁stem
▁expressly
▁colombia
▁roots
▁determining
▁symbolic
▁overwhelming
▁input
▁units
▁1993
▁separation
▁indirectly
▁multinationals
▁girls
▁balkan
▁dedicated
▁remedy
▁enforced
▁coalition
p
▁milosevic
▁violated
▁consolidated
▁hide
▁guide
▁bananas
▁invested
▁establishes
▁judiciary
▁rejecting
▁expand
▁knowing
▁implies
▁spectrum
▁adjustments
▁halt
▁indonesia
▁york
▁twelve
▁complexity
▁positively
▁administrations
▁agents
▁pluralism
▁preservation
▁nordic
▁convey
▁threaten
▁broadcasting
▁preferences
▁cod
▁dates
▁diplomacy
▁specified
▁traceability
▁reproductive
▁1999.
▁urged
▁abortion
▁explicit
▁cloning
▁pity
▁generated
▁rid
▁signals
▁feasible
▁backed
▁symbol
▁biotechnology
▁seas
▁analyses
▁quarter
▁transmission
▁suppliers
▁god
▁belonging
▁feels
▁execution
▁zones
▁secondary
▁officially
▁prostitution
▁gets
▁continuous
▁telephone
▁radioactive
▁imf
▁prevail
▁depth
▁shortage
▁faster
wing
▁150
▁invitation
▁communicate
▁imbalances
▁abstain
▁sis
▁tend
▁airline
▁merit
▁split
▁approving
▁preserving
▁concentrated
▁perform
▁complement
▁senior
▁integrating
▁eurozone
▁seats
▁circulation
▁fragile
▁eliminating
▁hitherto
▁regrettably
▁martin
▁margin
▁slovak
▁muslim
▁famous
▁suddenly
▁encourages
▁holds
▁residents
▁fishery
▁disability
▁counterfeiting
▁postpone
▁refrain
▁danube
▁renewal
▁worker
▁beijing
▁macroeconomic
▁runs
▁defended
▁misleading
▁enhancing
▁tensions
▁unified
▁oecd
▁ties
▁32
▁2003.
▁depending
▁blue
▁components
▁prosecutor
▁tabling
▁deprived
▁lawyers
▁returning
▁exemptions
▁hypocrisy
▁ends
▁grown
▁o
▁4,
▁entails
▁responded
▁existed
▁explanatory
▁reactions
▁journey
▁derogation
▁convincing
▁unsatisfactory
▁mugabe
▁60%
▁mountain
▁tension
▁cofinancing
▁derogations
▁professionals
▁earthquake
▁merits
▁opponents
▁match
▁laeken
▁albanian
▁revealed
▁narrow
▁harbour
)).
▁customers
▁indications
▁channel
▁sheep
▁deliberately
▁acquired
▁ending
▁reforming
▁wishing
▁definite
▁fulfilling
▁mines
▁organising
▁inland
▁toxic
▁selling
▁37
▁chancellor
▁sooner
▁undermining
▁admittedly
▁formulated
▁48
▁detrimental
ive
▁reassure
▁sensitivity
▁infringements
▁3%
▁momentum
▁advocates
▁subsidy
ist
▁conservatives
▁lend
▁carriers
▁salaries
▁hoping
known
▁demonstrations
▁refusing
▁arisen
▁2002.
▁surplus
▁demonstrating
▁intolerable
▁swoboda
▁christmas
▁located
▁accepts
▁noticed
en
▁owners
▁phrase
▁tourist
▁underlined
▁consult
▁afghan
▁authors
▁software
▁newspaper
▁moscow
▁tendency
▁vigilant
▁eligible
▁accountable
determination
▁tariffs
▁censure
▁eco
▁swiftly
▁learnt
▁sees
▁washington
▁blocked
▁seemed
▁reconcile
▁supranational
▁papers
▁hussein
▁electorate
▁breaches
cns
▁trouble
▁apologise
▁attitudes
▁listed
▁compare
▁arbitrary
▁nationality
▁witness
▁textiles
▁purchase
▁serbian
▁escape
▁courageous
▁pursuit
▁excise
▁dg
▁officers
▁formed
▁exact
▁barnier
▁awaiting
▁continuity
▁restriction
old
▁worthwhile
▁issuing
▁delivery
▁transportation
▁distortions
▁theory
▁streets
▁identifying
▁packaging
▁propaganda
▁wholly
▁haiti
▁indigenous
▁books
▁ex
)]
▁formula
▁knew
▁financially
▁pick
▁bears
▁substantive
▁45
▁mixed
▁conventional
▁vis
▁suspend
▁poettering
▁wave
▁tuesday
▁mutually
ation
▁jeopardise
▁summary
▁offence
▁definitions
▁advocated
▁caution
▁pull
▁bolkestein
▁thoughts
▁publish
▁darfur
▁proves
▁anyway
▁gaps
▁judges
▁expresses
▁ensures
▁surprising
▁ukrainian
▁structured
▁owe
▁25%
▁lengthy
▁career
▁coins
▁3,
▁partial
▁optimistic
▁scenario
▁update
▁meaningful
▁station
▁weekend
▁operates
▁judgments
▁applaud
▁disarmament
▁reception
▁vietnam
▁allies
▁alleged
teroperability
▁geared
▁le
▁successes
k
▁costly
▁veto
▁compensate
▁yugoslav
▁redundancies
▁bigger
▁certification
▁realities
▁agreeing
proliferation
▁mix
▁devastating
▁1,
▁reformed
▁adapting
▁mobilise
▁contradictory
▁pending
▁acquire
▁wanting
▁disappointing
▁centuries
▁complementary
▁contamination
▁slowly
▁vitally
▁2007-2013
▁smooth
▁deterioration
▁automatic
▁cheaper
▁newly
▁killing
▁capacities
▁river
▁insecurity
▁5%
▁deliberations
▁rhetoric
disproportionate
▁com
▁palacio
▁bridge
▁olive
▁departments
▁r
z
▁liberalization
▁attended
▁expecting
▁anybody
▁engagement
▁seriousness
▁constituents
▁assent
▁teaching
▁tribunal
▁restricting
ar
▁supporters
▁frequent
▁redundant
▁clothing
▁norway
▁theme
▁write
▁survey
▁cooperative
▁poses
▁fill
▁newspapers
▁tolerate
▁condemning
▁privileged
comprehensible
▁voices
▁thinks
▁rescue
▁chernobyl
▁unclear
is
▁outline
▁cuban
▁undermined
▁iii
▁scandalous
▁speaks
▁billions
▁liberty
▁cooperating
▁profession
▁manoeuvre
call
▁t
▁fruitful
▁user
▁neutral
▁belongs
▁tested
how
▁maternity
▁technically
▁awarded
▁shoulder
▁permits
ally
▁camp
▁incompatible
▁continually
▁prejudice
▁differing
▁sky
▁throw
▁painful
▁inspectors
▁commerce
▁weakness
▁exposure
▁ridiculous
▁classification
▁competitors
state
▁thirty
▁recourse
▁jean
▁70%
▁cfp
▁translated
▁herzegovina
▁slaughter
▁capabilities
▁cotonou
▁uen
▁viewed
▁adhere
▁excessively
▁moderate
▁san
▁entail
▁phare
▁interfere
▁forecasts
▁navigation
▁petition
le
▁exceed
▁ep
▁charged
▁organs
▁church
▁memory
▁domain
▁33
▁breaking
▁indian
▁conditional
▁euratom
▁marking
▁dimensions
▁feelings
▁buying
▁immense
▁proportionality
▁silent
▁mentioning
▁severely
▁conferences
▁ingredients
▁pack
▁techniques
▁reinforcing
▁entirety
▁countryside
▁dare
▁meda
▁simpler
▁murdered
▁modes
▁site
▁disappear
▁artificial
▁allowances
▁collected
▁recognized
▁proactive
▁weaken
▁street
▁founding
et
▁pornography
▁reunification
▁profitable
▁suspect
▁la
▁finds
vis
▁drastic
▁reputation
▁sri
▁posselt
▁pride
▁activists
▁mainstreaming
▁assumed
▁protests
▁prompt
▁opposing
▁boundaries
▁fairer
▁exempt
▁austerity
▁accusations
▁mothers
▁highlighting
▁receives
x
▁discovered
regulation
being
use
▁launching
▁sentences
▁disregard
▁recommends
▁hearings
▁conducting
▁diversification
▁extradition
▁ideology
▁creativity
▁inclusive
▁asks
▁objection
&
▁revise
▁referendums
▁psychological
▁incapable
▁debts
▁prisons
▁basque
▁destination
▁k
▁5,
▁wild
▁impunity
operation
▁transform
▁hatred
▁wrote
▁distinguish
▁decrease
▁michel
▁promising
▁allocate
▁informing
▁nowadays
▁verification
▁owing
▁confronted
▁discriminatory
▁intense
▁sakharov
▁appropriately
▁insisted
▁ilo
▁instances
▁attempted
▁argued
▁judged
▁ruled
▁alter
▁90%
▁precondition
▁recover
▁el
▁prohibited
▁letters
▁settle
▁manufacture
▁retained
▁globally
▁n
▁putin
▁teams
▁requesting
▁website
▁pushing
▁hoc
▁excellence
▁participated
▁slovenian
▁finished
▁underlines
▁contradict
▁fossil
▁confront
▁injured
▁entities
▁islam
▁supreme
▁worry
▁reconsider
▁stood
▁altogether
▁transformation
▁contents
▁harmonising
▁abide
▁replacing
▁handed
▁disagreement
▁relevance
▁600
▁threatens
man
▁absent
▁tacis
▁guided
▁mentions
▁destroying
▁handle
▁admitted
▁duration
▁cards
▁mostly
▁panel
▁timber
▁welcoming
▁2001.
▁industrialised
▁organisms
▁prosecution
▁natura
▁chose
▁azerbaijan
▁totalitarian
▁migratory
▁watson
▁prestige
▁mercosur
▁settled
▁deepening
▁suspicion
▁distortion
▁weapon
▁independently
▁airspace
▁accompanying
▁interpret
▁venture
▁quantitative
▁premature
▁dismantling
▁1980
▁erasmus
▁standardisation
▁love
▁supplied
▁punished
▁confedera
▁relocation
▁ineffective
▁cautious
▁league
▁eat
▁guiding
▁coexistence
▁lifting
▁sends
▁advise
▁plenty
▁laundering
▁measured
▁vary
▁limitations
▁screening
▁internally
▁lobby
▁afterwards
▁jarzembowski
▁departure
▁database
▁outbreak
▁chapters
▁typical
▁missed
▁installations
▁globalised
▁reactors
▁profile
▁spreading
▁forcing
▁calm
▁wallström
▁gothenburg
▁deemed
▁blocking
▁evil
▁england
▁insofar
▁viability
▁somewhere
▁separately
▁film
▁department
▁unrealistic
▁taliban
▁mining
▁minimal
▁emphasising
▁cambodia
▁precedence
▁thrust
▁deployment
▁partially
▁touched
▁art
▁tunnel
▁exemplary
▁identical
▁attaches
▁supplement
▁formulate
▁j
▁neo
▁75
▁harsh
▁robust
▁produces
▁dominant
▁facto
▁deplore
▁taxpayer
▁frank
▁transposed
▁strongest
▁lacks
▁schedule
▁adjust
▁bus
▁100%
▁anticipated
▁peripheral
▁exceptionally
▁pushed
▁records
▁exercised
▁imbalance
▁academic
europe
▁sahara
▁striking
▁decommissioning
▁witnessing
▁appreciated
▁asset
▁linking
▁proliferation
▁en
▁signature
à
▁bulgarian
▁aquaculture
▁ethics
▁inability
▁announce
▁roadmap
▁guard
▁racist
▁visits
▁qualitative
▁uncertain
▁warn
▁lift
▁restoring
▁cultivation
▁deeper
▁parameters
entrepreneurship
▁trials
▁unresolved
▁goodwill
rs
▁repressive
▁dependency
▁reciprocity
▁dr
▁repair
▁plain
▁prohibition
▁delivering
▁exercising
▁cash
▁equipped
▁innovations
▁assurances
▁salary
▁israelis
▁perpetrators
▁fell
▁preferential
▁socrates
▁wasted
▁envisage
▁professions
▁reding
▁currencies
▁overcoming
▁processed
▁submitting
▁h
▁restored
all
▁accord
▁additives
month
▁judgement
▁oblige
▁resume
▁paramount
▁eurojust
▁motivated
▁confined
▁stipulates
w
▁secured
▁vaccination
way
▁prosperous
▁adjourned
▁protectionist
▁alert
▁deliberate
▁jerusalem
▁lomé
▁securities
▁redress
▁complying
▁waiver
▁troika
▁thrown
▁pressures
▁assumption
▁protein
▁privilege
▁ministry
▁caribbean
▁confused
▁upheld
building
▁di
made
▁disappeared
ting
▁scourge
▁boats
▁acute
▁optimism
▁inspired
▁tone
▁specialist
dem
▁purchasing
▁radiation
▁rigour
▁piracy
▁promptly
▁soft
▁sentenced
▁v
▁34
▁permission
▁simultaneously
▁affordable
▁occupational
▁vessel
▁36
▁summits
▁ease
▁15%
▁capitalist
▁servants
▁corbett
▁breast
▁expanding
▁entity
▁recruitment
▁johannesburg
▁replacement
▁smuggling
▁gaining
▁edf
▁55
▁applause
▁signatures
▁safeguarded
▁circle
▁councils
▁assisting
▁opens
▁aggressive
▁precarious
▁oppression
▁machinery
▁erika
▁exceeded
▁eliminated
▁employ
▁utterly
▁weaker
▁investigated
drew
▁asean
▁pave
▁organ
do
▁250
speed
▁passport
▁resumption
▁duly
▁nationalism
▁coordinator
▁modernise
▁speedy
▁managers
▁benefiting
▁guardian
▁lived
▁page
▁introduces
▁ferrero
▁disadvantages
▁unite
▁alive
▁legislate
▁excess
▁hygiene
▁mistaken
▁benefited
▁description
▁addiction
▁conversion
▁harassment
▁shipbuilding
v
▁roth
▁unlikely
▁scene
▁observer
▁1998.
▁luck
▁gains
▁st
▁f
▁margins
▁nowhere
▁provisional
▁incorrect
▁earn
▁professor
▁impressive
la
ini
▁phenomena
▁trialogue
▁restoration
▁emphatically
▁142)
▁chances
▁bans
▁allegations
▁deficiencies
▁vigorously
▁regulators
▁award
▁inherent
russia
▁occurs
▁adults
waldner
▁sarkozy
▁decentralised
▁sporting
▁selected
▁divisions
▁assuming
▁ignoring
▁fairness
co
▁endeavours
▁hospital
▁multiple
▁evaluating
▁suggesting
▁bold
▁gambling
▁neglected
▁updated
▁draws
▁damaged
▁devices
▁spare
▁cypriot
▁conscious
▁groundwater
▁vegetables
▁2%
▁alike
looking
▁iron
▁barrier
▁lawyer
▁liikanen
▁journalist
▁armenia
▁gallery
▁incorporating
▁successive
▁fundamentalism
▁checked
▁maintains
▁completing
▁vitorino
▁wisdom
▁unification
▁concerted
▁crop
▁abolishing
▁decides
▁catastrophe
▁miss
▁unjustified
▁japanese
▁emergence
▁obligatory
▁individually
date
▁codes
▁celebrate
▁lifted
▁egf
▁44
▁approaching
ga
▁tight
▁eve
▁rehabilitation
▁120
▁tv
▁communism
▁imprisoned
▁somalia
os
▁injustice
▁imperialist
na
▁dying
▁dramatically
▁coverage
ised
un
▁virtue
▁retention
▁pricing
▁dominated
aids
▁humane
terrorism
▁sustain
▁chief
▁settlements
▁rigid
▁challenging
▁weather
▁imprisonment
▁straightforward
▁pacific
▁classes
▁costa
▁rape
▁confine
▁box
▁700
▁dollar
▁pure
▁incredibly
▁treating
▁roles
▁korean
▁formation
▁lukashenko
▁strengthens
▁pnr
▁crossing
▁transported
▁surface
standing
▁43
▁equitable
▁timing
▁catches
ce
oriented
▁corrections
▁39
▁confirmation
▁acknowledges
▁7,
▁anticipate
▁gm
▁seize
▁competing
▁postponement
▁gsp
▁forth
▁resist
▁politician
▁flying
▁workable
▁trained
▁prevents
▁appoint
▁legislators
▁fifty
▁incurred
▁grass
▁fees
▁saved
▁flood
▁contradictions
▁evolution
▁shameful
▁imposition
▁replies
▁800
ia
▁govern
▁cow
▁compliment
▁intensify
▁wood
▁retail
▁guantánamo
▁hidden
▁disturbing
▁evaluated
▁permanently
applause
▁advocating
▁oomen
▁validity
at
02
▁cornerstone
▁father
▁eradication
▁böge
▁suspected
▁risen
▁gesture
▁consulting
▁frontier
▁burmese
▁quartet
▁visibility
▁perceived
makers
▁allowance
▁forefront
▁stimulating
▁barón
▁male
▁counting
▁occurring
▁thematic
▁expects
▁kilometres
▁specify
▁epidemic
▁dubious
▁lorries
▁memorandum
▁smart
▁lanka
▁drought
▁consolidating
▁overview
▁stipulated
▁cereals
▁madeira
▁assistants
▁sunday
▁hypocritical
▁tibetan
▁striving
▁chaos
▁reasonably
▁berlusconi
▁incredible
▁reserved
▁harder
▁intent
▁australia
▁modification
▁splendid
▁bangemann
▁mann
▁begins
▁bio
▁1989
▁curb
▁accelerate
▁migrant
▁radically
▁repeating
▁alleviate
ruijten
▁communautaire
▁stepping
▁somebody
▁backwards
▁notification
▁john
▁illness
▁stream
▁barely
▁1997.
ta
▁lehne
▁replied
▁overseas
▁chad
▁scarcely
▁reiterated
▁mad
▁undermines
▁flags
▁trains
community
▁claiming
▁admission
▁vegetable
sl
▁driver
▁countless
bendit
▁preserved
▁exporting
▁attacked
▁correspond
▁eradicate
▁scottish
▁studied
▁synergy
▁readmission
▁switch
▁collect
▁prominent
▁unambiguous
▁indicative
▁proving
▁cohn
▁lamy
▁liable
▁derived
▁explaining
te
▁understands
▁slavery
▁compatibility
▁pointless
▁expanded
▁discover
▁anxious
rate
▁geopolitical
▁analysed
1)
▁appeals
▁display
▁clarifying
▁excluding
▁deployed
▁upper
▁defeat
▁serbs
▁6,
▁crespo
▁mankind
▁lobbyists
▁38
party
▁substitute
▁suicide
▁tuberculosis
▁illustrates
▁arrival
▁poultry
line
▁centralised
▁49
▁95
▁42
▁birds
▁shut
▁transaction
▁applicants
▁calculated
+
▁fathers
▁blow
ary
▁poorly
▁contempt
▁taught
▁proceeding
▁unknown
▁quoted
▁electrical
▁virus
▁contractual
▁winter
▁honesty
▁artists
▁rejects
▁reviewing
▁translate
▁levy
▁rehn
▁thessaloniki
▁holiday
▁ambassador
▁encountered
▁muslims
▁mergers
▁prevailing
▁bid
▁corrected
▁pieces
▁conform
▁russians
▁passive
▁tourists
▁aggression
▁serving
▁bar
right
▁stabilise
▁fly
▁barrot
▁readiness
▁employee
▁unilaterally
▁flooding
regional
▁intolerance
▁sir
▁attain
▁stressing
▁insisting
▁proportionate
▁patience
▁pretty
▁forgetting
class
▁gather
▁quo
▁kill
▁eleven
▁chile
▁extremism
▁carries
▁jacques
▁capitalism
▁fines
▁underway
down
▁incorporation
▁diagnosis
▁herself
▁eldr
▁perception
▁loan
▁club
▁blocks
▁visitors
▁coup
▁deadlock
▁transferr
▁beautiful
▁reliability
▁detained
▁weakened
▁connections
▁65
▁traditionally
▁undemocratic
ion
▁alarm
▁havens
▁analysing
▁urging
▁tries
▁grand
▁farmer
▁complain
▁shipyards
▁2011.
▁indicating
é
▁occupying
▁shocking
▁collectively
▁watching
▁refunds
misunderstanding
ial
▁florence
▁sceptical
▁confidentiality
▁accessibility
▁distinguished
▁misuse
▁abused
▁enormously
▁behave
▁extremists
▁reaffirm
▁iv
▁commodity
▁uranium
▁capita
▁concentrating
▁swiss
▁crew
▁lesser
▁prohibit
▁architecture
▁offensive
▁voiced
minute
▁counterparts
▁delete
▁desperate
▁imminent
▁ratio
▁hinder
▁overlook
▁unusual
▁measuring
▁duplication
▁ceasefire
▁estimate
▁viewpoint
▁lending
▁legality
▁shareholders
▁exported
▁sme
—
▁mccreevy
▁biomass
▁committing
▁province
▁executions
▁donation
▁46
▁counterfeit
led
▁delors
▁chocolate
▁wines
▁slight
▁illustrate
5-01
▁hostage
▁honestly
▁favoured
▁needless
▁supportive
▁tune
▁cotton
▁harmony
▁convictions
▁preferable
▁hospitals
▁lobbying
▁turns
▁reveals
▁engines
▁persist
▁persistent
▁cancún
▁david
▁perpetrated
▁distant
less
▁adult
▁symbols
▁instructions
▁diet
▁punish
▁questionable
▁nepal
▁dissemination
▁persecuted
▁dictator
▁sharp
▁failures
▁venezuela
▁methodology
▁mouth
▁denying
▁boosting
▁vigorous
▁seville
▁lagging
▁charging
▁pages
▁2013.
▁ecosystems
intensive
▁sudden
▁phasing
▁quarters
▁somehow
go
▁music
▁tragedies
▁capability
▁designated
▁breeding
▁peacekeeping
▁damages
▁predecessor
▁condolences
▁opted
▁secrecy
▁discretion
▁rarely
▁doctor
▁specifications
▁2020.
▁pain
▁cruel
▁choosing
▁kurds
5-00
▁sick
▁store
▁breakthrough
▁evidently
▁ocean
▁refuses
▁arrests
▁defenders
sided
▁unequal
▁underpin
▁earliest
▁responsibly
▁struggling
▁worries
▁interconnection
▁denounce
▁minimise
▁supposedly
▁frameworks
▁neglect
▁amnesty
▁congestion
▁facilitation
▁eligibility
hand
▁tender
▁intra
▁unequivocal
▁intercultural
▁suit
sighted
tic
▁houses
trade
ated
▁classified
▁factories
▁engineering
▁shocked
▁growers
▁frustration
▁weakening
▁annually
▁adds
▁feet
▁packages
▁deleted
▁annan
▁collecting
▁themes
▁starts
▁forming
▁ethiopia
(2)
▁shaping
▁specialised
▁performed
▁reacted
▁rose
▁privileges
▁approached
▁antibiotics
▁comparative
▁fabric
▁observatory
▁atomic
▁tied
▁outlook
▁resident
▁pollutants
▁dreadful
▁locally
▁revising
▁unreasonable
▁equity
▁km
▁par
▁%.
▁traders
▁influenced
mouth
▁angola
▁protective
▁catastrophic
▁deputy
▁malmström
▁notwithstanding
▁broadband
▁inhumane
▁engine
▁directors
▁limitation
▁embark
▁corrupt
▁bought
▁square
▁reflecting
▁honoured
▁hot
▁2015
▁checking
▁remembered
▁explore
▁mortality
▁invasion
▁shorter
▁nets
bg
▁attending
▁embryos
▁robert
▁labelled
▁labels
▁underestimate
▁king
▁sorts
▁tighten
▁accede
▁reveal
▁selective
▁dark
▁engaging
▁uncontrolled
▁courses
developed
▁endanger
▁bonino
▁controversy
▁daphne
▁remuneration
▁resolutely
▁consist
▁yield
▁belgrade
▁misery
▁stepped
▁credits
▁warnings
▁violate
▁sacrifice
▁premium
▁formulation
▁improves
um
▁feasibility
▁sharon
▁mediation
▁nonsense
▁childcare
▁student
▁arena
▁47
▁azores
▁gonzález
▁breakdown
▁contaminated
▁cox
ch
▁1996.
▁distinct
▁devise
▁investigating
▁josé
▁visiting
be
▁cypriots
▁alia
▁cup
▁pen
▁meal
democratic
▁grasp
▁headings
▁assert
▁neutrality
▁loud
▁submission
▁strip
▁reciprocal
▁arriving
ment
▁manufacturer
▁rio
▁authoritarian
▁contracting
▁renewables
▁bombs
▁clubs
▁bomb
▁fragmentation
▁foreseen
▁dollars
▁copy
▁religions
▁combining
▁enemy
▁headquarters
▁75%
▁extends
▁onwards
▁interaction
▁eating
▁fostering
if
▁assigned
▁52
▁rebuild
(
▁sittings
▁bay
▁fontaine
▁saudi
▁documentation
▁belarusian
▁8,
first
▁hamper
▁disgrace
▁ancient
▁byrne
▁petrol
age
▁legislator
▁sessions
board
]
▁regain
▁arafat
▁cardiff
▁mandelson
▁rice
▁varied
▁smoothly
▁congratulated
▁epp
▁preconditions
▁verify
▁ultra
▁conceal
▁realize
▁diesel
▁desperately
▁civilised
▁villages
▁electric
▁renew
▁counts
ling
▁wogau
▁weakest
▁posting
▁objectively
▁temptation
▁coin
▁adopts
▁stimulus
▁entrusted
▁shock
▁vaccines
▁employer
▁referenda
▁readily
▁149)
▁tongue
▁younger
ise
▁atrocities
▁licensing
▁oostlander
▁updating
▁legislature
▁performing
▁fed
▁spheres
▁colonial
▁bangladesh
▁fragmented
▁da
rapporteur
▁suited
▁calculation
▁standpoint
life
▁?
▁allocating
▁commendable
▁cure
▁realisation
▁moroccan
▁stone
▁interpreters
▁experiments
▁lama
law
▁arguing
▁auspices
▁evasion
▁injuries
▁manufactured
▁organisational
▁landscape
▁immigrant
▁functional
▁negotiators
five
▁zu
▁51
▁gnp
▁evans
▁distort
▁novel
▁elite
▁deeds
▁revenues
▁seed
▁fatal
▁aforementioned
▁medina
▁resignation
▁generating
▁boat
▁130
▁dealings
▁inconsistent
▁unconditional
▁disgraceful
▁rothley
▁fulfilment
▁neoliberal
▁displayed
▁protects
▁factory
▁heat
liberal
▁premiums
▁solar
▁statutory
▁alzheimer
▁delegated
▁unequivocally
▁defines
▁cite
▁biometric
▁images
▁reservation
▁spot
▁canary
▁smoke
▁obama
▁temporarily
ivoire
▁ozone
▁conflicting
▁decisively
▁exploiting
▁endorses
▁cologne
▁intimidation
▁reinforcement
▁overlooked
▁certificates
▁shop
aside
compliance
▁penal
▁adhered
▁passports
case
▁deprive
▁vi
▁conformity
▁discriminated
▁l
▁finalised
▁horse
ant
▁automotive
▁insistence
▁cleaner
▁leap
▁operator
▁dictatorships
decision
▁galicia
▁11.30
▁malaria
▁churches
▁cell
▁warned
▁heating
▁thresholds
▁reaches
▁calculations
▁bulk
▁calendar
▁obsolete
▁speculative
▁lulling
▁infected
▁illnesses
▁worsening
▁emphasized
▁ce
▁parental
▁reasoning
▁ballot
▁arm
behrendt
▁incineration
▁correction
▁moments
▁legacy
▁bourlanges
▁cited
▁chaired
▁confrontation
▁dell
▁studying
▁uclaf
▁wondering
▁tsunami
▁relatives
▁personality
▁gathered
▁accorded
▁speeding
▁file
▁safely
▁window
▁forty
▁forwarded
▁9,
▁loopholes
▁brave
(1)
▁chairmen
▁sulphur
▁impacts
il
▁expectation
▁explains
▁prerogatives
ten
▁rwanda
▁mauritania
▁uzbekistan
▁famine
▁refuge
▁disappearance
▁machine
▁predict
▁construct
▁inspiration
▁dynamism
▁côte
▁habits
▁subscribe
▁withdrawing
▁merkel
▁sierra
▁1970
▁modulation
▁slightest
▁buses
▁principally
▁afforded
▁frame
▁ideals
▁vacuum
▁convenience
▁profitability
▁skilled
▁cia
▁ecr
▁versions
▁wrongly
land
▁gathering
parliamentary
▁modify
▁cohesive
▁juncker
▁superfluous
▁friendship
▁mulder
▁destructive
▁holdings
▁gold
▁balances
minded
▁characteristic
ri
▁amounting
point
▁backdrop
▁coelho
▁extraordinarily
▁athens
▁urges
▁reads
▁condemns
▁envoy
▁cluster
cos
ian
▁juncture
▁literally
▁scoreboard
▁escalation
▁keeps
▁lowering
financial
▁yemen
▁impartial
▁prudent
▁synergies
▁undesirable
▁nabucco
▁foreseeable
▁overdue
▁advised
▁se
▁beliefs
▁verdict
▁constructively
▁drain
▁precious
▁unchanged
▁multilingualism
▁milestone
▁finger
▁brain
▁enjoys
long
▁transpose
▁jordan
▁burundi
▁ankara
▁enforcing
▁garcía
▁dropped
▁maize
▁reduces
▁modifications
▁ages
ists
▁respectively
▁encounter
▁trips
▁peacefully
▁algerian
▁deepen
ized
▁decoupling
▁kazakhstan
▁hedge
▁reminding
▁toll
▁possession
▁marriage
▁ceilings
national
▁web
▁1.5
▁unwilling
▁salmon
▁modernising
▁storm
▁hesitate
▁exacerbate
▁bösch
▁beneficiary
▁conferred
▁stopping
▁accelerated
▁tolerated
▁langen
▁exchang
▁continents
▁abandoning
▁extremist
▁relocations
south
▁ally
▁chirac
▁demonstrators
▁yourselves
▁albanians
▁continuously
▁nobel
▁croatian
▁dozens
▁connect
▁dividing
▁florenz
▁observance
▁executed
▁hearts
▁varying
▁blackmail
▁optional
plath
▁poles
▁restraint
ization
commerce
▁agri
▁imply
▁outrageous
▁mutilation
▁randzio
▁redistribution
▁offset
▁racial
▁54
▁beforehand
▁questioned
▁imposes
▁observing
▁rübig
▁coincidence
▁nielson
▁liberalising
▁reaffirmed
▁pupils
▁targeting
▁appearance
▁trap
▁velzen
▁frequency
▁justifies
▁corresponds
▁generalised
▁drink
▁termed
me
political
▁gear
▁capitals
▁virtual
▁dalai
j
▁forecast
▁describes
▁publicity
▁rulings
▁53
▁incumbent
▁kyi
▁accomplished
ka
▁historically
▁waterways
▁accommodate
▁1991
▁bonds
ul
▁influx
▁traffickers
▁foreigners
▁mafia
▁odds
▁beg
▁named
market
▁tendencies
▁unstable
▁castro
▁liberalised
▁grips
▁accurately
▁endless
▁realism
▁assisted
▁odd
▁pledge
▁regrets
▁quest
▁commodities
▁frozen
balanced
▁2012.
▁command
▁relaunch
▁asbestos
▁arose
▁leonardo
▁polluting
▁premises
▁plea
▁responds
▁federalist
▁ball
▁quiet
▁manipulation
▁sudanese
▁shipowners
▁sanction
▁nutrition
▁56
▁portfolio
▁experiment
he
▁importing
▁importers
herzegovina
ve
▁confuse
▁illicit
▁ecsc
▁equip
▁murders
▁recommending
▁exciting
▁suu
▁cancelled
▁hunting
ful
▁norms
▁circles
▁incomplete
▁reimbursement
▁recipient
▁lithuanian
▁georgian
▁questioning
▁ind
▁acknowledging
▁verhofstadt
▁plight
▁tropical
▁practised
▁specialists
▁unaware
▁indicator
▁herman
▁unlawful
▁ambiguous
▁barbaric
▁confidential
▁fyrom
▁penalised
▁persuaded
▁tightening
▁don
▁gmo
thirds
▁suppose
▁super
ies
▁41
▁hesitation
▁retaining
producing
▁freeze
▁anxiety
▁pregnant
▁approximation
▁interreg
▁lebanese
▁supporter
▁prioritise
▁shops
▁rests
▁rush
efficient
▁hydrogen
▁profoundly
▁continental
▁closest
▁proportions
▁comprehensible
▁recipients
▁corporations
▁blatant
▁populated
▁altered
▁fifthly
▁undergoing
ad
▁reminder
▁drift
▁hectares
▁ict
▁discrepancies
▁satisfactorily
▁unavoidable
▁prompted
▁aung
over
▁whoever
▁bloc
▁derive
▁phone
specific
▁theoretical
▁usefulness
development
▁arabia
▁enthusiastic
▁inventions
▁wales
▁secular
▁optimum
▁ortega
▁exacerbated
▁underestimated
▁indonesian
▁58
▁rooted
new
▁score
▁concur
▁egyptian
▁homeland
▁bali
▁possess
▁obesity
▁dimas
▁varies
▁seafarers
▁feedingstuffs
▁shortages
▁returns
risk
▁households
▁insists
▁relying
▁designation
▁tactics
▁bombing
designate
▁reluctant
▁intensified
▁thailand
▁convicted
▁balancing
▁unsustainable
ry
▁shed
▁85
ability
▁desertification
▁liquidity
▁output
▁tenth
▁winners
▁systemic
▁catholic
▁habitats
▁corridors
▁divorce
▁celebrating
▁sterckx
▁honey
▁baby
▁signatories
▁delaying
▁champion
▁format
▁favours
▁pretend
▁expressions
▁undertook
▁unnecessarily
▁municipal
▁repatriation
▁consultative
▁orders
▁phased
▁overnight
▁bathing
▁degrees
▁exceeding
▁notified
▁dilemma
▁skill
annual
▁broaden
▁protocols
pe
▁exhaustive
▁advisable
▁deforestation
▁destiny
▁criticising
▁reintegration
▁holders
▁unreservedly
▁originating
▁reap
▁combated
▁bargaining
▁fat
▁operated
▁interpretations
▁endeavouring
▁emerges
▁household
▁ecosystem
food
▁representations
▁feeding
member
▁confusing
▁schreyer
▁freezing
▁esteem
▁surpluses
▁tougher
▁journeys
▁widening
▁supplying
▁basin
▁authorise
▁generic
▁recalled
▁harmonious
▁baringdorf
▁broek
▁pertinent
▁turnover
▁interior
▁publishing
decentralisation
▁practise
▁outcomes
▁rectify
▁exporters
▁deplorable
▁lamfalussy
▁stabilising
▁rocard
▁referral
▁policing
▁drastically
▁devised
▁bloody
▁supplemented
▁separated
needed
▁steady
▁eurodac
▁nationalist
▁detainees
ma
▁lakes
▁unjust
established
▁credentials
▁irreversible
▁wynn
▁transmitted
▁justifiable
▁endangered
▁travellers
▁upholding
▁insult
▁useless
▁illusion
▁corner
▁2011,
▁crucially
▁liberalise
▁resettlement
▁cigarettes
▁touches
▁mobilised
▁expulsion
▁passage
fire
financing
growing
▁emotional
▁kaliningrad
▁karas
▁hopeful
▁rebuilding
▁leone
▁recitals
▁appealing
▁metres
▁dossiers
2/
▁glass
▁complies
▁graefe
▁mitchell
▁attendance
▁multilateralism
▁outdated
▁fortunate
▁patterns
▁deteriorating
▁imagination
▁uncertainties
▁senate
▁exerted
▁disruption
track
▁pockets
▁inefficient
keeping
▁distribute
▁reconciling
▁bankruptcy
▁native
▁noble
hour
▁seized
▁tends
men
evident
nordic
▁oversight
▁stories
▁unfounded
▁adjusted
▁filled
▁cosmetics
▁sounds
▁eta
▁qualify
▁seconds
▁suffice
▁berès
▁vigilance
▁impressed
▁grey
▁occasionally
▁confirming
▁scientifically
▁titley
euro
▁awarding
▁57
ti
▁ratifying
▁winner
▁marginal
▁resolute
▁catalogue
▁compensator
▁seattle
▁violating
▁vigo
▁origins
▁13,
▁provider
▁soya
):
▁cancellation
▁slogan
sharing
▁teach
▁ascertain
▁discourage
▁indifferent
".
▁infection
-03
▁coach
▁almunia
▁ambiguity
▁singapore
▁synthetic
▁voluntarily
▁entrepreneurial
▁kyrgyzstan
▁climatic
▁illustrated
▁educated
▁disregarded
0)
▁suffers
ur
ging
▁landfill
▁rivers
west
▁mitigate
▁despair
▁expectancy
▁hautala
▁gatt
▁mobilising
▁vain
▁pledged
▁distorted
▁attacking
▁germans
▁edge
▁massacre
▁motivation
▁blockade
▁seeds
benefit
▁11,
▁lampedusa
▁vicious
▁batteries
▁illustration
▁endorsement
▁progressing
▁transformed
existent
▁facilitated
ns
▁lively
▁tunisian
increasing
▁blokland
▁generosity
▁interfering
▁unrest
▁prescribed
▁backs
▁evaluations
▁tickets
▁forgive
▁render
▁automobile
▁constituent
▁qualification
▁season
▁accessing
▁canadian
▁shot
▁u
▁oslo
▁saturday
▁preceded
▁breaks
war
▁63
▁ticket
▁abkhazia
▁hierarchy
▁hostile
▁cashman
▁differentiated
▁grassroots
▁master
▁universally
▁overly
lo
▁spouses
▁scandals
eastern
private
▁accommodation
▁inquiries
▁postponing
▁volatility
▁suppression
▁catalyst
▁jewish
▁preventative
▁unused
▁greenland
▁subsidised
▁rigorously
▁wealthy
▁consisting
▁10,
▁staying
▁merger
▁occurrence
▁rethink
▁waves
going
▁ordered
▁destined
▁busy
▁films
▁ford
lv
ci
▁penalise
▁acquisition
▁ossetia
▁polluter
▁occupy
▁degradation
▁equilibrium
▁impasse
▁liberation
▁reluctance
▁makers
▁elles
▁wallis
▁authorising
▁doubtless
▁envisages
▁aged
establish
▁inspire
▁associate
social
▁differs
▁donations
▁aznar
▁likelihood
▁steadily
▁gbp
▁repetition
▁allegedly
▁exit
▁meaningless
▁outright
style
▁gebhardt
▁happily
▁inadmissible
▁intervening
▁bowis
▁percent
▁intermediate
▁quicker
▁undergo
▁lifestyle
▁curious
▁identifies
▁jeopardising
▁qualities
▁daul
ir
▁embarked
▁fluctuations
2)
▁incidence
▁customer
▁sacrifices
▁violates
▁surrender
▁kenya
▁depleted
▁marginalised
▁presently
▁conditionality
▁ignores
▁sacrificed
▁prevails
▁benchmarks
▁watered
▁colour
fraud
▁kashmir
amount
▁surveys
▁solvit
▁špidla
▁jackson
▁detected
▁plane
▁350
▁headed
▁sun
▁token
▁chechen
▁village
which
▁66
▁alexander
▁fischer
▁ignorance
▁pirker
▁prague
▁haug
▁standardised
▁letting
▁hugely
▁dictate
▁mini
▁outlines
discriminatory
▁contributors
ill
▁dwell
▁doctrine
▁influenza
▁injury
▁laudable
▁differentiation
▁stupid
▁theato
▁absorb
▁appearing
▁chronic
▁ranging
▁summarise
▁cites
▁denial
▁motives
▁scenarios
troductory
▁dedication
▁starch
▁distances
▁progressively
▁logistics
▁tortured
ra
▁2.5
▁challenged
▁detect
▁fulfils
▁rompuy
▁undeclared
▁predictable
▁upcoming
▁disciplinary
▁ice
▁bonn
▁forever
▁flu
▁acceding
▁complementarity
▁dignified
▁misgivings
▁inclined
▁argentina
effective
▁chiefly
▁ratings
▁allocations
▁mayor
▁shelter
▁forwards
personnel
▁gradin
▁believing
▁globe
▁lannoye
▁pig
▁4%
▁globalization
▁midst
▁clinical
▁mode
▁computers
▁heed
▁sand
▁ngo
▁forums
▁explosive
▁guideline
▁armenian
▁arrange
▁aftermath
▁unsafe
▁grain
▁sexes
ba
▁intensively
▁tant
▁spiral
▁factual
▁collins
▁unhappy
▁abandonment
▁hiding
▁hungarians
▁2015.
▁develops
saharan
favoured
▁cynical
roots
▁annum
▁ashamed
▁comprising
▁identities
▁indignation
▁kallas
▁upgrading
▁devastated
▁revolutionary
▁twin
▁triggered
▁richer
▁annexes
▁trip
▁syrian
▁databases
▁horror
▁investor
▁staffing
▁clearing
▁upset
▁accompany
▁conduc
▁unexpected
▁cairo
▁composed
▁detection
▁predicted
▁wisely
▁inhuman
▁coordinators
10
▁59
▁directions
▁reward
▁lawmaking
▁premise
dumping
▁civic
▁declining
▁emergencies
▁fantastic
▁feira
▁inviting
▁mckenna
▁allotted
▁heartfelt
▁5.30
▁describing
▁burning
▁communicated
▁1995.
▁wellbeing
▁answering
elected
▁supplier
▁cosmetic
nationalisation
▁cancel
▁advancing
▁erosion
▁denominator
▁attributed
▁munitions
▁fronts
▁elect
▁pigs
▁rolling
▁nomination
▁trigger
▁mature
▁bitter
▁savary
▁shopping
▁plainly
▁livelihoods
mr
▁platforms
so
▁massacres
▁journal
▁coasts
▁broadcast
▁seal
▁killings
▁reinforces
▁sheet
▁capture
▁appointments
▁tiny
▁intensity
▁scepticism
▁volumes
▁benchmark
▁rises
▁liais
▁vaccine
▁backward
▁pleasant
▁mismanagement
▁nassauer
▁cleansing
▁tempted
▁consumed
▁richest
▁stored
▁critics
▁timetables
▁changeover
▁110
▁consume
▁butter
▁trees
▁reactor
▁waterway
▁fraudulent
▁routine
▁artistic
▁homosexuals
▁objects
▁doubtful
▁doubled
á
▁shores
mail
▁fits
▁enlarge
▁taste
▁guatemala
▁fundamentalist
▁achievable
▁stuck
▁unlimited
▁absorption
▁asem
▁forcefully
▁couples
▁steering
▁prevailed
▁nuts
▁locations
▁y
▁curtain
▁successor
▁unregulated
▁headway
▁leinen
▁dragg
▁62
▁joy
▁feared
▁embrace
▁insight
▁risky
▁contemporary
▁moderation
handed
▁panic
▁passes
▁civilisations
5-02
▁patenting
ca
▁craft
▁lord
▁steer
▁polls
▁timeframe
▁lange
▁holidays
▁undeniable
izing
▁channelled
▁fao
io
▁bi
▁transparently
▁miles
▁establishments
▁avail
▁walls
▁comprises
▁paradox
▁izquierdo
▁junta
▁tripartite
▁unduly
▁motto
▁branch
▁militarisation
-04
▁fusion
▁coupled
▁anger
(2001)
▁ko
▁ring
▁stamp
▁seminar
ethnic
▁certificate
speaking
▁dictators
▁elaborate
▁haarder
▁irrelevant
▁preamble
▁advantageous
▁acknowledgement
▁fitting
unterproductive
▁derivatives
active
▁shifting
▁provocation
▁bridges
▁audits
▁crowley
▁ludford
▁adherence
▁ε
▁bordering
▁administered
▁indifference
▁broke
▁mountains
▁awful
▁helms
▁convert
▁pertain
▁eventual
▁flagrant
▁gene
▁genital
▁morillon
▁proximity
▁lorry
▁naval
▁situated
▁deaf
▁roughly
▁arranged
▁wipe
▁traps
▁ranks
▁tankers
raising
▁deploy
▁enjoying
▁enemies
▁howitt
01
▁supplements
▁classic
productive
▁suspects
▁video
▁fix
▁paul
▁crude
▁libraries
▁dührkop
▁remedies
▁categorically
▁utilisation
▁norm
▁employing
▁cows
▁machines
▁epas
▁clash
▁purchases
▁magnificent
▁distress
▁airbus
▁tajani
▁carcinogenic
▁therapeutic
▁generates
▁clashes
▁witnesses
▁fingerprints
▁hans
▁concession
▁malaysia
▁mistrust
▁doyle
▁expiry
▁horrific
▁salafranca
▁registers
▁constitutions
china
▁trace
▁temperature
▁tables
▁breathe
▁incorporates
▁bankrupt
▁cocoa
▁unthinkable
▁veal
▁monnet
▁fatuzzo
▁esdp
▁travelled
ck
▁constructed
▁smallest
▁discards
▁mess
3)
▁pandemic
ever
▁clinton
▁cargo
▁preferably
▁branches
▁eminent
▁dayton
▁favourably
▁jews
▁levelled
▁soul
▁economics
carbon
▁reopen
▁dioxin
▁select
▁turkmenistan
▁codification
▁vulnerability
▁subsidiary
▁abundantly
▁hake
▁compensated
you
▁homework
▁row
▁websites
▁defects
▁coincide
▁empire
▁motorways
▁scrap
▁sánchez
▁andersson
▁customary
▁cleared
▁authorisations
im
▁berg
generation
za
id
▁institutes
▁gibraltar
▁deterrent
▁disclosure
▁pregnancy
▁unesco
▁winning
▁8%
▁6%
owned
▁interpreting
▁realising
▁fortress
▁rationale
africa
▁cereal
▁deem
▁maximise
▁eurobonds
▁quaestors
ps
▁heated
▁landing
▁contend
▁napolitano
▁negligence
▁presumably
▁unpleasant
▁méndez
▁backbone
▁na
▁nigerian
▁libyan
▁prohibiting
▁diplomats
▁gladly
▁alas
▁posted
▁style
▁fee
▁files
▁exercises
▁foresee
▁dry
▁revive
▁buitenweg
▁gravity
▁compelled
▁roaming
▁flawed
cost
▁extensively
▁sticking
▁pledges
ne
▁mail
▁wheel
▁dissatisfaction
▁flynn
▁initiating
▁hughes
▁speedily
burton
▁contentious
ac
▁proclaimed
▁hardest
▁recovered
▁stems
▁mortgage
▁listing
▁resign
▁assertion
▁crews
▁reside
▁geographic
▁grossetête
▁totalitarianism
▁celebrated
▁benchmarking
▁legitimately
▁catching
▁boycott
▁sentiments
▁knock
▁installation
▁uganda
▁monies
▁lady
▁reproduction
▁denounced
▁officer
▁exerting
▁auditing
li
▁leon
▁worded
▁livelihood
▁commence
▁arrogance
▁rapprochement
▁exaggerated
▁basel
▁converted
▁adversely
▁imo
▁grip
▁notable
▁nutritional
▁forge
ts
▁governmental
mo
▁explosion
back
▁obscure
▁distributing
▁lamassoure
▁martens
▁scrapping
▁decreasing
▁12.00
▁tighter
▁george
▁fleeing
▁earned
ize
van
▁dialogues
▁prerequisites
▁stipulate
▁assassination
▁subordinate
▁ferber
▁decreased
▁colombian
▁finishing
▁directorates
▁affirm
▁aspire
▁discriminate
▁12,
▁omission
▁concentrations
▁defensive
▁luxury
▁pvc
▁extraction
▁childhood
▁whitehead
▁permissible
▁maghreb
▁klaus
▁formulating
cap
▁proceeds
▁pakistani
cut
▁ro
▁contest
▁thirds
▁intrinsic
▁magnitude
▁flagship
▁nazi
po
▁accords
▁67
▁ma
▁overhaul
▁valued
ge
▁disrupt
▁cumbersome
▁duisenberg
▁edinburgh
▁maltese
▁expelled
▁overriding
▁logically
▁offenders
▁powerless
▁angle
▁walk
▁commented
catch
01)
▁habit
▁subcommittee
▁isolate
▁gratifying
▁leisure
▁trichet
▁corrective
▁dictated
▁dam
▁adam
▁volunteers
▁clients
▁precautions
▁hate
▁sorted
▁stretch
!'
▁declaring
▁maturity
▁corps
▁censorship
▁exhausted
ine
▁owner
▁68
▁interview
(3)
▁apologies
▁infectious
▁vested
▁cloned
▁insignificant
▁characterise
▁reversed
▁landmines
aladministration
▁failings
▁turnout
▁opting
▁450
▁treatments
what
▁shocks
▁hormones
▁rough
▁astonishing
”
▁breyer
▁judging
▁echelon
▁pronounced
sis
▁confess
▁dismissed
▁leverage
▁franco
ous
▁illusions
am
▁liese
▁pool
▁repeal
▁w
▁prolong
ov
▁continual
▁zaire
▁domination
▁sjöstedt
▁alpine
▁strain
▁peter
bi
▁beer
▁fats
▁16,
▁perceive
▁rebate
▁dismantle
▁mercy
▁mozambique
▁correlation
▁minsk
▁nominal
▁lying
▁golden
▁attracted
▁compromised
▁throwing
▁losers
ier
▁exceeds
▁ears
taking
▁spell
▁giant
▁crystal
▁immunities
▁trakatellis
▁consular
▁mentality
▁abilities
▁tightened
not
▁nitrates
▁proportional
▁incoming
▁remembering
▁teacher
▁habsburg
▁coffee
▁indefinitely
▁careers
▁flexicurity
▁sharply
▁fixing
▁lucas
▁140
▁lasted
▁critically
▁pictures
99
▁del
sessions
▁populist
▁aspiration
▁accusation
▁restructure
▁paradoxical
▁cabotage
▁confederation
▁waged
▁weber
▁abstaining
▁dreams
▁relieve
▁sat
▁indiscriminate
▁tie
▁hostages
▁evolve
▁cigarette
▁recast
▁fourteen
▁calculating
▁deletion
▁frassoni
▁henceforth
▁invaluable
▁wife
▁standstill
▁tailored
▁phases
▁counted
▁instrumental
▁transporting
▁abstention
▁xenophobic
▁municipalities
▁unrestricted
▁1985
▁rain
▁69
▁misused
▁artificially
▁documented
▁appointing
con
isunderstandings
green
egf
▁counteract
▁eritrea
▁decree
▁lax
▁horrendous
▁influential
▁transposing
▁undergone
▁disposed
▁harms
▁exempted
▁collapsed
▁constructing
products
▁conception
▁gangs
stop
▁mainstream
▁parent
▁bills
▁flat
▁brittan
▁revival
▁unfavourable
▁bluefin
▁1986
▁philippines
rd
que
▁monthly
▁joke
▁consequent
▁du
▁gil
▁stops
▁oceans
▁diversify
▁index
▁homosexual
▁mediator
▁admiration
▁ceremony
▁eradicating
▁schröder
▁passion
▁sophisticated
▁accounted
▁umbrella
▁biogas
▁beet
▁82
▁clock
▁tony
saving
▁comprehensively
▁eeas
▁district
▁gay
▁goebbels
▁munich
▁formalities
▁speculators
▁earthquakes
▁turks
sa
▁drinks
▁handing
▁tonne
▁budgeting
military
▁humans
▁eighth
▁supervise
▁17,
▁piebalgs
▁stagnation
▁thyssen
▁tomlinson
▁seasonal
▁interrupted
ver
▁specifying
▁dissidents
▁doping
▁presupposes
▁campaigning
▁mps
▁argues
let
▁groupings
founded
▁fruits
▁acquiring
▁mccarthy
▁falsified
▁unhcr
▁variable
▁prosecuted
▁strategically
▁sa
▁annexed
▁commonly
▁mandates
9/
▁dealers
▁assumes
▁africans
interest
▁jan
▁pattern
▁alcoholic
▁qua
▁suspending
▁shipments
▁commissioned
fledged
▁communists
ter
▁scarce
▁mood
▁anticipation
▁cappato
▁interdependence
▁appraisal
▁eurogroup
▁expired
▁underground
▁recording
▁volunteering
▁matches
▁esf
▁definitively
▁ideally
▁ecologically
▁broadcasters
ja
▁exhaust
(1999)
atlantic
▁fur
▁belder
▁lancker
▁perverse
▁reassuring
▁settling
▁unwanted
▁divergent
▁evolving
▁transplantation
▁miracle
▁provoked
▁carrier
▁brazilian
▁invoked
▁wolf
▁marketed
▁approves
▁son
like
election
▁freed
sufficiency
(4)
▁bolster
▁valencia
▁invoke
▁mexican
▁sterling
▁substitution
▁supervisor
▁rendered
alba
▁paths
▁dire
▁nord
▁rumours
sea
▁formerly
▁progressed
▁forceful
ke
▁dismiss
loud
health
▁rebels
▁pope
▁abstract
▁discrepancy
▁residing
▁specifies
▁haulage
▁predominantly
▁conceived
▁hanging
▁distributors
▁thereof
▁logistical
▁intervened
▁haste
ni
▁cleaning
▁hu
▁kick
▁improper
▁holocaust
▁inalienable
▁laboratory
▁fava
▁raft
▁transcend
▁slip
▁downturn
▁77
▁physically
▁900
(2000)
▁129
▁96
▁enlargements
cal
▁infringe
polluter
type
▁comfort
▁custody
▁doubling
▁eurobarometer
▁seppänen
▁tired
▁dominate
▁nominated
▁mineral
▁clearance
▁slaughtered
▁caring
▁tanks
▁armaments
▁burg
tech
▁variations
▁nationally
▁reacting
▁salute
▁owned
▁flee
terrorist
▁prohibits
▁brilliant
▁administer
▁disparity
▁adjournment
▁eurocontrol
▁brother
▁infringed
▁chains
▁disputed
▁weu
▁tyres
▁metals
▁minimis
▁eggs
02)
ton
▁actor
american
third
▁stalin
▁collaborate
▁laboratories
▁renault
▁forbidden
▁zealand
▁scandinavian
▁appropriation
▁reassured
▁lawful
▁confronting
▁waited
▁outbreaks
▁clarifications
▁delegates
▁flourish
▁circumvent
▁ruin
▁breath
semitism
▁flesh
▁warsaw
▁relies
▁amazed
▁deteriorated
▁bond
▁underpinning
▁inflicted
▁marco
▁matched
▁conveyed
▁revealing
sector
30
▁unify
pa
▁devising
▁marín
▁rasmussen
▁spiritual
▁jensen
▁reactionary
▁gift
▁polluted
▁cinema
▁2.
2002
▁cornerstones
▁semi
▁complaining
▁morally
▁constituted
funded
▁peru
▁tenders
house
▁potato
▁alavanos
▁announcing
▁baghdad
▁endorsing
▁inconsistencies
▁fauna
▁properties
▁enrichment
▁2050
▁horizon
▁hectare
▁takeover
▁bail
▁ran
▁ra
nd
▁attentive
▁spectacular
▁istanbul
▁madagascar
▁eighteen
▁vigour
▁signatory
▁corridor
▁dozen
▁oldest
ie
▁rounds
▁ca
▁marriages
fold
win
▁bees
citizens
▁superior
▁dupuis
▁embassies
▁genoa
▁ministries
▁unquestionably
▁embryonic
▁brown
▁enacted
▁portion
▁embryo
▁hormone
▁jeopardised
▁stereotypes
▁rightful
▁hell
▁bone
▁insecure
avier
per
▁brand
▁unscrupulous
▁apparatus
▁enquiry
▁justifiably
▁lobbies
▁staes
▁correspondence
▁tajikistan
▁solvency
▁flora
▁surrounded
▁bind
▁ta
ig
▁geographically
▁depriv
▁verit
▁inflexible
tr
▁deposit
▁expires
▁slave
bc
undue
government
▁th
▁con
▁calculate
▁ambassadors
▁sympathetic
▁courtesy
▁cunha
▁intermediaries
▁katiforis
▁kauppi
▁kroes
▁lambert
▁spatial
▁stoning
▁teeth
▁blank
▁slim
▁offshore
▁alignment
▁oppressed
▁endure
▁downward
▁72
?'
▁advisers
▁cry
iscard
▁headlines
defined
▁tar
article
commercial
▁weigh
human
▁78
▁detract
▁manifest
ins
▁subsidise
▁discharges
▁gallagher
▁inconceivable
▁rectified
▁holland
▁fraga
▁verified
▁reorganisation
▁superstate
▁permitting
▁printed
▁excesses
▁emotion
▁liberalism
▁latvian
▁diplomas
▁filling
▁19,
▁x
▁rotat
▁excludes
side
▁harvest
▁irregular
▁mis
▁clarifies
▁combustion
▁constituencies
▁diamantopoulou
▁schroedter
▁sensibly
▁lump
▁axis
▁requisite
▁exile
▁criminality
▁telecom
▁peer
▁finalise
▁manages
▁facilitates
▁opposes
);
run
▁exchanged
▁lapses
▁recalling
▁pet
▁entrust
▁peninsula
▁naive
▁misguided
▁rossa
▁sharia
▁ferry
▁intact
▁astonished
▁plunge
▁mundus
▁simplistic
▁convenient
▁dirty
▁compiled
▁cadmium
▁realistically
▁unbalanced
▁invention
▁governor
▁compliments
▁bounds
▁retailers
▁ba
▁timescale
▁cooperated
▁closures
▁notorious
▁protesting
▁predecessors
▁harmonize
▁dis
▁simultaneous
▁compel
weggen
▁brink
▁schuman
▁sellafield
▁ample
▁admissible
▁dictatorial
▁95%
▁12%
▁tide
▁calmly
▁cabinet
▁cutbacks
▁2014
▁adjusting
▁disappearing
▁18,
▁diminish
▁accomplish
▁roman
▁externally
▁accuse
▁solemn
▁transnistria
▁senegal
▁equator
▁aegis
▁efficacy
▁enlarging
▁manuel
▁nicholson
▁sacconi
▁simpson
▁employability
▁sixty
▁avian
▁differentiate
▁sweeping
▁tibetans
▁expose
▁costing
▁celebration
our
▁layer
▁disagreements
▁tolls
▁warrants
more
▁weekly
vi
▁loyal
ities
▁vertical
▁linkohr
▁unforeseen
▁recreational
▁quoting
▁alps
▁35%
▁maij
▁applauded
▁der
▁maes
▁drama
▁residues
▁earnings
si
▁wear
▁notify
▁lip
▁triumph
▁utilise
▁unsuccessful
▁accuracy
▁catalan
▁degrading
▁guantanamo
▁ribeiro
▁gollnisch
▁essen
▁levies
▁enhancement
▁communicating
▁unpaid
▁tobin
▁hauliers
▁superpower
▁appliances
▁liquid
▁pesticide
▁shipyard
▁atypical
▁flaws
▁efd
03
8/
▁experimental
▁admire
▁caudron
▁cyanide
ão
▁objectivity
▁persistence
▁comfortable
▁dating
▁biased
▁wholehearted
▁euromed
▁1987
▁mindful
▁magic
▁majorities
▁enp
▁reconciled
▁jail
▁nurses
used
▁orden
▁boards
ted
ate
public
▁encompass
profit
40
▁tour
▁organize
▁educate
▁thirteen
▁varieties
▁wurtz
▁spokesman
▁0.7%
estaing
▁marginalisation
▁doomed
▁lodged
▁kindly
▁wearing
▁praised
ory
▁missile
▁lu
▁prisoner
▁comparisons
▁markov
▁lifetime
▁ne
▁1988
▁99
▁boys
▁translations
▁agendas
binding
/2003
▁prosecute
service
▁faithful
▁orthodox
▁adequacy
▁brenner
▁holistic
▁peijs
▁triangle
▁turmes
▁unpunished
▁uruguay
▁babies
▁abbas
▁duff
▁congolese
▁marketplace
▁hampered
▁shield
▁handful
institutional
▁cop
▁endeavoured
▁restricts
▁strengths
▁custom
▁icc
▁hole
7-0
water
▁fierce
▁embarrassing
▁flanders
▁undeniably
▁vein
▁budapest
▁complicity
▁frustrated
▁pioneering
▁rewarded
▁widest
▁nationalities
▁rebel
▁satisfying
▁shoes
▁61
▁alliances
00
▁additionally
96
high
▁utter
▁mai
▁scrutinise
▁supervisors
▁conceivable
▁hänsch
▁jungle
▁wheat
▁cruelty
▁default
▁morgan
▁fascism
▁ebrd
▁broadest
▁rotation
this
▁recognizes
▁designations
▁86
▁pipelines
oil
,000
examine
▁bread
▁appendix
▁attributable
▁chichester
▁varela
▁enforceable
▁arable
▁auto
▁evade
▁prejudices
stay
distance
▁presume
▁embassy
▁literature
▁nightmare
▁practicable
▁beaten
▁coreper
▁schmidt
▁unambiguously
▁utilised
▁defeated
▁healthier
▁ceased
▁rock
▁measurement
▁dogma
▁romano
▁2000-2006
▁sleep
▁71
▁revisit
▁streamline
▁guilt
▁diabetes
▁outlining
▁reversal
▁streamlining
▁tannock
▁vicinity
▁stolen
▁ramos
▁bovine
▁hezbollah
▁gaddafi
▁hatzidakis
▁democratization
▁christianity
▁remainder
▁counterpart
▁+
▁catering
▁provoke
▁motorway
ors
▁bin
▁colours
▁speeded
▁170
non
▁pressed
▁republics
▁rejoice
▁cyber
▁galeote
▁severity
▁deferred
▁wijsenbeek
▁legislating
▁guise
▁icao
▁encompasses
▁analytical
▁dust
rc
▁comprise
▁bureaucrats
▁valley
▁cat
continuation
▁multifunctional
▁curtail
▁crux
▁heaven
▁homophobia
▁inconsistency
▁naples
▁solbes
▁pivotal
▁residential
▁incitement
▁uniformity
▁upgrade
▁carers
▁outrage
enthusiastically
▁toward
▁widen
▁chicken
▁bottlenecks
▁distorting
▁scratch
▁agent
▁hazards
ko
that
▁renounce
▁opportune
▁trivial
▁optimal
▁dissent
▁paasilinna
▁reiterating
▁wholesale
▁unbundling
▁accumulated
▁erdf
▁holy
▁halfway
▁additionality
▁anna
▁eit
▁taboo
▁shifted
▁shaped
▁88
▁skin
▁outgoing
▁aeroplanes
▁sentiment
▁64
4/
business
seekers
▁passionate
▁papayannakis
▁advent
▁hitler
▁zana
▁bury
▁wing
▁daughter
▁4.
▁unfairly
8(
▁noting
▁ha
va
smes
▁holder
▁hasty
care
▁multicultural
▁commensurate
▁cresson
▁geography
▁kabul
▁primacy
▁lagendijk
▁roure
▁saint
▁tolerant
▁rack
▁authorization
▁slowdown
▁prolonged
▁bonde
▁talent
▁blamed
▁abduction
▁corporation
▁recovering
▁phones
▁oversee
▁proceeded
16
▁beat
▁determines
▁fled
▁bars
nuclear
▁persists
▁emotions
▁bizarre
▁motivate
▁admirable
▁humiliation
▁semester
▁unhealthy
▁punishable
▁orange
▁duma
▁dynamics
▁brutally
▁broadening
▁lots
▁loses
2001)
▁supermarkets
▁disorders
▁percentages
▁iraqis
▁conversations
card
▁enrich
tariff
▁hesitant
▁amazing
▁concise
▁distrust
▁lópez
▁prudence
▁renovation
▁contributor
▁schmid
▁ivory
▁accumulation
▁parity
▁ukip
▁federalism
▁sufferers
▁troubled
▁modernised
▁respectful
▁declined
▁technique
6/
▁scenes
▁81
▁22,
▁exporter
▁treats
5-04
di
▁125
▁appealed
▁compounds
employment
▁culturally
informed
▁98
▁nicaragua
▁acta
▁contemplate
▁devastation
▁paralysis
▁starvation
▁1960
▁impartiality
▁hungry
▁tindemans
▁homeless
▁thors
▁complications
▁assault
▁inconvenience
▁delegate
▁cheque
▁uprising
▁entitlement
▁tree
▁imagined
▁defends
▁appreciates
▁factions
with
▁ride
▁monitors
▁180
▁bertens
▁davies
▁deprez
▁honduras
▁illiteracy
▁opium
▁suffrage
▁untenable
▁glaring
▁desires
▁1950
▁perry
▁discovery
▁ironic
▁purchased
▁succession
▁recipe
▁prescription
sufficient
▁hotel
▁employs
▁withstand
ler
–
▁align
▁relocate
▁accelerating
▁meagre
▁miert
▁populism
▁pérez
▁ahern
▁1979
▁underpinned
▁nitrogen
▁cultivated
▁inserted
▁borrowing
ak
▁motive
▁breached
▁amounted
▁symptoms
art
▁weighting
post
red
▁networking
▁provinces
▁peak
▁anticipating
▁destabilising
▁reprehensible
▁swept
▁casualties
▁weiler
▁accustomed
▁vodka
▁feedback
▁importation
▁convened
ship
▁retraining
▁streamlined
▁harmonized
ogged
▁watched
▁punishing
ep
▁regulates
▁italians
▁creditors
00)
everything
▁shoulders
▁desert
▁comparing
▁compromising
▁diamandouros
▁liechtenstein
▁monterrey
▁purvis
▁crazy
▁emigration
▁madness
▁ecj
▁frightening
▁7%
▁overlap
▁complained
▁attained
▁liberia
▁deadly
▁insolvency
▁periodic
▁prescribe
▁intergroup
▁loophole
mer
ex
german
paragraph
driven
▁telecoms
▁wreck
▁altener
▁footwear
▁müller
▁sacred
▁underlining
▁martínez
▁verge
▁preceding
▁opel
▁distinctive
▁obsession
▁economical
▁elementary
▁hindered
▁void
▁deportation
▁fascist
see
▁unites
▁arts
▁tissues
▁suspicions
▁rein
▁destabilise
▁random
▁campania
▁precision
▁sensitivities
▁unanswered
▁fabre
▁prevalent
▁midnight
▁lunch
▁avoidance
▁dismantled
▁gni
ring
▁prerogative
▁distinguishing
pre
▁guards
▁statutes
but
1999
▁misunderstand
▁deter
work
start
▁socialism
▁suits
legislative
better
▁avert
▁superficial
▁redouble
aubrespy
▁bologna
▁fodder
▁pragmatism
▁spencer
▁terminology
▁vojvodina
▁mountainous
▁interregional
▁royal
▁invented
▁fastest
▁149(8))
▁diminished
▁professionalism
▁karl
▁sympathise
▁portal
▁bird
▁divergence
▁hardship
▁fta
▁needing
▁hall
▁slots
▁rooms
disciplinary
▁lag
▁maps
▁obey
▁authentic
▁equation
▁influencing
▁paternity
▁1967
▁extinction
▁maaten
▁interception
▁pause
▁fukushima
▁depressing
▁paradoxically
ai
▁suppress
▁scant
▁mainland
▁overwhelmingly
▁deserved
▁infections
nt
▁defender
em
▁concentrates
▁testify
3/
▁depart
▁borrell
▁buzek
▁gröner
▁pinochet
▁unbridled
▁1975
▁abducted
▁iaea
▁inherited
▁partisan
▁understandably
▁boxes
▁thankfully
▁shake
▁crown
▁behaving
▁dementia
▁biofuel
▁headline
▁kof
▁storms
▁reviews
ol
▁entitlements
▁shorten
▁revert
▁planting
▁eager
▁deteriorate
▁atmospheric
▁thomas
▁montreal
▁indebted
▁crossroads
▁elapsed
▁segregation
▁ferries
▁denies
▁skies
▁eures
▁decrees
▁parish
▁76
▁crossed
bo
▁jo
▁yardstick
▁tanker
biotechnological
▁egg
▁sizes
▁extract
▁economists
05
▁excuses
mentioned
attached
palestinian
▁incur
▁160
▁provocative
/2004
▁ferreira
▁intensification
▁jeopardy
▁lucrative
▁unitary
▁advancement
ese
▁picked
▁embarking
▁eastward
▁assumptions
▁horn
there
▁centred
▁inefficiency
▁planes
oc
▁interrupt
▁clever
▁apartheid
▁bjerregaard
▁busquin
▁measurable
▁phthalates
▁probability
▁srebrenica
▁terribly
▁despicable
▁philosophical
▁seychelles
▁ottawa
▁unwillingness
▁pat
ups
▁resigned
▁obstruct
▁twofold
▁insufficiently
▁tendering
▁thereafter
▁tractors
▁underdeveloped
▁originate
▁champions
ze
air
▁announcements
▁reasoned
▁109
cultural
▁insert
▁spaces
▁tailor
▁dishonest
▁irrational
▁beauty
▁buried
▁hostilities
▁lynne
▁sanitation
▁scarcity
▁testimony
▁casaca
▁inventory
▁1976
▁eaggf
▁immune
▁reimbursed
▁potatoes
▁attentively
▁explored
▁spared
▁chairs
▁stark
▁realm
▁enact
▁discusses
▁dock
8)
eye
ent
2002)
▁weakens
▁delight
existence
▁governors
working
good
▁complicate
▁concede
bissau
▁density
▁sarajevo
▁stalemate
▁volatile
▁unjustifiable
▁paramilitary
▁tandem
▁recycled
▁remedied
versus
▁sadness
▁sine
▁serb
▁reopening
▁grid
▁impede
▁regulator
outs
▁proteins
▁ali
▁mo
dis
▁cartels
▁park
▁yours
▁spends
▁grows
▁74
▁foc
6(
▁tense
▁cement
▁peculiar
▁glance
▁ninth
▁supervising
▁quorum
▁nickel
▁macao
▁businessmen
▁distressing
▁endangering
▁load
ho
▁myth
▁brake
pro
▁ira
▁ka
management
african
▁bolivia
▁disseminate
▁traded
▁multilingual
▁miguélez
▁muscardini
▁outweigh
▁conversely
▁keyser
▁drag
▁complements
▁catastrophes
▁theft
▁1994.
▁norwegian
▁contravention
▁gun
▁bee
▁chairing
7)
▁emphasizes
▁fortune
▁yields
om
▁3.5
▁87
committee
compulsory
lisbon
4-02
▁epa
▁minerals
▁viewpoints
▁convene
▁103
▁kla
▁immoral
▁arbitrarily
▁grosch
▁implied
▁taoiseach
▁turmoil
▁pessimistic
▁leeway
▁omitted
▁therapy
▁regretted
her
▁gentleman
▁possesses
▁feeds
▁unionists
▁diminishing
▁campos
▁selecting
▁transmit
▁175
▁1991,
▁disregarding
▁coastline
▁dictates
▁devot
▁authoritative
▁acid
▁abu
▁ante
ries
▁taxed
▁plead
▁succeeding
chairman
▁intermodal
▁aerospace
▁angry
▁banotti
▁circulating
▁figueiredo
▁humiliating
▁misunderstood
▁oreja
▁subsidising
▁suspicious
▁cynicism
▁imperialism
▁parcel
▁fitted
industrial
▁unqualified
▁battles
▁enriched
▁correctness
▁complemented
▁laos
▁genes
▁renewing
▁hindering
▁contravene
▁blak
▁conversation
▁hazard
▁1.2
▁iter
▁summ
ll
▁respectable
syn
trafficking
▁ukrainians
4-04
▁pollute
▁arbitration
▁consensual
▁starving
▁spotlight
▁criticized
▁ho
▁verbal
end
."
▁loading
▁retreat
▁commended
▁sustaining
▁hurricane
▁flame
▁shortfall
▁fp
▁defer
▁dog
▁togo
▁consign
▁pluralist
▁acceleration
▁angelilli
▁cessation
▁inadequacy
▁naïve
▁schnellhardt
▁synonymous
▁treasury
▁kiev
▁pronk
▁spinelli
▁eurovignette
▁homosexuality
▁forged
▁cooling
▁alarmed
▁scanners
▁halted
open
▁intensifying
▁torn
▁exhibition
ah
▁pot
▁cycles
car
▁lightly
▁138
▁ear
ish
▁andean
▁thin
▁relax
fighting
▁harness
▁prosper
▁dispel
▁mitigation
▁panacea
▁punitive
▁schwaiger
▁rally
▁manipulated
▁dna
▁prudential
▁abstentions
▁specially
▁combatting
▁equals
▁epidemics
▁escaped
▁loved
▁resisted
▁star
▁defenceless
▁lever
▁horrors
▁med
ative
▁lapse
▁dismissal
▁device
▁masters
▁therein
▁spur
▁usage
▁olympics
▁greeks
step
hearted
(2002)
▁commenting
▁93
functioning
-2013
▁colonies
▁electromagneti
▁michael
▁purse
▁watts
▁predictability
▁pkk
▁frankfurt
▁eplp
▁mar
▁easing
▁lucky
▁concealed
▁weighing
▁indisputable
▁seminars
▁covenant
▁advertisements
▁workings
sec
▁fighters
▁visions
15
▁overturn
▁söderman
▁rhine
▁buttiglione
▁cabrol
▁flexibly
▁silguy
▁tyranny
▁unbelievable
▁separating
▁gargani
▁loyalty
▁remarkably
▁james
▁37(2)
▁blatantly
▁cogeneration
▁sinking
▁paved
au
▁screen
▁theatre
▁portfolios
6)
▁divides
▁consciences
▁loose
3(
financed
22
▁deposits
▁greet
▁tip
▁timid
▁fascinating
▁garriga
▁kohl
▁moura
▁hostility
▁perseverance
▁schmitt
▁manpower
▁chairmanship
▁birthday
▁pleasing
▁summarised
▁absorbed
▁motors
▁uniformly
▁reign
▁expire
▁bull
▁estonian
▁recalls
ably
▁mu
ance
í
▁contexts
▁justifying
▁auditor
.6
energy
▁reproach
▁bonus
▁bloodshed
▁disseminating
▁morgantini
▁oettinger
▁memories
▁eurlings
▁unicef
▁rearing
▁addicts
▁omissions
▁pour
▁repealing
▁graduates
▁recruit
cu
les
▁envelope
▁girl
ending
19
▁searching
▁publications
▁forwarding
▁mal
competitive
▁arrogant
▁fiji
▁appalled
▁inaccurate
▁kremlin
▁souchet
▁salmonella
▁tillich
▁depopulation
▁fever
▁polo
▁boel
▁certified
▁unwise
▁enlightened
▁relaxed
▁universality
fits
▁practitioners
▁smokers
iv
▁farce
▁carpet
▁kilometre
▁uniting
▁profiles
▁upwards
▁5.
7/
▁pr
sproportionately
▁cooperatives
▁interconnected
▁z
état
represented
▁discredit
▁catania
▁marvellous
▁mockery
▁probable
▁sturdy
▁goldstone
▁petty
▁stevenson
▁unsuitable
▁1984
▁prioritising
▁operative
mi
▁farage
▁moldovan
▁rewards
▁proposition
▁crack
▁mixture
scott
enterprises
ator
▁restate
fa
0%
half
▁disappoint
much
youth
cutting
▁dissatisfied
▁exacerbating
▁frequencies
▁satisfies
▁tehran
▁electors
▁trapping
▁abusive
▁leyla
▁richard
▁equivalence
▁aroused
▁colom
sh
▁rationalisation
▁eagerly
▁lion
6-03
▁gps
▁locked
▁resistant
▁county
▁beverages
▁79
▁withholding
▁hurt
▁kok
▁plastic
▁enhances
▁gill
▁tacs
▁eurosceptics
▁cater
▁band
der
▁containers
▁pav
▁0
▁dogs
ari
ki
▁pains
▁brothers
#
▁multitude
▁verbatim
▁destabilisation
▁copies
▁emas
▁relaxation
eviating
▁hammer
▁arias
▁immensely
▁prosecutors
▁sciences
▁preparedness
▁centralisation
6-02
▁satellites
▁bankers
▁stayed
▁transplant
istic
▁92
▁handicaps
ph
▁dated
▁bypass
people
women
▁deriv
▁cool
▁educating
▁innocence
▁junior
▁lahti
▁miguel
▁napoletano
▁stemming
▁tenacity
▁unpredictable
▁utility
emptive
ancona
▁brutality
▁overarching
▁versa
▁wounded
▁veld
▁supervised
▁redefine
▁refund
▁flourishing
▁cambodian
▁cheaply
▁chooses
▁converting
▁neglecting
▁broadcasts
▁compound
acp
▁fundamentalists
▁metal
▁152
▁combines
den
reading
tending
▁83
▁prefers
▁reiterates
▁asymmetric
▁disciplines
▁catalonia
▁enquiries
▁exodus
▁mcnally
▁stubb
▁plooij
▁recurring
▁1.3
▁penalising
▁85%
▁nafo
▁affirmation
ha
▁gomes
▁morality
▁coping
▁entailed
▁sin
▁94
▁infring
▁riots
▁protested
▁persuasion
▁guarantor
-00
▁prey
▁destroys
▁delivers
▁goodness
▁print
%
▁missiles
labelling
income
lu
▁savage
▁greed
eur
▁resounding
▁cederschiöld
▁comparability
▁frustrating
▁ideologies
▁neves
▁logging
▁plurality
▁warfare
▁sparsely
▁unpopular
▁vehemently
▁deserving
▁grew
▁districts
▁menrad
▁cabin
▁nail
▁patentability
▁phrases
4-05
▁noticeable
▁worsened
▁sizeable
▁workload
▁torres
▁salt
▁ldcs
▁virtues
▁designate
▁regionalisation
▁engineers
▁receipt
▁73
▁fa
gen
▁23,
▁commemorate
▁anonymous
▁herzog
▁kratsa
▁prominence
▁releasing
▁onerous
▁rojo
▁organizing
▁durable
▁cameroon
▁breadth
▁tragically
▁reuse
▁shooting
▁pretending
▁instituted
▁hill
▁bowe
bar
▁manual
▁pocket
▁disorder
▁importer
▁negatively
▁inaction
▁akin
handling
▁cook
▁apology
▁imaginative
▁investigative
▁jeggle
▁mcmillan
▁miranda
▁reminiscent
▁fraction
▁married
▁vinci
▁fanaticism
▁inertia
▁simplicity
▁presumption
▁1956
▁sacrificing
▁communicable
▁doorstep
▁bridging
▁aggravated
▁eroded
▁prospective
▁manifestly
▁installed
▁rothe
▁insulting
turn
▁petitioners
▁grouping
▁105
▁questionnaire
▁avenues
▁negotiator
▁eea
▁worsen
▁1993.
▁maria
▁poet
▁distorts
▁orderly
▁additions
origin
▁designs
▁pe
▁ambiguities
▁library
▁handicapped
▁kidnapped
▁turin
▁till
▁shaken
ee
▁empowered
▁regeneration
▁authorized
▁evolved
▁overfishing
▁aligned
▁carlos
▁oils
▁89
▁halting
▁assistant
matthews
ik
empt
▁contacted
11
▁correcting
ily
▁mg
▁bare
including
ina
▁paradigm
▁allergies
▁berisha
▁diversified
▁intermediary
▁papua
▁schüssel
▁sincerity
▁synthesis
▁anglo
▁seemingly
▁geostrategic
▁misled
▁deficient
▁17%
▁mcguinness
▁anchored
▁fares
▁cheapest
▁optimise
▁overweight
▁typically
▁safest
▁basing
▁cmo
ical
ating
▁bos
▁favourite
▁belts
▁orientations
▁destinations
▁landed
▁112
paid
western
finding
▁jump
▁perpetuate
▁compensating
▁dominance
▁endemic
▁exaggeration
▁kabila
▁mccartin
▁practising
▁subsistence
▁impending
▁disintegration
▁beekeeping
▁rubbish
▁fruition
▁admitting
▁pharmaceuticals
▁fait
▁unconditionally
▁rushed
▁surprisingly
▁asserted
▁occasional
ot
ud
▁pedestrians
▁rocket
▁murderers
▁tamil
▁shortcoming
14
▁sham
void
▁stateless
grass
communist
▁conclusive
▁dawn
▁futile
▁hybrid
▁illogical
▁revenge
▁smith
▁twentieth
▁zapatero
▁cheese
▁tricky
▁guess
▁bbc
▁circulated
▁enduring
▁suppressed
▁sailing
▁ruined
▁shy
ó
▁mont
▁abortions
▁freeing
▁forbid
▁blacklist
▁strand
▁tap
▁audience
wa
vo
▁29,
▁bombings
ap
▁contravenes
▁accus
▁tread
▁withdrew
▁chickens
▁bahrain
▁revitalise
▁ahtisaari
▁chaotic
▁epidemiological
▁füle
▁niebler
▁susceptible
▁turbulence
▁denouncing
▁straw
▁overlapping
▁adventure
▁fernandes
▁attachment
▁spade
▁paedophilia
▁adaptability
tan
▁attraction
▁incorrectly
▁behaved
qui
▁droughts
only
amp
ty
▁modifying
▁remarked
▁tactical
▁switching
▁harmless
▁awaited
mar
▁gauge
▁designing
▁ki
▁dur
▁reflections
▁ripe
▁wordings
▁smet
approval
consuming
▁kills
▁boom
▁energetic
▁coercion
▁discouraging
▁ombudsmen
▁unacceptably
▁compelling
▁timorese
▁collateral
▁interdependent
▁disguised
▁reinstate
▁waive
tu
▁spirits
ria
▁ge
▁sinn
▁geo
▁carriage
▁husband
▁supermarket
6-01
▁wounds
ster
ev
50
▁auction
▁horses
rich
▁pilots
awaited
▁preach
▁surround
▁inferior
▁complacency
▁jöns
▁recognizing
▁syndrome
▁boeing
▁termination
▁103(2)
▁diligence
▁relocating
▁louis
▁pseudo
▁mildly
▁confiscated
▁pessimism
▁overshadowed
irresponsibility
▁firmness
▁manifesto
▁conspicuous
size
▁modu
▁tactic
legislator
▁sexually
▁creators
▁fan
▁segment
▁activist
▁tb
▁slowing
latin
▁directing
▁screens
tz
fly
peripheral
0(
▁mislead
▁conserve
▁culmination
▁indivisible
▁marques
▁scrapped
▁alibi
▁decentralized
▁fatalities
▁negligible
▁vietnamese
▁periphery
▁anthem
▁flemish
▁informative
▁waging
▁interactive
▁retired
▁16%
▁efsa
ut
▁instructed
▁regularity
▁underlie
▁centrally
▁romanians
▁2007-2013.
▁promotional
▁injustices
▁115
net
▁influences
ard
▁oriented
▁workplaces
hitting
▁uneven
israel
explanation
▁inspect
ended
▁reaffirms
▁circulate
▁implicit
▁adhering
▁grubbing
▁jouyet
▁karamanou
▁pöttering
▁rapkay
▁reversing
▁sacrosanct
▁sorrow
▁unreported
▁leghold
▁charity
▁disguise
▁levied
▁milan
▁trapped
▁disturbed
▁loudly
▁acceded
▁tracks
▁oneself
▁survived
▁markedly
▁dispense
▁wip
▁judgements
▁tiger
▁po
▁poll
▁succeeds
▁boarding
▁lowered
▁ensu
can
usz
commission
▁brakes
▁honouring
▁mount
▁bavaria
▁awkward
▁curriculum
▁radwan
▁salvador
▁schwab
▁brinkhorst
▁klaß
▁hurry
▁stumbling
▁motherhood
▁umpteenth
▁defective
▁unauthorised
▁miller
▁deported
▁carte
▁weighed
▁prioritised
▁eradicated
▁ethiopian
▁ash
▁contention
▁dared
▁pooling
▁consultants
▁boast
▁height
▁episode
op
▁boy
▁longest
▁usefully
▁wary
▁128
road
▁fun
▁owes
council
neath
▁1408/71
▁fortnight
▁gorsel
▁imbeni
▁literacy
▁plutonium
▁redundancy
▁seldom
▁shirk
▁exploration
▁confiscation
▁oppressive
▁clothes
▁battery
▁thorny
▁.–
▁devil
▁cake
▁caspian
▁paint
▁9.00
▁chilean
▁laden
▁kg
▁dispose
▁hunt
▁broadened
▁nationalistic
▁betray
▁reintroduce
wi
▁confines
ber
▁displaying
▁islamist
environmental
▁predictions
▁disturbances
▁occurrences
▁peres
▁habitat
▁aeroplane
▁zimbabwean
med
▁macedonian
▁108
▁guests
▁ventures
5%
value
mt
robles
▁avoids
genic
▁rationalise
▁exploring
▁gazprom
▁giansily
▁gutiérrez
▁kirkhope
▁spectacle
▁verifiable
▁charles
▁ruthless
▁acquainted
▁philosopher
▁diverted
▁porto
▁myanmar
▁mindset
▁provisionally
▁supplementing
▁mari
▁alien
▁manifestation
▁repayment
▁sink
▁rank
-07
▁beating
▁1.1
▁reformist
presidents
▁1992.
ious
tre
7(
▁deceive
▁conscientious
▁volcan
▁aarhus
▁affront
▁barbarity
▁bucharest
▁díaz
▁escalating
▁hizbollah
▁fifa
▁draftsmen
▁multimedia
▁armies
▁utopian
▁burnt
▁0.5
▁quasi
▁stir
▁trail
▁recruited
▁commonplace
▁lent
▁sequence
ek
▁gestures
▁stimulated
▁pulled
▁relaunching
▁implants
▁97
▁unrelated
▁abus
▁21,
▁cloud
▁coastguard
▁militias
ey
▁lacked
25
▁struggles
▁foolish
▁recess
mitigating
▁calves
▁hernández
▁malnutrition
▁mollar
▁rotterdam
▁sahrawi
▁silva
▁tonnage
▁virrankoski
▁dimitrakopoulos
▁technocratic
▁fabra
▁wretched
▁durban
▁channelling
▁nazism
▁flouted
▁radicalisation
▁dedicate
▁emit
▁confer
▁surprises
talling
▁shifts
▁willingly
▁mixing
▁outlets
▁137
▁fool
taining
▁reassurance
▁implication
▁inward
▁blocs
▁sights
▁ar
▁bosnian
▁wim
▁differential
dy
▁emi
.5%
▁cons
▁somali
creating
▁tackles
▁andalusia
▁proverb
▁contingent
▁flax
▁inextricabl
▁maternal
▁naming
▁polledo
▁protracted
▁rühle
▁silver
▁venice
▁overtaken
▁paralysed
9(
▁pursues
sex
▁buck
usa
▁resisting
▁replaces
▁socioeconomic
▁heroin
▁plug
▁orphan
▁museum
▁antibiotic
▁tracking
two
ltering
▁admits
▁registering
▁bore
my
ological
▁sweep
▁ski
▁indulge
▁candidacy
▁chávez
▁ludicrous
▁mandela
▁persuading
▁remembrance
▁dinner
▁dogmatic
▁goepel
▁quantified
▁depression
▁forcibly
▁poos
▁assemblies
▁lamentable
▁deprivation
▁impoverished
▁sidelined
▁deception
▁consciousness
▁refute
▁inspiring
▁dumped
▁vitality
▁viii
▁governs
▁rewarding
▁canaries
▁patently
/21
▁contractors
▁yearly
▁herds
▁bode
▁lock
▁arsenal
▁handicap
▁galician
▁das
▁writer
▁stakes
07
ang
▁chambers
▁countering
pi
▁coexist
▁gifts
aire
▁deviate
▁mario
▁vocation
▁compassion
▁competencies
▁fertile
▁gahrton
▁gauzès
▁ghilardotti
▁hieronymi
▁incompetence
▁lewandowski
▁vallelersundi
▁álvarez
▁modalities
▁murderous
▁suitability
▁45%
ris
▁750
▁formality
▁reconstruct
▁venezuelan
▁lankan
▁assign
▁84
▁kidnapping
▁infant
▁tyre
▁terminal
lasting
▁notions
▁interpol
ez
standard
violent
▁downwards
▁schooling
▁marie
▁aelvoet
▁decency
▁invoking
▁kovács
▁penetration
▁unease
▁wulf
▁bernard
▁abundance
▁cancelling
▁tsatsos
▁virgin
▁extracted
rely
▁overcapacity
▁originated
▁235
ping
▁adolescents
od
▁firmer
▁tended
abiding
-05
▁patented
▁inflict
▁inactive
4)
▁blanket
▁upheaval
▁tunnels
▁wondered
▁defect
▁thanked
▁criticises
▁24,
crisis
from
india
▁veil
▁blottnitz
▁bueno
▁coffers
▁etcetera
▁hübner
▁medvedev
▁pimenta
▁speculate
▁svensson
▁klamt
▁vidal
▁bias
▁1945
▁11.00
▁hair
▁brush
▁14%
▁modernization
▁theoretically
▁survivors
▁athletes
▁consuming
▁protagonists
such
▁architects
▁inner
▁herald
▁legitimise
▁hindrance
▁separatist
▁bottle
▁litre
▁shore
▁harming
▁280
ger
1(
▁rockets
▁pin
▁examines
▁crash
▁rod
▁condone
▁erroneous
▁emphatic
▁bacteria
▁amateur
▁admissibility
▁cowardly
▁formidable
▁indictment
▁netanyahu
▁penetrate
▁paulsen
▁litigation
▁alluded
▁prince
▁focussed
▁11%
▁attractiveness
▁133
▁materialise
▁wiser
▁widened
ite
cy
▁intervals
▁particles
▁190
▁declares
▁fullest
▁lifestyles
▁releases
ru
2000)
▁broker
▁thread
▁circumstance
▁derives
▁setback
90
▁clearest
ou
▁guns
nato
▁originates
pp
95
5/
who
▁slaves
▁bargain
▁stipulat
▁hint
▁powder
▁1000
▁stifle
▁staunch
▁obliging
▁petersberg
▁ritual
▁societal
▁discontent
wolski
▁editorial
▁leakage
▁unbearable
▁disclose
▁99%
▁innovate
▁unworthy
▁savers
▁personalities
▁irony
▁marshall
▁endured
▁unusually
▁filed
▁fake
▁raped
▁grasped
▁sary
lin
▁invitations
▁vitamins
ny
ack
sen
▁hurdles
▁bow
gu
▁elephant
▁kosovar
▁constraint
rk
▁precedents
▁est
ip
▁2003/
intentioned
▁boil
soft
▁execute
dörfler
quadras
▁demonstrabl
▁depletion
▁estévez
▁hemicycle
▁hoppenstedt
▁kindermann
▁kreissl
▁nagorno
▁nisticò
▁therapies
▁unquestionable
▁wijkman
▁belarussian
▁entertainment
▁redeployment
▁suitably
▁breeders
▁pluralistic
▁swine
▁voggenhuber
▁interlinked
▁bright
▁raging
▁disseminated
▁builds
▁earmarking
▁lessen
▁speeds
▁drafts
▁sidelines
▁crossings
▁pronouncements
▁helicopters
▁trampl
▁rulers
▁lands
▁sen
▁shell
pr
▁vii
▁achieves
▁roof
▁ingredient
▁aires
tax
▁container
▁backgrounds
▁joins
▁inject
04
▁realises
four
son
▁ga
▁tanzania
▁compile
▁nervous
mathies
▁aegean
▁comoros
▁ghent
▁illegitimate
▁ortuondo
▁supremacy
▁unwarranted
▁vallés
▁donnelly
▁sewage
▁endocrine
▁discretionary
▁pious
▁bloch
▁9%
▁repealed
▁parking
▁slower
▁consisted
▁crying
▁grossly
▁encompassing
▁temperatures
▁microfinance
28
▁rent
seven
▁invisible
▁precaution
▁evidenced
▁devaluation
▁medication
▁interruption
▁gloss
▁interact
aid
ib
▁91
▁ets
power
considered
▁empower
▁undertakes
▁induce
▁persevere
▁receptive
▁responsive
margallo
▁bauer
▁discriminating
▁inadequacies
▁irreplaceable
▁liabilities
▁petersburg
▁prosecuting
▁truce
▁resale
▁rubber
▁mayors
▁borg
▁selfish
▁partition
▁signalled
▁stalinist
▁traced
▁activated
▁esa
▁yielded
▁sam
fe
▁infamous
▁overthrow
credit
▁trucks
▁workshops
▁freer
▁commercially
▁attribute
ire
▁panels
▁pm
▁transplants
▁readings
▁4.5
▁gu
▁divergences
▁measurements
12
▁ruins
▁restart
added
▁unblock
▁scandinavia
▁imperfect
▁färm
▁maccormick
▁myller
▁piecyk
▁turbulent
▁wiersma
neyra
▁gucht
▁basle
▁stuff
▁energetically
▁provan
▁implicitly
▁heightened
▁remoteness
▁visionary
▁impaired
▁hail
▁leg
▁administering
▁intelligently
▁walking
▁coincides
discriminately
▁harmed
▁polluters
▁dangerously
▁169
▁campaigned
▁122
▁earning
▁decidedly
án
▁implements
▁celebrations
▁reassess
▁activate
▁incisive
▁inseparable
▁lalumière
▁macartney
▁nairobi
▁occupies
▁relied
▁schörling
▁santos
▁rife
▁incalculable
▁albertini
▁agro
▁marset
▁uncomfortable
▁symptomatic
▁kozloduy
▁inspected
▁acutely
▁keenly
▁monks
▁fostered
▁fired
4(
▁stays
▁picking
▁113
▁mesh
▁tending
▁enshrine
▁militia
▁rhetorical
▁soldier
▁tears
▁classical
-10
ology
▁privately
calls
hr
▁pill
▁andré
mails
▁instruct
ification
▁borrow
turkey
▁pray
wto
▁afflict
▁retire
▁anxieties
▁communiqué
▁comprehend
▁cornelissen
▁deleting
▁gasòliba
▁manders
▁pristina
▁reinfeldt
▁rugova
▁sakellariou
▁vanguard
▁hollow
▁memorial
▁1974
▁extrajudicial
▁ecology
▁1973
▁reprocessing
▁rigidity
▁groundwork
▁deva
▁organisers
▁abbreviate
▁metten
▁cofinanced
▁restructured
▁giants
▁affirmed
▁contested
▁mounting
▁tri
▁tremendously
▁generously
▁assertions
▁codify
▁eighty
▁dioxins
rt
▁telephones
holders
▁successors
▁swing
▁sadc
▁straits
members
▁colleges
▁expulsions
▁nerve
▁captain
▁magazine
▁haitian
▁1.7
▁cor
▁punishments
▁song
▁slot
▁arrives
tur
▁examinations
▁disarm
ranking
▁hopeless
▁cultivate
▁tireless
▁circus
▁accommodating
▁divisive
▁luggage
▁residual
▁flautre
▁beekeepers
▁posing
▁discoveries
▁reallocation
▁bonuses
▁absurdity
▁unilateralism
▁stabilised
▁wetlands
▁cautiously
▁encountering
▁grams
▁axes
▁spin
▁compatriots
▁1.8
sp
▁adoptions
▁bilaterally
▁slogans
▁drawbacks
▁poison
▁quotation
▁manager
▁43,
▁setbacks
ea
▁fished
▁flames
ng
second
clock
▁disturb
▁adaptations
▁wortman
▁blaming
▁buffer
▁distillation
▁embodied
▁petroleum
▁piecemeal
▁potočnik
▁toulouse
▁participatory
▁shalit
kool
▁privatization
▁blueprint
▁copper
▁samland
▁hume
▁commemoration
▁shutting
▁brian
▁counties
▁ucits
▁herring
page
▁framed
▁strictest
▁recruiting
▁upstream
▁hydrocarbons
▁copying
gi
▁beware
▁seals
▁founder
▁sepa
▁ul
(1).
▁statistic
▁barrel
▁pound
du
▁opponent
ran
▁fibre
▁instruction
▁kosovars
▁litres
▁logo
ure
0/
min
km
▁trample
▁czechs
fashioned
agricultural
confidence
short
democracy
▁divert
part
ón
▁wonders
▁forgot
▁clandestine
▁discourse
▁doubly
▁happiness
▁invariably
▁langenhagen
▁paediatric
▁öcalan
▁disbursement
▁sponsorship
▁daring
▁unfolding
▁prospectus
q
▁accidental
▁manageable
▁formulae
▁printing
▁reconsidered
bu
▁massively
▁longstanding
▁sars
stitutionalised
▁lo
▁sab
▁cord
▁corners
▁touching
▁restaurants
▁blessing
▁paedophile
▁economist
▁banner
▁42,
49
constitutional
▁308
▁pasty
▁elites
▁stars
▁mon
▁trusted
▁independents
+2
world
▁lament
generational
▁lodge
shod
▁arduous
▁blasphemy
▁cercas
▁clout
▁complacent
▁google
▁graça
▁haider
▁länder
▁mongolia
▁papoutsis
▁profiling
▁retrograde
▁untrue
▁militarily
▁virtuous
▁outlying
▁beaches
▁35,
▁frightened
▁vaccinated
▁unloading
▁burned
▁normality
▁commenced
▁quietly
▁curtailed
▁reopened
▁breathing
▁duplicate
▁realized
▁shortest
▁1.4
▁emanat
▁technologically
.4%
section
▁proclaim
▁alternatively
▁flowers
▁controllers
▁36,
▁controller
▁isler
gue
establishing
▁burdened
ag
▁gang
▁34,
protection
wheel
proof
peter
conflict
examined
▁succumb
▁cornillet
▁estrela
▁grief
▁infrastructural
▁nuisance
▁santini
▁visibly
▁iceberg
▁0.5%
▁nineteenth
▁kuhne
▁12-
▁displays
▁cork
▁fuelled
▁standardization
▁signalling
▁reinstated
territorial
▁seamen
▁relieved
▁youngest
ski
▁allied
ab
▁104
▁attaching
ations
▁criticize
▁magp
▁prosecutions
▁guest
▁button
▁ja
pillar
▁hasten
most
▁amid
union
school
ukraine
/2006
▁bones
ahead
▁cre
5-05
▁pacts
▁mechanical
▁sketch
tsagaropoulou
▁anomaly
▁antwerp
▁béguin
▁convening
▁innumerable
▁mcmahon
▁presiding
▁pyramid
▁unworkable
▁grandchildren
▁impoverishment
▁sustainably
▁seveso
▁substantiated
▁portability
▁watering
▁pronounce
▁compounded
▁overturned
▁discouraged
▁standardise
▁directory
▁bo
▁ethically
▁withhold
▁sway
▁inadequately
▁allay
hi
▁bag
cl
▁diamonds
▁casting
▁bother
▁anne
▁pioneer
▁preclude
▁thrive
▁tachograph
▁juvenile
ered
▁residue
▁nitrate
▁shipment
▁federations
▁fingers
▁masses
ique
06
23
▁conditioning
karabakh
-20
▁portray
▁swallow
▁merge
▁ni
▁manipulate
▁laborious
▁predominant
▁116
▁expel
▁jurisprudence
▁pinheiro
▁sarnez
▁storing
▁raison
▁tolerable
▁brunt
▁augur
▁helmut
▁peat
▁homeopathic
▁wilderness
▁indulgence
▁noteworthy
▁commencement
▁privatised
▁tirelessly
▁insured
▁diagnosed
▁afflicted
ppe
han
▁chart
2(
▁cages
▁defendants
zi
▁guardians
▁hat
▁sits
▁flowing
▁sem
▁spill
▁obstruction
▁lecture
▁scapegoat
ino
▁sister
▁federalists
spot
▁dose
17
fishing
qaeda
claude
[
myanmar
recast
af
▁concert
▁blunt
▁preside
▁cardiovascular
▁fragility
▁gahler
▁gordon
▁hypothetical
▁indefensible
▁intransigence
▁konrad
▁nanotechnology
▁nonsensical
▁opaque
▁pittella
▁displacement
▁diversion
▁65%
ö
▁prets
▁1.27
▁scrutinised
▁beans
▁saga
▁npt
▁auctioning
▁banknotes
▁1.6
treatment
▁answerable
▁ri
▁subjective
▁gates
▁mill
▁invent
▁slowed
wage
▁tear
▁proclamation
▁participant
▁carrot
▁hits
▁hang
▁terminals
▁extremes
▁pensioner
▁greener
▁backlog
setting
controlled
▁disquiet
ner
▁2050.
▁lights
▁viola
▁audio
▁debatable
▁ibrahim
▁pathetic
▁redondo
▁sentencing
▁fiori
▁humble
▁telephony
▁praiseworthy
▁empowerment
▁elmar
▁1957
▁eloquently
▁heartily
▁sickness
▁entrenched
▁saddened
▁ussr
▁bluntly
▁splitting
▁austrians
(5)
▁prematurely
▁courageously
▁deploying
▁vineyards
br
▁novo
clean
▁belonged
bound
▁francs
mile
▁senseless
▁questioner
▁upward
▁marker
▁manifestations
▁institutionally
(2003)
▁spots
▁131
▁2014.
▁specification
▁risking
trained
prepared
grassroots
ii
▁bids
▁sixteen
▁earnest
▁trauma
▁advising
▁draconian
▁eternal
▁moscovici
▁stihler
▁trautmann
▁trilogue
▁århus
▁uefa
▁penny
▁6.30
▁joseph
▁exhaustion
▁vries
▁steam
▁monopolistic
▁densely
▁bullying
▁deregulated
▁disrupted
▁quarterly
▁overrun
▁switched
range
▁foresight
▁woods
▁cis
▁accomplices
▁asserting
▁countrymen
▁cameras
▁expos
▁passages
points
▁wound
▁faults
▁tissue
▁criminalise
▁brains
▁tigers
▁145
▁writes
mad
5(
▁holes
common
fish
▁ver
cons
▁occupations
▁unofficial
▁anastassopoulos
▁contingency
▁contraception
▁exorbitant
▁friedrich
▁irreparable
▁isolating
▁merging
▁stauner
▁thriving
▁kedo
▁disapproval
▁husbandry
▁rediscover
▁altar
▁substitutes
▁premier
▁unborn
▁earnestly
▁iccat
▁18%
▁paperwork
▁underfoot
▁midday
▁shadows
harris
▁poisoning
▁conglomerates
▁strides
▁affirming
▁nearer
▁owed
▁linear
▁bombers
▁environments
▁archives
▁cot
▁motorcycles
ok
97
ence
ters
▁academics
▁hosting
▁inshore
▁eurosceptic
▁nationalists
▁replying
▁bern
▁hotels
rooted
▁(1
global
canada
▁install
▁reckless
▁alegre
▁bontempi
▁boogerd
▁falsification
▁göteborg
▁harrison
▁khartoum
▁stenmarck
▁turco
▁vibrant
▁villiers
hampton
▁accreditation
▁airways
▁queen
▁disservice
stage
▁137(1)
▁staggering
▁sanitary
cyclical
▁icelandic
▁teaches
▁protesters
▁370
▁discredited
▁plundering
▁colonialism
▁manifested
log
▁laughing
▁cyclical
-06
▁administrators
▁culprits
▁incompatibility
94
▁coherently
ssuring
ilo
bert
establishment
▁photographs
24
▁scientist
▁fin
▁estate
▁bottles
▁dalli
▁fans
▁revolutions
▁distinctions
2011
cide
table
pped
▁hinders
violence
▁relinquish
▁dismay
▁conceive
▁nominate
▁underscore
▁ahmadinejad
▁cradle
▁cushnahan
▁demarcation
▁disparate
▁gigantic
▁neyts
▁schierhuber
▁schleicher
▁siege
▁unimaginable
▁maat
▁stockmann
▁indent
▁messrs
▁irregularity
▁philip
▁recurrent
▁shelf
bowman
▁snow
▁smile
▁angela
▁flooded
▁hens
1/2001
▁dan
▁knees
▁interlocutors
ons
▁ecolabel
▁pump
▁masse
▁38,
▁misfortune
▁client
▁cartel
▁flower
▁pole
▁metre
well
▁jurisdictions
▁europa
▁cents
rew
▁slap
united
policy
black
▁apportion
▁locate
quaak
▁auschwitz
▁benzene
▁carnero
▁escaping
▁hysteria
▁jargon
▁kouchner
▁laperrouze
▁respiratory
▁reviving
▁spectre
▁strenuous
▁worship
▁cumulative
▁aceh
▁acidification
▁flies
▁methane
▁iberian
▁managerial
▁dropping
▁falconer
▁seventy
▁landmark
▁dissolved
▁firing
▁quantifiable
▁inhabited
▁scattered
▁renowned
▁validated
▁deceived
▁timeshare
▁respectfully
98
▁intents
▁sanctioned
▁publishers
▁uncompetitive
▁audited
▁objected
▁specialisation
anza
▁nominations
▁sheets
▁ries
tra
▁volunteer
▁seizure
▁breaching
▁placement
▁grids
▁trick
.15
▁tribunals
6-00
security
production
extraterritorial
door
organised
▁formulas
▁spreads
▁translates
▁stubborn
▁accumulate
▁counsel
▁compiling
▁desperation
▁lloyd
▁midlands
▁mubarak
▁easiest
▁emancipation
▁patchwork
▁andreasen
▁gats
▁theories
▁renegotiation
▁burdensome
▁busk
▁electronically
200
▁hemp
▁reintroduced
▁validation
▁needy
(98)0
▁drc
▁overproduction
▁bat
▁45,
▁levelling
▁slaughterhouses
international
▁chris
▁narcotics
▁spaniards
▁upholds
▁winding
▁à
set
▁ku
▁evils
▁palm
▁accompli
▁pollutant
▁commander
▁adviser
▁strands
▁desk
▁650
▁intellectuals
▁parks
cha
▁rob
▁pets
dr
product
three
strong
▁ph
09
▁laugh
▁136
learning
▁spontaneous
▁invalid
▁alleviation
▁diversities
▁fourtou
▁horrible
▁insurmountable
▁kivu
▁plasma
▁prestigious
▁slovene
▁translating
▁winkler
▁hökmark
▁ltte
▁12.30
▁fuss
03):
▁berthu
▁constituting
plus
▁characterized
▁converge
▁reliance
▁bolder
▁pa
▁normalisation
▁angolan
▁performers
▁illegality
▁processors
▁recasting
▁competitions
▁featured
▁depths
▁buyers
1999)
▁ram
▁dover
▁oh
▁burn
▁fibres
▁garden
▁rival
▁restaurant
▁servant
▁trademark
▁beginnings
▁disappearances
sky
▁participates
ferring
▁beset
ering
may
▁tele
critical
conventional
ley
▁perceptions
▁impress
▁alvaro
▁christodoulou
▁curricula
▁ignalina
▁moratinos
▁orbán
▁simplifies
▁embarrassment
▁bullmann
▁bluetongue
▁inheritance
▁grace
▁edition
▁disbursed
▁benches
▁1930
▁harassed
▁drives
▁heaton
▁powerlessness
▁dismayed
▁theorin
5)
▁quantify
▁radicals
▁wasteful
▁discriminates
▁blindly
▁slovakian
▁foresees
▁insurers
▁incinerators
▁wayside
▁cart
▁reaffirming
▁embraces
orientated
▁appropriateness
pol
▁prohibitions
▁aggregate
▁tricks
▁sounding
▁lyon
▁spokesperson
▁220
▁des
▁windows
▁troubles
same
lessly
corruption
single
5-
▁casual
▁skilful
▁gamble
▁encroach
▁architectural
▁commonwealth
▁dybkjær
▁grotesque
▁multiplier
▁sludge
▁erdogan
▁kuneva
▁tokyo
▁commemorating
▁maría
▁pigmeat
▁array
▁skinner
▁feeble
▁csr
▁citing
▁1951
▁hermange
▁moraes
▁unspent
▁tomatoes
▁wildlife
▁ertms
▁55%
▁fingerprinting
▁popularity
▁triple
▁sparked
▁passionately
▁lapsed
▁solemnly
▁upgraded
▁presumed
▁pierre
▁approximate
▁ecall
▁obstructing
▁priori
▁magistrates
▁sp
▁prejudge
▁discovering
▁sch
70
▁bell
▁internalisation
▁matching
rat
ü
▁shoot
regions
nc
▁mirror
▁inspectorate
▁fridays
▁productions
▁paints
▁debtor
▁tower
▁et
nace
▁cape
▁bu
▁147
▁alan
▁fence
ble
regulating
hull
▁structurally
.00
­
▁inhibit
▁fernández
▁mathematical
▁negligent
▁1049/2001
▁applicability
▁catherine
▁certify
▁dijk
▁embedded
▁humour
▁interoperable
▁manchester
▁prevalence
▁wiebenga
▁ceuta
▁desama
▁nordmann
▁dwindling
▁hecke
▁footprint
▁royo
▁arranging
▁simon
▁heroic
▁whistle
▁looming
▁thermal
▁drilling
▁policemen
▁presided
har
▁heap
▁jet
reform
▁dance
▁swedes
ana
▁plantations
▁barometers
▁niger
▁belt
▁2001/
changing
treated
▁repay
ned
▁promoters
▁deplores
sur
▁legalisation
▁dump
▁senator
sc
▁harkin
▁receipts
▁bands
▁li
tier
▁accessions
▁119
strategic
sensitive
▁revolt
▁jihad
▁wield
▁exponential
▁counterbalance
▁ashraf
▁consecutive
▁corrigendum
▁executing
▁fatigue
▁horrified
▁knesset
▁poignant
▁recurrence
▁tempus
▁extermination
▁reorganization
▁harmonizing
▁kellett
▁schoolchildren
▁bible
▁volcano
▁computerised
▁discontinued
▁13%
▁unleashed
▁relocated
▁warring
▁lethal
▁obstructed
▁momentous
▁chi
▁australian
▁andorra
▁beside
ied
▁violently
▁carcinogens
gy
▁worthless
13
▁thankful
uc
▁monuments
▁spark
▁mayer
▁surge
zy
▁professionally
▁programs
▁voter
▁publicise
▁buddhist
▁impulse
▁rendition
▁complainant
▁overtime
▁civilization
ct
▁equipp
▁stones
▁ices
▁2030
av
▁135
muslim
neutral
russian
));
▁thwart
▁pardon
▁wool
carpegna
▁hulten
▁kyprianou
▁politkovskaya
▁pyrenees
▁sommer
▁suanzes
▁uzbek
▁klinz
▁welsh
▁reinvent
▁radiological
▁rivalry
▁unfamiliar
▁experimentation
▁corpus
▁smugglers
▁grim
▁adriatic
▁relegated
▁$
▁melting
▁licensed
▁europass
▁downstream
▁cares
▁subordinated
ff
▁mauritanian
▁spelled
rating
▁consciously
▁polling
▁criminalisation
▁202
▁iranians
▁informally
▁1989.
▁needle
▁descriptions
-30
rights
▁humanist
▁orally
round
▁echoing
▁sample
ya
tion
▁affords
fired
-09
▁talents
respect
colonial
sustainable
profile
towards
safe
▁2.4
▁burst
(97)
▁recycle
▁martín
▁ambient
▁anomalies
▁apologize
▁bloom
▁böhm
▁compilation
▁davos
▁deputies
▁entrance
▁lienemann
▁literary
▁mystery
▁nutshell
▁olsson
▁outsourcing
▁plethora
▁spawn
▁spearhead
▁srpska
▁undisputed
▁utilities
▁vatican
▁šefčovič
▁havoc
▁bogus
▁dried
▁insertion
▁hastily
▁intermodality
▁sanders
▁reliant
▁shellfish
▁unimportant
▁verde
nanotechnologies
▁attainment
▁halved
▁stranded
▁painted
▁mounted
▁embraced
▁richness
▁codified
▁har
▁newcomers
▁rendering
iest
▁tac
▁conveying
.7%
▁cancellations
▁preserves
▁repairs
▁&
▁basins
are
▁catholics
▁info
▁discharged
▁mandated
▁shark
▁guy
▁stakeholder
▁segments
ida
ants
▁dies
▁ceases
che
lan
▁pit
states
nes
eg
funding
efa
▁overlooks
visual
▁kuwait
nu
▁erode
▁ammunition
▁aquatic
▁corbey
▁deficiency
▁expedient
▁fraught
▁orlando
▁resurgence
▁untouched
▁tracing
▁rainfall
▁ariane
▁delhi
▁rampant
▁riis
▁yoke
▁fifg
▁heroes
▁scrupulously
▁cheating
▁streams
▁policeman
▁tightly
▁sponsored
▁witch
▁holte
▁painfully
▁mp
▁deepened
▁strangely
commissioner
▁mentally
▁simplest
▁maximis
▁inflationary
▁ranking
▁forecasting
nia
mark
▁facets
▁mor
▁filter
▁diagnostic
▁particulate
▁variation
▁competitor
▁lung
▁disregards
▁mile
▁disappears
▁modal
▁revisions
-3
▁41,
europeans
▁timescales
qualified
blue
labour
defence
▁horizons
▁flout
▁offend
ordination
▁degenerate
▁meticulous
ú
▁crusade
▁uncompromising
▁1968
▁contemplating
▁eriksson
▁hemisphere
▁initiation
▁mauritius
▁registry
▁surviving
▁tribal
▁sapard
▁fluorin
▁peculiarities
▁extractive
▁reintroduction
▁superiority
▁watchful
▁periodically
▁thai
▁spong
▁toxicity
▁ipcc
▁diluted
▁attendant
▁easa
▁faithfully
▁eleventh
▁fashionable
▁stalled
▁terminate
▁plague
▁fond
▁idle
▁detergents
▁dearly
▁danes
▁knocking
▁observes
▁michelin
▁verifying
▁payable
▁loft
▁ensue
▁roundly
▁fearful
▁scores
▁regionally
▁nox
▁bells
▁sail
▁merchant
▁monster
▁deliberation
▁1990.
list
▁praises
▁101
▁span
▁goat
▁myths
▁stimulates
▁updates
written
trading
▁anchor
▁instil
▁impair
▁unleash
quarters
▁emigrate
▁relentless
og
▁escalate
▁antonio
▁attwooll
▁djibouti
▁envy
▁flemming
▁havana
▁herbal
▁impossibility
▁impotence
▁inviolable
▁quecedo
▁resuming
▁unnoticed
▁daniel
▁eisma
▁walter
▁tranche
▁terrifying
▁trafficked
▁optical
▁blanc
▁shining
ven
▁pex
▁sceptics
▁reunited
▁icty
▁industrialists
▁cream
▁shortened
dependent
▁sixthly
some
▁moreira
▁concealing
▁tu
▁121
▁warranted
18
▁tec
▁armenians
tt
.3%
▁remedying
▁renders
jo
▁143
flow
▁plate
9/98
▁photograph
▁jia
▁si
▁850
▁winds
▁nutrient
▁affiliation
▁guerrilla
▁interlocutor
27
▁bite
▁sounded
▁sorting
▁mega
mat
elecommunication
safety
80
▁shrink
▁shout
-2012
▁judicious
▁mysterious
refoulement
▁camisón
▁cholera
▁díez
▁fourçans
▁hypothesis
▁korhola
▁mackerel
▁malpractice
▁nepad
▁nepotism
▁nogueira
▁pitiful
▁provincial
▁stimulation
▁voyage
▁toubon
▁youngsters
▁euronews
▁whisky
▁unfinished
▁beacon
▁regression
▁liberated
▁takeovers
▁static
▁merged
▁tempting
▁gnss
▁coaches
legal
▁revived
▁prone
▁elaborated
▁nearby
75
4-03
▁enriching
ign
ola
▁disciplined
uk
▁appropriated
2009
eib
▁arabs
▁complainants
)];
amendment
arm
▁doses
▁heights
▁mild
▁cable
2003)
res
▁lake
▁pros
ians
▁cats
uff
▁230
▁bud
▁interface
elect
▁sha
culture
modified
education
▁classify
▁eec
▁abundant
▁atrocious
▁biocides
▁elaboration
▁fayot
▁fiasco
▁framing
▁krehl
▁persuasive
▁saakashvili
▁unhelpful
▁ţicău
▁conserving
▁subtle
▁festival
▁mauro
▁begging
▁cushion
▁prejudicial
▁tacit
▁eaten
▁afghans
▁kfor
▁discarded
▁stray
▁stroke
▁humankind
▁ethnicity
▁endowed
▁reluctantly
▁posei
▁prepares
▁denominations
▁persisting
▁za
▁specificity
▁pirates
▁smell
▁2)
▁detailing
▁oxides
▁goats
▁filters
▁sender
▁helm
▁apple
area
▁workshop
▁outward
▁creditor
▁organizational
ks
ets
▁deportations
lam
fair
judicial
rid
▁excellently
▁disrespect
headed
▁flank
▁sabotage
▁indefinite
▁cataly
▁academy
▁candidature
▁emphasizing
▁firearms
▁féin
▁giovanni
▁homogeneous
▁illusory
▁kaufmann
▁khadraoui
▁mathieu
▁musharraf
▁outcry
▁pandora
▁sacrédeus
▁waddington
▁jové
▁flash
▁lamb
▁vondra
▁protectorate
▁unmik
▁lunchtime
▁kosovan
▁refined
▁ccctb
▁iuu
▁cancers
▁outraged
ium
▁regularisation
▁shrinking
▁accommodated
▁reprisals
▁ascertained
iform
▁relaxing
▁communal
▁aligning
▁truths
▁diversifying
▁detecting
▁consignments
▁301
cent
▁needlessly
▁santa
▁taxing
▁historians
cing
▁campaigners
000
▁keys
▁1)
0,000
▁outlaw
take
ung
▁vaccinations
▁fi
.05
▁summon
▁attributes
▁restraints
▁290
▁discard
-15
▁equate
▁spouse
nation
▁reassert
▁102
▁refocus
▁deduct
▁indians
▁scare
▁seiz
▁christ
93
jørgensen
berg
▁nurture
▁categorical
▁fiction
▁diverge
▁aggravating
▁balkenende
▁collado
▁consortium
▁consultancy
▁demography
▁ecuador
▁győri
▁humility
▁lipietz
▁melilla
▁pernicious
▁pittsburgh
▁praesidium
▁staging
▁unparalleled
▁utilising
▁vilnius
▁liking
▁autocratic
▁geological
▁predatory
▁wibe
▁hipc
▁intimidated
▁microphone
▁crushed
▁berger
▁deducted
▁poly
▁sword
▁cling
▁sexuality
▁warlords
▁decisiveness
▁fanatical
▁chip
▁flavourings
▁rushing
▁resemble
9)
▁rings
▁solvents
▁beds
5-06
▁1991.
▁flaw
▁fertilisers
▁sharks
▁eufor
▁oppress
▁tooth
▁chairperson
▁briefing
▁truck
▁artist
▁thoughtful
▁electronics
▁feat
▁legalise
▁thatcher
▁fo
under
▁fosters
peace
innovation
▁114
▁earmark
▁column
°
▁seventeen
▁zeal
▁appreciable
▁barbarism
▁busuttil
▁diametrical
▁désir
▁embodies
▁fmd
▁garrido
▁gräßle
▁henderson
▁homage
▁incoherent
▁kittelmann
▁mavrommatis
▁monetarist
▁pretence
▁revitalising
▁sclerosis
▁terrón
▁unchecked
▁unhindered
▁unsolved
▁vassiliou
▁secchi
▁rogue
▁radioactivity
▁unwelcome
▁stalinism
▁desirability
▁squandered
▁indebtedness
▁extradited
▁focussing
▁leaked
▁praising
▁slowness
▁captured
plan
▁persistently
▁narrowly
▁overseeing
effects
semitic
▁qualifying
▁pop
sectoral
six
▁111
▁trialogues
las
▁halve
▁yass
29
nice
▁agreeable
▁bath
▁126
evaluation
▁confers
(6)
lia
ug
▁relay
▁foodstuff
▁ecus
▁taboos
cr
▁waiv
counterfeiting
cum
cooperation
▁distract
▁infringes
▁erect
▁instigate
▁overshadow
▁steep
▁artisan
▁colony
▁dehaene
▁espionage
▁fantasy
▁fraudsters
▁herczog
▁heterogeneous
▁larrea
▁mombaur
▁multiplied
▁nomenclature
▁reticence
▁gál
▁audy
▁resentment
▁1982
▁forthright
▁33%
▁motorists
▁utilization
▁culminated
▁structuring
▁leaf
▁trailers
▁graves
▁compliant
▁grab
▁kenyan
▁embracing
▁heeded
▁fanatics
▁endlessly
▁creatures
▁sealed
▁roo
▁abattoirs
▁wa
▁followers
▁traces
▁finns
▁entrepreneur
▁contracted
▁breeds
▁publicised
▁dividends
ras
mine
▁equates
▁franc
.25
▁lage
stock
▁mafias
region
▁upheavals
▁dividend
▁contrasts
▁confrontations
▁viewers
ham
action
▁107
light
▁aided
negotiable
laundering
century
examination
smoking
centred
▁redirect
▁unlock
▁delude
▁nano
▁clamp
▁cartagena
▁coercive
▁collapsing
▁khmer
▁lambsdorff
▁marfil
▁maystadt
▁miserable
▁qatar
▁retaliation
▁scheele
▁sesar
▁skopje
▁unreliable
▁yushchenko
▁zappalà
▁misplaced
▁monuc
▁amply
▁childbirth
▁testifies
▁liu
▁lisi
▁uneasy
▁eventuality
▁basket
▁hospitality
▁invaded
▁reinvigorate
▁uncovered
▁jpa
▁unexpectedly
▁cynically
▁affection
▁191
▁bombed
▁pitfalls
▁retardants
▁rear
▁triggering
▁forgiven
▁vines
ker
▁pitch
dustrialisation
▁amends
45
▁strippe
▁paedophiles
▁pounds
▁queue
▁parameter
rapporteurs
▁drawback
tas
▁144
dec
▁hydrologic
21
▁stores
fight
after
▁positioning
clear
equal
solidarity
▁wit
emphasise
▁chat
▁expedite
▁ferrer
▁cofinance
▁tunis
▁slander
biocidal
▁batzeli
▁bleak
▁collaborating
▁collusion
▁cubic
▁demagogy
▁disrepute
▁hegemony
▁instituting
▁mahmoud
▁namibia
▁teverson
▁zagreb
▁bioethics
▁ruiz
▁emitted
▁pork
▁shattered
▁prescriptive
▁ravaged
▁containment
▁egnos
▁revoke
▁sharm
▁fiercely
▁conceded
ile
▁reul
6/97)
60
▁specialized
▁subcontractors
▁eritrean
▁alerted
▁151
yearly
▁spoil
▁lords
89
read
▁funk
▁withheld
▁inspires
change
▁familiarise
▁inflexibility
▁guerrillas
▁2.2
chair
4-01
▁aggravate
▁pipe
▁perpetrator
where
▁coastlines
▁assaults
46
control
transparent
payment
criticism
soviet
▁columbia
▁migrate
▁utopia
▁undoubted
▁bradbourn
▁jiménez
▁khodorkovsky
▁queiró
▁rouge
▁stifling
▁subsidiaries
▁wives
▁demise
▁aspiring
▁laval
▁martinez
▁secretaries
▁ironically
▁damascus
▁conceptual
▁embarrassed
▁churchill
▁1977
▁dunn
▁minus
▁constrained
▁meddling
▁skilfully
▁instigated
▁sunset
▁deliveries
▁similarities
▁echr
▁statehood
▁poisoned
▁curiously
▁tack
▁divorced
▁ponder
▁assassinations
▁rationally
ren
▁driftnets
▁heavier
▁criminalising
▁helpless
sightedness
▁surroundings
▁mera
opt
▁imperialists
...'
▁farmed
▁newton
efficiency
▁leaks
▁herd
▁attracts
▁imperatives
▁insults
▁mostar
port
▁elephants
▁infants
▁auctions
▁championship
▁allegation
▁fuller
▁shareholder
▁genetics
cor
▁hull
ning
▁singled
.55
aligned
▁mali
ju
▁mouths
▁liquids
exploitation
why
▁electorates
▁renegotiate
▁tentative
▁eloquent
▁belated
▁restrain
▁volkswagen
▁anarchy
▁automated
▁baggage
▁emotive
▁frahm
▁furthest
▁homogenous
▁hutchinson
▁ineffectual
▁intrusion
▁irritation
▁mccartney
▁papastamkos
▁paramilitaries
▁privatising
▁revitalisation
▁singular
▁telkämper
▁conspiracy
saxon
▁foregone
▁colonisation
▁powell
▁override
▁straightaway
▁neil
▁offspring
▁smuggled
▁devalue
▁[...]
▁overwhelmed
▁polite
▁36%
▁birdal
▁ariel
▁heinous
▁21%
▁repaid
▁revoked
▁secretive
▁repudiate
▁coca
▁mary
▁microcredit
edge
▁nazis
▁prostitutes
▁principled
big
▁106
hal
chi
▁incompetent
66
sub
▁complementing
▁149
▁anguish
▁ok
▁crosses
▁overlooking
ped
▁arouse
▁proviso
▁deduction
▁grade
ä
35
religious
▁budgeted
▁optimis
atory
▁accent
enlargement
programme
kyoto
ron
lived
▁heal
uri
è
▁secretaria
▁cyclone
▁archipelago
▁avilés
▁belfast
▁bilbao
▁cannabis
▁colossal
▁edifice
▁euthanasia
▁furniture
▁illiterate
▁inclination
▁infancy
▁irresponsibly
▁lindqvist
▁mbeki
▁nelson
▁overbooking
▁pornographic
▁rabies
▁reforestation
▁réunion
▁thomsen
▁wathelet
▁defiance
▁nicolaï
▁sarlis
▁evacuation
▁transboundary
▁soaring
▁duck
▁reorientation
▁roche
▁fidel
▁taiwanese
▁republika
▁stupidity
▁romeva
▁imperial
▁trojan
▁subcontracting
▁franz
▁relentlessly
▁frankness
▁unskilled
▁moluccas
▁crushing
mindedness
▁dilute
▁polar
fl
▁documentary
▁steered
▁empowering
▁strains
▁blown
▁curse
▁intensely
▁eulex
▁emigrants
aries
▁searches
▁rescued
▁aspires
ommunitarisation
▁invoices
▁assesses
▁symbolises
▁hosted
▁bang
▁sore
ean
▁lips
▁tenor
rated
nam
just
▁clusters
▁appetite
▁deviation
▁brick
▁hallmark
4-00
▁colegislator
▁linkage
ay
dragging
▁aiding
▁visual
▁manoeuvres
▁gar
▁injection
▁jails
raham
finance
generating
hazardous
consumer
monetary
entities
when
regulatory
▁lighten
▁multiply
gas
▁redistribute
▁privatise
▁deregulate
▁kerr
▁friction
▁chorus
▁derisory
▁fertility
▁funeral
▁horrifying
▁inception
▁indulging
▁leather
▁opportunism
▁ramifications
▁residency
▁sicily
▁stabilize
▁unimpeded
▁unprofitable
▁unsolicited
▁vatanen
▁yeltsin
▁morris
▁nicole
▁casini
▁hallam
▁gloomy
▁1978
▁decoupled
seated
▁slice
▁retabled
▁complexities
▁barred
▁edd
▁1.5%
any
▁viruses
ias
▁stricken
▁intentionally
▁incite
▁boldly
▁pouring
▁dolphins
▁kilo
▁heels
▁awards
▁240
▁yards
▁riding
effectiveness
▁permeate
era
▁executives
▁maxim
▁va
▁taxi
65
too
7/97)
hy
ions
▁mare
▁mask
▁preoccupation
▁bubble
▁omit
other
▁libe
7/98)
▁lean
fin
▁halv
ré
▁enlighten
missile
▁luis
▁advertise
▁unreserved
▁asthma
▁yellow
▁analogy
▁antarctic
▁bureaucracies
▁charitable
▁collaborative
▁excitement
▁identifiable
▁impractical
▁irrigation
▁kurdistan
▁medieval
▁pompidou
▁slide
▁topolánek
▁uncontrollable
▁unmarried
▁vacancies
▁nursery
▁drove
▁senegalese
▁fox
▁navy
▁humiliated
▁(...)
▁defuse
▁implicated
▁settlers
▁vile
▁ya
▁tin
▁tying
▁provoking
▁disclosed
▁portrayed
▁lawlessness
▁cyclists
▁suppressing
▁repaired
▁riches
don
▁disagreed
.8%
▁ruminants
▁blowing
▁projections
▁doris
▁secrets
2/2001
▁02
▁jams
.2%
▁distinguishe
▁rum
capacity
▁covert
ani
▁lately
▁ju
▁springs
▁plot
▁demagogic
▁murdering
▁debtors
▁sisters
▁fog
group
86
▁2000/
▁168
▁program
▁militant
▁alteration
▁mixtures
▁pie
▁effected
▁developmental
tti
▁exposes
▁dini
être
implementation
price
▁entertain
mixed
▁192
catches
▁farc
▁census
▁barbarous
▁manoeuvring
▁adjacen
▁ainardi
▁bankruptcies
▁buitenen
▁crunch
▁defamation
▁denktash
▁dissuasive
▁gaulle
▁hamburg
▁instigation
▁inviolability
▁lenient
▁lenz
▁lobbied
▁podestà
▁pomés
▁ransom
▁záborská
▁ebner
▁embody
▁cybercrime
▁299(2)
▁upsurge
▁neighbourliness
▁bowles
▁multifaceted
▁mapping
▁stabilisers
▁unarmed
▁jacob
▁prohibitive
▁annoyed
▁euroscepticism
▁plagued
▁handbook
▁squeezed
▁impeded
▁liberalized
▁unlawfully
▁entrants
.(1)
▁eurocrats
▁specificities
▁championed
▁convincingly
▁angles
▁shelves
▁contradicted
▁revelations
▁ringing
▁upsetting
▁haul
▁camera
▁162
▁republican
▁203
▁sunk
▁inconvenient
▁cared
55
▁penalises
42
farm
▁5.5
▁mince
▁payers
▁juveniles
▁shoe
▁issuers
▁dares
.9
▁kidnappings
▁differentials
aci
▁flavour
▁fertiliser
▁oxide
▁avenue
▁protestant
1/97)
ene
maker
▁grounded
oulas
▁ob
focused
bearing
linked
zero
▁lease
▁explode
▁puzzle
▁extradite
▁fervent
ub
▁blows
▁thick
▁stigma
▁lucid
uyttebroeck
▁indisputably
▁inexplicable
▁irradiation
▁karzai
▁laureate
▁laurels
▁matsakis
▁paraguay
▁schlyter
▁stabilization
▁vanhanen
▁vladimir
▁apathy
▁ayala
▁dissolution
▁inmates
▁palace
▁gilad
▁rewrite
▁mooted
▁wrongdoing
▁bosses
▁niche
▁backwardness
▁trio
▁1948
▁attainable
▁situ
▁cries
▁wireless
▁louder
▁invade
▁multiplying
▁peril
▁dci
▁brie
▁oda
▁rwandan
▁squeeze
▁addis
▁fishers
ified
▁bothered
▁ideologically
▁readable
▁shale
▁weighty
▁mortgages
▁wheels
▁electing
▁avoidable
▁guinean
▁landings
▁repeats
▁mediate
▁formations
▁andrews
▁informs
ible
ates
ob
mes
19/
shore
▁wins
▁samples
8/2001
king
▁146
▁legs
▁strives
▁reliev
▁museums
sum
▁vo
▁ham
city
mis
▁eruption
▁variant
▁ado
▁diamond
▁hurdle
▁inhabitant
▁reformists
▁domains
▁levers
▁dem
▁ward
think
tal
▁null
important
cfsp
breaking
▁cherish
▁miracles
running
▁california
▁inaugura
▁fax
▁holm
▁alyssandrakis
▁chasm
▁circular
▁deputising
▁gdańsk
▁grech
▁hahn
▁huhne
▁hulthén
▁intangible
▁issuance
▁kinshasa
▁mobutu
▁necessities
▁paradise
▁pastrana
▁sainjon
▁terrain
▁ugly
▁disinformation
▁happier
▁haunt
▁gabon
▁authenticity
▁facilitator
▁confinement
▁sportsmen
▁methodological
▁rosé
▁articulated
▁superb
▁boundary
▁twinning
vent
▁jeopardize
▁routinely
▁averted
▁mainstay
▁patentable
▁unproductive
▁spells
▁interviews
▁ifrs
▁sleeping
low
nate
▁trainees
▁hunters
▁vastly
▁disapprove
▁hydro
▁canned
▁ratifications
3/96
bat
▁seated
▁explosives
▁necessitates
▁chechens
rei
▁privatisations
▁127
▁scourges
▁alterations
▁particulates
▁planted
cat
▁rivals
▁sweet
▁enshrines
▁appearances
▁episodes
▁stipulation
▁knee
▁additive
pf
▁madame
▁moderates
▁conceals
▁trusting
.9%
je
▁intake
ira
▁prescriptions
never
special
lla
▁disdain
renewable
israeli
▁caricature
int
thinking
▁reorganise
▁culminate
zin
▁refine
▁instant
▁pinpoint
▁complicit
š
▁psycho
▁quisthoudt
▁asensio
▁berenguer
▁caspary
▁colonel
▁fishmeal
▁fjellner
▁footsteps
▁gbagbo
▁imitation
▁imprecise
▁investiture
▁multiplicity
▁nazionale
▁rambouillet
▁reticent
▁sympathies
▁trillion
▁nicola
▁recognisable
▁stoa
▁breastfeeding
▁gateway
▁traumatic
▁rainsy
▁landowners
▁trustworthy
▁dispersed
▁secularism
▁infinitely
▁seabed
▁junker
▁drowned
▁decommissioned
▁repressed
▁restrained
▁bitterly
▁washing
▁waived
▁talented
▁heighten
▁distinctly
▁regretting
▁prominently
pass
▁subscribed
▁centralized
▁1983
▁accentuate
measures
▁uprooted
▁proponents
▁secretly
▁upturn
▁117
▁hinges
▁upside
▁sponsors
nom
▁tse
▁travels
▁ken
▁stipulations
justice
passing
produced
she
▁impediment
▁bishop
▁onus
▁wastes
▁sing
▁prescribes
▁uprisings
▁6.5
ach
▁kim
83
▁dogmas
meaning
eight
parent
family
implemented
▁climb
▁plunder
stone
▁abnormal
▁sluggish
▁abject
▁forensic
▁malicious
▁advocacy
▁altiero
▁asymmetry
▁expropriation
▁histories
▁hydroelectric
▁karadzic
▁mcintosh
▁motivating
▁murphy
▁palliative
▁pörtschach
▁sandbæk
▁amicable
▁laschet
▁descendants
▁naked
▁baker
▁blanche
▁fatah
▁emma
▁opec
▁1981
▁gsm
▁monstrous
▁irradiated
▁transpired
▁abhorrent
▁champagne
▁psychiatric
▁assembled
▁floating
▁2018
▁peacekeepers
▁endow
▁circumvented
▁stretched
▁modelled
▁lawfully
▁proclaiming
▁redefined
▁programmed
▁faulty
▁acceptability
▁croats
▁corn
▁correspondingly
▁142
▁whales
▁doorn
▁koreans
▁performs
▁mosques
36
▁professors
▁descend
▁1999/
▁soils
mm
▁authorises
▁schedules
▁warns
▁lighter
▁muster
8/97)
▁wash
unt
▁victor
roma
▁writers
▁118
3/97)
▁inactivity
(96)
▁interpreter
▁contractor
ifying
▁las
▁councillor
▁formulations
▁153
book
fo
laughter
▁brands
skilled
embracing
advised
codified
doping
▁promoter
sponsored
sounding
▁liberate
▁painstaking
faceted
▁juice
▁accountancy
▁battisti
▁cocktail
▁cowardice
▁downgrading
▁meijer
▁swimming
▁voicing
▁öçalan
▁discharging
▁inciting
▁macau
▁wastage
▁annulled
▁fluid
▁habitual
▁egoism
▁inescapable
▁larive
▁philippe
▁1994-1999
▁accomplishment
▁luckily
▁passivity
▁oau
▁hardware
▁slump
▁recur
▁helmer
▁communitisation
▁perea
▁undp
▁2025
▁remunerated
▁morals
▁technicians
▁mistakenly
▁modesty
▁rex
▁transpires
▁claude
▁é
▁patiently
▁persecute
▁greetings
▁donate
▁intentional
ars
▁implying
▁extensions
left
midst
▁ills
4/97)
▁fare
▁2.3
▁titles
▁sands
fuelling
▁fringes
▁boosted
37
▁cfr
▁bulgarians
▁trademarks
▁georgians
▁salien
▁orphans
powered
▁clouds
▁envoys
colm
▁paraphrase
ls
label
▁crowd
▁watchword
▁revolve
▁lengths
users
put
▁francis
▁abductions
stream
▁seeker
guarantee
box
technical
gdp
whereas
week
▁kar
▁exaggerate
▁paralyse
▁deport
▁discord
misappropriation
▁parkinson
▁abominable
▁adventitious
▁allegiance
▁assimilation
▁carlotti
▁cañete
▁glory
▁homophobic
▁járóka
▁kerosene
▁litmus
▁operandi
▁pdb
▁scrutinising
▁stringency
▁unfettered
▁unintended
▁unveil
▁wuori
▁xiaobo
▁spurious
▁crackdown
▁signifies
▁selfishness
▁preoccupied
▁hijacked
▁manure
69
▁pilotage
▁greenpeace
▁depressed
▁22%
▁din
▁ó
▁objectionable
▁agus
▁stretches
▁quickest
▁thwarted
▁gcc
▁cesar
▁incidental
▁invests
?"
▁menace
▁entitle
▁hi
▁transferable
▁threefold
ef
ura
▁rage
▁regained
▁echoes
ridden
▁packed
▁intolerant
lk
iz
▁rolled
▁cra
▁yielding
▁legalised
▁conveys
4/98)
▁precursors
ich
▁priests
▁acquisitions
▁associates
▁0.2
▁interestingly
▁landfills
▁lest
imposed
▁egyptians
▁tab
▁shi
▁disagrees
▁magazines
mut
offs
▁severin
star
ties
▁shipwreck
▁0.1
▁tag
▁123
▁sins
▁unita
rie
8/98)
constitution
arily
▁deceit
word
▁hun
▁harvests
ward
speak
▁stiff
creation
author
frontier
growth
television
help
small
▁conquer
▁quant
▁edit
▁mud
illegal
▁ababa
▁archbishop
▁biscay
▁bohunice
▁cassidy
▁clergy
▁colajanni
▁fantuzzi
▁fisherman
▁methodologies
▁milinkevich
▁mohamed
▁papadimoulis
▁photovoltaic
▁resilience
▁rodríguez
▁tertiary
▁fiftie
▁kitchen
decentralization
▁hyland
▁jury
▁ceecs
▁baku
▁instructive
▁forthwith
▁νατο
▁folly
▁exploitative
▁rebuilt
▁42%
▁reassessment
▁directories
▁mouse
▁pragmatically
▁reintegrate
▁2.5%
▁enjoyment
▁valencian
▁brittany
▁wire
▁czechoslovakia
▁annoying
▁terminated
▁contemplated
▁articulate
▁oddy
▁marry
▁betrayed
motions
▁uttered
▁selectively
▁bulbs
▁harshly
▁harbours
▁grievances
▁enacting
▁departing
▁ccs
2000
kh
▁phosphates
oli
▁sweeteners
▁preaching
▁anticipates
▁2.7
ala
▁mi
uring
▁scots
▁exacting
▁inputs
▁lifts
arian
▁pioneers
3/98)
▁detentions
▁spirall
val
sch
cc
▁beach
▁bullet
▁raid
▁slick
▁shortfalls
▁belarusians
▁eastwards
▁overlaps
▁au
head
▁deed
▁sank
will
stricken
brazil
liberalism
moon
▁faiths
entry
▁reprimand
▁reproduce
▁siberia
▁hire
léonard
▁abdullah
▁anonymity
▁arguably
▁barents
▁bretton
▁chanterie
▁cloak
▁distancing
▁expediency
▁irritating
▁majesty
▁maldives
▁pelagic
▁perceptible
▁rhythm
▁sócrates
▁unfailing
▁108(5)
▁stirred
▁foul
▁surgery
▁enron
▁goodbye
▁laughable
▁1958
▁radar
▁coptic
▁carcasses
▁delta
▁idly
▁28%
▁belatedly
▁politely
▁fattening
▁donated
▁19%
▁unprepared
▁drowning
▁northwest
▁antisocial
▁capitalise
▁30%.
▁296
▁pleading
▁reportedly
▁spectators
imf
hard
▁signify
▁exploits
▁suchlike
rian
▁greening
ena
-11
77
▁gr
2/97)
▁val
▁impinge
representation
▁fruitless
▁precipitate
▁gi
▁assignment
▁spaniard
▁priest
▁landscapes
▁mdg
.1%
▁br
▁meals
▁lags
▁usher
look
▁3)
▁supra
eurodegenerative
▁141
fascist
field
▁tail
▁evenly
▁summarize
▁frustrate
1/
▁infinite
▁antiquated
▁archaic
▁beazley
▁bouwman
▁genome
▁glimmer
▁hindsight
▁inaccessible
▁jospin
▁marinucci
▁redistributing
▁rejoicing
▁sampling
▁teheran
▁tidal
▁vivendi
▁vocabulary
▁václav
▁surreal
▁hooligans
▁straitjacket
▁slope
▁query
▁terni
▁bromin
▁enlightenment
▁unaccountable
▁soulier
▁ultraliberal
▁microsoft
▁accredited
▁realpolitik
▁commitology
▁subparagraph
▁protestors
▁kgb
▁27%
▁erected
opening
▁undervalued
▁heralded
▁shouting
▁classifying
▁comparatively
▁outsiders
▁dams
▁curbed
▁menu
5/98)
▁condoms
▁pca
mic
▁rectifying
▁err
▁valle
hl
▁remedi
▁hub
▁hero
▁guides
▁fe
uthoritarianism
-27
▁deutsche
hit
▁65,
▁policymakers
▁171
4-06
▁founders
▁leak
rum
ft
▁muscle
▁markings
tter
▁belet
signed
▁loser
▁resting
▁staged
▁outlet
integration
fortress
intelligent
▁grind
▁mat
▁authorize
▁secession
▁bundestag
▁clercq
▁cusí
▁ecstasy
▁euphoria
▁fruteau
▁ignorant
▁intelligible
▁lambrinidis
▁ljubljana
▁matrimonial
▁nanomaterials
▁obscene
▁schaffner
▁schaldemose
▁scheduling
▁testament
▁urgencies
▁concomitant
▁panayotopoulos
▁shaky
▁sinister
▁torrent
▁amazement
▁rueda
▁stern
▁misinformation
▁dilution
▁stirring
▁opportunistic
▁watertight
▁frontloading
▁koch
enological
▁allergenic
▁cameron
▁uncoordinated
▁farmland
▁symbolically
▁cdu
▁spontaneously
▁alain
gg
▁blindness
▁esma
▁radicalism
▁referee
▁surrendered
▁relaunched
▁remnants
gm
▁prejudiced
▁harvesting
▁realization
▁alarmingly
(95)0
robbing
▁justifications
▁pcbs
▁stationed
til
▁pi
▁restructurings
▁reintroduc
▁181
▁amina
inter
▁phytosanit
bel
▁enlist
▁entailing
▁doom
▁strings
▁narrowing
▁mdgs
▁newer
▁blockades
▁nose
fat
▁154
▁scapegoats
var
herently
6%
▁nut
▁dess
fp
▁bestow
▁su
▁breed
.6%
overs
▁reigns
▁symptom
▁bra
▁hotline
pir
▁canal
▁cubans
▁olives
▁ru
▁frustrations
▁166
1/98)
▁redefin
▁amiss
support
through
vaunt
question
breast
greater
processing
▁reckon
▁dgs
▁associat
ition
▁intimate
farming
▁dislike
▁scrupulous
jakob
rowohl
▁cardinal
▁denunciation
▁famagusta
▁gerhard
▁giannakou
▁intransigent
▁intrusive
▁looting
▁mouskouri
▁nasty
▁outmoded
▁oxygen
▁papandreou
▁pregnancies
▁ramallah
▁sterile
▁stockpiling
▁szájer
▁unwieldy
▁westminster
▁őry
▁amazon
▁poppy
▁variance
▁folk
▁noisy
▁strata
▁nafta
▁torment
▁tagging
▁highlands
▁insularity
▁affirmative
▁martinique
▁assassinated
▁marginalization
▁tapping
▁gelatine
▁debit
▁hoff
▁advertised
monthly
▁bavarian
▁devalued
▁courteous
▁mediators
▁monde
▁mourning
▁initialled
▁formalise
▁fide
▁ethnically
▁analysts
9/97)
▁cheat
▁seeber
▁harvested
▁germ
▁loaded
room
▁insulted
▁civilized
▁teenagers
▁tel
fta
▁beggars
▁southeast
▁robles
▁ruining
▁detain
▁380
ecb
▁20%.
▁distanced
bank
▁yugoslavian
▁ecopoints
bed
ido
▁fined
▁accountants
▁revolves
3/2001
5/2001
▁resembles
ery
▁transporters
limit
99/
ect
pho
▁ramp
▁milestones
▁rumour
▁pedestrian
6/2001
▁minimalist
▁seller
▁murderer
dding
▁bits
41
▁casa
design
amato
responsibility
▁onset
4-010
educated
paper
technology
tourism
language
▁demolish
▁decommission
▁7.5
▁moldavia
▁diligent
▁slash
▁mortal
cortines
ł
▁boetticher
▁demolition
▁displeasure
▁figeľ
▁guadeloupe
▁higgins
▁mediocre
▁mohammed
▁mosaic
▁mumbai
▁odious
▁raphael
▁rescuing
▁subvert
▁taylor
▁tribune
▁valéry
▁spokesmen
llergic
▁sindal
▁charities
▁indicted
▁unaccompanied
▁variables
▁maiden
▁ultraperipheral
▁corrie
▁banish
▁lula
4-09
▁devolved
▁foist
▁1972
▁stuttgart
▁liquidation
▁exponentially
zone
▁principality
▁creeping
mann
▁ticking
▁formalised
▁culling
court
▁offended
▁314
▁interrelated
▁tdi
ration
▁dreamt
vading
▁quarrel
▁plo
▁apprentices
▁pile
frame
marie
▁handover
▁cannes
contributory
▁para
▁advisors
▁grapes
▁ushers
rf
user
real
▁grades
▁progresses
0/98)
94/
each
▁commending
▁spills
went
esf
▁176
▁viewing
▁sh
missible
environment
elle
▁islamists
ient
ow
▁sans
37/
cht
▁engineer
oi
▁disturbance
▁advertisement
▁scorn
key
▁accountant
cop
minating
▁saves
▁dispos
kov
▁layers
sheikh
hungarian
prevention
positive
push
ua
racism
waste
without
▁lawal
▁disput
▁insensitive
▁censor
▁auxiliar
▁ancillary
▁astounding
▁bhutto
▁bracket
▁deceptive
▁defensible
▁ecumenical
▁encryption
▁euphemism
▁georgieva
▁gypsies
▁hannan
▁libicki
▁plausible
▁rehder
▁stranglehold
▁swim
▁unspeakable
▁valverde
▁£1
▁berend
▁digitisation
▁upshot
▁rosado
▁rotten
▁creutzfeldt
▁shipped
▁hugo
▁counterweight
4-000
▁appended
▁omar
▁ninety
▁weaponry
▁omen
▁clarke
▁scrapie
5/97)
▁capping
▁estimation
▁enisa
▁hook
▁overloaded
▁ewing
▁accrue
▁technocrats
▁discarding
-08
▁diverting
▁commentators
▁notifications
▁psychologically
▁interventionism
▁painting
▁tra
▁shameless
eeas
▁deplored
▁inserting
▁underhand
▁rub
▁pest
▁sober
cre
▁afresh
▁bend
▁chest
78
place
pot
▁124
nce
2/98)
▁wrongs
▁sfor
▁bent
▁liver
▁performances
anti
grade
▁exclusions
credits
▁patch
▁dim
▁es
bone
ray
bra
▁em
▁prop
▁biometrics
▁photo
▁engender
/92
▁mm
▁collision
▁narcotic
volving
tank
▁134
▁mint
▁yard
43
▁asserts
▁strait
rry
▁sow
▁wings
▁dissuade
zar
tabled
4-07
▁mira
▁q
▁highway
008
-25
rop
crime
submission
▁crush
▁dictat
▁adjourn
▁bene
▁reclaim
▁steadfast
▁ridicule
▁overload
▁bench
pataky
▁aesthetic
▁affluent
▁biblical
▁bildt
▁cathedral
▁cruise
▁deceiving
▁emperor
▁erdoğan
▁exchequer
▁fictitious
▁fitzsimons
▁laissez
▁metaphor
▁monoxide
▁philoxenia
▁populous
▁refining
▁tiananmen
▁unforeseeable
▁vilvoorde
▁zapata
▁brotherhood
▁draftsperson
▁pollack
▁william
▁victories
▁poisonous
▁gratified
▁militaristic
▁durability
▁breakfast
▁robbery
▁mapped
▁figel
▁subordination
▁cordial
▁heartening
▁shelved
▁efta
▁unison
▁reserving
▁prüm
▁23%
▁washed
▁reared
▁dissociate
▁guatemalan
▁destabilised
▁20-
▁onesta
▁18-
▁unjustly
▁enlightening
▁singing
▁reactive
▁urbanisation
▁passively
using
▁enzymes
perpetuating
▁smacks
▁trusts
▁generalized
▁asymmetrical
▁progression
▁regaining
▁intellectually
▁presuppose
0/2001
report
▁nicely
force
sell
ional
▁neuro
mp
▁185
5-008
dimensional
▁sons
▁tre
legislators
miss
handedly
▁pale
▁humanism
▁imp
▁believers
fuel
1/2002
▁poli
▁sap
▁cures
▁interferes
▁ladder
▁lesbian
▁fringe
▁creator
▁prediction
2003
▁pair
▁accessed
tor
dp
source
stick
resistant
cypriot
grown
▁dress
seeking
super
▁stall
cp
▁dispatch
(2004)
▁numerical
▁thirst
▁jack
▁becsey
▁beirut
▁captive
▁congested
▁diktat
▁entries
▁eroding
▁fraisse
▁françois
▁gdansk
▁haccp
▁hooliganism
▁impatience
▁korakas
▁schmidbauer
▁wrap
▁astonishment
▁cherry
▁unwavering
▁blix
▁rigged
▁robbed
▁rosy
▁spaak
=
▁abyss
▁sofia
▁depreciation
▁redefinition
▁iasb
▁koran
▁ordeal
▁wallonia
▁securitisation
▁98%
▁idealistic
▁cedefop
▁alienate
▁aptly
▁computerized
▁overestimated
▁downgraded
▁subsidized
▁1325
▁stubbornly
▁marty
▁offsetting
▁helplessness
▁deflation
▁alcoholism
▁coral
▁induced
▁impartially
▁prudently
▁unelected
▁189
▁shamefully
disqualification
▁downside
▁timeliness
vet
▁nights
rant
▁sticks
▁telematics
▁pandemics
▁barons
▁struggled
▁unionist
▁reporters
▁carl
08
▁expands
▁crafts
▁hotlines
▁bullets
5).
▁appease
▁disruptions
▁booking
idi
central
▁mirrors
▁pol
▁(1)
▁gravest
▁belgians
▁eff
rea
▁shah
▁listens
4-005
▁parallels
▁177
▁215
▁necessitate
▁avalanche
▁casino
▁ghost
▁enclave
▁string
terior
▁tale
load
found
pen
site
▁defi
0/97)
2.5
away
▁plumb
warning
regulated
civil
child
▁imprison
cfp
▁cull
contractual
▁uncover
▁fr
▁europeanisation
▁compares
▁mould
▁reconfirm
▁unfold
▁prophet
▁2014-2020
▁ghana
▁impeding
▁leterme
▁metropoli
▁mosiek
▁onslaught
▁rebellion
▁renunciation
▁solomon
▁uninterrupted
▁wrangling
▁astute
▁persson
▁swiebel
▁palermo
▁seoul
▁wavelength
▁bribery
litary
▁bathwater
▁slipped
▁fragmentary
▁petersen
▁regressive
▁naivety
▁pietro
▁thermo
▁obstructive
▁reinsurance
▁municipality
▁1244
▁evacuated
▁tbilisi
▁neoliberalism
▁promotions
▁fervently
▁cepol
▁reunion
▁laan
▁dressed
heinz
▁plundered
▁wheelchair
▁ugandan
rine
arab
bit
▁domestically
▁payá
▁translators
▁gong
▁modules
▁jumping
▁proactively
▁legislated
▁163
▁allister
▁knowingly
▁orban
▁ci
4-022
▁sectarian
▁interventionist
▁individuality
▁bn
▁inexpensive
▁souls
▁stain
▁closeness
▁centralism
populated
▁worryingly
▁preventable
▁materially
gre
pressed
▁158
▁wi
arianism
▁dreaming
▁militants
ken
ata
▁132
vel
ica
▁apples
oh
▁weee
they
▁hangs
far
▁10-
▁fools
▁outer
▁pretexts
dor
▁kit
born
▁brigade
▁arresting
▁(2)
▁recipes
vin
live
▁complains
91/
limited
structured
tuning
climate
traditional
essential
voluntary
money
rri
every
▁confin
▁afield
▁broach
onica
▁merciless
▁kyrgyz
▁accompanies
▁analogue
▁appreciative
▁barzanti
▁burgeoning
▁enshrining
▁envisaging
▁floodgates
▁haggling
▁interminable
▁kelly
▁khanbhai
▁krahmer
▁laurent
▁mutagenic
▁piétrasanta
▁restitution
▁rewording
▁sahel
▁stomach
▁strauss
▁twelfth
▁undivided
▁unreasonably
▁wemheuer
▁yalta
▁demagoguery
▁guellec
▁gurmai
▁kuckelkorn
▁trüpel
▁unice
▁acquitted
▁fassa
▁selectivity
▁0.9%
▁0.1%
▁finite
▁ostensibly
▁slipping
▁multipolar
▁biology
▁slipper
▁enactment
▁dash
▁interrogation
▁beslan
▁detached
▁poznań
▁orchestrated
▁unprotected
▁reallocated
▁pollination
▁leftovers
▁26%
▁greedy
▁rationality
▁eeurope
▁lurch
▁dynamically
smokers
▁improperly
▁duplicated
▁dispensed
▁technicalities
▁simplifications
▁thoroughness
▁coincided
▁squarely
▁espouse
▁publishes
▁sincerest
▁moon
▁suck
▁installing
pan
▁similarity
▁criminalised
top
formal
▁affirms
▁mammals
▁inappropriately
▁uptake
▁minimised
▁finest
▁confidently
lis
▁slovaks
▁179
▁predicting
▁plank
▁360
row
▁locomotives
▁canning
lon
▁posters
▁tha
2010
ali
▁slaughtering
▁fer
▁fighter
ori
▁shots
position
▁countered
▁rica
▁trader
▁towers
▁lectures
▁researching
ened
jerk
▁reassurances
yn
▁sinks
!’
▁jar
▁frames
▁insider
eer
▁newman
▁watchdog
▁dissident
▁derivative
▁packet
▁186
61
▁scales
▁patriarch
via
▁duplicat
best
cho
▁157
▁cooperates
del
▁aviv
dict
freedom
pnr
threatening
burg
▁feli
▁discern
globalisation
▁frighten
sheet
▁corsica
▁profess
▁inherit
▁jam
▁precede
▁ardent
▁tomato
▁corpor
▁aforesaid
▁atalanta
▁barbara
▁chatzimarkakis
▁corollary
▁crippling
▁culminating
▁dprk
▁ettl
▁garosci
▁grybauskaitė
▁hebron
▁lindh
▁mantovani
▁marathon
▁musotto
▁stenzel
▁temple
▁unattainable
▁whaling
▁xynthia
▁çiller
▁bladel
▁causal
▁heathrow
▁marinho
▁osama
▁paolo
▁trilateral
▁chalk
▁holiness
▁inauguration
▁victorious
▁aerial
▁marpol
▁patrie
▁conciliatory
▁reinstatement
▁rebalancing
▁predicated
▁transfusion
▁forgery
▁battlefield
▁inundated
▁comenius
▁disadvantageous
▁unsure
▁activation
▁méd
▁redrafting
▁darkness
▁grandfather
▁rash
▁reproduced
▁vagueness
pays
▁robin
▁renounced
▁businesspeople
▁disgusting
▁boring
▁purposeful
▁bred
▁collaborated
▁decreed
▁misses
▁careless
▁kicked
▁interviewed
▁vetoes
▁lamenting
its
▁qualitatively
▁booming
▁gravely
ette
▁comrades
▁uniquely
▁castle
-2006
▁spam
ral
▁cheer
▁ur
▁salvage
ugh
▁saharan
▁orient
enter
▁notices
▁tr
▁angel
▁seasons
ying
fact
ric
▁countryman
▁chips
tes
▁forgets
▁expenditures
▁honours
▁260
▁ranges
▁148
▁monument
ched
gel
even
▁lighting
ix
48
ict
fer
▁sponsor
▁mox
▁apprenticeship
▁misconception
▁precursor
▁traveller
▁yardsticks
workers
▁ray
lfa
pas
fully
▁marit
33
lene
▁139
ora
▁basics
▁cas
evaluate
information
dollar
interference
manufacture
priority
▁gall
▁retrospective
▁explorat
urbahn
▁admirably
▁algarve
▁aptitude
▁arbitrariness
▁clegg
▁collaborators
▁comprehension
▁dovetail
▁dwarf
▁frontières
▁impenetrable
▁jigsaw
▁larosière
▁lusaka
▁mikhail
▁obsessed
▁pasqua
▁pillaging
▁puppet
▁rejoin
▁schizophrenic
▁subscription
▁thrombin
▁wye
▁yorkshire
▁domino
▁nurseries
▁chemistry
▁sabena
▁salutary
▁curve
▁insistent
▁colombo
▁encroachment
▁normative
▁alienation
▁delimitation
▁excited
▁woodland
▁bratislava
▁bitterness
▁caretaker
▁underestimating
▁arrivals
▁clan
▁repatriated
▁puzzled
▁24%
▁misinterpreted
▁backyard
▁depicted
▁nurtured
▁symbolism
▁diplomatically
▁lining
▁disarmed
▁spa
?’
▁jørgensen
tis
▁levi
trans
▁cartoons
▁faint
▁hadep
▁fist
▁knowledgeable
▁inventors
▁fu
▁developers
7/1999
drugs
▁finalisation
▁dar
▁proudly
qa
▁centralising
▁lit
▁patrols
▁sowing
▁aired
▁discounts
▁numbering
investment
▁doubted
▁cip
▁scot
2/2002
▁raids
▁researched
▁deviations
▁deductions
▁2000-2006.
▁dense
eo
▁1:
mond
▁hassi
▁briefed
▁pleas
nov
▁mills
▁tachographs
▁bags
▁banners
nine
▁brokers
▁encounters
hunt
▁orchestra
▁ineffectiveness
zo
▁prompts
gam
▁dispens
gan
▁pascal
▁transcaucasia
▁loads
▁barometer
▁vine
▁neck
have
▁compact
▁acquires
▁persecut
▁multimodal
▁ispa
▁04
present
inclusive
british
euratom
industry
white
▁conferr
emission
ien
▁depict
▁exhibit
▁mobilize
▁insidious
▁impatient
forming
▁trentin
cassiotou
▁(2007-2013)
▁2008-2009
▁aeronautical
▁anchovy
▁citrus
▁composite
▁geremek
▁hepatitis
▁indignant
▁ingushetia
▁irrevocable
▁lehtomäki
▁lichtenberger
▁malerba
▁pannella
▁qimonda
▁reliably
▁saxony
▁sliding
▁suffocating
▁surján
▁swathe
▁unrestrained
▁garlic
▁bnfl
▁bunch
▁marinescu
▁respondents
▁ryanair
▁garot
▁imperfections
▁feio
▁incurring
▁comfortably
▁counselling
welcomes
▁ppm
▁assertive
▁lifespan
▁erupted
▁diligently
▁perfection
▁terrorise
▁penalized
▁groundhandling
▁renegotiated
▁damning
▁cdm
▁transferability
▁passions
▁erm
▁hunted
▁optimist
▁harsher
▁accumulators
▁refinancing
▁malaysian
▁specialities
▁merry
▁flouting
▁expansionist
▁adaptable
▁cruelly
▁outlay
▁rightfully
▁shaming
▁soundness
4/2006
▁businessman
▁johnston
▁misinterpret
▁groundless
▁guarded
▁resides
bon
▁fallout
▁stamping
generated
▁fulfill
▁presentations
wed
▁sanctioning
▁155
▁2.6
tel
▁payer
▁orwell
▁ze
▁featur
▁treasures
▁pests
imp
rev
▁hallmarks
▁pipes
unify
▁functioned
▁budgetisation
▁kal
▁isaf
▁mc
▁1988.
▁165
pc
bsorbing
▁separates
americanism
▁2001/02
▁leaps
bre
eous
gate
fifth
▁adheres
tar
cra
▁pirate
▁exemplifie
▁aberration
▁nominee
▁oilseed
▁bicycle
▁motorcycle
▁toxin
hak
▁inspector
▁consultant
▁(2
▁sometime
7%
lor
▁bust
▁255
▁nationalisation
▁solves
▁rude
▁withdrawals
▁gra
▁butcher
vice
té
balance
▁anachronistic
woman
acquis
internal
should
suffering
turkish
research
▁disgust
managed
▁dominates
facing
brain
▁gentle
natural
ordinate
▁wreak
▁discontinue
▁ferri
▁retroactive
▁penalize
▁schmit
rin
éndez
▁drunk
▁90/220
▁blinkered
▁extortion
▁alstom
▁arrears
▁astounded
▁atrocity
▁brevity
▁castillo
▁cavada
▁collegiate
▁commencing
▁damião
▁degressive
▁destitution
▁empirical
▁enterprising
▁exotic
▁fission
▁galleries
▁geothermal
▁guardans
▁hendrick
▁islamabad
▁leichtfried
▁lottery
▁mitterrand
▁prioritisation
▁profiteering
▁purity
▁reputable
▁retaliatory
▁sensibilities
▁strife
▁tallinn
▁terrestrial
▁tsvangirai
▁unjustifiably
▁unstinting
▁wojciechowski
▁šemeta
▁caroline
▁cultivating
▁fuster
▁criticizing
▁hiring
▁obese
▁patriotism
▁prescribing
▁baldi
▁1971
▁suburban
▁nicotine
▁inhumanity
▁insane
▁hory
▁authorizing
▁underprivileged
▁geometry
▁latent
▁downfall
▁speedier
▁stifled
▁mitch
▁arabic
▁admired
▁script
▁earners
▁lello
▁harmoniously
▁massacred
▁stamped
▁pensionable
▁alarmist
▁cooking
▁discrediting
▁tribes
▁rightholders
lie
▁cfcs
nan
▁incoherence
ocratic
▁159
▁nuances
ston
gang
▁dreamed
97/
▁buys
▁anymore
▁3.00
▁lied
faire
▁0.3
hir
▁mrls
▁prompting
▁oc
▁ek
▁caste
ces
▁1.9
▁iia
▁2000'
▁pu
4-015
▁abb
▁predominate
▁sharpen
▁gaze
▁rad
▁domini
par
▁incapacity
▁aliens
▁specialise
4/2001
▁bona
▁slav
▁profiting
ution
▁toned
▁3.2
▁stadium
▁petitioner
main
▁gate
rad
▁daughters
shall
▁breakthroughs
▁dé
▁steal
ante
serving
modern
blown
mexico
duty
▁soften
▁daw
cher
feeding
▁usurp
▁elegant
▁limb
▁tappin
held
pronged
▁advisability
▁ayuso
▁beaupuy
▁bedrock
▁berlaymont
▁contagious
▁couto
▁ephremidis
▁ethos
▁exclusivity
▁holodomor
▁imaginable
▁nistelrooij
▁nucleus
▁ospar
▁oswald
▁paliadeli
▁qualifies
▁rabin
▁rangoon
▁román
▁sanctuary
▁simitis
▁stagnating
▁umts
▁impotent
▁sörensen
▁untold
▁queries
▁smokescreen
▁zimmermann
▁grandmother
▁aubert
▁kimberl
▁bisexual
▁instructors
▁adamou
▁romantic
▁sweat
▁foothold
▁sparing
▁crete
▁adamant
▁interchange
▁neatly
▁bathers
▁unconnected
▁sportspeople
▁prolongation
▁posturing
▁politicisation
▁eagerness
▁newens
▁disconnected
▁teamwork
▁journalism
▁38%
▁inflated
▁1940
▁affordability
▁shamelessly
▁redistributed
▁bureaux
▁antisemitism
▁squandering
ij
▁bor
▁modernity
▁materialised
▁conurbations
▁absolve
▁disarming
▁brokering
▁negotiable
▁identifiers
▁overturning
▁summing
▁creditable
▁octs
▁standby
▁lifeline
▁explosions
keepers
▁tenable
▁rethinking
▁206
▁illustrat
▁fl
▁clinics
gert
55/
itis
lli
▁racs
▁clones
▁vocal
▁killers
stan
▁impediments
4-002
▁arouses
▁'...
▁lenin
8/99)
imo
night
▁320
4-008
tac
tested
▁lithuanians
▁congratulates
▁abound
▁fearing
▁96/
erc
4-08
own
self
onic
▁550
won
condition
ify
▁purport
▁antagonism
▁tyrant
▁marino
body
▁assyrian
▁pointers
▁cen
▁2:
▁saa
lé
▁exiles
prime
chemical
▁fragment
make
▁mock
picking
▁impart
▁contaminate
▁sells
▁tyrol
odihr
▁afforestation
▁alsace
▁belenguer
▁bozkurt
▁cioloş
▁curiosity
▁diffuse
▁dogmatism
▁encephalopathy
▁grandiose
▁gualtieri
▁günther
▁hariri
▁jonas
▁jonckheer
▁killilea
▁nursing
▁overcrowded
▁oxfam
▁renaissance
▁sartori
▁scapagnini
▁strawberries
▁tabajdi
▁vacant
▁åu
▁caesar
▁elicit
▁forerunner
▁glorious
▁myriad
▁tolerating
▁vendor
/08
▁farewell
▁brempt
▁cramer
▁stigmatisation
▁tripoli
▁cocaine
▁compulsion
▁copied
▁tallow
▁patriarchate
▁furious
▁foment
▁impairment
▁magnetic
▁stunt
▁olli
▁ebro
▁arif
▁embroiled
▁curtailment
▁polarisation
▁knot
▁mast
▁insulation
▁12:00
▁unethical
▁degraded
▁mantra
▁politicised
▁blurred
4-040
▁2°
▁visually
▁reaffirmation
▁unnatural
▁harass
▁springboard
▁intervenes
▁overburden
▁conclusively
▁perpetuated
▁spraying
▁contravened
▁fitness
▁brilliantly
▁aromatic
▁exiled
▁flagrantly
▁bidding
▁factually
▁abovementioned
▁jurisdictional
▁outstrip
▁forestall
▁graphic
bor
▁statesman
▁insurgents
▁interfered
▁averting
▁patron
aged
▁dominating
▁lecturers
▁lenders
▁investigators
ici
▁zoos
▁rapes
2/2000
▁hgvs
rte
▁impel
para
-2010
▁bicycles
▁nest
▁applauding
gged
▁2000/01
.35
▁pops
▁interfaces
▁61,
▁xi
ada
▁juris
▁riot
1/1999
▁fairy
kin
cer
▁jos
person
▁statesmen
▁qui
▁husbands
č
▁bla
▁366
▁publicising
17/
torn
▁envelopes
▁hurricanes
▁senses
ore
▁treasure
ches
▁discount
rio
▁advisor
▁compatriot
▁grape
▁vitamin
▁killer
6/98)
ama
036
ssa
lessness
direct
rap
exist
▁fri
thought
-12
▁dig
humanitarian
organisms
erika
toxic
▁furnish
sense
racist
pri
▁defy
ake
independent
▁bourgeois
4/1999
▁sadden
▁enquire
▁subsidize
▁blight
▁tire
ç
thiery
▁allergy
▁apprehension
▁asturias
▁azzolini
▁bundle
▁consternation
▁damanaki
▁egotism
▁feminist
▁flimsy
▁hierarchical
▁impracticable
▁kacin
▁merchandise
▁mierlo
▁militate
▁paltry
▁perplexed
▁plutocracy
▁prophylactic
▁purification
▁pyongyang
▁qmv
▁repugnant
▁salaried
▁santiago
▁separatism
▁servicing
▁takkula
▁tamino
▁unifil
▁upbringing
▁deterrence
▁hanoi
▁margaret
▁bioethanol
▁disengagement
▁meddle
▁hedh
▁peking
▁suckler
▁georgio
▁sheepmeat
▁tempo
▁troublesome
▁juan
▁laxity
▁lgbt
▁salzburg
▁tftp
▁impatiently
▁wealthier
▁shedding
▁surpassed
▁cosy
▁stephen
▁dashed
▁demolished
▁idealism
▁csu
▁reorganised
hulled
▁swallowed
▁creed
▁eia
▁emotionally
▁antidemocratic
▁suburbs
▁coordinates
▁footnote
▁tearing
▁restated
▁swifter
▁offending
▁reimburse
▁feedstuffs
▁stalling
▁bug
▁plumber
▁lima
▁negate
▁solidly
▁pathways
ground
▁meters
▁differed
tat
▁leaflets
nder
▁competently
▁64,
▁insights
▁submarines
▁tim
▁fro
now
▁centralist
▁reformers
▁bishops
2004)
▁queues
ín
▁pleases
▁plates
▁monsters
400
▁evaluates
ban
gui
ité
▁marc
▁morale
▁dealer
▁shells
▁condemnations
▁handles
▁repayments
▁decreases
▁researcher
matic
▁sek
▁quotes
▁han
▁minded
▁configuration
▁rift
▁pupil
▁diplomat
▁organism
▁email
tte
▁plantation
tonne
!)
▁tea
borne
▁weights
significant
4-019
▁redesign
▁georg
shop
wood
bashir
application
suited
animal
governance
islamic
▁mourn
▁escapes
gh
▁reallocate
▁vehement
▁muddle
▁batch
▁especial
▁boumedien
schäfer
winded
―
▁1962
▁averroës
▁benelux
▁ceyhun
▁chiapas
▁cjd
▁countenance
▁fluctuate
▁fraternity
▁gleneagles
▁graduation
▁hedkvist
▁heterosexual
▁inefficiencies
▁intertwined
▁irreconcilable
▁keppelhoff
▁leukaemia
▁mammoth
▁neachtain
▁peneda
▁pervade
▁shakespeare
▁subversive
▁unheard
▁untapped
▁vieira
▁parodi
▁stature
▁decolonisation
▁silly
▁moorhouse
▁zanu
▁propagation
▁mistreatment
▁spelt
▁musicians
▁negation
▁atkins
▁bushmeat
▁filing
▁reprogramming
▁birthplace
▁shred
▁interplay
▁substandard
▁candle
▁disruptive
▁hardstaff
▁recreation
▁decimated
▁euronest
▁1963
▁intimately
▁homelessness
▁ecowas
▁downgrade
▁reconfirmed
▁sack
▁valenciano
▁longliners
▁substantiate
2%
▁ruthlessly
▁distracted
▁emcdda
▁outlawed
▁tally
▁argo
▁certainties
▁abusers
▁bypassed
▁heel
▁obscured
▁narrower
▁dda
▁0.7
▁gist
▁stoned
▁rigidly
▁assigning
▁lovely
▁mullahs
▁flock
lit
▁trawlers
▁euroland
▁deadlocked
projects
▁kicking
▁scholarships
▁bob
▁pertains
▁purchasers
▁consumes
▁taxable
bn
▁delegat
▁misconceptions
deluding
kk
▁cur
4-029
▁depended
imi
▁infer
payers
.45
faced
▁burns
ule
▁prizes
ong
elli
bad
▁commands
▁undo
▁assemble
▁possessions
▁92/
ane
▁guarantors
fty
59/
▁hindu
▁ghetto
▁whim
▁peasant
asia
▁cheques
ked
training
services
tta
▁48-
mus
▁ff
incineration
exploited
moving
capital
knowledge
equipped
confident
transport
▁squander
gsp
thank
▁vanish
loving
▁resettle
▁dissolve
▁kidnap
▁deflect
controvertible
α
▁attorney
▁baldarelli
▁bastion
▁bonemeal
▁czarnecki
▁decay
▁espoo
▁evasive
▁existential
▁fireworks
▁gaubert
▁grapple
▁inaccuracies
▁judaeo
▁marrakech
▁mochovce
▁obiols
▁ovation
▁participative
▁prelude
▁renouncing
▁saïfi
▁schiedermeier
▁stimuli
▁temelin
▁tirana
▁tymoshenko
▁valdivielso
▁vector
▁westendorp
▁zambia
▁jammu
▁xxiii
▁ahmed
▁goerens
▁misconduct
▁pasok
▁annulment
▁kamall
▁rivalries
▁repatriate
▁pathogenic
▁adultery
▁fvo
▁latitude
▁meteorologi
▁predetermined
▁converging
▁wealthiest
▁saturated
▁rehabilitate
▁superseded
▁wipo
▁desist
▁deterred
▁carelessness
▁hyper
uous
▁catchment
▁taskforce
▁darkest
▁mifid
▁hired
rm
▁metallic
▁woolly
▁gpa
▁keystone
▁conquered
▁carmen
▁punch
▁legitimised
▁blending
▁thinly
▁annexation
▁lin
pse
▁softening
▁legumes
▁fiscalis
lic
▁harnessed
▁engages
▁cult
▁deserted
▁bravely
6).
▁branded
▁deposited
▁proportionately
▁unfairness
▁hypocritically
▁refunded
▁robustly
▁sown
4-10
▁amusing
ises
hen
rom
▁generators
▁derogate
▁obviate
uch
▁2010)
4-035
2008
▁1408
unaccountability
▁timeframes
▁kindness
▁ven
▁liaise
▁av
▁determinedly
core
▁highways
▁boosts
▁councillors
▁barr
▁2017
itted
▁scares
▁2019
▁resolves
-97/0
▁grouped
▁(3)
town
500
84
57
▁acids
gni
▁pacifist
▁venue
▁maoist
▁historian
dys
▁regenerate
wise
▁tenet
▁visitor
▁denounces
▁boot
▁1(
fund
kar
launch
stitutionalise
distorting
brussels
sexual
immigration
organic
particularly
4%
▁repress
must
▁awaken
▁trump
▁intercept
▁replenish
▁ascribe
▁plural
▁vouch
▁3000
▁whip
westphalia
▁abyei
▁adjoin
▁cariforum
▁chişinău
▁contravening
▁echerer
▁gorostiaga
▁hinterland
▁intifada
▁jakarta
▁lefrançois
▁meciar
▁patrick
▁pflüger
▁primitive
▁salvation
▁schroeder
▁taseer
▁balzani
▁cancun
▁chasing
▁addictive
▁rubble
▁trifl
▁royalties
▁behest
▁windfall
▁biosafety
▁novelty
▁overestimate
▁marginalized
▁disillusioned
▁oie
▁graduated
▁padania
▁43%
▁biodegradable
▁betrayal
▁ippc
▁traceable
▁marxist
▁1441
▁forgiveness
▁reconsideration
▁baton
▁toolbox
▁interethnic
▁gfcm
▁engendered
▁otto
▁verbally
▁numbered
▁awakening
▁borrowed
▁rationalised
▁normalise
▁mff
▁striven
▁filtering
▁frenchman
▁sensational
boat
▁localised
tón
▁wedge
▁validate
▁malign
▁drifting
tune
▁251
▁twist
▁lap
▁brochures
gio
▁2030.
ld
92
block
▁jim
cross
és
▁lesbians
▁betting
▁edges
liness
▁kilos
▁soundly
▁disappointments
▁guys
▁dumps
▁01
▁bl
▁baltica
▁pal
integrated
▁2.8
ş
4-003
▁reminders
ivity
3%
▁sar
▁167
bio
budget
uz
democrat
▁submissions
▁stocking
▁editor
▁submarine
rac
▁parade
approved
2/96)
39/
chen
▁outrages
competitiveness
una
▁buyer
▁toughen
▁faction
mass
df
▁270
▁wand
▁156
▁differentiat
weight
▁03
stamp
cycle
ement
official
compliant
polluting
announcement
discipline
driving
oecd
promoting
georgia
transparency
japan
lift
media
poor
full
ky
4-007
▁entrench
▁junk
▁succinct
▁spy
plasschaert
▁arbitrator
▁benazir
▁benghazi
▁consolation
▁coveney
▁credibly
▁deploring
▁escort
▁grandparents
▁gusmão
▁incentivise
▁inglewood
▁itälä
▁janeiro
▁obstinate
▁ouattara
▁peruvian
▁piquer
▁plunging
▁péry
▁quarantine
▁rafah
▁renationalising
▁speculating
▁sudre
▁suicidal
▁tomczak
▁unbelievably
▁élite
▁benign
▁culpable
▁scaremongering
▁whereupon
▁wrapped
▁hammerstein
▁lille
▁farcical
▁refineries
▁honeyball
▁diverging
▁ottoman
▁toledo
bomb
▁modi
▁bioenergy
▁mac
▁europhile
▁lone
▁herbs
▁lengthen
▁jewel
▁absentia
▁rapex
▁descent
▁rationalization
▁opera
▁flegt
▁nineties
▁militarised
▁boldness
▁ethanol
▁hennis
▁diminishes
▁suicides
bla
hoc
▁daylight
▁summoned
▁scared
▁practicalities
▁stealing
▁stormy
▁jha
▁uniqueness
▁cleanest
cla
▁accidentally
▁obeyed
▁188
▁spices
▁226
▁nationwide
▁ambit
▁wagons
▁flown
get
▁eased
iness
▁strained
▁persisted
ima
▁bst
▁fade
▁marginalise
▁silenced
7/2006
▁wilful
▁empires
46/
▁ter
▁vets
gar
act
jecting
9/2001
▁alba
2/1999
▁neighbourhoods
▁woeful
▁apprenticeships
oda
5/96)
▁cleaned
sign
4/98
enda
089
▁omits
▁sails
▁concretely
race
▁crossborder
▁und
zed
gis
▁reconnect
sha
▁skip
▁subscribes
4/99)
▁0.4
▁albert
▁blot
notes
▁ef
▁sparkl
▁temptations
▁fortunes
1/99
drug
▁hardships
▁circuit
▁solvent
esa
▁usable
aj
▁2002/
▁transmitt
holder
wo
▁dm
▁secretariats
▁superpowers
▁manifests
access
material
faith
supply
directive
▁thorn
existing
▁procure
▁intimidate
▁license
-1999
▁vivid
lier
▁magnet
▁csf
lothringen
▁adenauer
▁ambivalent
▁ammonia
▁bangkok
▁borghezio
▁dombrovskis
▁hesitating
▁inflammatory
▁ivorian
▁jäätteenmäki
▁khatami
▁kilowatt
▁lecturing
▁mathematics
▁maňka
▁nikitin
▁odysseus
▁oligarchy
▁plaice
▁podimata
▁seafaring
▁sporadic
▁stavrakakis
▁tarabella
▁unbiased
▁unmanageable
delgado
▁acquaintance
▁gemelli
▁lechner
▁paternalistic
▁perpetual
▁cesr
▁litany
▁tiresome
▁whereabouts
▁biodiesel
▁mercenaries
▁saarc
▁meltdown
▁rabat
▁perilous
▁caveat
▁barbed
▁freeways
▁soares
▁fernando
▁diana
▁inadvertently
▁enclosed
▁designating
▁piling
▁misinformed
▁unintentionally
▁lifeblood
▁glue
▁40(5)
▁perversion
▁1949
▁swamped
▁incinerated
▁τ
▁32%
▁tarnished
▁37%
▁instantly
▁muddled
▁31%
▁clark
▁overburdened
▁golf
▁unrwa
▁symbolised
▁escalated
▁unfolded
▁engineered
▁democratise
▁tablets
▁tfeu
tting
stability
▁punishes
▁departed
▁commentary
external
8/98
▁sheikh
▁enjoyable
▁walked
interjection
▁inventing
rousing
▁mediating
▁cured
▁possessed
▁embargoes
▁yemeni
▁rat
▁gaol
▁counterfeited
▁indoor
▁allude
▁counteracting
▁spelling
iran
▁ably
8/1999
form
▁narrowed
▁consulates
▁provocations
▁characters
olaf
▁azo
▁withdraws
▁extricate
owners
52
99)
▁tyrants
▁surpass
version
ites
▁che
▁vent
▁demographics
nik
▁falu
▁nu
▁capitalists
3/1999
▁conditioned
▁sali
▁woke
lay
▁senators
modality
▁liner
dominated
ening
ild
flicting
▁thumb
▁combinations
▁moreno
▁basques
▁marg
▁116)
▁ballots
ei
▁vans
▁births
▁pad
7/2001
▁estonians
▁organises
▁standpoints
68/
▁realms
▁aggressor
▁marr
▁ruminant
▁sonar
▁armament
▁slaughterhouse
58
▁defendant
lly
▁projection
nationalization
9/2000
▁quarrels
lima
▁flex
communication
▁je
regulate
print
functional
pierre
import
eminent
conservative
french
pollution
joint
multi
milk
patent
burn
million
colonialism
▁scr
erdf
centre
▁batter
▁peacemaking
mff
▁pledg
forest
▁renationalise
▁collate
▁discreet
▁retrospect
▁clamour
å
▁9/11
▁arsenic
▁callanan
▁complicating
▁condoleez
▁connivance
▁consuegra
▁crocodile
▁danielsson
▁dankert
▁educators
▁elchlepp
▁embodiment
▁graenitz
▁henry
▁hudghton
▁inevitability
▁liotard
▁marrakesh
▁mitrovica
▁plaintiff
▁plenum
▁pradier
▁pulse
▁queuing
▁repetitive
▁transversal
▁unabated
▁universe
▁vecchi
▁genius
▁monoculture
▁potent
▁skimmed
▁shaking
▁burial
▁digging
▁funny
▁cathy
▁olle
▁roca
▁chairwoman
▁dispelled
▁surreptitiously
▁tomé
▁uncontroversial
▁dick
▁nama
▁escb
▁sunshine
▁peterle
81/
avc
▁malone
▁disposable
▁switchover
▁cave
▁modernize
▁keynesian
▁alright
▁kato
▁tempered
▁alienated
▁exploded
▁circumvention
▁equated
▁reallocating
▁colin
▁modernizing
▁familiarity
▁enpi
▁mart
▁toughest
▁spying
▁trainers
▁wholesome
lot
▁conceptions
▁lame
▁cmr
6/96)
▁crs
▁inspecting
▁hung
▁codetermination
▁qaeda
eb
▁perpetrate
▁uighurs
▁behavioural
▁believer
57/
▁astray
▁centralise
hom
▁sgp
play
▁maximize
▁carlo
▁soap
-96/0
ami
▁weighted
▁ems
▁shelters
wan
▁approvals
dressing
home
100
1/2000
ole
▁hulls
▁championships
▁server
▁unto
hot
ili
▁formats
aut
▁hats
4-009
ony
▁om
consequential
woken
▁alters
ui
▁blackout
cola
▁eva
▁mus
link
▁rounded
▁hark
▁devolution
phone
▁460
▁patrol
▁scam
▁priced
▁commun
▁lobbyist
mble
▁textbook
74
▁tank
▁doesn
shirts
▁lis
▁collections
▁mate
▁races
wash
cia
gender
agreement
utilised
erasmus
economy
enforcement
giving
powerful
▁annoy
schmidt
smart
backs
exporting
▁reader
▁temper
conditioning
▁emulate
1%
▁characterize
▁overstep
▁methyl
supernumerary
▁????
▁agnoletto
▁annapolis
▁asymmetries
▁behove
▁bloodbath
▁burkina
▁chauvinism
▁competency
▁couched
▁disobedience
▁diyarbakir
▁elisabeth
▁eqf
▁esteban
▁exaggerating
▁gabriel
▁implore
▁inexcusable
▁kashgar
▁leniency
▁loyola
▁manzella
▁monsanto
▁oblivion
▁peanuts
▁puerta
▁rectification
▁sauquillo
▁shetland
▁sloboda
▁snapshot
▁substituting
▁tavares
▁wrocław
▁wuermeling
▁burtone
▁emblematic
5­00
▁lodging
▁calf
▁disillusionment
▁arson
▁poem
▁refinement
cbrn
▁messina
▁batten
▁poul
▁jong
▁lira
▁stripping
▁recount
▁110(2)
▁revocation
▁whitewash
▁fbi
▁transfrontier
▁concealment
▁antiviral
▁neutralise
▁expended
▁66%
▁fallow
▁sworn
▁militarism
▁57%
▁2008-2013
▁bombarded
▁retrospectively
▁dha
▁unsound
▁unaffected
▁loop
▁reunite
▁worn
▁vvd
▁cheated
▁ppp
▁motorcyclists
▁trawling
▁valuation
▁sharper
▁outreach
▁veiled
▁brokered
▁golan
▁reckoning
▁wrecked
▁functionality
cast
▁fertilizers
▁hesitated
8%
▁mend
▁warmth
▁colourful
▁crèches
▁litter
▁toothless
▁mgp
▁devotion
▁innovators
bud
▁heirs
▁boycotting
treaty
▁ole
▁hops
▁noises
▁throats
▁fold
▁polemics
charge
44
▁rap
bé
▁stadiums
▁defences
▁oilseeds
66/
▁erase
87/
▁coalitions
▁uni
▁nationalised
say
ulating
▁easter
▁tses
ku
▁implant
pinning
lov
▁cha
▁alerts
▁securely
▁waivers
pending
mining
▁fre
bil
▁spurr
▁practises
uding
▁bert
▁inspectorates
ila
ema
multidimensional
3/2000
▁prioritises
▁2.1
ides
rv
▁evad
▁bai
▁bou
acta
▁pas
ati
roll
35/
tp
▁clone
▁disincentive
▁mosque
▁architect
▁tractor
▁turk
▁helicopter
▁blockage
▁purchaser
▁cage
▁mono
▁...'
oun
▁fig
▁35-
gal
▁squeez
▁riddle
▁rot
▁behaves
while
professional
cas
registered
customs
progress
cohesion
especially
intervention
korea
▁spray
▁drown
▁tick
▁forego
▁trawl
ibility
▁silvi
asean
▁retract
▁reformulate
-011
▁elder
▁abuja
-2007
▁barros
▁achilles
▁adjective
▁aeronautics
▁almadén
▁aluminium
▁archaeological
▁blessed
▁cambó
▁degressivity
▁destitute
▁disarray
▁dustbin
▁epicentre
▁fujimori
▁glante
▁grappling
▁happart
▁hysterical
▁imaginary
▁invigorate
▁kestelijn
▁knife
▁lundgren
▁manipulating
▁memoranda
▁micrograms
▁molitor
▁multiplication
▁nicosia
▁overcrowding
▁paralysing
▁reorganising
▁reunified
▁seismic
▁simulation
▁sleight
▁speroni
▁staple
▁symmetry
▁tortuous
▁unamended
▁unfulfilled
▁vanunu
▁weisgerber
▁yanukovych
▁empathy
▁lebedev
▁macsharry
▁biotechnologies
▁karim
▁euphemistically
▁honorary
▁summaries
▁disposition
▁mouthpiece
▁convergent
▁ratifies
▁foam
▁inventive
▁infiltration
▁dismal
▁sasi
▁patronising
▁luka
▁jrc
▁1939
▁timidity
▁monarchy
▁noticing
▁digest
growers
▁mobilization
▁ascribed
▁brighter
▁trieste
▁counterfeiters
▁caged
▁thirteenth
▁dissociated
▁uncritical
▁csdp
▁unevenly
▁louise
▁revitalised
▁racing
▁calais
▁crashed
▁mag
▁225
▁maze
▁healing
▁oas
▁portable
▁refrigerators
▁marginally
▁baden
▁fragrances
▁borrowers
5/2005
▁reverting
▁creatively
▁rallies
▁outflow
committal
▁deco
▁merited
▁equalisation
▁178
▁ipr
▁arming
▁axe
▁protectors
▁05
▁deck
▁searched
mini
▁tenets
▁resorts
1/98
▁toxins
interpretative
▁lid
cur
▁cds
▁2001/01
▁lavish
▁sellers
chairs
▁rals
4-036
▁tunisians
fit
pra
▁impressions
ency
-98/0
rn
▁billing
viral
vat
▁homelands
▁prim
▁abd
owed
nie
▁insubstantial
▁24-
▁transformations
▁fork
contaminated
▁arsenals
▁algerians
uli
4-018
ji
60/
▁karel
▁cracks
mu
reg
eppe
iba
▁flare
system
▁(9
break
root
▁mighty
▁semantic
▁initiator
▁culprit
▁prayer
▁conducts
flu
▁joan
▁reins
▁accuses
▁reimburs
▁peers
burden
winner
encompassing
flexicurity
subsidy
figure
largest
ldcs
mos
osce
reproductive
monitoring
▁dish
locating
▁summaris
▁coups
▁hurried
▁minimize
▁abhor
•
−
▁accumulating
▁adversary
▁affinity
▁amputation
▁aparicio
▁chiquita
▁clumsy
▁conquest
▁contiguous
▁cumulation
▁daskalaki
▁divest
▁emphases
▁eutrophication
▁finuoli
▁freitas
▁glimpse
▁gloser
▁gruesome
▁hedegaard
▁janša
▁kallenbach
▁lindeperg
▁mladić
▁monasteries
▁nuremberg
▁obscurantism
▁penetrating
▁perceptive
▁polisario
▁qualms
▁repulsive
▁roithová
▁tedious
▁thrash
▁transylvania
▁vallvé
▁wieland
▁wikileaks
▁kidney
▁rudimentary
▁watershed
▁coffin
▁balfe
▁beysen
▁resonance
▁subjugation
▁cohabitation
▁antonione
▁mirage
▁expelling
▁invalidity
▁bidder
▁keg
▁dtp
▁invalidate
▁xinjiang
▁dichloromethane
▁theonas
▁seventies
▁97%
▁2004-2006
▁inaugurated
▁nuanced
4-037
evidently
▁patchy
▁44%
▁53%
▁gdr
▁methodical
▁verona
▁seguro
▁desertec
▁combatants
▁emitting
▁overseen
▁eighties
▁necessitated
▁reckoned
▁refreshing
▁crowded
▁esteve
▁solidity
▁superficially
▁commemorated
resources
▁spectacularly
▁tents
▁dary
▁hinted
▁assad
▁fooled
▁azerbaijani
▁reproached
▁mitigated
▁sleeves
▁anchoring
▁sates
▁unequally
▁272
▁aldo
▁anxiously
▁distressed
▁bam
(2005)0
▁connotations
▁lateness
▁scandalously
▁parasites
▁subcommittees
▁sailors
▁modestly
▁terminat
▁msy
▁humanitarianism
▁goma
▁subscribers
▁horizontally
▁capitalisation
▁statistically
appropriate
rra
▁underfunded
urban
▁ascertaining
▁marin
▁reservoirs
▁resourced
▁chiefs
manship
▁scars
▁redeem
▁multilaterally
▁kashmiri
▁161
▁tastes
▁mir
▁kilogram
▁brigades
ref
yard
▁generalise
▁engenders
▁readers
4-014
▁alber
foot
1/96)
2/98
anana
▁formulates
▁desks
2006
▁magps
7/99
1/2006
▁obtains
▁noses
▁mit
71/
▁rebalance
▁criminally
hai
worthy
▁impacting
▁1999/01
3/2002
▁caps
▁gal
▁scar
▁ala
▁bru
▁anew
▁intergroups
▁blunder
▁brochure
▁staffed
▁valleys
▁hills
ough
▁1500
▁weighs
▁00
▁ratios
▁pc
affected
invest
appointed
assessment
▁campaigner
modal
bridge
examining
montenegro
vehicle
poverty
▁marching
▁-(
priced
▁lure
eco
▁gratuitous
▁decouple
▁grub
▁argentine
▁unravel
▁dumb
▁91/440
▁ancestors
▁calamity
▁cecilia
▁chastel
▁controversies
▁dormant
▁doñana
▁dvd
▁enrique
▁inconsiderable
▁intractable
▁jenin
▁junilistan
▁mikolášik
▁miserly
▁oligopolies
▁olmert
▁ouzký
▁predicament
▁stagnant
▁subservient
▁surname
▁transposal
▁traumatised
▁vengeance
▁wherewithal
▁lehman
▁ominous
▁shrunk
▁annoyance
▁berman
▁deafening
▁falsify
▁ryan
▁dakar
▁maltreatment
▁appeasement
▁irrefutable
▁subprime
▁mutilated
▁stemmed
▁mazen
▁fléchard
▁procrastination
▁waal
▁noticeably
▁recoveries
▁regretfully
▁nautical
▁bookkeeping
▁rental
▁unambitious
heartedly
▁56%
▁unhrc
▁distraction
▁indulgent
▁steadfastly
▁faso
▁invoicing
▁stocktaking
▁2.3%
▁confiscate
▁purported
▁torturers
▁conscientiously
▁jordanian
▁hcfcs
▁hood
▁mastery
▁evaded
▁astronomical
▁utterances
▁overhauled
5/99)
▁2000/02
▁interrupting
▁practicality
▁275
▁nub
▁dogged
(2)(
imperialist
▁villain
7/96)
▁winemaking
▁ineligible
▁builders
bol
pat
▁mich
mont
lina
▁overboard
▁butchers
▁earns
shady
lex
▁pasture
tv
▁crave
rail
▁gag
▁sweets
logy
dated
▁denomination
▁colegislators
▁melo
▁qu
▁lungs
hold
dal
▁glen
▁fences
0/98
▁210
▁carrots
▁proclamations
7/98
▁2006)
nche
▁aback
!"
8/96)
rey
▁separatists
rab
▁alternate
cci
dg
▁boasts
▁fledg
nk
22/
len
bag
▁persuasions
dra
▁193
▁(15
▁tongues
dell
ben
fan
▁dia
trial
▁rainforest
▁hgv
▁leaflet
▁diploma
dio
▁broadcaster
olds
▁zo
cyclic
front
tabling
grad
▁kid
9%
terror
trust
documented
53
occupied
remunerated
interruption
utilisation
enhancing
fundamental
tunisia
majority
communal
bidding
deserved
serious
tuned
demand
▁susta
▁download
holy
▁hormon
▁abrupt
sales
▁esc
▁egalitarian
▁sausage
sierens
wiechert
▁adherents
▁ambulance
▁analogous
▁appreciably
▁aspartame
▁bastos
▁benevolent
▁botswana
▁bromide
▁bulwark
▁circumstantial
▁dagestan
▁daunting
▁deceased
▁diffusion
▁fallacy
▁ferocious
▁hymn
▁irrevocably
▁kigali
▁kirilov
▁mediaeval
▁nurturing
▁pelttari
▁predominance
▁preposterous
▁profiteers
▁refrigeration
▁reimer
▁soltwedel
▁squabbling
▁tabloid
▁titanic
▁unstoppable
▁untouchable
▁vandalism
▁arroni
▁leasing
▁discernible
▁philosophies
▁grammes
▁ohrid
▁viktor
▁cervi
▁0.6%
▁fancy
▁lamentably
▁draghi
▁patronage
▁1959
▁falsehood
▁singling
▁depositors
▁karen
▁minefield
▁lobster
▁barak
▁panama
▁gius
▁readjustment
▁imbued
▁tainted
▁unviable
▁renovated
▁vexe
▁pressurised
▁heartened
▁mars
▁shiite
▁zairean
▁dispersal
▁resettled
▁burundian
▁enumerated
▁pirated
▁sms
▁purposefully
▁visby
▁fatty
▁accrued
▁accentuated
▁orthodoxy
▁roberto
▁untreated
▁musical
▁reintegrated
lev
▁thorning
▁vera
▁hanged
▁heckling
▁smarter
▁injected
▁ranked
▁curing
▁shallow
▁roadside
▁pleaded
▁3.7
▁ferrets
▁platitudes
▁hypocrites
▁mainstreamed
▁pumping
▁glean
▁bearer
friends
▁landslides
▁centralization
▁walks
▁remotely
▁autonomously
▁underpaid
▁crumble
▁420
▁exhausting
▁bribes
▁lanes
▁absurdly
▁hue
▁rivera
▁vetoed
▁stockpiles
▁swaps
▁possessing
▁gearing
ock
▁rainforests
4-025
▁kilograms
▁peasants
▁rac
▁whims
▁finely
aux
9/96)
▁nominees
▁dyes
mir
▁karin
talled
give
▁resembl
▁offing
▁aging
wer
▁presses
▁incidences
▁attest
▁crowds
path
▁scaled
▁christa
ball
4-034
cio
▁173
▁alley
lle
▁perve
die
isinterpretation
ssed
rank
▁sheds
9/99)
▁insulat
▁recoup
▁interruptions
▁9.5
▁hindrances
cites
82
uf
▁bosnians
▁alex
▁boss
▁habe
rious
▁questionnaires
businesses
has
▁sur
▁bulls
▁problematical
▁moroccans
ops
▁api
▁extracts
39
56/
▁(5
ching
▁sunni
▁consulate
▁antimicrobial
▁bottleneck
▁fluctuation
▁ecopoint
4-013
▁char
▁hinge
▁nis
onising
▁3(2)
abo
gases
013
protected
mercosur
planning
fibre
impact
▁retrain
mayer
organ
emphasised
▁scatter
▁overshoot
moral
▁candid
▁galvanise
▁oust
▁carcass
▁bilingual
ï
ć
ław
▁amicably
▁appreciating
▁autocracy
▁bahamas
▁balearic
▁battling
▁bundesbank
▁caccavale
▁chromium
▁crampton
▁dutroux
▁equitably
▁fontelles
▁gasperi
▁gypsy
▁hegyi
▁incarcerated
▁indivisibility
▁instigating
▁intimidating
▁kokkola
▁machinations
▁malliori
▁mcavan
▁miserably
▁mladic
▁monaco
▁oligopoly
▁rinpoche
▁sifunakis
▁snail
▁stunned
▁sylla
▁szymański
▁template
▁undecided
▁unscathed
▁watercourses
▁wolfowitz
▁yawn
▁gaming
▁groves
▁scanning
▁seaports
▁billingham
▁icann
▁matias
▁muscat
▁slorc
▁beneš
▁meyer
▁minster
▁amenable
▁robinson
▁chlorine
▁rosati
▁commotion
▁matera
▁isaak
▁sunlight
▁delek
▁christopher
▁manisco
▁clue
▁mdc
▁immersed
▁etf
helios
▁improvised
▁flux
▁tug
▁communitization
▁elevated
▁51%
▁ploy
▁11.45
▁perish
▁vitro
▁coene
▁utilized
▁intercepted
nature
▁precariousness
▁broached
▁cherished
4/2005
▁osman
▁frontline
▁joly
▁mao
▁semblance
backed
umia
▁standardized
▁ipa
▁comprised
▁agony
▁lega
▁orphaned
functionality
truths
▁codex
multiculturalism
mel
▁reused
5/96
▁vanity
111
▁sala
▁proportionally
reach
▁praying
▁rebates
▁dressing
▁justly
21/
thy
▁orientated
▁herbicides
▁relegate
▁stealth
▁dependants
▁helleni
▁appallingly
▁amalgam
▁2004/
these
▁inexhaustible
quint
eing
sound
▁monumental
▁jer
▁magna
systems
▁likened
▁helpline
▁externalisation
▁blinded
mill
▁powerfully
▁initiators
liberating
▁perfected
▁isles
pic
▁emails
5/2000
▁lech
▁angels
▁chu
▁enclaves
bruno
gun
▁victors
▁207
▁marches
▁automobiles
dging
85
▁bubbles
▁motivations
▁4:
▁objecting
▁3.6
▁renditions
▁dilemmas
▁1.15
ello
dc
▁placements
▁facet
▁competitively
▁deutsch
▁thrives
▁barrels
tieth
3/97
iii
▁greatness
15(
009
ux
▁208
▁dodge
▁hideou
▁hurts
-24
gram
lma
▁concord
▁3:
▁disproportion
▁legislatures
▁blur
than
▁interactions
demilitarisation
▁vu
▁bemoan
4/2002
▁squares
▁incursion
▁vibration
▁headache
▁locomotive
▁offender
▁vet
ivo
▁chase
▁recreate
▁4)
▁diets
▁cabinets
▁1999/02
counter
▁vol
▁eel
ara
ney
reaction
▁barth
1998
rg
master
▁gut
▁constrain
convention
together
either
neighbour
vaccination
morocco
permanent
sustained
ultimate
agenda
fixing
nothing
▁inhabit
▁marx
▁fiddle
vision
▁demonise
▁deplete
▁derail
▁gerard
▁misrepresent
▁resent
▁2006/11
▁supplant
(2009)1
harmacovigilance
württemberg
▁actuarial
▁addendum
▁afloat
▁arlacchi
▁audacity
▁bolkenstein
▁disconcerting
▁fayyad
▁glasgow
▁guiana
▁kaklamanis
▁krarup
▁lehtinen
▁liberadzki
▁manifold
▁montenegrin
▁parmalat
▁plaster
▁priština
▁prototype
▁recompense
▁reconversion
▁redistributive
▁sardinia
▁schizophrenia
▁siemens
▁turchi
▁undistorted
▁unexploded
▁unspecified
▁wrought
▁yanukovich
▁althea
▁surcharge
▁untimely
▁uribe
▁collating
▁cyberspace
▁slant
▁suspensive
▁vegetation
▁farther
▁guyana
▁harare
▁despotic
▁lapland
▁teleworking
▁foet
script
▁ether
▁shuttle
▁imco
▁ditch
▁ftt
▁sarah
▁physiological
▁degrade
▁2002-2006
▁1965
▁bravery
▁retabling
▁incurable
▁gael
▁transitory
▁martial
▁34%
▁faroe
▁backlash
▁painstakingly
▁riga
▁crashes
▁vander
▁toilet
▁calibre
▁tenure
▁tinkering
▁truthful
▁makeshift
▁silicone
▁chunk
▁banished
▁bric
▁marketable
▁confrontational
▁gripp
▁8.5
▁glasses
▁reworking
▁reconstructed
▁ashes
▁redevelopment
▁gé
▁financiers
▁revisited
▁disgracefully
▁aggressively
▁restarting
▁allege
▁charm
▁malfunctions
▁undercut
▁drawer
▁pathogens
▁hanne
▁nuns
▁completeness
lous
▁taos
▁tan
▁instincts
▁speciality
alia
lob
▁jobless
▁sealing
▁rig
fed
compatible
▁scams
conditions
▁pillage
▁joe
3/98
fuels
8/97
limits
ée
aving
▁sounder
▁juli
ware
▁juices
▁coding
▁exerts
▁cd
▁aggravates
▁proposer
019
▁sensitively
▁merchants
▁racists
▁opts
tian
▁seizures
▁fins
▁patr
▁obstructions
▁(10
ards
gli
▁rut
▁174
▁sticker
▁collapses
300
▁sui
1/2005
late
▁bot
▁plastics
epas
▁horns
drawn
gl
▁213
▁fascists
▁shrimp
▁widow
▁pri
▁spectator
▁condolence
▁pronouncement
chet
4/96)
▁negotiates
▁cm
earned
▁tact
▁dedicat
▁chlor
▁unfit
export
▁(19
▁underage
034
target
coordinated
assess
major
compensation
electronic
objective
registration
schengen
reduction
metre
jha
quota
closer
targeted
item
▁prejudic
▁coincid
▁interconnect
supported
ulation
ww
▁convict
▁surmount
nic
▁reappear
issile
▁regress
▁permissive
▁insular
▁festiv
ι
▁anthrax
▁bendtsen
▁bhopal
▁boudjenah
▁brún
▁bunker
▁caldeira
▁capitulation
▁circumcision
▁cosmopolitan
▁cronies
▁davignon
▁debacle
▁destabilize
▁enormity
▁epizootic
▁estuary
▁grabowska
▁groote
▁grozny
▁guinebertière
▁hydraulic
▁illuminating
▁immeasurable
▁ingenious
▁kaczyński
▁languedoc
▁legitimisation
▁leipzig
▁liquef
▁lukewarm
▁majeure
▁messenger
▁mujahedin
▁murky
▁nascent
▁nostalgia
▁obstinacy
▁plentiful
▁rivellini
▁shanghai
▁stunning
▁sympathize
▁unattractive
▁unmistakable
▁vanhecke
▁vălean
▁wicked
▁zeitung
▁zelaya
▁brazen
▁denigrate
▁divine
▁flesch
▁franchise
▁shippers
▁zoning
▁nokia
▁stewardship
▁volvo
▁1.24%
▁etuc
▁malaise
▁skirt
▁collegiality
▁holbrooke
▁illustrative
▁spillage
▁ruinous
▁proverbial
▁lauk
▁reworded
▁2000-2004
▁unwittingly
▁xx
▁scaffolding
▁saturation
▁frost
▁2009-2010
▁attestation
▁castex
▁cogent
▁endogenous
▁uproar
▁54%
▁2001/21
▁erased
▁multiethnic
▁ulster
▁dispensation
▁stigmatised
scoring
▁imperialistic
▁rewritten
▁3.5%
dci
▁censored
▁astrid
▁jeopardized
▁loosely
▁charming
fitting
▁redirected
▁mirrored
▁succumbed
▁reassessed
ducing
▁andalusian
▁bolivian
▁oak
▁periodical
▁matured
▁ensued
▁prion
▁regularise
▁handouts
84/
▁humanely
▁tame
dream
▁182
31/
40/
keeper
▁cham
▁startling
stein
▁sundays
▁2002/0
▁censured
▁branding
▁particularities
▁clichés
hole
010
cited
▁242
▁beloved
▁splits
▁inch
▁tier
heat
▁consolidates
▁lar
▁felling
lling
ude
escu
▁photos
3/2006
▁bal
50/
mc
sure
ute
▁ethno
▁econ
▁graz
band
zio
cip
▁forfeit
▁affiliations
ís
▁impulses
▁onward
▁contrasting
▁fend
▁estates
▁ailing
▁proclaims
▁captains
▁devaluations
▁204
▁2.9
▁legitimises
▁2005:
72
▁min
▁credited
▁logistic
lf
▁encapsulate
▁0.46
-95/0
▁dismissals
▁impedes
▁hansen
▁ping
▁nip
fall
▁beam
▁blend
measure
▁fingerprint
▁waver
sceptic
▁critic
▁precept
▁hutu
▁ethic
▁symbolise
ctivating
-13
▁dolphin
▁engagements
tracked
▁drum
▁baron
iron
▁congratulation
▁andrew
▁confession
▁xv
ht
▁shields
▁teu
▁hitch
ust
▁rekindle
4-023
creditworthiness
▁issuer
pick
▁reorient
built
text
branch
censorship
disrupt
fyrom
consumption
derived
purpose
simplification
although
rural
drive
proposal
local
face
▁tempt
fao
▁0.8
feed
unity
▁extinguish
▁disband
mongering
▁exonerate
▁assimilate
▁tenacious
▁starve
▁exhort
▁sanchez
roussillon
▁acronym
▁arcelor
▁betancourt
▁clique
▁cocilovo
▁continuance
▁dalits
▁decabde
▁defunct
▁detroit
▁diaspora
▁elaborating
▁elizabeth
▁embellish
▁equating
▁expansive
▁expatriate
▁extravagant
▁gotthard
▁guterres
▁horticulture
▁imagining
▁megawatt
▁monastery
▁monfils
▁physics
▁retiring
▁sangatte
▁sbarbati
▁sordid
▁stabilizing
▁sterilisation
▁testimonies
▁thieves
▁treason
▁triangular
▁troubling
▁ultimatum
▁unchallenged
▁unconvincing
▁unilever
▁unrelenting
▁vacancy
▁valuing
▁vulgar
eminence
▁caravan
▁churn
▁excellency
▁ostrich
▁recalcitran
▁accra
▁forbearance
▁werner
▁locatelli
▁mismatch
▁wrestling
▁choke
▁ebadi
▁idiotic
▁deferral
▁karimov
kahn
▁jesus
▁kazakh
▁1.27%
▁0.6
▁francisco
▁navel
▁cue
▁marianne
▁recordings
▁segmentation
▁transgender
▁custodia
▁sinti
▁centrepiece
2/2005
▁drainage
▁addicted
▁colino
▁irritated
▁tangled
▁saddled
▁shutdown
▁86%
▁parma
▁52%
▁succinctly
▁lightweight
▁expounded
▁46%
▁dwellers
▁2.6%
▁click
▁evoked
▁misrepresented
▁prospectuses
▁islamism
▁eurosystem
▁transnistrian
▁relic
▁iacs
▁caucasian
▁2016
▁filtered
▁penh
▁apportioned
▁repressing
allocation
▁flats
▁footballers
fallen
▁digitalisation
▁cooked
3/2008
▁insecticides
▁runway
▁undersigned
▁texas
▁detaining
▁amato
▁splendidly
▁bp
▁bowing
▁quantitatively
▁pools
▁nullify
▁finalized
▁luca
▁preda
4-032
▁totality
7/2000
▁nodding
963
▁rug
▁218
8.30
▁orbit
▁demons
▁resigning
▁marseilles
▁grandes
▁fairest
fifths
▁blackmailing
▁2001/00
▁booked
gha
3/99)
▁sectorial
▁generalisation
▁putten
▁daytime
edn
▁manning
▁nil
▁log
▁marinos
▁navigate
▁ladders
▁tall
▁summarises
▁phenomenal
▁warmer
▁(2007
▁preoccupations
▁injections
▁reacts
ctor
▁93/
▁generics
▁3.4
ceasing
14/
▁eis
adi
▁criticizes
▁angeli
▁poisons
ifies
aka
▁heralds
▁carve
▁beatings
▁mob
▁clinic
▁sour
tle
51/
(1)(
▁decisionmaking
styled
-2000
▁classifications
▁expo
▁aground
▁wh
cen
▁didn
vil
▁custodian
▁whale
▁hydrocarbon
▁skins
▁rocks
▁packaged
▁retailer
2/2008
▁ji
▁archive
inoffice
check
since
loading
draft
▁slack
ambitious
staff
runner
partisan
esteem
divide
normal
electric
fighters
luc
56
federalist
▁elevate
▁supersede
▁assiduous
▁gloom
▁nineteen
▁extinct
-1990
(2010)0
encephalopathies
legitimising
â
▁2007–2013
▁abomination
▁abruzzo
▁adversity
▁aguilar
▁albright
▁asleep
▁bachelot
▁bhatti
▁bohemia
▁charade
▁chicago
▁chronological
▁conjure
▁correia
▁delicacy
▁delinquency
▁destabilization
▁discourtesy
▁embezzlement
▁faculties
▁fischbach
▁goulard
▁guillaume
▁horticultural
▁immature
▁impassioned
▁incarceration
▁inflame
▁insoluble
▁jonathan
▁maguwu
▁matikainen
▁migrating
▁milošević
▁nedelcheva
▁obiang
▁outspoken
▁poggiolini
▁poppies
▁populace
▁ruffolo
▁sinnott
▁smiling
▁sornosa
▁winterbourne
▁zoonoses
▁cancian
▁danjean
▁kelam
▁ojala
▁pfos
▁swoop
▁andijan
▁apiculture
▁ahmad
▁frantic
visegrad
▁auken
▁burke
▁margot
▁xxiv
▁bruton
▁cloth
▁indices
▁goethe
▁539/2001
▁barrage
▁seiners
▁feudal
▁friedmann
▁refinery
▁segregated
▁generis
▁graphically
▁germà
pack
▁apportionment
▁terrified
▁breathtaking
▁arbiter
▁optimisation
▁deflationary
▁natali
▁lazy
▁poised
▁affiliated
▁roundabout
▁parities
▁partsession
▁turnaround
▁digression
▁sovereignties
▁staggered
▁terry
▁commandment
▁responsiveness
▁vindicated
▁testified
▁seamlessly
▁antitrust
▁63%
▁hygienic
▁elise
▁inuit
▁engulfed
▁groundbreaking
heading
▁andreas
▁poaching
▁2.8%
▁miners
▁vanished
▁composting
▁sacked
ermo
▁faltering
▁211
▁slashed
▁wandering
▁organically
▁terrorised
touch
▁eif
▁emsa
▁propagate
▁refuted
▁nasr
▁flatly
▁imprisoning
▁fraudulently
▁tech
▁exhaustively
▁localities
▁limitless
▁evolves
▁borderline
▁entertaining
▁protector
▁misdemeanours
▁bangladeshi
▁relinquishing
▁cucumbers
▁nanosciences
▁fry
▁88)
▁substituted
▁mastered
▁torch
▁checkpoints
designed
pit
▁patriots
▁albinos
▁martyrs
▁boycotts
▁leanings
▁launches
6/99)
een
▁démarches
▁ruler
▁bureaucrat
▁kad
▁vibrations
lá
democrats
▁stamps
▁aggressors
come
▁ghettos
▁contr
▁purports
eq
▁ponti
▁aberrations
▁upsets
▁packets
▁pun
▁assignments
▁deindustrialis
▁indecent
▁canadians
▁overregulation
rip
0/96)
▁heath
▁disintegrate
▁prejudg
005
ual
meat
004
armed
▁baha
dia
ram
tim
▁2000/00
▁timeline
▁228
▁zimbabweans
▁xvi
▁afoot
+3
▁299
iter
▁propositions
former
▁pap
▁340
1/96
hopping
igh
0/96
▁kalan
015
▁comp
▁ftas
ility
▁underestimates
effect
▁ty
▁doubting
▁swede
▁outgoings
▁reservoir
▁shine
verging
▁administrator
▁consignment
▁3.1
▁pub
▁delusion
▁perpetrat
▁designer
▁coat
▁applauds
▁overt
▁latvians
▁magical
flight
edged
considers
bureaucratic
▁tram
heckling
inspired
sulphur
alcohol
between
recognition
responsible
structural
partnership
would
matter
return
▁max
contracting
▁disburse
▁imitate
▁maroni
▁miraculous
-2005
▁bully
territoriality
▁molecul
▁trumpet
▁readjust
contaminating
▁accessories
▁activism
▁algiers
▁alicante
▁allergens
▁belligerent
▁bortone
▁bruges
▁cemeteries
▁clementines
▁consortia
▁densities
▁devaluing
▁ehler
▁epilepsy
▁erbakan
▁expropriated
▁giegold
▁guerreiro
▁headphones
▁hypotheses
▁immemorial
▁inexorably
▁inexplicably
▁invasive
▁kissinger
▁landsbergis
▁liverpool
▁mastorakis
▁memorable
▁milligrams
▁mussolini
▁nanoparticles
▁ointment
▁ornament
▁orphanages
▁pharmacies
▁proliferate
▁pyrotechnic
▁respite
▁screw
▁sneak
▁subsidizing
▁supposition
▁swindle
▁taelen
▁tangibly
▁throes
▁tyrannical
▁umbilical
▁vintage
▁assuage
▁auroi
▁elbow
▁jörg
▁deutschmark
▁ethyl
▁shackles
▁primates
▁abatement
▁cheek
▁pompous
▁mechanics
▁essex
▁casualty
▁cowboy
▁95/46
▁sickening
▁craftsmen
▁7.30
▁subcontinent
3/2005
▁sperm
▁compass
▁antunes
▁invaders
▁johannes
▁lng
▁inventiveness
▁johnson
▁unavailable
▁toxicological
▁biotech
▁pollen
▁2006-2010
ordinated
▁curie
▁1966
▁shareholding
▁dockers
▁67%
▁overstretched
▁undone
▁starved
▁feminisation
▁categorised
▁vividly
▁inert
▁renationalised
▁retroactively
▁ria
▁patriotic
▁bottomless
▁deepwater
▁mello
▁11.50
▁spd
▁originator
▁heavie
▁swan
▁fury
▁racket
within
▁depleting
▁cargoes
▁bland
▁hectolitres
fast
▁disagreeable
▁zoo
▁smoother
▁loving
▁lex
▁outlawing
▁placards
▁scotch
▁bursting
▁bolstered
▁pooled
▁1920
▁overtake
fen
▁trailing
▁mol
23/
1/2010
▁orlov
▁exportation
▁accomplishing
▁shia
▁comforting
▁reshape
bet
▁2004/38
▁converters
▁gavel
edf
fu
nazis
tir
rene
▁injunctions
hang
▁sufficiency
▁policyholders
▁incursions
▁arid
▁andria
▁blockages
uda
▁223
▁15.00
▁tales
▁wade
▁shipwrecks
▁questioners
▁425
fried
rest
▁gla
▁nutrients
▁lib
▁finn
▁metro
reference
test
acting
▁marian
▁drops
wait
▁badge
▁sue
▁mala
▁refuges
▁audiences
leaded
eff
30/
▁incubat
▁2(2)
6/2000
istan
phobia
arma
ado
▁rated
▁reparation
▁bombardment
▁investigator
▁ral
tric
▁ration
8).
▁envi
▁approximat
▁abrogate
ñ
0/2000
structure
scepticism
craft
current
attack
criminal
calais
believe
science
bottom
channel
frequency
because
decisive
foreign
governing
palestine
presidency
performance
june
motivated
society
irish
leinen
discussed
prone
udi
▁tidy
▁furs
very
ocracy
▁tarnish
▁vaccinate
▁replicate
▁opportunist
▁collegial
▁intrude
▁biscuit
▁pamphlet
frischenschlager
günter
▁academia
▁adversaries
▁apposite
▁belorussian
▁birmingham
▁brejc
▁captivity
▁carnage
▁competitivity
▁conflagration
▁credence
▁cycling
▁demobilisation
▁edward
▁emptied
▁estemirova
▁fascinated
▁ferrari
▁florida
▁fluoride
▁giorgio
▁guido
▁haddock
▁hotchpotch
▁jirga
▁kaleidoscope
▁koukiadis
▁kós
▁legitimation
▁limburg
▁lindholm
▁lévai
▁meissner
▁montesquieu
▁nanny
▁nobilia
▁nostalgic
▁plebiscite
▁presedo
▁presumptuous
▁propensity
▁puzzling
▁rumsfeld
▁sarcophagus
▁schultz
▁treasuries
▁tőkés
▁unavoidably
▁undignified
▁unforgivable
▁unheeded
▁ventilation
▁viceconte
▁zaleski
▁bequeath
▁dissimilar
▁granada
▁immaterial
▁apace
▁dispersion
▁eurostars
▁billström
▁parenthood
▁superstructure
▁115(5)
▁caveri
▁punctuality
▁cadec
▁mattel
▁trivialise
▁viking
▁gillig
▁rugby
▁polarised
▁lund
▁ghs
▁dysfunctional
▁reshaping
▁construed
▁interpersonal
▁perennial
blew
▁heavyweight
▁breakaway
▁shrouded
▁stubbornness
▁deconcentration
▁emergent
▁federat
▁jure
▁stopgap
▁privatized
▁provenance
▁84%
▁83%
▁82%
▁62%
▁retrial
▁deduced
▁elearning
▁profitably
▁diary
▁recyclable
brand
▁unbureaucratic
▁remiss
▁warmongering
▁bono
▁retable
▁mercilessly
▁feather
▁rust
▁1915
▁cough
▁languishing
▁restating
▁μ
▁ecdc
▁hijacking
▁pandering
▁1947
▁rationing
▁eafrd
▁friendliness
▁unconventional
▁fixes
▁foregoing
▁swell
▁burner
▁enumerate
tercontinental
▁grazing
▁lamented
▁bulletin
▁sponsoring
▁06
▁preached
▁calmer
▁pleasantly
last
▁rains
europa
▁borderless
▁advisedly
▁triumphed
▁scored
▁rapidity
▁doctorate
▁originality
▁bowed
▁stigmatise
▁admissions
▁strictness
▁bailout
▁perceives
▁emitters
▁blackmailed
▁bookshops
nazi
▁bridged
▁insects
ford
▁0%
▁productively
▁contending
▁determinants
▁internalise
▁classrooms
▁nasa
▁surgeons
▁rag
▁strangers
▁172
avi
▁shirt
▁lawless
-26
▁4.6
▁boxing
solve
▁befall
▁moor
iling
dar
▁polemic
▁coll
▁collisions
▁pes
mid
▁moreau
▁prima
▁blast
▁protestants
▁republicans
mix
▁linkages
stand
amendments
▁briefings
code
▁plains
▁gainful
▁3.3
base
▁gram
▁187
▁ambitiously
▁needles
▁hesitations
▁atom
dded
▁euroregion
▁gauges
evolutionary
▁2002/21
div
iya
pu
py
▁bart
exit
▁spe
7).
▁1.25
coming
▁networked
eng
▁injunction
▁démarche
▁protagonist
▁monk
▁trainee
▁provokes
▁graduate
▁particle
unconstitutional
gazing
▁ot
ulia
▁weekends
▁dramas
empting
solving
▁330
▁reinvigorat
▁jeopardiz
▁bandi
operate
scientific
operative
piece
fusion
minister
proclaimed
restraint
administrative
dialogue
species
framework
competition
digital
berlin
▁reunit
hook
▁awake
▁poster
▁pander
▁commute
▁obsessive
▁monarch
▁annul
▁cunning
ø
▁emblem
▁hobby
kallström
▁abysmal
▁acknowledgment
▁alimentarius
▁anachronism
▁antagonistic
▁antidote
▁apologising
▁aylward
▁blossom
▁băsescu
▁carlgren
▁castagnède
▁cizelj
▁disingenuous
▁entourage
▁fanciful
▁frivolous
▁gauntlet
▁gendarmerie
▁glaciers
▁göran
▁halonen
▁harrowing
▁heinisch
▁hennicot
▁hereditary
▁inexorable
▁irreversibly
▁jadot
▁janssen
▁jobbik
▁karlsson
▁kohlíček
▁limerick
▁lászló
▁millimetre
▁murmansk
▁ojeda
▁outskirts
▁papakyriazis
▁patijn
▁physician
▁prevarication
▁rearmament
▁renovating
▁shambles
▁stereotyping
▁technocracy
▁terrific
▁unconvinced
▁unexplained
▁unsubstantiated
▁veyrac
▁vitae
▁vivian
▁vlasto
▁windmills
▁zalm
▁zīle
▁cambridge
▁crumbling
▁erratic
▁fudge
▁gorbachev
▁scaling
▁steelworks
▁mobilizing
▁prespa
▁psychology
▁corfu
▁truscott
▁schori
▁annihilation
kon
▁masterpiece
▁aachen
▁flew
▁kjer
▁rushdie
▁bullied
▁inferred
▁interdependency
▁orwellian
▁moderating
▁hotbed
▁sociological
▁graveyard
▁igad
▁repudiation
▁subheading
▁supplementaries
▁donating
▁unsettled
▁foll
▁boris
▁déby
▁eventualities
▁palpable
▁wax
▁1559
▁jorge
▁persian
▁undertone
▁unscom
▁salman
▁adduced
▁mistreated
▁ravages
▁entangled
▁countermeasures
▁crippled
▁73%
▁gama
▁semen
▁grooming
▁subjugate
▁39%
▁bolted
handedness
▁cowen
▁conceivably
▁overthrown
▁rabbit
▁understatement
▁reich
▁disbanded
▁heaters
▁estimating
▁eas
▁meticulously
▁marta
▁espoused
▁dull
▁reproaches
▁zealous
▁employable
▁enriches
▁liberalizing
▁receivers
▁tidying
▁healed
▁arrogantly
▁spoiled
abolic
▁overlay
▁smear
watch
▁exploiters
▁defying
▁baseline
▁sergi
▁restarted
▁dutchman
▁softer
▁auctioned
▁hopelessness
▁leaking
▁crumbs
▁assaulted
▁stressful
ür
▁dole
▁collects
▁overloading
▁mopeds
▁slums
▁disrespectful
▁jurists
▁(3
▁decibels
1/2008
contractors
timed
▁lessening
▁fridges
▁prioritize
▁disinfect
▁vaguely
▁warships
▁millennia
▁contraceptives
▁phrased
enko
▁biologically
▁ö
▁0.9
atic
▁pharmacists
nova
tape
▁petr
▁procedurally
▁emanates
▁cock
▁sunt
▁textbooks
▁sonars
▁circuits
▁venues
▁enlarges
▁digress
▁11.5
groups
2/2006
▁wane
▁brak
prom
▁mecu
▁214
rud
osis
▁masks
izz
einer
▁bon
yan
dental
medical
▁vale
-96/00
does
rammed
▁harp
ville
oriously
▁12.5
▁4.8
cover
aking
elie
tell
▁dug
ologists
oven
▁songs
▁stru
▁reread
6/1999
▁solo
▁verdicts
yr
blowers
▁2002/00
6/2006
▁tamils
▁marcel
▁arithmetic
▁swap
▁eba
▁lao
▁kra
▁hy
stresses
▁hype
activity
tica
natal
▁209
▁bur
▁reestablish
▁chop
▁hor
0/97
▁instalment
▁comrade
▁correspondent
▁nurse
▁inventor
▁stu
lter
▁stranger
▁pathway
▁stat
lateral
▁flavouring
▁sideline
▁seine
▁counterfeits
▁sensation
▁wil
▁sensed
▁faceless
conscious
double
stroke
temporary
$
abortion
burma
foodstuffs
identified
patient
recital
response
egypt
implementing
living
ownership
frontex
content
secretary
promotion
▁erupt
zer
island
colour
▁refresh
performing
▁flatter
boy
▁resurrect
▁plough
▁stagnate
▁deduce
▁entreat
▁unintentional
▁thrift
▁reflex
▁compulsor
▁virginia
▁steward
ê
▁oligopolis
▁abacha
▁alvarez
▁artemis
▁arusha
▁augment
▁bayona
▁bloodthirsty
▁bmw
▁charleroi
▁constantinople
▁córdoba
▁dubbed
▁façade
▁fluctuating
▁geostationary
▁geringer
▁gotovina
▁görlach
▁hollywood
▁implacable
▁inquisition
▁konver
▁locust
▁lorraine
▁nomadic
▁overheating
▁pelinka
▁pentagon
▁pepper
▁pereira
▁pericles
▁pettinari
▁probity
▁sanctity
▁submerged
▁symposium
▁vicissitudes
▁vlaams
▁väyrynen
▁walloon
▁wohlfart
▁intricate
▁mercedes
▁pedro
▁reefs
▁resurface
▁rtd
▁submissive
▁voltaire
▁cunningham
▁reverend
▁rohs
▁whistleblowers
▁cavalier
▁garcia
▁trustees
▁returnees
▁scarred
▁stitch
▁trimble
reclassification
▁dancing
▁legendary
▁sachs
▁hanover
▁disorganised
▁joking
▁suez
▁frail
▁garment
▁poetry
▁islamophobia
▁lucidity
▁365
▁durant
▁concertation
▁resubmitted
▁triumphant
▁logged
▁skewed
▁underspend
▁ponte
▁limbo
▁1961
▁cobbled
▁sparse
▁receptiveness
▁devastate
▁dati
▁revaluation
▁floated
▁airborne
▁insistently
▁legion
▁monopolised
▁flagged
▁pitting
▁29%
▁metering
▁playground
▁tentatively
cold
organisation
▁unreal
▁sabotaged
▁dury
▁dishonesty
▁tampering
▁1.8%
▁eidhr
▁finning
▁sidestep
▁provocatively
▁loyally
▁regularised
▁jacket
▁dampen
▁grinding
▁owen
▁kuwaiti
▁bout
▁encompassed
2/99)
jobs
▁populists
▁interbank
▁vaunt
▁beautifully
▁priceless
▁timetabling
▁5000
▁coloured
▁hundredth
▁oppressors
▁callous
▁rip
▁squabbles
ito
▁undervalue
▁contests
5/98
▁invoice
▁naturalisation
▁deceitful
▁2004/0
collar
admission
▁dwellings
▁underwrite
▁bis
rtie
ckle
▁abkhazian
▁dink
▁experimenting
▁legalization
rald
knit
▁peg
doing
▁benita
kurd
▁maoists
▁printer
▁yen
▁medically
▁stra
lop
8/2000
▁necks
▁verse
▁trott
▁muscles
nilly
▁watchwords
2/2004
noxious
▁disassociate
ela
▁bricks
▁taba
ige
attle
0/99)
▁cables
▁123)
▁fra
▁spokespersons
▁esm
nding
equality
isa
▁precludes
▁blessings
rec
lac
▁accommodates
hol
▁bog
awareness
▁camel
acc
▁woe
▁macedonians
▁electro
activated
▁aversion
85/
▁salam
▁navigat
▁leftist
▁contraventions
nus
hond
▁monte
▁dementias
▁insure
gent
▁spoils
▁pond
ask
▁earl
▁illustr
gmo
enp
rome
▁stockpile
▁evoke
▁glove
▁microchip
▁outburst
▁distributor
▁incinerator
▁ldc
▁troop
▁quaestor
▁accomplice
▁insurer
▁landmine
▁throat
▁anwar
▁tria
apping
▁boundless
▁ol
▁mou
▁cab
pur
▁reinstat
oid
hood
voting
ussi
1995
conceived
▁confiscat
pvv
tfeu
stakeholder
intensity
audit
convergence
moldova
obligatory
something
those
vietnam
agency
efsa
louis
polish
▁redeploy
05)
▁flounder
▁creep
▁325
both
▁relativ
▁despatch
▁stack
▁amaze
▁elapse
▁vertebra
▁kuhn
▁cynic
▁salma
▁marsh
▁smash
▁bombard
▁decentralise
▁leonard
▁cohabit
8/2009
▁transgress
golese
▁slur
▁andrikien
orozco
▁883/2004
▁ambivalence
▁appendices
▁audacious
▁averaging
▁broiler
▁capturing
▁climax
▁dagmar
▁deauville
▁ejido
▁elitist
▁emirates
▁gospel
▁henchmen
▁illuminate
▁inconclusive
▁infertility
▁inopportune
▁karlsruhe
▁litvinenko
▁mcdonald
▁misapprehension
▁murcia
▁parochial
▁retribution
▁rüffert
▁serge
▁servanda
▁sophistication
▁stewart
▁stimulant
▁stoiber
▁surgical
▁szczecin
▁turbines
▁ufm
▁undernourished
▁untiring
▁unusable
▁weiwei
▁bereft
▁infrequently
▁titford
▁eureka
▁joaqu
▁jumble
▁loathsome
▁rfos
▁1905/2006
▁camara
▁mortar
▁refurbishment
▁attenuat
▁empa
▁deluge
▁ilves
▁duplicity
▁afet
▁biagi
▁pieper
▁decoder
▁fpö
▁chef
▁9.30
▁10.30
▁chess
▁expeditiously
▁hilt
▁lamp
▁typified
▁rhône
▁ivanov
▁genesis
rard
▁77%
▁renamed
▁tenuous
▁secularity
▁mancha
march
▁wooden
▁nigh
trove
▁stronghold
▁topping
▁ousted
▁mentor
▁unexploited
▁fertilisation
▁blighted
▁shim
▁professed
▁laboriously
▁midway
▁phd
▁1.05
▁corpses
▁gays
harm
▁amazingly
your
▁naively
▁7.2
▁victimisation
qaida
▁influxes
▁nipp
▁jumped
▁demagogues
▁screened
▁predators
▁businesslike
▁foundered
▁jailed
▁lawsuits
▁gifted
▁dependable
▁tumours
▁personalised
▁nicaraguan
-95
▁adverts
▁chlorinat
starting
▁kiss
lou
▁alleviated
▁hurting
stepping
▁720
▁dolly
▁globalized
▁shades
▁wonderfully
▁veterans
▁charterers
5/2008
▁drying
▁coefficients
▁insinuations
▁yo
▁bothers
▁diagnoses
1/2003
sceptics
▁correspondents
▁reparations
▁outstandingly
talk
▁cens
▁eels
91
▁ravag
emi
▁outwith
▁disincentives
eh
▁08
▁antagonisms
▁backtrack
emu
governmentalism
▁packing
▁deterr
▁blurr
nta
4/96
▁salami
aki
▁184
achi
▁sourced
erg
ñi
▁realist
▁silenc
kind
▁thumbs
ove
▁advantaged
▁spann
7/97
umber
onizing
printing
▁foreigner
▁markers
▁dialectic
▁overstate
rod
illa
▁industrially
liners
vig
▁reintegrat
▁gatherings
roy
yo
urges
osa
paul
subordinating
▁kan
▁exhibitions
▁norwegians
ere
criminalisation
▁scan
▁tones
▁minc
4-042
▁2001/1
▁194
mission
eldr
▁nic
cf
▁rouse
▁nuance
▁diagnose
▁instinct
▁cliché
▁complication
▁sweetener
▁squad
▁booth
▁pcb
lock
▁surgeon
▁corroborate
press
▁lender
6/96
location
rag
▁mil
fencing
▁rud
▁tamper
graphic
selection
6/2007
sponsor
6/2009
insurance
urgent
great
voltage
provoking
average
dynamic
execution
ratification
before
overdue
iraq
biological
reducing
▁impoverish
taxation
jamal
placed
empty
grey
▁evaporate
▁reciprocate
▁saddle
▁seamless
▁niels
▁labyrinth
▁luxemburg
▁pharmacological
orcoyen
schoepges
▁acoustic
▁ahlqvist
▁anecdote
▁apocalyptic
▁artillery
▁benjamin
▁bhutan
▁brook
▁cannibalism
▁cemetery
▁cerdeira
▁cherries
▁cinematographic
▁cognisan
▁cué
▁devious
▁diabolical
▁disaffection
▁ecevit
▁extensification
▁freelance
▁gracious
▁guigou
▁haphazard
▁heterogeneity
▁iivari
▁improbable
▁incomprehension
▁infinitum
▁insignificance
▁intensifies
▁interwoven
▁józsef
▁kettle
▁liège
▁manipulative
▁massoud
▁nagoya
▁nutritious
▁obscurity
▁parthenon
▁patricia
▁phosphorus
▁posteriori
▁proficiency
▁prognosis
▁rabble
▁repertoire
▁reshuffle
▁salamanca
▁snake
▁sotoudeh
▁søndergaard
▁tattoo
▁unaffordable
▁unfeasible
▁unremitting
▁unsavoury
▁virulent
▁wolves
▁feminin
▁frugal
▁inverted
▁rehash
▁remand
▁saberi
▁blogs
▁cockpit
▁olisipi
▁pilate
▁yitz
_
▁enslavement
▁himalaya
▁whittle
▁aloof
▁benedict
▁derogatory
▁genk
▁akp
▁flour
▁biosphere
▁disunity
▁alleging
▁legible
▁sauce
▁abdul
▁duped
▁lobo
▁hazan
▁instinctive
▁thunder
▁“
▁0.2%
▁0.3%
▁contemptuous
▁indescribable
▁compassionate
▁demonising
▁brandish
▁disruptors
▁valentine
▁samara
▁vouchers
▁amalgamation
▁babel
▁preconceived
▁preselection
▁adulterated
▁penalizing
▁sigh
▁recollection
▁organizers
▁synchronised
▁gillis
▁danone
▁vaga
▁siren
▁nyr
droit
▁mentalities
▁grassland
▁objectors
▁bossi
▁equi
▁41%
▁holidaymakers
▁49%
▁commuted
▁relex
▁bioterrorism
▁davis
▁glow
▁assimilated
▁glase
▁molotov
▁computerization
▁rethought
▁108%
▁colonised
▁freshwater
▁censuses
▁adage
▁siberian
▁loath
▁loudest
▁textual
▁displace
▁chadian
▁facebook
▁interlinking
▁judiciously
▁awakened
▁passerelle
▁tube
▁repudiated
▁underscored
twinning
▁descended
▁mooring
▁secessionist
▁pinpointed
▁hardworking
epa
▁1701
▁cleverly
injuring
▁carter
▁mote
▁relinquished
▁vertically
▁ump
▁spilled
más
wider
▁backdoor
▁defraud
▁slate
socialist
▁abdicate
▁4(2)
▁normalising
sidedly
gil
▁smoked
▁composers
▁shopkeepers
stated
iri
baked
▁softly
▁britons
▁4.7
▁10.00
▁hushkits
▁lull
▁backup
▁berth
2020
▁mushrooms
▁cormorants
▁wander
▁squar
save
▁expertly
▁medal
▁underused
gmos
4/2000
▁booths
▁outbursts
▁rosa
▁instalments
▁excused
▁pits
▁bombardments
▁pears
skill
▁eupol
▁shrimps
▁chap
81
budgets
▁dip
▁rev
▁ker
▁21.00
lag
▁76/769
▁assyrians
▁bre
▁flawless
▁lee
hannon
▁italia
labels
▁religiously
▁slicks
org
▁esp
▁gem
valuation
▁misus
-080
lash
▁sting
mmed
kill
▁2002/20
▁siting
▁shoots
▁accomplis
▁concurs
ump
▁infect
▁reimbursements
killing
▁joyful
rau
oa
▁roofs
jung
ovic
▁transiting
▁melt
enne
▁emanate
2/2003
ax
▁painless
trap
-18
▁recruits
playing
uro
▁2(
nen
ibe
then
▁cem
▁chopp
▁memo
▁inquire
▁vy
▁thinkers
▁bolt
▁statue
▁companion
▁insinuation
▁classroom
▁interval
▁hike
▁rim
▁hatch
5/2006
▁(2001/2
▁coefficient
▁punt
17(
▁199
▁dilut
▁circ
fine
project
valued
introduce
complicated
▁10.5
beat
jacket
▁gin
please
abbreviate
reliance
gnss
chocolate
subsidised
annex
north
‘
applicable
bulgaria
november
sensitivity
against
rapid
continued
inflationary
lifelong
drafted
ecological
packed
july
▁drill
▁rescind
▁expound
▁garner
▁revok
▁frança
▁quash
ej
▁smuggle
▁domicile
▁valiant
tropic
▁loya
▁malthusian
▁elastic
▁pilgrim
▁acquit
reymond
ribbentrop
▁(1998-2002)
▁afiuni
▁allgemeine
▁anomalous
▁atlanta
▁baccalaureate
▁barracks
▁batasuna
▁belohorská
▁bennasar
▁bewildered
▁biarritz
▁castiglione
▁cnn
▁cognitive
▁constellation
▁culpability
▁debilitating
▁decourrière
▁dispossessed
▁fidesz
▁flogging
▁fraternal
▁gently
▁gillnets
▁gimmick
▁göncz
▁inadmissibility
▁jericho
▁jingsheng
▁lesotho
▁lunacek
▁lynch
▁mutagens
▁nyerere
▁oath
▁ordnance
▁paciotti
▁peddle
▁pervasive
▁probation
▁resilient
▁rovno
▁sophia
▁steamroller
▁subdivision
▁surfeit
▁svevo
▁swaziland
▁tgv
▁traineeships
▁travesty
▁triviño
▁turkestan
▁unctad
▁unenforceable
▁unmistakeable
▁unmitigated
▁untying
▁yoghurt
▁yukos
▁adhesi
▁aglietta
▁balloon
▁castricum
▁charlemagne
▁cornwall
▁geopolitics
▁grundtvig
▁mesopotamia
▁metrology
▁ocalan
▁onyszkiewicz
▁peltier
▁shevardnadze
▁sorcerer
▁thugs
▁thyssenkrupp
umbling
▁andrikienė
▁discomfort
▁halki
▁charlie
▁ingrained
▁warheads
▁constrict
▁telegram
▁heatwave
▁icrc
▁trespass
▁misconceived
▁cairn
▁waning
▁bremen
▁traits
zonal
▁microwave
▁monkey
▁soared
▁raay
▁deference
(97)05
▁brewing
▁renegotiating
▁spilt
▁homeopathy
▁janusz
▁mileage
▁polygamy
▁nld
▁poker
▁42(5)
▁ceo
▁busiest
▁suspense
▁credo
▁postgraduate
▁collide
▁evacuate
▁touchstone
▁uca
▁evicted
▁ultraliberalism
▁ingrid
▁todini
▁subsume
▁militarist
▁feminicide
▁vits
▁dismissive
▁dosage
▁dcm
▁reworked
▁reciprocated
▁punches
▁assiduously
▁dwelling
▁depiction
▁59%
▁potable
▁1929
▁1.30
▁reinvested
energise
▁hardened
▁sanco
▁redeployed
▁collated
▁invalidated
▁enquired
▁2.9%
▁fdp
▁abnormally
▁bodi
▁trad
▁2.7%
▁tenderers
▁beast
▁lifecycle
▁10-15
▁blameless
▁consul
▁exhibited
▁dispatched
▁1.9%
▁strikers
▁democratised
▁moody
▁timidly
▁coupling
▁quieter
▁starkly
▁roy
▁icelanders
▁apartment
▁romany
▁antique
▁unblocked
▁pessimists
omo
rdian
▁summertime
▁reproducing
▁optimised
▁undefined
▁bashir
eyed
▁fatally
3/2009
▁mixes
▁leavers
▁readmit
ril
▁strikingly
▁trim
▁fooling
▁snap
▁pesetas
▁legalistic
disposed
▁meaningfully
▁enthusiasts
44/
▁karabakh
▁assassins
▁occupiers
▁malagas
▁comeback
▁detracting
▁depositing
alkali
▁bearable
▁pawns
▁veterinarians
3/2007
here
▁redressed
▁delightful
▁statues
▁por
semblance
▁312
▁shan
8(3)
▁sec
hunting
▁revitalize
baz
▁precepts
▁generalisations
▁ou
▁breton
▁blunders
▁cede
-2008
▁overland
utri
host
▁hindus
ctoral
▁disc
rolling
▁imperil
▁backfire
▁denials
asian
▁hubs
llen
nationalist
▁freezer
▁dread
▁karelia
ropping
▁caricatures
nard
▁(4)
▁3.8
▁plots
▁provisos
gat
onne
zing
21(
csu
▁alternat
▁oxford
▁lyons
eva
hea
38/
▁nit
▁maker
▁xvii
▁logos
mber
▁mik
▁op
ember
▁milli
▁216
ë
bid
supranationality
▁coastguards
ruc
inned
▁straighten
▁blacklists
ella
stitutionalized
▁overrule
▁que
▁gran
▁tips
▁5(
▁eb
▁sami
▁integrationist
▁obstructs
▁sang
▁4.2
▁halls
gap
▁malt
▁mah
dog
came
▁comic
▁dane
nita
had
resident
ersal
▁ye
bac
▁garage
▁carcinogen
▁magistrate
▁vineyard
▁beverage
▁gis
9/97
effectively
nning
▁crow
▁qa
▁perpetuati
▁dodg
2/2007
▁greeting
▁cinemas
▁fame
▁procession
▁ode
▁communitaris
▁suppos
popular
planned
children
▁defus
earners
issue
depleting
traffic
billion
chief
equitable
participation
premises
prudential
committed
czech
dutch
firm
containing
▁estev
original
esma
▁kemal
▁nourish
▁retro
▁torpedo
▁immun
▁renege
▁fernand
microbial
kg
politically
leader
▁stevens
tributing
▁reoccur
comprehensibly
knell
▁algeciras
▁aliyev
▁alonso
▁animated
▁antithesis
▁apprehensive
▁argyros
▁attribution
▁brunetta
▁claudi
▁contagion
▁cumbria
▁disenchantment
▁economise
▁electioneering
▁emigrating
▁endurance
▁facade
▁facie
▁foretaste
▁grotius
▁herrero
▁hiroshima
▁jędrzejewska
▁larrañaga
▁lethargy
▁madurell
▁mhz
▁naïr
▁obliterat
▁obscurantist
▁oedenberg
▁olivier
▁overtones
▁oyster
▁pailler
▁pariah
▁perfume
▁pittance
▁rachinel
▁radius
▁rearguard
▁revulsion
▁sledgehammer
▁televised
▁unachievable
▁vedova
▁waigel
▁wałęsa
▁whisper
▁zakayev
▁£2
ž
▁eurolat
▁immovable
▁katerin
▁lacuna
▁lewis
▁molluscs
▁pimps
▁silesia
▁sociologist
▁spokespeople
▁limelight
▁siding
▁unseen
▁jutta
▁pulp
▁undcp
partite
▁pentabde
▁amassed
▁biomedicine
▁illiberal
▁toronto
▁megahy
sharif
▁epoch
▁icesave
▁despotism
▁ripped
▁biomedical
▁poultrymeat
▁glyn
▁mythical
▁bullfighting
▁relativism
▁unannounced
▁anchorage
▁elena
▁advertisers
▁nettle
▁mintz
▁inscribed
▁luther
▁erkel
▁chestnut
▁disconnection
▁besieged
▁crystallis
▁politeness
▁intrigued
▁crescent
▁reflexes
▁plummeted
▁leper
▁2011-2013
▁offload
▁governability
▁commendably
▁92%
▁dishes
▁snip
▁ceter
▁capped
69(
▁analyze
▁hardening
▁perverted
▁amplify
▁replanting
▁faxes
▁smother
▁pacification
▁trodden
▁kennedy
▁stockton
▁deductible
▁adept
▁wrongfully
▁whiting
▁bleeding
▁summarized
▁cardboard
▁sherry
▁liberalize
▁silk
▁rung
▁disgusted
opened
▁mired
▁robustness
▁fading
▁topicality
▁staunchly
▁tripled
▁dimin
▁keynes
▁preconceptions
▁reinvigorated
engage
▁randomly
mortem
▁cetaceans
▁unsuccessfully
▁missionary
▁discerning
▁middlemen
▁badia
▁sobering
[...]
