<unk>
<eos>
<pad>
▁de
,
▁la
.
▁que
▁en
▁el
▁y
▁a
▁los
▁las
▁del
▁se
▁por
▁no
▁un
▁una
▁para
▁es
▁con
▁al
▁lo
▁ha
▁este
▁sobre
▁como
▁comisión
▁más
▁su
▁esta
▁también
▁europea
▁señor
s
▁unión
▁presidente
▁parlamento
▁estados
▁pero
▁si
▁han
▁informe
▁consejo
▁sus
▁europeo
▁sin
▁miembros
▁me
▁o
▁países
▁-
▁política
▁(
▁europa
▁entre
▁son
▁todos
:
)
▁muy
▁ya
▁todo
▁nos
▁está
▁esto
▁ser
▁mi
▁ue
▁tanto
▁debe
-
▁acuerdo
▁lugar
▁importante
▁parte
▁derechos
▁hay
▁puede
?
▁hemos
▁¿
▁contra
▁hecho
▁porque
▁creo
▁desarrollo
▁propuesta
▁así
▁tiene
▁ahora
▁hacer
▁trabajo
▁estos
▁seguridad
▁señora
n
▁debate
▁cuestión
▁cuando
▁he
▁ciudadanos
▁respecto
▁nuestra
▁desde
▁medidas
▁forma
▁debemos
▁decir
▁vez
▁situación
;
▁sr
▁embargo
▁tenemos
▁mercado
▁años
▁sino
▁ello
▁grupo
▁sido
▁están
▁
▁gran
▁hoy
▁tiempo
▁quiero
▁estas
▁país
▁dos
▁nuestro
▁personas
▁caso
▁otros
▁e
▁sólo
▁mismo
▁mayor
▁estamos
▁estado
▁directiva
▁hace
▁comisario
▁sea
▁año
▁punto
▁humanos
▁eso
▁bien
▁apoyo
▁derecho
▁posible
▁nuestros
▁durante
▁favor
▁todas
▁primer
▁trata
▁cada
▁dicho
▁mucho
▁ejemplo
▁cooperación
▁le
▁quisiera
▁fin
▁social
▁medio
▁deben
▁algunos
▁marco
▁común
▁yo
▁cuenta
▁nosotros
▁europeos
▁protección
▁"
▁sistema
▁hasta
▁problema
▁futuro
▁ponente
▁tratado
▁ni
▁además
▁tienen
▁tener
▁ese
▁antes
▁gracias
▁sector
▁señorías
▁podemos
▁mundo
▁proceso
▁menos
▁problemas
▁qué
▁empresas
▁ámbito
▁programa
▁solo
▁nuevo
▁debería
▁usted
▁resolución
▁opinión
es
▁pueden
▁presidenta
▁aquí
▁ayuda
▁estoy
a
▁información
▁internacional
▁tan
▁objetivo
▁momento
▁dar
se
▁muchos
▁gobierno
▁propuestas
▁relación
▁modo
▁políticas
▁millones
▁presidencia
▁necesario
▁servicios
mente
▁mejor
▁normas
▁nombre
▁enmiendas
▁manera
▁toda
▁otro
▁haya
▁ante
▁esa
▁otras
▁algo
▁otra
▁aunque
▁reglamento
▁asuntos
▁importancia
▁general
▁uno
▁–
▁gustaría
▁garantizar
▁les
▁aplicación
▁nivel
▁objetivos
▁nacionales
▁crisis
▁materia
▁empleo
▁particular
▁económica
▁condiciones
▁día
▁cuestiones
▁tema
▁parece
▁nuestras
▁necesidad
▁tal
▁mujeres
▁responsabilidad
▁principio
▁%
▁sentido
▁va
▁presupuesto
▁decisión
▁especialmente
▁estrategia
▁diputados
▁espero
▁incluso
▁pues
▁productos
▁papel
▁después
mos
▁investigación
▁muchas
▁enmienda
▁aún
▁«
▁tipo
▁vista
▁atención
▁legislación
▁poder
▁último
▁instituciones
▁asunto
▁fondos
▁siempre
▁ambiente
▁control
▁será
▁nueva
▁tres
▁votación
▁nuevos
▁cualquier
▁energía
▁haber
▁primera
▁obstante
▁cuanto
▁posición
▁fue
▁algunas
▁cambio
▁pregunta
▁recursos
▁unidos
▁segundo
▁competencia
▁existe
▁actual
▁sería
▁salud
▁importantes
▁razón
▁pasado
▁compromiso
▁dentro
▁comercio
▁claro
▁base
▁acción
▁queremos
▁transporte
▁unos
▁respuesta
▁calidad
▁sra
▁podría
▁duda
▁mayoría
▁negociaciones
▁realmente
▁comunidad
▁lucha
▁vida
▁hacia
▁mundial
▁orden
▁todavía
▁especial
▁grandes
▁proyecto
"
▁cámara
▁político
▁autoridades
▁necesitamos
▁artículo
▁libertad
▁regiones
de
▁nuevas
▁trabajadores
▁decisiones
y
▁puesto
▁estar
la
▁economía
▁dado
▁poco
▁políticos
▁democracia
▁uso
▁mediante
▁miembro
▁europeas
▁cual
▁pueda
▁sí
▁cabo
▁sociales
▁seguir
▁sociedad
▁ver
▁votado
▁cosas
▁cómo
▁gestión
▁través
▁oportunidad
▁plazo
▁medida
▁económico
▁mejorar
▁nada
▁ampliación
▁resultado
▁fundamental
▁procedimiento
▁donde
▁crecimiento
▁iniciativa
▁pesar
▁creación
▁fondo
▁consumidores
▁solución
▁relaciones
▁falta
▁nacional
▁acceso
▁aspectos
▁realidad
▁interés
▁ellos
▁interior
▁era
▁escrito
▁acuerdos
▁número
▁comunicación
r
▁región
▁resulta
▁asimismo
▁unas
▁pública
▁industria
▁largo
▁naciones
▁programas
▁paz
▁esfuerzos
▁colegas
▁crear
▁población
▁fundamentales
▁ninguna
▁ningún
▁datos
▁mañana
▁grupos
▁siendo
▁medios
▁euros
▁partes
▁misma
▁cierto
▁efecto
▁único
▁poner
▁puedan
▁diálogo
▁texto
▁sean
▁práctica
▁puedo
▁resultados
▁paso
▁intereses
▁esos
▁lisboa
▁refiere
▁supuesto
▁producción
▁justicia
▁financiación
▁posibilidad
▁diferentes
▁conjunto
▁presente
▁comisaria
▁principios
▁libre
▁tras
▁final
▁reforma
▁deseo
▁entonces
do
▁tribunal
▁ejercicio
▁mientras
▁casos
▁buena
▁van
▁dinero
▁euro
en
▁turquía
▁tengo
▁deberíamos
▁tenido
▁ustedes
▁últimos
▁puntos
▁hora
▁apoyar
▁éxito
▁adhesión
▁frente
▁plan
▁adoptar
lo
▁sigue
▁demás
▁mis
▁in
▁según
▁asamblea
▁existen
▁totalmente
▁actualmente
▁público
▁rusia
»
▁evitar
▁pueblo
▁deberían
▁conferencia
▁difícil
▁tendrá
▁contexto
▁estabilidad
▁conseguir
▁había
▁igualdad
▁respeto
▁actividades
▁establecer
▁motivo
▁palabras
▁acciones
▁significa
▁proyectos
▁pesca
▁1
o
▁acerca
el
▁contrario
▁meses
▁bajo
▁serie
▁lograr
▁claramente
▁demasiado
▁idea
▁unidas
▁esas
▁constituye
▁niños
▁enfoque
▁segunda
▁mantener
qué
▁sabemos
▁consecuencias
▁exterior
▁fuera
▁considero
▁declaración
▁reducir
▁cumbre
▁tomar
▁riesgo
▁financiera
▁presentado
no
▁respecta
▁queda
▁igual
▁agricultura
▁escala
▁sistemas
▁medioambiental
▁aprobación
▁transparencia
▁propia
▁período
▁eficaz
▁aumento
▁integración
▁debido
da
▁internacionales
▁zona
▁intervención
▁saber
▁esencial
▁hablar
▁elecciones
▁consiguiente
▁solidaridad
▁educación
▁gobiernos
▁consecuencia
▁lado
▁partido
▁participación
▁mercados
▁central
▁capacidad
▁próximo
▁valores
▁relativa
▁propio
▁conformidad
▁reducción
▁única
▁económicos
▁zonas
▁comunitario
▁precisamente
/
▁criterios
▁preguntas
▁objeto
á
▁cohesión
▁formación
▁aquellos
▁alcanzar
▁camino
▁informes
▁tampoco
▁excelente
▁habría
▁fronteras
▁disposiciones
▁valor
ndo
▁asociación
▁horas
▁veces
▁organizaciones
▁terrorismo
▁aspecto
▁llevar
▁buen
▁procedimientos
▁llegar
▁ámbitos
▁evaluación
▁clara
▁aplicar
▁ministro
▁realizado
▁organización
▁solamente
▁instrumento
▁guerra
▁régimen
▁precios
▁alto
▁defensa
▁encontrar
▁china
▁financieros
▁plenamente
▁jóvenes
–
▁reunión
▁instrumentos
▁principales
▁hacerlo
▁confianza
▁aceptar
▁sostenible
▁términos
▁costes
▁000
▁referencia
▁alguna
▁necesaria
▁ayudas
▁violencia
▁ayudar
▁presentar
▁personal
▁comunitaria
▁puestos
▁vamos
▁sectores
▁dice
▁satisfacción
▁razones
▁agrícola
▁varios
▁nunca
▁proteger
▁global
▁exteriores
▁dejar
▁pobreza
▁tercer
▁voluntad
▁casi
▁quienes
▁palabra
▁trabajar
▁principal
▁terceros
▁última
▁realizar
▁iniciativas
▁preocupación
▁dicha
▁quiere
▁él
▁unido
▁éste
▁luego
▁colega
▁servicio
▁preciso
▁junto
▁regional
▁semana
▁animales
▁total
▁dirección
▁mejora
▁mismos
▁revisión
▁expresar
▁pequeñas
▁propone
▁civil
ía
▁esté
por
▁temas
▁necesita
▁carácter
▁víctimas
▁constitución
▁tenga
▁prioridad
▁representa
▁bastante
▁actuar
▁dificultades
▁reino
án
▁efectos
▁suficiente
on
▁días
▁cumplir
▁prioridades
▁económicas
▁estructurales
▁inmigración
▁ley
▁climático
▁siguiente
▁votar
▁sesión
▁naturalmente
▁ésta
▁abordar
ó
▁aumentar
▁habrá
▁financiero
▁oportunidades
▁promover
▁positivo
▁permitir
▁vigor
▁simplemente
▁teniendo
▁haciendo
▁señalar
▁labor
▁recordar
▁felicitar
▁visto
▁coordinación
▁finalmente
▁cambios
▁alimentos
▁menudo
▁reformas
▁cinco
▁apartado
▁necesidades
▁relativo
▁cuatro
▁cultura
▁propios
▁desarrollar
▁somos
▁hayan
▁jurídico
emos
▁comité
▁seguro
los
▁espacio
▁asegurar
▁cuentas
▁documento
▁debates
▁emisiones
▁podamos
▁evidente
▁ministros
▁financieras
▁pleno
▁responder
▁irlanda
▁primero
▁energética
▁relativas
▁tarde
!
▁república
▁consumidor
▁competitividad
▁esperamos
▁marcha
▁voto
▁resolver
▁necesarias
▁ella
▁concreto
▁prácticas
▁gente
▁utilizar
".
nos
▁lectura
▁2
▁funcionamiento
▁origen
▁acaba
▁¡
▁comunes
▁esfuerzo
▁reforzar
▁ellas
▁nadie
▁real
▁agricultores
▁quien
▁equilibrio
▁motivos
▁compromisos
ba
▁representantes
▁mencionado
▁carta
▁permítanme
».
▁adelante
▁voy
las
▁comerciales
▁asistencia
▁modelo
▁función
▁da
▁cuyo
▁llegado
▁actividad
▁banco
▁inversiones
an
▁niveles
▁línea
▁lista
▁peligro
▁declaraciones
▁permite
▁partir
▁actuales
▁colaboración
▁inversión
▁cabe
▁convención
▁creemos
▁mar
▁norte
▁adopción
▁20
▁discriminación
▁grave
▁tarea
▁tratar
▁impacto
▁cosa
▁diciembre
▁tengan
▁supone
▁podrían
▁competencias
▁verdad
▁posibilidades
▁ocasión
▁tráfico
▁únicamente
▁pido
▁causa
▁paquete
▁varias
▁tales
▁conflicto
▁experiencia
▁soluciones
▁nuclear
▁candidatos
▁mayores
▁innovación
▁independiente
▁haga
▁presión
▁francia
▁sé
▁eficacia
▁acta
▁hombres
▁laboral
▁contenido
▁armas
▁propuesto
▁cuya
▁conclusiones
▁historia
▁contribución
▁perspectiva
▁clave
▁contribuir
▁podido
▁algún
▁fecha
▁pedir
▁5
▁circulación
▁intención
▁allí
▁asilo
▁públicos
▁infraestructura
▁pienso
▁ocasiones
▁cuales
fr
▁distintos
▁responsable
▁ofrecer
▁agencia
▁c
▁mensaje
▁volver
▁adecuada
das
▁construcción
▁disposición
▁considera
▁aprobado
▁riesgos
▁anterior
▁elementos
▁junio
▁10
▁mí
▁obtener
▁graves
▁redes
▁fuerza
▁demostrado
▁esperar
▁hacen
é
▁amplio
▁gastos
▁momentos
▁siguen
▁agua
▁empresa
▁jurídica
▁comercial
▁procede
▁agenda
▁enorme
▁soy
▁mes
▁locales
▁serán
▁libertades
▁debo
▁3
▁beneficios
▁fuerzas
▁autoridad
▁ayer
▁seis
▁terreno
cómo
▁incluir
▁reconocimiento
▁residuos
▁análisis
▁quieren
▁complace
▁democrática
▁ir
▁considerar
▁democrático
▁generales
▁destacar
▁ejecución
▁quizás
▁productores
▁obligación
▁fase
▁desempleo
▁consumo
▁absolutamente
me
▁15
▁áfrica
▁diez
▁avanzar
▁podrá
▁mejores
▁fomentar
▁positiva
▁fuerte
e
▁conclusión
▁introducción
que
▁formas
▁próximos
▁alemania
▁sabe
▁israel
▁liberalización
▁requisitos
▁bruselas
ciones
▁fueron
▁necesitan
▁prevención
▁toma
▁presupuestos
▁concepto
▁responsables
▁red
▁cultural
▁progreso
▁pretende
▁alimentaria
▁allá
▁convenio
▁pacto
▁necesarios
▁introducir
▁impuestos
▁participar
▁actualidad
▁pueblos
▁presupuestario
▁mandato
▁amenaza
▁encuentra
▁saben
▁reconocer
▁estaba
▁adoptado
▁kosovo
▁hincapié
▁amplia
▁planes
▁refugiados
▁omc
▁fiscal
▁territorio
▁cantidad
▁sanciones
▁campo
▁establece
▁pronto
▁diferencias
▁pena
▁administración
▁adecuado
▁públicas
▁combatir
dos
▁existentes
▁luchar
▁jurídicos
▁perspectivas
▁mujer
▁capital
▁tratados
▁muerte
▁opiniones
▁documentos
▁2000
▁próxima
▁posibles
▁precio
▁estén
▁internet
▁continuar
▁conseguido
▁petición
▁justo
▁consideramos
▁semanas
▁evidentemente
▁igualmente
▁actitud
▁dimensión
▁sur
▁pobres
▁enero
▁avances
▁constitucional
▁postura
▁naturaleza
▁militar
▁logrado
▁demuestra
▁conocimiento
▁lamentablemente
▁contar
▁ilegal
▁regionales
▁independencia
▁establecimiento
c
▁obligaciones
▁recibido
▁encuentran
▁popular
▁utilización
▁empezar
▁partidos
▁25
▁concretas
▁grecia
▁finales
▁mencionar
▁deberá
▁cumplimiento
▁directamente
▁libro
▁recientemente
▁delegación
▁dichos
▁presupuestaria
▁mismas
▁entrada
▁facilitar
▁subrayar
▁mal
▁miles
▁comunitarias
▁hablando
▁mecanismo
d
▁tecnología
▁tecnologías
▁re
▁turismo
▁estatuto
▁preocupaciones
▁4
▁rápidamente
▁ponentes
▁dichas
▁persona
▁prohibición
le
▁cerrado
▁vistas
▁bajos
▁intentar
▁aprovechar
▁circunstancias
▁conflictos
▁plantea
▁ahí
▁consenso
▁afecta
▁tendremos
▁cerca
▁juicio
▁quizá
▁representante
▁oposición
▁mayo
▁acojo
▁incluye
▁flexibilidad
▁espíritu
▁capaces
▁ofrece
▁alcance
▁cambiar
▁hubiera
▁serio
▁armonización
▁principalmente
▁acontecimientos
▁condición
▁claridad
▁rural
▁vehículos
▁monetaria
▁marzo
▁corresponde
▁constituyen
▁torno
▁agrícolas
▁ambos
▁trabajos
▁buenas
▁expresión
▁estudio
▁añadir
2
▁legislativo
▁inaceptable
▁moneda
▁centro
▁exige
▁ideas
▁30
▁agradezco
▁tipos
▁aprobar
▁permita
▁agradecer
▁presencia
▁definición
▁italia
ce
▁pensar
▁eficiencia
▁mucha
▁elemento
▁ingresos
▁socios
▁comentarios
▁prestar
▁coste
▁supervisión
▁mano
▁institución
▁previsto
▁rápida
pl
▁resto
▁relacionados
▁desempeñar
▁alta
▁desgracia
▁fácil
▁agradecimiento
▁firme
▁directivas
▁apertura
▁completamente
▁controles
▁recomendaciones
▁beneficio
▁septiembre
▁oriente
▁mecanismos
▁máximo
▁comunidades
▁créditos
▁espera
▁situaciones
▁hablado
▁lejos
▁oriental
▁defender
▁recibir
▁legal
▁particularmente
▁seguimiento
▁pide
▁diferencia
▁debatir
▁tomado
it
▁examinar
▁iraq
▁habido
▁ambas
▁observación
▁concretamente
-,
▁prueba
▁negociación
▁medianas
▁desea
▁transportes
▁elaborar
▁consideración
▁impuesto
▁correspondiente
▁merece
▁pruebas
▁co
▁pasar
▁ucrania
▁alcanzado
▁implica
▁siquiera
▁potencial
▁gasto
▁consiste
▁permanente
▁noviembre
▁decidir
▁españa
▁eliminar
▁parlamentaria
ción
▁distintas
▁anual
▁decidido
▁civiles
▁planteamiento
▁podremos
▁luz
▁inmigrantes
▁observaciones
▁mínimo
▁diputado
▁capaz
▁señalado
▁carga
▁diferente
▁11
▁proporcionar
▁efectivamente
▁humana
▁tendrán
▁respetar
▁verdadera
▁producto
▁elaboración
▁promoción
▁enfermedades
▁intercambio
▁pyme
▁diversos
▁fraude
▁método
▁minorías
▁señoría
▁fuentes
▁bueno
▁producido
▁retos
▁verde
▁institucional
▁fundamento
▁entender
▁sustancias
▁irán
▁mesa
▁diversidad
",
▁trabajando
▁seguros
▁llevado
▁absoluto
▁6
▁reciente
▁útil
▁recomendación
▁probablemente
▁trato
▁garantías
▁relacionadas
▁hechos
▁vía
▁lleva
▁propias
▁reglas
▁reservas
▁progresos
les
▁requiere
▁lamento
▁tratamiento
b
▁leyes
▁determinados
▁incluido
▁esperanza
▁manos
▁llamar
▁dijo
▁solicitud
▁octubre
▁métodos
▁visión
▁regulación
ían
▁juntos
▁protocolo
▁encontramos
▁aguas
▁peticiones
▁frecuencia
▁pequeños
▁directrices
▁cargo
»,
tergubernamental
▁podrán
▁normativa
▁expertos
▁señores
▁grado
▁afectados
▁juego
▁sesiones
▁límite
▁avance
▁cierta
▁edad
▁preocupa
▁diversas
▁12
ro
ban
▁concluir
▁asumir
▁basada
▁contaminación
▁comenzar
▁crucial
▁imponer
como
▁nota
▁correcta
▁organismos
▁demanda
▁industrial
▁cara
▁modificación
▁vecinos
▁humanitaria
▁judicial
▁urgente
▁doy
▁parlamentos
▁pasajeros
▁evolución
▁comunitarios
▁contiene
▁establecido
▁conscientes
▁apoyamos
▁deseamos
▁apoya
▁existencia
▁llamamiento
▁consulta
▁nucleares
▁planteado
▁b
▁pone
▁urgencia
▁bienestar
▁breve
▁gas
▁hizo
▁podríamos
▁pagos
▁ppe
▁coherente
▁actos
▁curso
▁permitirá
▁futura
▁periodo
▁menor
▁mercancías
▁presenta
▁local
▁olvidar
▁demostrar
▁específicas
▁señal
▁vías
ra
▁schengen
▁8
▁prensa
▁exactamente
h
▁misión
▁perfectamente
▁50
▁margen
▁plantear
▁hacemos
▁viene
▁globalización
▁compañías
▁adicionales
t
▁dudas
▁carne
▁anteriores
▁escuchar
▁movilidad
▁gobernanza
▁garantía
▁personalmente
▁presentadas
▁terroristas
▁líneas
▁profesional
▁penal
▁límites
▁recuperación
▁medicamentos
▁ampliar
▁pensiones
▁funcionarios
▁numerosas
▁manifiesto
▁7
▁vital
▁estructura
▁reglamentos
▁ciertamente
▁ciertos
▁mediterráneo
▁pedimos
▁controlar
▁familias
▁habla
▁subsidiariedad
▁suministro
▁g
▁efectiva
▁suficientemente
▁entrar
▁portugal
▁amsterdam
▁celebrar
▁razonable
▁rumanía
▁julio
▁economías
▁intervenir
▁naturales
▁socialista
▁influencia
▁polonia
▁siguientes
▁continuación
▁elección
▁fiscales
▁cifras
▁defensor
▁agencias
▁refiero
▁ocurre
▁hará
▁chipre
▁error
▁correcto
mamente
▁inclusión
▁superar
▁conjunta
▁género
▁plena
▁noche
▁estructuras
▁pagar
▁verdadero
▁respuestas
▁intervenciones
▁corto
▁actuación
▁voz
▁explotación
▁seno
▁exigencias
l
▁áreas
▁barroso
▁clima
▁digo
▁natural
▁creciente
▁prevé
▁credibilidad
▁2004
▁muestra
▁viven
▁considerable
▁virtud
▁hacerse
▁suficientes
▁renovables
▁sociedades
▁proponer
▁concretos
▁terminar
▁representan
▁ciudadano
▁esenciales
▁balcanes
▁centrales
▁impedir
▁relativos
▁técnicas
▁u
▁familia
▁consciente
▁conversaciones
▁mantenimiento
▁militares
▁aéreo
▁estudios
▁oradores
▁conciliación
▁campaña
▁procedentes
▁comisarios
▁basa
▁continente
▁ventajas
▁poderes
▁suecia
▁obstáculos
▁subvenciones
▁claras
▁modificar
pt
▁tenía
▁numerosos
▁etc
▁ven
▁tercera
▁evaluar
▁depende
▁aplica
▁puesta
▁reuniones
▁firmemente
▁pasada
▁pedido
▁verdaderamente
▁resoluciones
▁demócratas
▁pocos
▁hagan
▁tabaco
▁18
▁27
▁bancos
▁activa
▁intento
▁extremadamente
▁imposible
▁acp
▁convencido
▁incluidos
▁especiales
▁desean
▁bulgaria
▁órganos
▁petróleo
▁enfermedad
▁siglo
▁convertirse
▁poblaciones
▁reto
▁quedado
▁doble
▁humano
▁abierto
▁completo
▁deberán
▁eficaces
▁dispuestos
▁plano
▁financiar
as
▁presentes
▁media
▁repercusiones
▁hablamos
▁abril
▁añadido
▁tengamos
▁cree
▁presentación
▁comparto
▁conforme
▁2008
▁positivos
▁ponga
▁comisiones
▁término
▁cuotas
▁violaciones
▁américa
▁seres
▁conceder
▁ciertas
▁escuchado
▁india
▁tareas
▁turno
▁otan
▁felicito
▁incremento
▁directa
▁elaborado
▁debatiendo
▁etiquetado
▁1999
▁estrecha
▁totalidad
▁legislativa
▁concreta
▁insistir
▁tiempos
▁drogas
▁distribución
▁procesos
▁desearía
▁afrontar
▁habían
▁buques
▁siga
▁buscar
▁daños
▁cuál
▁determinadas
▁ejercer
▁expresado
▁ve
▁mitad
ta
▁presentada
▁formular
▁sola
▁operaciones
▁transición
▁técnica
▁incluida
▁eran
▁comprobar
▁propósito
▁propiedad
▁últimas
▁sanitaria
▁quién
▁policía
▁i
▁dando
▁futuras
▁dejado
▁adicional
▁informar
▁críticas
▁entorno
▁verdes
▁disponibles
▁larga
▁ocupa
▁máxima
▁iniciar
▁aceptable
▁reales
▁adoptadas
▁pesquera
▁manifestar
▁interesante
▁posiciones
▁oral
▁mejoras
▁factores
▁exportación
▁pago
▁acabar
▁culturales
▁creado
▁9
▁adaptación
▁construir
▁costa
ron
▁veo
▁difíciles
▁suma
▁unanimidad
▁impresión
▁parecer
▁conjuntamente
▁jefes
▁exclusión
▁definitiva
▁déficit
▁corrupción
▁transparente
▁restricciones
▁copenhague
▁crítica
▁pac
▁aun
▁profesionales
▁40
▁deja
▁preparación
▁definir
▁código
▁estrasburgo
▁ratificación
▁lugares
▁pequeña
▁conocer
▁antigua
▁votaciones
▁delincuencia
▁carretera
▁transfronteriza
▁deuda
▁tendría
▁alguien
▁vidas
▁factor
▁energético
▁calendario
te
▁afganistán
▁causas
▁codecisión
▁exclusivamente
▁afectan
▁pasos
▁simple
▁basado
▁respaldo
▁2003
▁dispuesto
▁excepción
▁belarús
▁completa
▁tuvo
▁véase
▁recientes
▁pescadores
▁convertido
▁casa
▁aprobada
▁menores
▁tasa
▁favorable
▁invertir
▁opción
▁norma
▁lamentable
▁coherencia
▁dé
▁apoyado
▁proceder
▁13
▁peor
▁inmediatamente
▁sacar
▁ejemplos
▁2002
▁legales
▁obra
▁contacto
sgraciadamente
▁ii
▁deber
▁rapidez
▁vigilancia
os
▁primeros
▁palestina
▁comienzo
▁encima
▁pérdida
▁14
▁17
▁científicos
▁abierta
▁permitan
▁trabajan
▁centros
▁impulso
▁mostrar
▁específica
▁orientaciones
▁obviamente
▁ausencia
i
▁pilar
▁serbia
▁prácticamente
▁desafíos
▁seguirá
▁movimiento
▁pacientes
▁blanco
▁fines
▁disponer
▁ciudades
▁permítame
▁conocimientos
▁dignidad
▁explicar
▁pregunto
▁democráticas
▁diciendo
▁febrero
▁específicos
▁austria
▁democráticos
▁significativa
▁conciencia
▁visados
▁eliminación
▁oficina
▁individuales
▁agentes
▁británico
▁referido
▁examen
▁vemos
▁electoral
▁orientación
▁estaban
▁unidad
▁croacia
al
com
▁exigir
▁deporte
▁enviar
▁regular
▁reconoce
▁pequeño
▁lenguas
▁formulada
▁básicos
▁dónde
▁adecuadas
▁aprobó
▁enormes
▁impulsar
▁quería
▁raíz
fi
▁tierra
▁sexual
▁100
▁16
▁realizados
▁legislativas
▁parcial
▁revisar
▁reconstrucción
ar
▁permitido
▁cuarto
▁realización
▁liberales
▁ecus
▁laborales
▁estadísticas
▁cláusula
▁hijos
▁fortalecer
▁buenos
▁aparte
▁contratos
▁fracaso
▁decirlo
▁alternativa
m
▁limitar
▁estará
▁presupuestarias
▁temporal
▁registro
▁área
▁vaya
▁violación
▁privado
▁convergencia
▁abrir
▁rurales
▁fomento
▁oficial
▁siete
▁argumentos
▁discurso
▁superior
▁independientes
▁afectadas
▁éstos
▁comprender
▁soberanía
▁existente
▁elevado
▁rechazo
▁19
▁rápido
▁afirmar
▁funciones
▁accidentes
▁inicial
▁determinar
▁sencillamente
▁quedan
re
con
▁decirle
▁incrementar
▁estudiar
▁tendencia
▁darle
▁ruego
▁interlocutores
▁ocurrido
▁inmediato
▁refleja
▁eficiente
▁energías
▁parecen
g
▁ilegales
▁modificaciones
▁entiendo
▁especie
▁aprueba
▁prodi
▁importaciones
▁específico
▁errores
▁socialistas
▁considerando
▁aquellas
▁hayamos
▁sucede
▁aclarar
▁operadores
▁presidentes
▁alguno
▁comentario
▁ong
▁reflexión
▁opciones
▁fuente
▁palestinos
▁cifra
▁destinados
▁próximas
▁presentó
▁ex
▁arreglo
▁conducta
▁determinación
nl
▁industriales
▁recuerdo
▁parlamentario
▁señoras
▁detalles
▁manifestado
▁dan
▁contribuyentes
▁2001
▁mostrado
▁alternativas
▁mantenido
▁pensamos
▁aplicarse
▁prevenir
▁extraordinaria
▁preguntar
▁equilibrado
▁similares
▁personales
▁permiten
▁siento
▁indispensable
▁claros
▁estrategias
▁basta
▁sinceramente
▁destinadas
▁éstas
▁original
▁vivir
▁piensa
▁interpretación
▁exista
▁título
▁identidad
▁materias
▁publicidad
▁georgia
▁segura
rá
▁asia
▁lengua
▁delitos
▁pocas
▁instalaciones
▁occidental
▁anteriormente
▁trabajado
▁aproximadamente
▁analizar
▁suerte
▁representación
▁produce
▁mantiene
▁contribuido
▁fenómeno
▁oportuno
▁concesión
▁francés
▁líderes
▁producir
▁cuáles
▁habitantes
▁burocracia
▁bienes
▁empleos
▁funciona
▁campos
▁perder
▁expectativas
▁dispone
▁indica
▁d
▁retraso
▁bases
▁checa
▁instancia
▁indicar
▁afirma
▁bilaterales
▁quince
▁usuarios
▁seguimos
▁dispuesta
▁estratégica
▁elegido
▁investigaciones
▁ciudadanía
▁acordado
▁técnico
▁mala
▁reserva
▁prosperidad
▁aportar
▁autor
▁justa
▁intenciones
8
▁pasa
▁1998
5
▁técnicos
▁correctamente
▁destrucción
▁francesa
▁dicen
▁rechazar
▁simplificación
▁brevemente
▁obligados
▁onu
▁similar
▁señala
▁solucionar
▁existir
▁aceptado
rse
▁ce
▁catástrofes
▁llega
▁categoría
▁hombre
▁cantidades
▁figura
▁solicitar
▁recurso
▁ronda
▁televisión
▁libres
▁aéreas
▁catástrofe
▁duración
▁formar
▁características
▁ataques
▁partida
▁sostenibilidad
▁perdido
▁baja
▁monetarios
▁textos
▁artículos
▁bienvenida
▁producen
▁apenas
▁estimados
▁1997
▁constante
▁crea
▁alegra
▁emergencia
▁alianza
▁confío
▁oído
▁habida
▁izquierda
▁elegir
▁luxemburgo
ca
▁conservación
terinstitucional
▁asociaciones
▁material
▁inmediata
▁referente
▁iva
▁institucionales
▁vicepresidente
▁acto
▁occidentales
▁comparación
▁estructural
▁regímenes
▁corea
▁emisión
▁adoptada
▁foro
▁estatales
▁par
▁incluidas
▁ciudad
▁pie
▁auténtica
▁celebrado
▁jueves
▁llamado
▁atrás
▁cuidado
1
si
▁servir
▁europol
▁lógica
▁inicio
▁deficiencias
▁interna
▁universal
▁21
▁amigos
▁parlamentarios
▁tribunales
▁finanzas
▁requisito
▁24
f
▁2007
▁pib
▁transferencia
▁generación
▁garantiza
4
6
▁asegurarnos
▁clase
▁transfronterizo
▁salir
▁conviene
▁familiar
▁seguido
▁animal
▁plazos
▁empleados
▁negociar
▁competitiva
▁ocho
▁adopte
▁vecindad
▁emprender
▁celebro
▁utilizan
▁imagen
▁significativo
▁acceder
▁reglamentación
▁garantice
▁disponemos
▁solicitado
▁porcentaje
▁reducido
▁consideraciones
▁pro
▁frontera
▁peso
▁conveniente
▁exportaciones
▁mutuo
▁60
▁considerarse
▁satisfactoria
▁incluyen
▁enormemente
sv
▁puertos
▁versión
▁detención
▁compensación
▁industrias
▁hago
▁enfrentamos
▁pese
▁2005
▁antiguos
un
▁preparar
▁finlandia
▁exigencia
▁demuestran
▁observar
▁orador
▁territorios
▁experiencias
▁visita
▁criterio
▁consideran
▁23
▁aplican
▁autorización
▁2006
▁profundamente
▁cumplan
ización
▁destino
▁respaldar
▁cierre
▁aviación
▁barreras
▁telecomunica
▁alemán
▁mil
▁científica
▁equipo
▁activo
▁500
▁grande
▁condena
▁referirme
▁hubo
▁enfrenta
▁2009
í
▁sufren
▁electricidad
▁1996
▁territorial
▁normal
▁vulnerables
▁insto
▁fabricantes
▁liberal
▁dada
▁retirada
▁estrictas
▁presupuestarios
di
▁velar
▁aprender
▁esperan
▁capitales
▁marítima
▁aplicable
▁planificación
p
▁hungría
▁cerrar
▁temo
▁futuros
▁constructiva
▁seriamente
▁niza
▁bélgica
▁organizada
7
▁relieve
▁votos
▁tome
▁organizar
▁capítulo
▁empresarial
▁irlandés
▁incluya
▁padres
▁debidamente
▁firma
▁crimen
▁altos
▁activamente
▁insuficiente
▁primas
▁minutos
▁repetir
▁oferta
▁excepciones
▁precisa
▁comprometido
▁socio
▁bosnia
▁aumentado
▁racismo
▁organismo
▁mundiales
▁adecuados
▁carbono
▁celebración
to
▁determinado
▁liderazgo
▁forman
▁intentando
▁interno
▁sabido
▁supresión
▁abandonar
▁gases
▁pakistán
▁intentado
ado
▁desafío
▁ambiental
▁funcionar
▁argumento
▁referéndum
▁empresarios
▁llegue
▁interiores
▁quedar
▁época
▁moral
▁bretaña
▁japón
▁ambicioso
▁báltico
▁permiso
▁estrechamente
▁utilizado
▁contribuye
▁implicados
▁reconocido
▁cumplen
▁entendido
▁adecuadamente
▁sistemática
sen
▁dictamen
▁amenazas
▁comportamiento
▁exposición
▁intelectual
▁informado
▁tasas
▁ee
▁alternativos
▁positivas
▁barcelona
uu
▁debatido
▁marítimo
▁gubernamentales
▁2010
▁utilizando
▁llevan
▁patente
▁cientos
▁salarios
▁desarrollado
▁destacado
▁fijar
res
▁pudiera
▁inter
▁estadounidenses
▁proporciona
▁administrativa
▁merecen
▁trate
▁alemana
▁continúa
▁vinculante
sa
▁juventud
▁ahorro
▁venta
▁reacción
reestructuración
▁fe
▁secretario
▁sólida
▁fortalecimiento
▁negativa
'
▁ejército
▁recurrir
▁profunda
▁22
▁destinado
▁búsqueda
▁cooperar
▁acervo
▁limitado
▁llamada
▁aquel
na
▁humanidad
▁simplificar
▁firmado
▁competentes
▁dirigida
▁minoría
▁establecidos
▁crímenes
▁discusión
▁culpa
▁cometido
▁podía
▁confirmar
▁adoptó
▁materiales
▁española
▁sufrido
▁relativamente
▁realista
▁judiciales
▁80
▁dirigentes
▁finalidad
▁convencer
▁discutir
▁creen
▁escuelas
▁acabo
▁especies
▁equilibrada
▁importe
▁aire
▁enfrentan
▁competente
▁declarado
▁31
▁patrimonio
▁solicitudes
▁cumplido
▁absoluta
▁aeropuertos
▁cualquiera
▁alrededor
▁flexible
▁seguramente
▁acelerar
▁estratégico
▁consecución
▁jurídicas
▁menciona
▁patentes
3
▁fuertes
▁británicos
▁eeb
▁detalle
▁contamos
▁dependencia
▁aportación
▁toneladas
▁crédito
▁puerta
▁capacidades
▁compartir
▁tratando
▁británica
▁legitimidad
▁volumen
▁interesados
▁previa
▁vuelto
▁acogida
▁decirles
▁genéticamente
▁individual
in
▁intenta
▁recuperar
▁%.
▁ofrecen
ría
▁ganado
▁hubiese
▁invernadero
▁compartimos
▁indicadores
▁sigan
▁1995
▁resistencia
▁sanitarios
cuál
▁decía
▁delante
▁diría
▁negativo
▁macedonia
▁privada
▁sirve
▁decisivo
▁antiguo
▁refuerzo
▁celebrará
▁imprescindible
▁derivados
▁equipos
▁órgano
▁vigente
▁interesadas
hu
idad
▁división
▁vino
co
▁2020
▁histórico
▁aprendizaje
▁ido
▁posterior
▁convertir
▁anuales
▁honor
▁apropiado
▁reflexionar
▁transmitir
▁identificar
▁reciben
▁constantemente
▁acepta
▁aplique
▁candidato
▁logro
▁contactos
▁estudiantes
▁dirigidas
▁cambiado
▁oír
▁cuba
▁deseos
▁ataque
▁urgentemente
▁disponible
▁estable
▁belga
▁creer
▁considerado
▁accidente
▁federal
▁consolidación
▁gestionar
▁flota
▁comunicaciones
▁pertinentes
▁relacionado
▁organizado
▁preocupante
▁redacción
▁obvio
▁tragedia
▁diga
▁formulado
▁conservar
▁carreteras
▁ferroviario
▁incluyendo
▁prohibir
▁islas
▁apruebe
▁cadena
▁operación
▁peligrosas
▁probable
mo
▁efectivo
▁constituir
▁seamos
▁esperanzas
▁resaltar
▁dinamarca
▁maastricht
▁infantil
▁ritmo
▁administrativos
▁migración
▁consultas
siderablemente
comercialización
▁enseñanza
▁explicación
▁miedo
ma
▁convenios
▁cumple
▁comentar
z
▁ninguno
▁irlandesa
▁complejo
▁cáncer
▁produzca
▁aplicado
▁constructivo
▁encontrado
▁desastre
puede
ga
▁etapa
▁concede
▁propongo
▁abusos
íamos
▁pérdidas
▁tradicionales
▁berlín
cristianos
▁español
▁ojos
▁dificultad
▁hagamos
▁desempeña
▁favorecer
▁encaminadas
▁200
▁distancia
▁verano
▁usar
▁ponen
▁eslovaquia
▁milenio
▁suprimir
▁interesa
▁iniciado
▁prestación
▁26
▁pacífica
▁satisfacer
▁palestino
▁desarrollados
▁aprobadas
▁modernización
▁dirigido
▁científico
▁italiano
▁sentencia
▁requieren
▁discapacidad
▁conocemos
▁integrar
▁excepcional
▁adopten
▁bosques
▁liberación
▁12.00
▁venido
▁colaborar
▁decidió
▁participantes
▁estimular
▁transacciones
▁turco
▁políticamente
▁electrónico
▁ferrocarril
▁necesariamente
▁delito
▁esfera
▁debatimos
▁participado
▁coordinar
▁utiliza
▁integrado
▁opino
▁alimentación
▁querido
▁aborda
▁generaciones
▁riqueza
▁ponerse
▁marca
▁directo
▁retrasos
▁constatar
▁contratación
▁ésa
▁primavera
▁vi
▁pesquero
▁destinada
▁elevados
▁imposición
▁anexo
▁recortes
▁marruecos
ismo
▁sueca
▁convierta
▁comparte
▁ambición
▁estarán
▁bce
▁básicas
▁barcos
▁promesas
▁ventaja
▁apliquen
▁proponemos
9
▁minuto
▁edificios
▁tomen
▁debajo
▁pse
▁lógico
▁viaje
▁preparados
▁gaza
▁avanzado
▁lleve
▁inflación
▁resultan
▁finalizar
▁tradicional
▁azúcar
▁yugoslavia
▁aceptación
▁modos
demócrata
▁contribuirá
▁alegro
▁contribuciones
▁extrema
▁estaría
▁conoce
▁planeta
▁admitir
▁ampliamente
▁mínimas
▁estemos
▁plantean
▁ciencia
▁reviste
▁importación
▁comprensión
▁informaciones
▁indicado
▁obtenido
▁provisional
▁corazón
▁explicaciones
▁masiva
▁coincido
▁hambre
▁incentivos
▁cuentan
▁familiares
▁lituania
▁dio
▁di
▁aumenta
▁prevista
▁albania
▁leche
▁visado
una
▁damos
▁proveedores
▁cultivo
▁herramienta
▁retirar
▁tanta
▁privados
▁histórica
▁obligado
▁citar
▁siguiendo
▁intercambios
▁solicitantes
▁posteriormente
▁residencia
▁armonizar
▁vuelva
▁logros
▁veinte
▁28
▁generar
▁posiblemente
▁concentración
▁expresa
▁explotaciones
▁dará
▁realizando
▁roma
▁médicos
▁estatal
▁periodistas
ha
▁motor
▁verse
▁internos
▁latina
▁ginebra
▁refieren
▁dirigir
▁muestran
▁considerables
▁exigen
▁pe
▁religión
▁sucedido
▁tránsito
▁estadounidense
▁respeten
▁cuándo
go
▁firmeza
▁1,
▁conducir
▁tecnológico
▁obligatoria
▁ocupación
▁consolidar
▁cargas
▁suelo
▁dedicado
▁2,
▁presentan
▁preservar
▁funcione
podría
▁leer
▁automóviles
▁auténtico
▁dólares
▁asignación
▁fijado
▁mantenga
▁subraya
▁estando
quién
▁cubrir
▁debía
▁permanecer
ti
▁alcohol
▁básica
▁romaní
▁abuso
▁detener
▁altura
▁asociados
▁estándares
▁básico
li
▁composición
▁salida
ale
▁categorías
▁oficiales
▁vale
▁presentará
▁contempla
▁décadas
▁multilateral
▁utilidad
▁policial
▁canadá
▁observadores
▁expuesto
▁ambientales
▁legislatura
▁importa
▁mejorado
▁préstamos
▁incorporar
▁aplicando
▁integridad
▁exponer
▁legislativos
▁justamente
▁ricos
▁pesqueros
▁provocado
▁específicamente
▁cualificada
▁llevando
▁relacionada
▁administrativas
▁entidades
▁párrafo
▁satisface
▁autonomía
▁actores
▁básicamente
▁semejante
▁limitaciones
▁modifica
▁continua
▁70
▁dependen
▁israelíes
▁viable
▁débiles
▁unida
▁destaca
▁resultar
▁terrible
▁rechazado
▁29
▁90
▁resumen
▁detrás
▁italiana
▁sanidad
▁campañas
▁dinámica
▁comprendo
▁pura
▁sustituir
▁inundaciones
▁modelos
▁modificados
▁proporción
▁ecológica
▁reiterar
▁condenar
▁querría
▁carece
▁esperando
▁estabilización
▁donantes
▁peligrosos
▁obliga
▁negro
▁represión
▁peligroso
▁integrada
▁justificar
▁poniendo
▁desarrollando
▁salvar
▁peces
▁cierra
▁renta
▁suspensión
▁realizadas
▁niño
▁expediente
▁demandas
▁pre
▁establezca
ri
▁impone
vi
▁particulares
▁extranjero
▁negativas
▁permitiría
▁distinto
▁tantas
▁franceses
▁per
▁daño
▁reparto
▁encuentro
artículo
▁pretenden
▁sindicatos
▁expresamente
va
▁repito
▁incendios
▁conocido
▁egipto
▁primeras
▁malta
▁acogemos
▁distinta
▁evaluaciones
▁llegan
▁introducido
▁obstáculo
▁vayan
▁noticias
▁transposición
▁mínimos
▁aplicables
▁satisfecho
er
▁negocios
▁compañeros
k
▁chechenia
▁mínima
▁activos
▁recogida
▁olaf
▁excesiva
▁ése
▁valoración
▁libremente
▁velocidad
▁viajar
▁combustible
▁balance
▁tradición
▁democratización
▁ganar
▁premio
▁desigualdades
▁limita
▁creando
▁inteligente
▁socialdemócrata
ten
▁presiones
▁ambiciosos
▁tantos
▁detrimento
▁formal
▁respete
▁implicadas
debate
▁quinto
▁esencia
▁negativos
▁tamaño
▁londres
▁abarca
▁sustancial
▁unánime
▁globales
▁millón
▁ultraperiférica
▁procedente
▁obligatorio
▁agrado
▁tropas
▁influir
▁prestado
▁derecha
▁significado
▁inversores
▁aumentando
▁pendientes
cee
▁ayudará
▁década
▁pensando
▁incorporación
▁habitual
▁resulte
▁beneficiarse
▁intentos
▁portuguesa
▁concierne
▁abastecimiento
▁basarse
▁profundo
▁pidiendo
▁formulación
▁fácilmente
u
▁sensación
▁cabeza
▁corregir
▁multinacionales
▁alentar
▁placer
▁transformación
▁desempeñado
▁haremos
cu
▁beneficiarios
▁proliferación
ando
▁estaremos
▁vive
▁continuidad
▁manifestaciones
▁ratificado
▁apoye
▁biodiversidad
▁darles
▁cristianos
▁pasando
▁adaptar
▁figuran
▁sincero
▁sencilla
▁cuerpo
▁nueve
▁privadas
▁participan
▁energéticos
▁35
▁doce
▁abstenido
▁preparativos
▁minas
para
▁realiza
))
▁completar
▁digital
▁ampliada
▁obras
▁africanos
ne
▁diré
▁peligros
▁tolerancia
▁serían
▁confusión
▁colectiva
▁conciudadanos
▁períodos
▁carbón
▁firmar
▁pedirle
▁internas
▁caída
▁exceso
▁anti
▁precedentes
▁combustibles
▁extranjeros
nte
▁uniforme
▁cumpla
▁comunista
▁israelí
▁utilizarse
so
▁eficazmente
▁radical
▁nación
▁2000.
▁establecidas
▁afectado
▁moderna
▁convencida
▁sencillo
▁navegación
▁deseable
▁positivamente
sí
ada
▁tenían
▁realizan
▁culturas
ya
▁fiscalidad
▁libia
▁uem
▁reaccionar
▁brasil
▁siria
▁responde
▁concedido
▁programación
▁emplear
▁paro
▁darse
▁movimientos
▁presos
▁líder
▁mutua
▁herramientas
▁notable
▁túnez
0
▁monetario
▁favorablemente
▁rigor
▁afirmación
ja
▁criminales
▁penales
▁manteniendo
▁iba
▁recoge
▁utilizados
▁seguiremos
▁sugerencias
▁conductores
▁cultivos
▁dublín
▁fuego
▁instituto
▁intensificar
dministraciones
▁decisiva
▁isla
▁establecen
▁atentados
▁transeuropeas
▁2009.
▁anunciado
▁quiera
ci
▁umbral
▁exención
▁pretexto
▁elegidos
20
▁útiles
▁textil
▁emitir
▁birmania
▁sufrimiento
▁tradiciones
▁tortura
▁delegaciones
▁noticia
▁mantenerse
ándose
▁tierras
▁asesinato
sk
▁confiar
▁mirar
▁reside
▁delicado
▁satisfechos
▁universidades
is
▁rusa
▁s
▁sólido
▁cuota
▁fueran
▁celebrada
▁preparado
▁juegos
▁llama
▁estricta
▁provocar
▁flujos
▁combinación
▁reconciliación
▁implicación
▁vinculantes
▁misiones
▁comprar
▁centrarse
▁reformar
▁seria
▁duradera
▁previstas
▁tomando
▁competir
▁viernes
▁xxi
▁irregularidades
▁acoger
▁contenidos
▁salvaguardar
▁apoyen
▁impide
pa
▁doha
▁satisfactorio
▁confirma
▁acertadamente
▁defensores
▁san
▁autores
pe
▁sangre
▁proseguir
▁parlamentarias
▁aniversario
je
▁avanzando
▁sitio
▁normalmente
▁líbano
▁tuvimos
▁moldova
lt
▁plantas
▁entusiasmo
▁rendimiento
▁transparentes
▁cláusulas
▁representar
▁suiza
▁mantienen
▁desempeñan
▁definitivo
▁previsiones
▁recuerda
▁participen
▁inseguridad
▁conservadores
▁plenaria
▁restablecer
▁centra
▁dije
▁considere
▁contribuyen
▁tercero
▁previo
▁lanzar
▁dura
▁enviado
▁2007,
▁paga
▁rechaza
▁ruta
▁lunes
▁proponen
▁hicieron
▁renovación
pi
▁corre
▁someter
▁ocurrir
▁busca
▁piensos
▁silencio
▁definitivamente
▁ignorar
▁separado
▁preocupan
▁presta
ble
▁vuelos
▁miércoles
▁religiosa
ter
▁estrictamente
▁pertinente
▁conlleva
▁movilización
▁complicado
▁prever
▁sensible
▁infracción
▁monedas
▁garanticen
▁almacenamiento
▁prioritario
▁terrorista
▁2009,
▁profundidad
ados
▁patten
▁continuamente
▁golpe
▁solicita
▁tuvieron
▁amigo
▁interrumpe
▁sudán
▁ciento
▁bei
▁tomamos
▁investigar
▁aviones
▁legislaciones
▁suponen
▁nombramiento
▁ashton
▁convicción
▁2010.
▁realizada
▁comités
▁limitación
▁puertas
▁ruso
▁persecución
▁censura
▁continúe
▁identificación
▁apoyando
▁batalla
▁gradual
▁joven
▁vigentes
▁ecológico
▁estima
▁2006,
▁decimos
▁modificado
▁limitada
▁tuve
▁bilateral
▁director
▁procurar
▁contradicción
▁habiendo
▁humanas
▁acoge
ista
▁mera
▁pilares
▁respeta
▁gravedad
▁seguirán
▁pertenecen
▁esencialmente
▁muerto
▁compañía
▁presionar
▁genera
▁disminución
v
▁ocupar
▁estrictos
▁produciendo
▁automóvil
▁disponen
▁300
▁ocuparse
▁reconozco
▁produzcan
▁víctima
▁solana
▁brinda
▁p
▁demasiada
▁instar
▁negar
▁ambiciosa
▁crítico
▁vínculos
▁extensión
▁inferior
▁sida
▁verheugen
▁hablo
▁débil
▁centrar
▁práctico
▁coordinada
▁agosto
▁unilateral
▁demora
▁transmisión
▁sudáfrica
▁esperemos
▁verts
▁escasa
▁apoyan
▁tendencias
▁electores
▁diario
ni
▁exhaustiva
▁dimensiones
▁llegó
▁húngara
▁causado
▁potencia
▁separación
▁rendir
▁sede
▁informal
▁cualificaciones
▁altamente
▁empezando
▁compleja
▁denominada
▁votaremos
▁pescado
▁declarar
▁detenidamente
ia
▁detallada
▁miras
▁disponibilidad
▁incumplimiento
▁afirmado
▁ocupan
▁discusiones
▁productividad
▁jubilación
▁apropiada
▁realizarse
▁preguntarle
%
▁celebramos
▁favorables
▁toman
áramos
▁excesivo
▁distinción
▁puerto
▁duro
▁económicamente
▁disciplina
▁poca
▁urgentes
▁afortunadamente
▁regla
mi
▁alde
▁beneficia
▁convencidos
miento
▁mundialización
▁revolución
▁confirmado
▁galileo
▁dedicar
▁ruido
▁tratan
▁recordarles
▁magnitud
▁observatorio
▁reforzada
▁aérea
cs
▁sucesos
▁religiosas
▁publicación
▁frase
▁meridional
▁consonancia
▁acaban
▁debida
▁cig
▁federación
▁2005,
▁escuela
▁eslovenia
▁otoño
▁normativas
tu
▁voluntaria
▁eco
▁justificación
▁comprensible
bi
▁obligar
▁abordado
▁intervenido
▁directas
▁2010,
está
▁suponer
▁fuese
▁schulz
▁comitología
▁osce
▁mención
▁coches
▁griego
▁madre
za
▁deba
▁vínculo
▁sometido
▁deriva
▁modalidades
▁defiende
▁voluntario
▁observado
ngl
▁olvidemos
▁serias
▁fabricación
▁ocurriendo
▁asistir
▁adquirir
▁escasez
▁vacuno
▁previstos
▁congo
▁realice
▁propuso
▁consultar
▁subrayado
▁trataba
▁adaptarse
▁producirse
▁exhaustivo
▁preocupados
▁recibe
▁sorprendente
▁jamás
▁salvo
▁2007.
▁razonables
▁sres
▁calificación
▁1994
▁lamentar
▁difusión
votación
x
▁viabilidad
▁conocen
▁ecofin
▁circunstancia
▁posee
▁énfasis
▁3,
▁investigadores
▁dictadura
▁legalmente
▁brok
iéramos
▁plurianual
▁directos
▁lecciones
▁contienen
▁inmunidad
▁escocia
▁químicos
▁aras
▁haría
▁devolver
▁vean
▁beneplácito
▁convierte
▁tratarse
▁inglés
▁kyoto
▁supervisar
▁fórmula
▁ambiciones
▁fischler
▁atlántico
▁suele
▁basadas
▁secretaría
▁primordial
▁piden
▁ventas
▁inspección
▁alimenticios
▁piensan
▁cobertura
▁aporta
▁pudieran
▁árabe
▁f
▁efectuar
▁desastres
▁contaminantes
istas
▁congreso
▁santer
▁abre
▁transacción
▁»
▁viajes
dores
▁selección
▁ejecutivo
▁estricto
▁inspecciones
▁web
▁xenofobia
▁testigos
▁juzgar
▁excluir
▁compensar
▁gustado
▁pidió
▁treinta
▁prestaciones
▁incertidumbre
▁sensibles
▁concluido
▁auto
▁ocurrió
▁absurdo
▁estocolmo
▁irlandeses
▁sorprende
▁conduce
▁complementaria
▁ideal
▁aspiraciones
▁atañe
▁vuelta
▁alemanes
▁responda
▁entablar
adas
▁fútbol
▁propuestos
▁so
▁recordado
▁cero
▁piloto
▁harán
hay
▁enfrentarse
▁informados
▁abolición
▁referencias
▁hub
▁existan
▁4,
▁sueco
▁actuaciones
▁gue
▁jefe
▁pacífico
▁letra
▁aprobamos
▁tendrían
▁justifica
▁perjudicial
▁ratificar
ras
▁homenaje
▁vivimos
▁listas
▁soldados
▁tendríamos
▁sentimiento
▁circunscripción
▁victoria
▁vicepresidenta
▁crean
▁corriente
▁asignar
▁utilicen
▁gastar
▁adopta
▁droga
▁2020.
▁justificada
▁prácticos
▁dotar
▁integral
▁2008.
▁surgido
▁resuelto
▁agraria
▁interesantes
▁recalcar
▁excesivamente
▁diputada
▁hablan
▁señales
▁precisión
▁imaginar
▁contrato
▁secreto
▁promesa
▁dejando
▁externos
▁comenzado
▁concesiones
▁basándose
▁cometidos
▁aparece
▁finlandesa
▁k
▁tensiones
▁moción
▁salario
▁entra
▁acusaciones
▁votamos
▁implicar
▁fundamentos
▁gravemente
▁reducciones
▁opina
▁frontex
▁sala
▁compra
▁vienen
▁deje
▁inquietud
▁escenario
▁manifiesta
▁indudablemente
▁vuelve
izar
▁conmigo
▁desacuerdo
▁objeciones
▁lección
▁oponemos
▁supondría
▁excelentes
ir
▁sostenibles
▁mencionados
▁tecnológica
▁componente
▁determinada
▁cuánto
▁cofinanciación
▁conceptos
▁ferrocarriles
▁insta
▁gusto
▁nuevamente
▁entendimiento
▁complejidad
▁ciclo
▁carrera
▁exclusiva
▁energéticas
▁individuos
▁problemática
▁administrativo
▁letonia
tas
▁precedente
▁continúan
▁tampere
▁animar
▁civilización
▁vivienda
▁consejos
▁temor
▁indican
▁electrónicos
▁muertes
▁ajuste
▁aportaciones
ing
▁juguetes
▁ahorrar
▁múltiples
▁n
▁transcurso
▁celebró
▁'
tiene
▁helsinki
▁mensajes
▁venir
▁existiendo
▁kioto
▁asumido
▁griega
▁partidarios
▁dotación
▁relevante
▁asegurarse
▁moratoria
▁alerta
▁cito
▁capturas
▁contribuya
▁estonia
▁clientes
▁apartados
▁tíbet
▁relevantes
▁rusos
▁fronterizos
▁conexión
▁consentimiento
▁plataforma
▁renunciar
▁traducción
▁puso
▁amplias
▁médico
▁escándalo
et
▁llevada
▁continuo
▁hubieran
▁sentencias
▁postales
▁disfrutar
▁reciban
▁guerras
▁bloqueo
▁respetando
▁pesqueras
▁corta
▁respectivos
▁criticar
▁gusta
▁genocidio
▁devolución
▁triste
▁médica
▁falsificación
▁cuesta
▁ocupado
▁expansión
▁lamentamos
▁referendo
ntes
▁respondido
▁forestales
▁reconocemos
-0
▁ética
▁ministra
▁francamente
▁denominado
▁explica
▁tomarse
▁corte
▁produjo
▁teníamos
▁lenguaje
▁intentan
▁colectivos
▁infracciones
▁timor
▁aquella
▁adoptando
rán
▁sienten
▁compatible
▁actuado
▁estratégicos
▁muertos
▁movilizar
▁aduanera
▁inestabilidad
▁leído
▁conseguimos
▁méxico
▁decirse
▁colegio
▁africana
▁vea
▁residentes
▁marcado
▁reduce
▁implicaciones
ig
▁75
▁destinar
▁deterioro
▁proteccionismo
▁contraria
▁coherentes
▁fases
▁encaminada
dor
▁trabaja
▁aplazamiento
▁nombres
▁peligrosa
▁plátanos
▁prometido
▁fiable
▁preferencias
▁bush
▁células
▁maneras
▁vacío
▁limitarse
▁firmes
▁realistas
▁iguales
▁sensibilidad
▁extraer
▁estuvo
▁renovable
ue
▁coalición
▁querer
▁etiqueta
▁abiertos
▁éxitos
▁romaníes
▁preparando
▁centrarnos
▁fui
j
▁45
▁retorno
▁física
▁quejas
▁solicito
▁hogares
▁acero
▁creíble
▁definido
▁desarrollarse
▁tomo
▁deseado
▁jurídicamente
▁introduce
▁2006.
▁radica
▁núcleo
▁supervivencia
▁decenas
▁destruir
▁estilo
▁desplazamiento
▁inevitable
▁soviética
▁competitivo
▁respetan
smantelamiento
▁opone
▁perjudiciales
▁cincuenta
▁reclamaciones
▁flexibles
▁comparten
▁forestal
▁dejan
▁potenciales
▁extraordinario
▁contestar
▁encargado
▁abiertamente
▁tarjeta
▁sometidos
▁mantenemos
▁provoca
▁echar
▁acertado
▁expresadas
▁zimbabue
▁cautela
▁negocio
▁omg
▁centrado
▁cuarta
▁componentes
▁sugiere
▁afectada
▁viajeros
▁2004.
▁sufrir
▁defendido
▁unitaria
▁1992
▁pase
▁sección
▁aquello
▁refuerza
.000
▁publicado
▁contemplar
▁argelia
▁dióxido
▁montenegro
▁colombia
▁aceptamos
▁excusa
▁licencias
▁niega
▁sanitario
▁rumbo
▁preste
▁votantes
▁indicación
▁semestre
▁discursos
▁verdaderos
▁legítimo
▁bruto
▁pretendemos
▁sugerencia
▁asignado
▁democracias
▁pronunciado
▁conozco
▁avanzada
▁desear
▁sujetos
▁reconozca
▁entretanto
▁presidencias
dónde
▁veremos
▁verá
▁occidente
▁ma
▁inadmisible
▁operativo
▁auditoría
▁viena
▁insuficientes
▁the
or
ul
▁recesión
▁encuentre
▁explícitamente
▁tuviera
▁vigilar
▁vial
▁mío
▁conveniencia
▁envejecimiento
▁garantizando
▁geográfica
▁ecológicos
▁valorar
▁empezado
▁sa
▁hamás
▁nigeria
▁otorgar
lu
▁atender
▁kinnock
▁citado
▁lleven
▁2005.
▁pensamiento
▁innecesaria
▁sustitución
▁actuando
▁demasiadas
▁registrado
cod
▁verán
▁infancia
▁islandia
▁pesc
▁viendo
▁electorales
▁queden
▁consigue
▁complementarias
▁deberemos
▁profundizar
▁página
▁quisiéramos
▁formuladas
▁planteadas
▁pensado
▁entrega
▁desleal
▁evidencia
▁1990
▁condenado
▁explotar
▁sepa
▁funcionan
▁corren
▁entiende
▁perjuicio
▁guinea
qui
▁polacos
▁acordó
▁eurostat
▁llegada
▁perseguir
▁fiabilidad
▁extender
▁caer
▁llevará
▁compartida
▁referendos
▁vender
▁progresiva
▁edificio
▁repercusión
▁redactar
▁madera
▁cáucaso
▁400
▁reunir
tar
▁carecen
▁llamados
▁examinando
▁potencias
▁cruciales
▁humanitario
▁incapacidad
▁progresar
▁idiomas
▁quieran
▁deliberaciones
▁implantación
▁sufre
▁sigo
▁decidida
▁ocultar
▁digno
▁prisión
▁elevada
cuáles
▁protesta
▁policiales
▁reflejan
▁séptimo
▁seriedad
▁acepte
▁modificada
▁humanitarias
▁recomendar
▁vih
▁comprende
▁armamento
▁madrid
▁privatización
▁oficinas
▁insiste
▁37
▁entendemos
▁estímulo
▁válido
▁exigimos
▁sucediendo
▁prisioneros
▁sentir
▁permitirán
▁sexto
▁conducción
▁comprendido
▁avión
▁camiones
▁equivalente
▁suspender
▁fruto
▁yugoslava
▁felicitaciones
▁ocurra
▁pudo
▁memoria
▁delicada
▁relevancia
▁desempleados
▁echo
vo
▁rechazamos
▁estimadas
▁decide
▁ca
▁luchando
▁denunciar
▁jornada
▁asesoramiento
▁especulación
man
▁enérgicamente
▁textiles
▁costas
▁utilice
pero
▁químicas
▁pertenece
▁ad
▁suceder
▁liberar
▁aranceles
▁oponen
ación
▁radio
▁monti
▁otorga
▁científicas
▁darnos
▁mediterránea
▁fiables
▁examinado
▁1999.
▁hacía
▁preguntado
▁queridos
▁monopolio
▁nacionalidad
▁suya
mocráticamente
5-
▁incondicional
▁parecido
▁afectar
▁ayude
▁detenidos
▁equivale
▁captura
▁benefician
▁sustancia
▁monopolios
▁hong
▁huelga
▁desigualdad
▁efectividad
▁reanuda
▁chinos
▁soportar
▁continuará
▁eficientes
▁preferencia
▁aparatos
▁dios
▁terminado
▁rumania
▁establezcan
▁sirven
▁aplaudo
▁electrónica
▁tocante
▁actúe
▁iraquí
▁suelen
▁blair
▁satélite
▁operativa
▁tarifas
▁oportuna
car
▁fiebre
▁maternidad
▁filosofía
▁sexo
▁pobre
▁elevar
▁comunicar
us
▁hemiciclo
▁hipocresía
▁río
▁vuelvan
nt
-20
▁operan
▁recomienda
▁erradicar
▁colectivo
▁2012
▁cuantos
▁haré
ón
▁tomadas
▁explicado
▁resolverse
▁concepción
▁basan
▁aceptables
▁cotidiana
▁indonesia
▁perteneciente
▁encuentren
▁permanentes
▁frenar
▁llamadas
▁periódicos
▁legislar
w
▁intentamos
▁48
▁cereales
▁ofrecido
▁disminuir
▁experimentado
▁aprendido
▁bandas
▁voluntarios
▁consta
▁desaparición
▁parcialmente
▁plaguicidas
▁conseguirlo
▁diseño
▁flujo
▁deseen
▁críticos
▁obligada
fa
▁cargos
▁extraño
▁j
▁delincuentes
▁inocentes
▁odio
▁invito
▁salvaguardia
▁ofrezca
▁abiertas
▁terribles
▁desprende
▁supongo
▁optado
▁vergüenza
ch
▁muro
▁preparada
▁detallado
▁cien
▁temores
▁billetes
▁entran
▁baronesa
▁permitiendo
▁norteamericanos
▁unirse
ido
▁objetiva
▁abandono
▁prioritarios
▁manifestación
▁von
ria
▁publicar
▁incidentes
▁normalización
▁siente
▁lagunas
▁adquisición
▁vecino
▁aplazar
▁flotas
▁audiencia
▁mutuamente
▁erradicación
▁valioso
+
▁comunicado
rnos
im
▁superiores
▁recoger
ran
▁reduciendo
▁basados
▁frattini
▁hicimos
▁ro
▁inaceptables
▁mero
▁apropiadas
▁confiamos
▁descenso
▁redactado
▁transferencias
▁opongo
▁insisto
▁agradecido
▁sumo
▁ganaderos
▁reforzado
▁acordar
tal
▁idioma
▁estratégicas
▁estábamos
▁herzegovina
▁obtención
▁mérito
▁chino
▁descanso
▁quedó
▁extremo
▁desarme
▁implementación
▁biocarburantes
▁dejemos
▁dejen
▁viviendo
▁kong
▁símbolo
▁2003.
▁significativos
bo
▁indemnización
▁mercurio
▁sufriendo
▁clasificación
▁fundación
▁intermedia
▁equivocado
▁aves
▁acertada
▁gama
ros
▁septentrional
▁2020,
▁anuncio
▁ordenación
▁actúa
▁mente
▁multilaterales
▁gratitud
▁ocde
▁presentamos
▁comienzos
▁1993
▁prioritaria
▁preguntarnos
▁españoles
▁aclaración
▁digna
▁profesores
▁hiciera
▁naval
▁rúbrica
ex
▁efectivas
▁5,
nd
▁empeño
▁diplomacia
safortunadamente
▁declara
▁aumentará
▁inicialmente
▁neerlandés
▁fracasado
▁justas
▁ministerial
▁intensidad
▁atún
▁creó
▁entrado
▁podían
▁adoptarse
▁lógicamente
▁calentamiento
▁sitúa
▁variedad
▁parecía
▁innovadoras
▁prestando
▁educativos
▁espectro
▁york
▁racional
tro
▁tardar
▁presenten
▁lograrlo
bles
▁orientada
▁mantengan
▁lleguen
▁superficie
▁italianos
▁obligatorios
▁índice
▁turca
▁sol
▁repetidas
▁trasladar
▁expresada
▁proporcionado
▁externa
▁perdiendo
▁pluralismo
▁tomó
▁dumping
▁valiosa
▁profundas
▁ciudadanas
▁h
▁preocupado
▁aislamiento
▁parís
▁piedra
▁reacciones
cuándo
▁terror
▁jurisdicción
▁bancario
▁públicamente
iendo
▁caracteriza
▁sirva
▁cita
▁culpables
▁participa
▁adultos
▁conceda
▁llevamos
▁meta
▁pediría
▁aliados
▁sub
▁maniobra
▁entraña
▁impuestas
▁escena
▁previamente
▁empresariales
▁musulmanes
▁levantar
▁palacio
▁revela
▁v
▁fenómenos
▁desequilibrios
tra
▁formalmente
▁aproximación
▁pensión
▁demasiados
▁magnífico
▁ra
▁voten
▁despidos
▁legalidad
per
▁salido
▁metas
▁reducida
▁evidentes
▁regulador
▁étnicas
▁dirijo
▁alimentarios
▁atentamente
▁esferas
▁recomiendo
▁partidario
▁junta
▁ayudado
▁clases
▁pensionistas
cos
▁justificado
▁polaco
▁presidenciales
▁rutas
▁conjuntas
▁desarrolla
▁competitivos
▁reflejar
▁orgullosos
▁adquirido
▁imperativo
▁inteligencia
▁biológica
▁clonación
▁declaró
▁extremistas
▁transferir
▁levanta
▁volviendo
▁complicada
be
tó
▁normales
▁unidades
▁consecuente
▁ejecutar
▁serios
▁celebra
▁aprecio
▁históricos
▁vehículo
▁mo
▁realidades
▁corresponden
bamos
▁dependerá
▁horizontal
▁garantizará
▁mugabe
▁expuestos
▁aumente
▁aprobados
▁medir
▁estableció
▁invitación
▁martes
▁fmi
▁lingüística
▁pendiente
▁abogados
▁realicen
▁leal
▁sadam
▁acontecimiento
▁bacalao
▁consigo
▁sexuales
▁automáticamente
▁aceite
▁únicos
ida
▁existía
aunque
▁milosevic
▁nórdica
▁propietarios
▁respalda
▁prostitución
▁aeropuerto
▁permisos
▁excepcionales
▁invitar
▁noruega
▁tensión
▁aparentemente
▁incluyan
▁2002.
▁excelencia
▁insistido
▁bajas
▁dominio
▁danesa
ve
▁pagan
▁laeken
▁permitirse
▁favorece
▁apunta
alianza
acaso
▁certeza
▁guantánamo
▁taiwán
▁profesión
▁ministerio
▁ciudadana
▁2011
▁seguras
▁define
▁asesinatos
▁encarecidamente
▁washington
▁protestas
▁distorsiones
▁prudente
▁t
▁derivadas
▁diagnóstico
▁jurisprudencia
▁pertenencia
▁genética
▁acudir
▁caza
▁autorizar
▁estipula
▁aéreos
▁jugar
▁transitorio
▁remedio
▁aborto
▁verificar
▁poseen
▁oficialmente
▁barnier
▁decepción
▁hacernos
▁ko
▁sentado
▁anunciar
▁swoboda
▁vacaciones
▁rigurosa
▁libros
▁migratorios
▁indicaciones
▁transatlántica
▁asegurarles
▁149
▁vivos
▁150
▁sucedió
▁decididamente
▁radicales
▁etcétera
▁insistencia
▁frutos
▁inmensa
▁canciller
▁reach
▁largos
▁extranjeras
▁neerlandesa
bremos
▁iraní
▁jueces
▁preferido
▁retórica
▁facilita
ie
cns
▁posteriores
▁saludo
▁moscú
▁ampliado
▁inevitablemente
▁garantizado
▁empleado
▁peores
▁innovadores
▁preventiva
▁marino
▁proceden
▁móviles
▁guarda
▁implican
▁establecerse
▁adherirse
▁inteligentes
▁cálculo
▁recorte
▁acompañado
▁capítulos
▁legítima
▁temporales
▁haití
▁intensa
ge
▁teoría
▁diplomática
▁entero
▁compartido
▁significaría
▁azul
▁facilidad
▁felicitando
ad
teroperabilidad
▁instancias
▁ferroviaria
▁demográfico
▁ingreso
▁exportar
▁martin
▁aliviar
▁mental
▁autónomos
▁iii
▁vinculados
▁emprendido
▁inquietudes
▁índole
▁máximos
▁periódico
▁turcos
▁restricción
▁desarrolle
▁buscando
▁siglos
▁advertencia
▁cartas
▁competitivas
cha
▁transformar
▁atractivo
▁desventaja
▁retomar
▁iniciales
▁negociado
▁descrito
▁surgir
▁danubio
▁ejerce
▁americanos
cia
▁halla
ña
▁incapaz
▁prórroga
▁mueren
▁observamos
cr
▁incluirse
▁surgen
▁llevó
▁fijación
▁sumas
▁emergentes
▁alarmante
▁seremos
▁salarial
▁hallar
▁queríamos
▁complejos
▁unificación
▁temprana
▁educativo
▁unir
▁protegidos
▁adoptan
▁desfavorecidas
▁tratamos
▁biotecnología
▁satisfecha
pro
▁tenerse
▁causar
▁consideren
▁veto
▁planteada
▁astilleros
▁kilómetros
▁incidente
▁promueve
▁hable
▁avanza
▁inspectores
▁incentivo
▁restantes
▁posturas
▁criminal
▁supondrá
▁comprometerse
▁32
▁aparición
▁portugués
▁propaganda
▁bloque
▁supuestamente
▁conferencias
▁acercamiento
su
▁arma
▁urbanas
▁mejorando
▁direcciones
▁discutiendo
▁poettering
▁reciprocidad
▁rentabilidad
)).
▁aftosa
▁prudencia
▁muestras
▁sueño
▁darfur
▁fomenta
▁proporcionan
▁vote
▁superado
▁costeras
▁buscan
▁duras
▁atmósfera
▁diversificación
▁estudiando
▁regulaciones
▁6,
▁quedarse
▁titulares
▁celebrando
▁logramos
▁imponen
▁aquéllos
▁penas
▁notablemente
▁bar
▁mares
▁distinguir
▁vivo
▁austriaca
▁mu
▁notificación
▁visitar
▁ocupe
▁entidad
▁malas
▁sigamos
▁equitativa
▁banda
▁disculpas
▁tono
▁estimado
▁sensibilización
▁potenciar
▁acercar
▁antiguas
▁valentía
▁combinar
▁canales
▁suceda
▁funcionando
europa
▁territoriales
▁fechas
▁sentimos
▁observancia
▁diplomáticos
zo
sin
▁incorporado
▁preventivas
▁tolerar
▁espacial
▁remuneración
▁bolkestein
▁fallos
▁paciente
▁dadas
03
▁once
▁provecho
▁equivocada
▁sentimientos
▁observa
▁prima
fe
5-02
▁llegamos
▁acierto
▁incapaces
▁ártico
▁ind
▁verificación
▁recorrer
▁atentado
▁formado
▁parar
um
▁recibió
▁zimbabwe
▁competidores
▁95
▁entredicho
▁modernizar
▁crediticia
▁tra
▁malos
▁regresar
▁amplios
▁altas
▁verdaderas
▁cuestionar
▁sanitarias
▁asignados
▁intenso
▁rechazada
▁profesor
▁discutido
ice
▁instamos
▁mencionadas
▁cambia
▁faltan
▁hoja
▁cría
▁certificación
▁descubierto
▁votó
▁optar
▁esperado
▁situar
▁solicitamos
▁incomprensible
▁debilitar
▁agradecerle
▁restringir
▁árabes
▁gradualmente
▁interrumpido
▁muchísimo
▁protege
▁reconocen
▁creatividad
▁conseguiremos
▁alarma
▁visible
▁círculo
▁estuviera
▁surge
▁comenzó
▁descubrir
bu
tan
▁aportado
ica
▁tren
ábamos
▁olvidado
▁sugerido
▁miseria
ver
▁aplicaciones
▁alternativo
▁beneficioso
▁audiovisual
▁camboya
▁brecha
▁coincide
tos
▁equitativo
▁irresponsable
▁dirige
▁contribuyente
▁sustanciales
▁cualificados
▁preferible
▁definiciones
▁innovaciones
▁afirmaciones
▁increíble
gi
▁brutal
▁hecha
▁subvención
▁ocm
▁sobrevivir
▁romper
ac
▁adoptamos
▁étnica
▁inglaterra
▁ocuparnos
▁comparar
▁semejantes
▁perfecto
▁injusto
▁húngaro
▁urbana
▁hogar
▁to
▁páginas
▁fija
▁phare
▁precaución
▁regreso
▁daneses
▁reflexiones
▁garantizan
▁presentarse
▁cárcel
▁escaso
▁brindar
▁rigen
▁cielo
▁encontrarse
▁pesados
▁generalizada
▁votará
▁costumbre
ini
▁describir
▁oradora
▁michel
▁estuve
▁estableciendo
▁l
▁limitados
▁estrecho
▁fusión
▁enhorabuena
▁masa
▁bálticos
▁reunido
▁marítimas
▁universidad
▁conducido
▁contabilidad
▁compatibles
▁m
▁subida
▁obtenidos
▁actúan
▁38
▁amparo
▁36
▁someterse
▁geográficas
▁mediación
▁indirectamente
▁viviendas
▁importar
▁vuelo
▁madres
▁recortar
▁paralelamente
du
▁inequívoca
▁asuma
▁empieza
▁deudas
▁reducidos
▁acepto
▁arriba
▁austeridad
▁validez
▁fría
▁centrarme
▁reciba
gu
▁traslado
▁correo
▁ferroviarias
▁aplicará
▁preadhesión
▁corrección
▁reciclado
▁barco
▁contenidas
▁aparecen
▁te
▁dispongo
▁eludir
▁queja
▁implantar
▁inútil
▁incidencia
▁sensato
▁33
▁respaldado
▁oportunas
▁extradición
▁haciéndolo
▁voces
▁ba
▁defienden
▁contradicciones
▁ofreciendo
▁suecos
▁tercio
▁of
▁afirman
▁ejemplar
▁reafirmar
▁largas
proporcionalidad
▁recordemos
▁operativos
▁abogado
▁planteamientos
▁imágenes
▁foros
▁[
▁causados
▁denuncia
▁respectivas
▁55
▁motores
▁legítimas
▁convirtiendo
▁hice
▁dedicación
ec
▁resultará
▁elabore
▁supera
▁participe
▁saludable
▁beneficiar
▁limpieza
▁conciliar
▁ideología
▁riguroso
▁plátano
▁apreciar
▁vacas
▁dirigidos
esto
▁suministros
▁explícita
▁votaré
son
▁accesible
▁aceptadas
▁na
▁meda
▁inició
▁regularmente
▁dis
▁atraer
▁golfo
era
▁65
▁mediterráneos
▁ceder
po
▁trans
▁deficiente
▁persigue
▁indicios
▁entregar
▁retrasar
▁constar
▁intercambiar
▁cumbres
▁recogido
▁contribuyendo
▁lanzado
▁li
▁expreso
▁previsión
▁interrupción
▁actitudes
ré
▁reactores
▁celebre
▁permitirnos
▁paritaria
▁lanzamiento
▁electorado
▁significativas
▁cometer
▁pronunciarse
▁acompañada
(
▁correr
▁garantizada
▁logra
▁elaborando
▁34
▁prohíbe
▁terremoto
▁sitios
▁estaríamos
▁esperaba
▁lazos
▁ajustes
▁aplicadas
▁aduanas
il
▁natura
ed
▁nombrar
▁lleno
▁impunidad
▁perjudicar
▁euratom
dem
▁viola
▁violentos
▁establecida
ones
▁estabilizar
▁serbios
▁rusas
ásemos
▁meramente
▁sorpresa
▁sri
▁calle
▁servirá
▁sepan
▁jean
▁lanka
▁declaro
▁intolerable
▁cumpliendo
▁anteproyecto
▁142
▁excluidos
▁efectivos
▁putin
▁negociando
▁mejore
▁subsidios
▁fronterizas
▁malo
▁turcas
▁registros
▁objeción
▁posselt
▁profesiones
▁espacios
▁toca
▁últimamente
▁trabajamos
▁diera
▁concentrar
▁conocida
sobre
▁eléctricos
▁respetado
▁asciende
▁breves
▁designación
▁8,
▁parámetros
▁bandera
▁sospecha
▁blanqueo
▁pornografía
▁semillas
▁generalmente
▁preguntarse
▁panorama
▁vietnam
▁tacis
▁reanudación
▁uen
▁sustancialmente
▁sugerir
▁armadas
▁liga
▁recae
▁decida
▁orales
▁abajo
▁comprometidos
▁hechas
▁consultivo
▁representados
▁elevadas
▁anunció
▁gesto
▁7,
▁sensata
▁sujeto
▁reclamar
▁etapas
tivo
▁mercosur
▁olímpicos
▁pasan
▁comienza
▁desequilibrio
▁existido
▁permito
▁mejorará
▁consiga
th
▁prohibido
▁transcurrido
mar
▁sudeste
▁excepto
▁suyo
▁transportistas
▁apoyará
▁debilidad
▁orientado
▁desaparecido
▁acepten
▁sentar
▁juez
▁trabajador
▁simultáneamente
▁proponga
▁ofertas
▁consistente
▁1989
▁levantamiento
▁aumentan
▁ánimo
▁tuberculosis
▁quedará
▁intensamente
▁climática
▁creará
▁marinos
▁colocar
tes
▁iv
▁pos
▁industrializado
▁contrarrestar
▁cuarenta
▁watson
▁frutas
▁1998.
▁actualizar
▁acabado
▁aceptada
▁impiden
▁tribuna
▁proporcione
▁erasmus
▁padecen
▁expedientes
▁oit
▁oeste
▁regula
▁trámites
▁saludar
▁dg
▁marcos
▁aborde
▁funcionado
men
▁simples
▁contener
▁plantearse
▁generan
▁nominal
▁azerbaiyán
▁quiebra
▁enfoques
▁desarrolladas
▁defendemos
▁cuidadosamente
▁niñas
▁calles
▁pondrá
▁emitido
▁activas
▁raíces
▁socialmente
▁señaló
▁solos
▁acogido
nas
em
▁recibimos
▁burocráticos
▁reguladores
▁tecnológicos
▁sacrificio
▁rojo
▁sal
▁42
▁debían
▁chinas
▁2013
▁valiente
▁demuestre
▁expone
▁kurdos
▁bloquear
más
▁ta
▁islámico
▁observo
▁facilitará
▁trabajen
▁euromediterráne
▁planta
▁resumir
▁600
▁armenia
▁distorsión
▁oponerse
▁casas
▁ayudarles
▁interpretar
▁sectoriales
▁contribuyan
▁precedido
▁virus
▁represento
▁habló
▁disparidades
▁oro
▁alcanza
utodeterminación
▁optimismo
▁planteados
▁lema
▁castigar
▁armados
▁precisar
▁ayudando
▁combate
▁libras
▁pagado
▁convendría
▁previas
rio
▁suscita
▁consultado
▁sentirse
▁visitas
▁dirigirse
▁vinculada
▁prioritarias
▁jarzembowski
▁comunistas
):
▁individuo
▁antemano
▁firmas
▁abordarse
▁unánimemente
▁restaurar
▁tela
▁atacar
▁ilegalmente
▁despliegue
▁extra
▁700
▁depender
▁fijados
▁desaparecer
▁duradero
▁laborista
▁arte
▁exenciones
▁proponiendo
▁humanitarios
▁r
▁44
▁0,
▁generado
ment
▁gastado
▁rehabilitación
▁potable
▁opuesto
▁crecer
▁mayoritaria
▁montaña
▁noción
▁preocupantes
▁gotemburgo
▁wallström
▁reciclaje
▁omiso
▁piratería
▁salvaguarda
▁conjuntos
▁sólidas
▁opinamos
▁examine
▁describe
▁sometida
▁calcula
ico
▁negado
▁operar
▁ti
▁continuado
▁indispensables
▁complementar
▁permitió
▁deberes
▁ligeramente
▁radicalmente
▁islam
▁cambie
▁limpio
▁moderno
▁compañero
▁lomé
▁erika
▁situ
▁ajustar
▁reformistas
▁39
▁enérgica
▁medicina
▁antibióticos
▁carencias
▁daría
tion
sl
▁expresando
ven
▁ridículo
▁vio
▁facilite
▁bebidas
▁enfermos
▁optimista
▁jerusalén
▁vivido
▁aditivos
▁sincera
▁sorprendido
▁reputación
▁paciencia
▁fortaleza
▁ingredientes
▁salariales
▁disputa
▁estadística
▁coraje
▁eurojust
▁constituido
▁discapacitados
▁millardos
▁prevén
▁circular
▁beneficiará
▁deban
▁desconfianza
▁reding
▁post
▁viejos
rme
▁2001.
▁griegos
▁2011.
▁comprometida
▁feliz
izado
▁reembolso
▁iglesia
▁abarcar
▁colaboradores
▁invita
▁representado
▁cuente
▁franco
▁privilegio
▁and
▁canal
▁religiosos
▁interesado
▁coexistencia
▁homosexuales
00
▁concluye
▁indirecta
▁complejas
▁vincular
▁criticado
▁marfil
▁presentados
br
▁rentable
▁alegría
▁expensas
▁pudimos
▁partiendo
▁ferrero
▁vinculado
▁viables
▁producidos
▁celebrarse
▁difícilmente
▁legislador
▁creciendo
▁tramitación
▁referentes
▁acoso
▁bombas
▁bo
▁progresivamente
▁escasos
▁burocrática
▁advertir
▁luxemburguesa
▁pekín
▁ó
▁dudo
▁9,
▁nacionalismo
▁transatlántico
▁urbano
▁termino
▁43
▁sientan
▁comprobado
▁caribe
▁dieron
▁regulares
▁anterioridad
▁autorizados
▁hu
fo
ka
▁cercano
▁digamos
▁marcar
dic
▁aprueben
▁húngaros
▁desventajas
▁donante
▁padre
▁escolar
▁mencionada
▁cotonú
▁conviertan
▁étnicos
▁considerados
▁buque
▁corbett
▁rescate
▁vacunación
▁life
▁australia
▁resultaría
▁ahorros
▁comentado
▁barata
▁compatibilidad
▁servido
▁tomemos
▁mira
▁detenido
▁suscitado
▁pan
▁eslovena
▁producciones
▁acabe
▁tomará
▁disponga
▁luchan
▁excluye
▁...
▁cerrada
▁asociadas
▁alcanzados
▁recién
fer
▁extranjera
▁sana
▁correctas
▁mezcla
▁com
discriminaciones
gue
▁legisladores
van
▁gripe
▁lástima
▁danés
▁bordo
▁registrar
▁encantado
▁importados
▁facilitado
▁coche
id
▁orientadas
▁roth
▁defendiendo
▁presenté
▁descripción
▁justificadas
▁códigos
▁convincente
▁llegará
▁estimaciones
▁propiedades
▁ponernos
▁inferiores
io
▁atajar
▁barón
▁46
lla
▁muestre
aplausos
▁escrita
▁negra
▁borrador
ita
remos
▁sarkozy
▁manipulación
▁derivan
▁indiscutible
▁revisado
▁correcciones
▁desregulación
▁diseñar
▁evitando
▁pack
▁rentas
▁ajusta
▁caro
▁integrarse
▁externas
▁vergonzoso
▁opresión
▁vinos
▁étnico
waldner
▁somalia
▁convenciones
▁entró
▁pretender
▁asegure
▁llegando
▁reanudar
▁residen
▁promoviendo
▁contrabando
▁constancia
▁preservación
▁coincidimos
▁realizó
▁myanmar
bilidad
▁ayuden
▁signo
▁falsa
▁americano
der
▁documentación
▁estimo
▁fragmentación
▁reparación
▁agotado
▁juicios
▁trenes
▁averiguar
▁logre
▁envío
▁móvil
▁esclavitud
▁planteó
▁legítimos
▁instaurar
▁2013.
▁ensayos
▁hacerle
▁trabajadoras
▁autónoma
▁norteamericano
▁vacunas
▁estables
▁dolor
▁cimientos
▁periféricas
▁utilizadas
▁fraudes
che
▁pida
euromediterránea
▁cubre
▁potencialmente
▁eje
ur
▁cualificación
▁francesas
▁reunirse
▁vinculadas
▁fa
▁obligatorias
▁asuman
▁vitales
▁dramática
▁déficits
▁cuidar
▁consiguió
▁higiene
▁márgenes
▁mortalidad
▁intensificación
▁fósiles
▁frecuentes
▁ri
▁temer
▁exigido
▁financiado
▁bastantes
▁cuantía
▁visibilidad
▁caos
▁núms
▁1997.
▁desplazados
▁iraquíes
▁limpia
▁refería
▁especializados
▁abandonado
▁significar
▁husein
▁percepción
▁prometió
▁manifestantes
▁demostró
▁desprecio
▁definidos
mp
▁apropiados
▁insistimos
▁readmisión
▁resultó
▁vitorino
▁hacienda
▁insulares
▁comprometer
▁partidas
▁cuantas
▁fomentando
tiva
▁denominados
▁sometidas
▁contamina
▁man
pre
▁dinámico
▁castigo
▁decirnos
▁fáciles
▁ejecuciones
▁deseaba
▁reconsiderar
▁adoptará
▁formales
▁secretos
▁socavar
▁invertido
▁gasoducto
▁expresó
▁liikanen
▁inmediatas
yo
▁feag
▁alimentar
40
▁condenamos
▁orgulloso
▁ecosistemas
▁acuicultura
▁instrucciones
▁quinta
▁migrantes
▁diaria
▁escaños
▁dispositivo
▁aboga
▁asignaciones
▁11.00
▁limitan
▁constructivas
▁licencia
▁injusticia
▁dejó
▁confederal
▁compensaciones
▁vuelvo
▁querían
▁conocidos
▁mía
▁proporcionará
▁ofrezcan
▁lácteos
▁inminente
▁cuán
▁resulten
▁demostrando
▁coordinador
▁puente
▁viejo
▁roja
▁integrante
▁comunismo
▁publicó
▁esforzado
▁marcas
▁actúen
▁materna
▁cálculos
▁sólidos
▁telón
▁dijeron
▁reclama
▁importes
▁felicitarle
▁diputadas
▁trágica
▁compete
▁populares
▁perjudica
▁ne
▁parezca
▁considerada
▁proporcional
▁frágil
▁respetuosa
▁drama
▁cancún
▁demostración
▁detectar
▁desee
▁corremos
▁productor
▁estadísticos
▁imparcial
▁activistas
▁reestructura
▁goza
▁añade
▁precisos
▁decepcionante
▁freno
▁universales
▁instalación
▁?
▁personalidad
▁asean
he
▁800
▁discapacidades
▁250
▁pudiéramos
▁intervengo
▁beneficiado
▁alza
▁pronunciar
▁for
▁ejercen
▁49
▁tranquilizar
15
▁renovar
▁producirá
▁lamenta
▁condenados
▁masivo
cas
▁embriones
▁oomen
▁supremo
▁preocupada
▁detalladas
▁ofrecerá
▁factible
▁progresista
▁periodista
▁cese
▁conexiones
▁reconstruir
▁vinculación
▁túnel
▁basándo
▁marina
▁divisiones
▁rechazó
▁sobra
▁tomada
▁supranacional
▁convencionales
▁colonia
▁trabas
▁ecológicas
▁hoc
▁figurar
sis
▁química
▁chad
▁trazabilidad
▁criminalidad
▁enfrentarnos
▁discriminatoria
▁asentamientos
▁recordarle
▁proceda
▁históricas
▁seguida
▁120
▁mentalidad
▁seré
▁cuadro
▁insostenible
▁automovilística
▁concertación
▁canarias
▁voté
▁tu
▁examinamos
imos
▁reducirse
05
▁precisas
▁intimidad
▁piezas
▁bovino
▁continuada
▁convertirá
▁importantísimo
▁portugueses
▁solicitó
▁sis
▁renuncia
▁recibirán
▁gubernamental
ándolo
▁aduaneros
▁autobuses
▁detenimiento
▁tentación
▁heridos
▁concienciación
▁clarificar
▁hablemos
▁marítimos
▁reconocidos
▁dependientes
▁primaria
▁invitado
▁implementar
▁agresión
▁madeira
▁uniformes
▁construyendo
bendit
▁estarían
▁aplicada
podemos
▁aceptó
▁berlusconi
▁böge
▁paliar
▁troika
▁solidaria
▁ocupados
▁ambiciosas
▁bangemann
▁escandaloso
▁degradación
▁esforzarnos
▁repetidamente
▁tangibles
▁ho
▁subterráneas
▁veamos
▁incorporarse
▁tuvieran
▁rápidos
▁guardia
▁atenta
▁teléfono
▁modernas
▁recorrido
▁aprovecho
▁intolerancia
▁ancha
▁asegurado
▁obtienen
▁apoyaremos
▁incluirá
▁compromete
▁errónea
▁emplea
▁reforzando
▁fábricas
5-04
▁presentaron
▁adoptados
▁mon
▁defectos
▁guía
▁liberalizar
▁congratulo
▁esforzarse
▁técnicamente
▁votemos
▁hallan
▁vísperas
▁ka
▁volverá
▁llena
▁provocan
▁trágico
▁característica
▁fallo
gar
▁lukashenko
▁estatus
▁dirigirme
ándonos
▁dedica
▁complemento
▁lehne
▁uranio
▁repente
▁expuestas
▁coordinado
▁exacta
▁dólar
▁amplitud
▁manifestó
▁agradecemos
▁pi
▁echa
▁injusta
am
▁subyacentes
▁departamento
▁comida
▁insistiendo
▁radiodifusión
▁abolir
▁propagación
▁envía
▁fed
▁gozan
▁innovadora
▁obligadas
▁dispositivos
▁hablaba
mu
▁pierden
▁escalada
▁comporta
iza
▁limite
▁lento
▁pongamos
▁convicciones
▁expulsión
▁distribuir
▁usan
ente
▁accesibles
▁válida
▁afirmó
▁caído
▁confección
▁harbour
▁consideró
▁liquidación
▁baratos
▁sócrates
▁lamy
▁capitalismo
▁hospitales
▁ignora
▁financiados
▁modernos
▁pedirles
▁85
▁pretendía
▁tercios
restablecimiento
▁implique
▁flagrante
▁juvenil
▁controversia
▁testigo
▁dejamos
rr
▁conceden
ck
▁convierten
▁chernóbil
▁sostenido
▁oliva
▁estancia
▁denominación
▁50%
▁sanción
▁eldr
▁formula
▁diplomáticas
▁justos
esta
▁negativamente
▁diplomático
▁hijo
▁41
▁realismo
▁artistas
▁equilibrar
▁títulos
ina
▁denomina
▁be
▁interlocutor
ú
▁demócrata
▁transnacional
▁angola
▁redistribución
▁cohn
▁profundización
▁luchado
▁cárceles
▁reflejado
▁extraña
▁crecientes
▁viva
sida
▁arquitectura
▁retribución
▁donación
▁boca
▁ilustra
confidencialidad
▁avanzados
▁nacimiento
▁sequía
▁rehn
▁utilizada
▁agradecería
▁emplean
▁pasará
▁desarrollen
▁elogiar
▁soberano
▁revisada
▁notables
▁cabida
▁equidad
▁reunificación
▁separar
▁fábrica
▁constituirá
▁prohibiciones
▁barrot
▁du
▁aspira
▁paquetes
▁navidad
▁dominante
▁electrónicas
▁prestan
▁dinamismo
▁franqueza
▁intercultural
▁fuertemente
▁únicas
▁autorizado
▁deciden
▁hito
▁sexos
▁simpatía
▁detección
▁acusación
▁generalizado
▁ideales
▁super
▁parejas
▁acaso
considera
▁frecuente
▁sale
▁continúen
▁epidemia
▁cuento
▁mann
▁detenciones
▁turistas
▁asistentes
▁conocidas
cio
▁reduzca
▁reducen
▁pasaporte
▁encaminado
▁africano
▁retirado
▁privacidad
▁sumarme
▁restrictivas
amos
▁decidan
▁ru
▁burocrático
▁techo
▁simbólico
▁indignación
▁armadores
▁deliberadamente
▁lograremos
▁concentrarse
▁controlada
▁serlo
▁efectuado
ruijten
▁asistido
▁mencionó
▁religiones
▁pasaportes
▁accionistas
▁estudiado
▁lograrse
▁amplía
▁promueva
sur
▁rectificativo
▁reglamentario
▁biomasa
▁extremismo
▁provisión
▁entren
izquierda
▁metodología
▁domingo
▁interferir
▁recibiendo
▁traficantes
▁eliminado
▁trágicos
▁chile
▁informarles
▁asume
▁embajador
▁determinante
▁terrenos
▁jacques
▁cigarrillos
▁calcular
ud
▁comerciantes
▁envases
▁especialistas
▁pasados
▁angular
pu
▁hortalizas
▁apreciación
▁impedido
▁tratamientos
▁regularidad
▁globalizado
▁falsas
▁saludables
▁vuelven
▁comparables
▁acusado
▁contundente
▁apuesta
▁mirada
▁referir
▁sacado
▁fruta
▁paralelo
▁decidimos
▁venezuela
▁chocolate
▁perjuicios
▁disfrutan
▁consigamos
▁resultante
▁fundamentalismo
▁desempeñando
▁coinciden
▁aceptan
▁carencia
▁apruebo
▁bielorrusia
▁desplazadas
▁traer
cer
iera
▁implicado
▁limitadas
▁culpable
▁exigiendo
▁mccreevy
▁reproductiva
▁sevilla
▁delors
▁desfavorecidos
▁pude
▁referirse
▁creada
▁fuimos
▁mejoren
▁disputas
cen
▁identificado
▁vayamos
▁erróneo
▁celeridad
▁retención
▁recopilación
▁voluntariado
▁corrientes
▁beneficiosa
▁orientar
▁proteja
▁adoptemos
▁ja
▁imperio
sproporcionada
▁vieja
▁florencia
▁aprovechamiento
▁ojalá
cor
▁paraísos
tado
▁prerrogativas
jo
▁dictador
▁envergadura
▁discriminatorio
▁dato
▁consiguen
▁cambiando
▁pa
▁mejorarse
▁anualmente
▁salga
▁productivo
▁afectará
▁suscribir
▁salónica
▁multas
▁traduce
▁intervenga
▁transatlánticas
todo
rusia
▁viajan
▁car
▁agente
▁etiopía
▁veintisiete
▁crespo
▁sabiendo
▁recordamos
▁frustración
▁casualidad
▁escapar
▁bloques
▁pedía
contraproducente
▁practicar
▁coincidencia
▁admisión
▁estancamiento
▁spg
▁rico
▁abordan
nes
▁comer
▁intérpretes
▁dedican
▁tratará
▁sistemático
▁inadecuada
scentralización
▁rotundamente
▁aprovechando
▁alumnos
▁duramente
▁prepara
▁neutral
▁sabrá
▁asesinados
▁provincia
▁geográfico
▁funcionario
▁invierno
▁sugiero
rios
▁dejará
▁revisten
▁haberlo
▁precisan
▁alentador
▁reina
▁restrictiva
▁constata
▁baño
▁pnr
▁expresarse
▁crece
▁adquiridos
▁llamamientos
▁determina
▁suscrito
▁planteando
▁interrumpir
▁vasco
▁agrada
▁proteínas
▁pierde
▁1996.
den
▁2012.
▁sostener
▁símbolos
▁52
▁atmosférica
▁extendido
▁reforzamiento
▁david
▁resultantes
▁etiquetas
ren
▁retire
▁sienta
▁discrepancias
▁asegura
▁designado
▁dirigente
▁convencimiento
▁empezó
▁visitado
▁bu
ll
▁actor
▁privilegios
▁proporcionando
▁deportivas
▁gana
▁artificial
▁electos
▁índices
ine
▁accesibilidad
▁declive
▁constantes
▁contado
▁cumplirse
▁rápidas
▁recogidas
▁mencionan
▁ampliaciones
▁venga
▁conseguirá
▁fusiones
▁duplicación
▁escuchando
▁annan
▁ayudan
▁brote
▁innumerables
▁recibo
▁entrará
▁pagando
▁costos
▁admisible
▁innecesario
▁luces
▁votando
▁bomba
tre
▁incrementado
30
▁percibir
▁desarrollan
▁51
▁desempeñe
▁concedida
▁tangible
▁reconocida
▁informa
▁maíz
▁neutralidad
▁vegetales
▁departamentos
▁encargados
▁reducirá
▁garantizarse
▁refleje
▁termine
▁farmacéutica
▁productiva
▁josé
▁dispongamos
▁13,
tri
▁ampliarse
▁reúne
▁reflejo
▁orgullo
▁restauración
▁felicitación
▁intente
▁mitigar
▁perfecta
▁operativas
▁bangladesh
▁disminuido
▁celebrados
▁aspirar
▁exportadores
▁funcionen
bg
at
▁permanentemente
▁finalice
▁robert
▁sujeta
▁balanza
lle
▁proveedor
▁irak
izada
▁actualización
st
▁aportan
▁caracterizado
▁demográfica
▁malmström
▁encaminados
ho
▁integradas
▁prejuicios
gen
ng
▁fomente
▁azar
▁éticos
▁asiático
▁norteamericana
▁azores
▁convocar
▁presentando
▁turístico
▁albaneses
▁invasión
▁enlace
▁propiamente
▁ganando
ponente
▁reduzcan
▁informáticos
▁atentos
▁solicitan
▁xx
ko
▁confirmó
▁segundos
▁respaldamos
▁globalmente
▁concretar
▁méritos
▁versa
▁fabricante
▁barrera
▁cesar
▁arancelarias
▁gestiones
▁excedentes
2/
és
▁juntas
iésemos
▁sectorial
▁contribuirán
▁hipótesis
▁combinado
▁minoritarias
▁adoptaron
tura
▁tiende
▁oculta
ese
▁otorgado
▁alimentario
▁belgrado
▁antelación
▁introduciendo
▁preferiría
▁motivación
▁colegios
▁fuga
▁plantee
▁cruel
▁fi
▁prestigio
▁pasamos
▁perfil
▁beneficien
▁cadenas
▁completado
▁regulado
▁barato
▁amistad
▁multitud
▁sharon
▁experimentando
▁éticas
▁audiovisuales
señor
▁suministrar
▁causan
▁innovador
▁rige
▁bonino
▁colapso
▁veinticinco
▁financia
▁yemen
▁decepcionado
▁empleadores
▁transnacionales
▁ayudarnos
▁tratos
8/
▁podíamos
25
▁indicador
▁impida
ana
▁delicados
interpretaciones
▁belgas
▁islámica
▁parciales
▁preocuparse
▁iraníes
2.
▁difundir
▁artes
ñ
▁gonzález
▁interconexión
▁cometen
▁contrarias
▁cuidados
▁salen
▁conservador
▁encontraba
▁refuerce
▁mantendrá
cree
▁contractual
▁club
▁amnistía
▁posesión
▁candidatura
▁polaca
▁extracción
▁interino
▁constatado
▁discapacitadas
▁acusados
pen
sti
▁habituales
▁ferroviarios
▁votaron
▁catorce
▁absurda
▁debatió
▁lujo
▁referiré
au
▁digan
▁tecnológicas
▁metros
▁redunda
▁amenazadas
▁2015
▁volveremos
▁modifique
▁elogio
▁prepararse
▁definidas
▁sinergias
▁cardiff
▁indemnizaciones
▁polémica
▁brevedad
▁amor
▁autorizaciones
▁reconocidas
▁acompañar
▁ancianos
▁cosméticos
▁especifica
▁daphne
▁alcanzó
▁pasó
▁asalariados
▁destina
porque
▁excesivos
▁apoyada
▁aplausos
▁designar
▁certificados
▁responden
▁reproducción
▁emigración
▁ejercida
▁cristiana
▁falsificados
▁despedidos
▁cuántos
▁recogidos
▁monetarias
▁basar
▁compartidos
▁incorpora
▁empiece
▁rigurosas
ee
▁órdenes
▁elegida
▁progresado
▁cox
▁negociadores
▁sospechosos
▁regulan
▁evitado
▁cursos
▁protestar
▁armonizado
▁transmita
▁ulterior
▁algodón
▁mandelson
▁portavoz
▁confirmación
▁literalmente
▁escolares
▁amenazados
▁conductor
ru
▁ben
▁terrestres
▁somete
▁recuerde
▁preliminar
▁desigual
▁valer
▁arafat
▁modulación
▁pudieron
▁maquinaria
▁sesenta
▁gasta
▁embarcaciones
▁intensiva
▁enemigo
▁contable
▁préstamo
▁usuario
▁agradable
▁refugio
▁asociado
▁caja
▁hormonas
▁importadores
▁remitir
▁obtengan
▁sabrán
▁gira
sta
▁prolongar
▁contribuiría
▁lingüísticas
▁tragedias
▁ochenta
▁liquidez
▁incineración
▁visitantes
▁prolongado
▁aae
▁minimizar
▁niegan
▁firmó
▁ineficaz
▁ofensiva
▁ogm
▁lados
▁reclamación
▁religioso
▁cruz
▁británicas
▁heridas
▁cia
▁comience
▁repita
▁sostiene
01
▁centre
▁permanece
▁estándar
▁escrutinio
▁fontaine
▁sinceridad
▁ejerciendo
▁oms
▁encargada
▁españolas
▁planificar
▁go
hasta
▁justifican
▁wogau
▁antecedentes
▁inadecuado
▁innecesarios
▁facilitación
▁apuntan
sion
▁remediar
▁aclare
▁ocurridos
idades
des
▁moderación
▁rehenes
▁evans
▁adjudicación
▁injerencia
▁kurdo
ces
▁situado
▁refugiado
▁dedicada
▁enteramente
▁ponemos
▁autora
▁gozar
▁brazos
▁introduzca
▁números
▁participaron
▁incumbe
▁termina
▁colaborado
▁byrne
▁interrumpida
▁oostlander
▁razonamiento
▁ozono
▁obama
▁sujetas
▁sombra
land
▁indígenas
▁56
▁opera
▁diseñado
▁experimentos
▁reconozcan
▁enfrentamientos
▁causando
▁óptima
▁dificulta
▁aduaneras
▁limpias
▁abra
▁aplaudir
▁estuvieron
▁cuenca
▁aduanero
▁herman
▁auspicios
▁simplificado
▁cobrar
▁2011,
▁consistir
▁deportivos
▁reparar
▁aprobaron
▁sabía
cre
▁gratuita
volvemos
▁espalda
▁falso
▁necesitaremos
▁mediodía
▁ético
▁asegurarle
▁continentes
▁lleguemos
▁nepal
▁protegidas
▁coloca
▁acordadas
▁lentitud
▁vanguardia
▁sierra
▁autorregulación
▁contemplan
▁suplementario
▁biocombustibles
▁sindicales
tada
▁periodos
▁papeles
▁generalizadas
▁raras
pol
▁prorrogar
▁creados
▁acordamos
▁aeronaves
▁propiciar
▁limitaré
▁valientes
▁dictaduras
▁amenazan
▁exprese
ró
▁calificar
▁locas
▁mauritania
▁retroceso
▁checo
▁drásticamente
▁creíbles
sos
▁temen
▁examina
▁aparato
▁aporte
pusieron
▁chantaje
én
▁pondría
▁130
▁iban
▁54
▁limitarnos
▁detalladamente
▁divergencias
▁complementarios
▁generosidad
▁asiáticos
▁concerniente
▁famoso
▁macroeconómica
▁medina
▁informada
▁morir
▁mejoran
▁celebren
▁vimos
▁reguladoras
▁incentivar
▁aparecer
▁morales
▁dividir
▁calma
▁burundi
▁música
▁renovada
▁interacción
▁aliado
▁cristiano
▁pesquerías
▁conducen
▁cruzar
▁atraviesa
▁quedarán
▁agradeciendo
▁logística
▁reconversión
▁respectivamente
▁femenina
▁franja
▁dejarse
▁directores
▁extiende
▁obstaculizar
ante
▁alzheimer
▁emigrantes
▁trece
▁eslovaca
fic
▁griegas
▁concluya
▁12,
▁noventa
▁italianas
▁llamamos
▁aprovechado
10
▁confirman
▁garcía
▁violenta
▁gales
▁ayudarán
▁zu
▁unilaterales
▁experimentar
▁imponga
/99
▁probabilidad
▁automática
▁amenazada
cul
▁autobús
▁azufre
▁doctrina
▁lulling
▁11.30
▁rothley
▁mostró
▁íntegramente
▁atómica
▁construido
▁fructífera
▁biométricos
▁raza
▁homólogos
▁fórmulas
▁aumentos
▁austríaca
▁dilema
▁herencia
▁reitero
▁próximamente
▁probar
▁periódicamente
▁cartera
▁provocando
▁acordados
▁sacrificios
▁darán
ncia
▁rumanos
▁ayudaría
▁presentaremos
▁fundadores
▁lesiones
tor
▁dispongan
▁ocurrirá
▁anima
▁estrechos
▁hectáreas
ts
▁certificado
▁admite
▁conversión
▁bourlanges
▁galicia
▁refiriendo
▁interferencia
▁contractuales
▁iglesias
▁fuere
▁estudie
▁racistas
▁resistir
▁bancarias
▁coyuntura
▁neerlandeses
▁instauración
▁aptitudes
▁registrados
▁facultades
▁radiactivos
tivos
▁representada
▁afronta
▁58
▁supuestos
▁aumenten
▁digitales
▁abarque
▁sustituye
▁cu
lar
ea
▁obtuvo
▁punta
▁introdujo
▁originales
▁daremos
▁sinergia
▁nombrado
▁soberanos
▁—
▁significará
estamos
▁trabaje
▁dosis
▁reemplazar
▁historial
▁penalizar
▁esperábamos
▁merkel
▁swift
▁forzar
▁lenta
▁decenio
▁signos
▁salto
▁amenazado
▁volveré
▁integrados
▁recogen
▁acorde
▁escribir
▁dimisión
▁repatriación
▁repetido
▁vulnerable
▁20%
▁piensen
idas
▁umbrales
▁introducen
▁constituya
▁ford
▁usa
▁clandestina
▁configuración
▁mulder
▁adecuación
▁derogación
▁calor
▁tejido
▁10,
▁entienden
▁borde
▁surjan
▁logrados
▁proporciones
▁estuvieran
▁amplíe
antes
▁neoliberal
11
▁vertidos
▁decenios
▁contables
▁john
▁ankara
▁juncker
▁promedio
▁software
▁procedencia
▁km
▁venden
▁res
▁involucrados
▁ingresar
▁observador
▁valoro
▁transitorias
▁bis
▁traducir
▁indique
▁debiera
▁irá
▁vano
▁w
▁11,
▁previsible
▁uclaf
▁contratar
▁lejano
▁definida
▁bancaria
▁critica
▁constituiría
▁ejercido
bra
▁retira
▁hábitos
▁alcanzarse
quien
▁prematuro
▁atenas
▁equivalentes
▁agrario
▁brillante
▁registra
▁diferenciación
▁permanecen
▁demográficos
▁sacrificar
▁obligan
▁basilea
▁abanico
▁diálogos
▁legado
▁adelantado
▁relanzar
▁aclara
▁finalizado
▁ejerza
▁indudable
02
▁ordenador
▁ríos
▁imponiendo
▁ecr
▁autoriza
▁hipócrita
▁rebeldes
▁creencia
▁mediana
té
▁bajar
▁analizado
▁severas
▁evita
▁agricultor
▁proximidad
ero
▁suponga
▁pat
▁acelerado
behrendt
▁coelho
▁florenz
▁kyi
▁intimidación
▁deslocalización
▁ppc
▁tendré
▁logremos
▁confundir
▁2007-2013
▁domésticos
▁resuelva
▁adquiere
dr
también
▁absorción
▁bösch
▁gasolina
▁ilusión
▁evasión
▁procesamiento
▁malaria
▁venideros
▁municipales
▁innecesarias
▁10%
▁matrimonio
▁vertido
▁tarjetas
▁comprendemos
▁derivado
▁rentables
▁examinará
▁anticipar
▁posponer
wa
▁parados
▁ocupando
▁2.
▁claves
▁nabucco
▁suspendida
mb
▁incompatible
-01
▁revise
▁rechazadas
▁proponía
▁57
▁can
▁referimos
▁chirac
▁delicadas
▁pensemos
▁dieta
▁normativo
▁rigurosos
dis
▁ofrecerles
▁obtiene
▁hospital
▁usos
▁66
▁color
▁armonía
▁produjeron
ito
▁ceca
▁aduana
▁afirmativo
/2002
▁unilateralmente
ática
▁prevalecer
▁dijera
▁preguntamos
▁comenzando
▁descontento
▁dictámenes
▁logró
▁nielson
▁natalidad
▁aspiración
▁aclaraciones
▁presionando
▁funcionará
slocalizaciones
▁testimonio
▁eléctrica
ber
▁2013,
mina
▁auténticos
▁expresamos
rían
▁climáticos
▁inicie
06
▁inglesa
▁leonardo
▁uzbekistán
▁convivencia
▁atrocidades
▁navegables
▁necesiten
gr
▁suscitar
▁sir
▁decididos
▁consideradas
▁contradice
▁situados
▁prestige
▁donaciones
plath
▁ausente
▁horizonte
▁controvertido
▁impresionante
▁teléfonos
▁ganancias
▁significan
▁ajustarse
▁dispuestas
▁sentidos
▁aseguro
▁interrogantes
▁senda
▁planteamos
mas
▁caminos
—
▁randzio
▁cabría
▁comprometió
▁velzen
▁aceleración
▁centenares
▁versiones
▁dividida
▁aislado
▁actas
▁unificado
▁53
▁resalta
▁tiendas
▁revelado
▁proteccionistas
ieron
creo
▁ambigüedad
▁señalan
▁temporalmente
▁restituciones
▁negligencia
▁secuestro
▁desplazamientos
encia
▁subir
▁decidirá
▁pacíficos
▁plantearnos
▁mantengamos
▁hilo
▁confiere
▁explique
▁pensaba
▁gala
▁aprobarse
▁creencias
▁15.00
▁encontremos
▁concentrarnos
▁malentendido
▁bosque
▁americana
▁langen
▁recibirá
▁matar
▁alcancen
▁rechace
▁educativas
▁liberalizado
▁capa
▁recepción
▁reconoció
▁volvamos
▁envió
▁decisivos
han
▁condicionalidad
lic
▁encuesta
▁socioeconómico
▁suu
▁tender
▁prefieren
▁aplicarán
▁advertencias
▁imperialistas
▁protagonistas
▁abejas
▁alivio
▁talibanes
▁deduce
▁queramos
▁soberana
▁doméstica
▁impuesta
▁mapa
bor
▁fundamenta
▁beneficiarán
tica
▁micro
▁exigentes
▁revelan
▁calefacción
▁impaciencia
▁innegable
▁fortuna
▁correspondencia
▁necesitará
▁preocuparnos
▁felicitamos
▁portuarios
▁loable
▁capitalista
▁facto
▁aprobará
▁formato
▁malentendidos
▁solar
▁inclusive
▁sencillas
▁frecuentemente
▁rica
▁exigente
▁remonta
▁protegerse
▁aclarado
▁protegen
▁mando
dora
▁compran
▁aung
out
▁socava
▁murieron
▁rübig
▁sáhara
▁reconociendo
▁subrayo
▁renovado
▁antiterrorista
▁nobel
▁paguen
▁trampa
▁99
▁contrariamente
▁interesada
▁dados
▁correos
▁controlado
▁postal
▁obesidad
▁codificación
▁expresan
vis
▁lagos
▁fijo
▁controla
▁pescar
▁alimentarias
▁introducidas
6-00
▁rodea
▁totales
eron
▁dirigen
▁empiezan
▁utilizamos
▁copa
▁copia
▁pu
demócratas
▁interreg
▁pronta
▁constatación
▁problemático
▁ordenadores
▁islámicos
▁creamos
rm
▁contraste
▁catálogo
▁cápita
▁licitación
▁permítaseme
▁sobremanera
▁litigios
▁mortales
▁pesada
▁urge
ent
▁desleales
▁alturas
▁receta
0.000
▁visibles
▁netos
▁bali
▁exija
oc
▁congestión
▁romano
▁quedaron
▁previos
▁aunar
▁abstención
▁discutimos
▁elaboró
▁escepticismo
▁exactitud
▁ruptura
▁generosa
▁calificaciones
▁mas
▁magnífica
▁fronterizo
osa
▁delegados
▁desarrollos
tivas
▁contempladas
▁elimina
▁distancias
▁apelar
▁kurda
▁exclusivo
▁prisa
▁complementario
▁separa
▁logrará
▁compras
▁fumar
▁descartar
▁reservado
▁audiencias
▁engaño
▁apuntar
▁encarcelamiento
▁rey
▁plomo
▁ligera
▁vieron
▁ten
▁pragmática
▁rumano
▁clubes
▁nocivos
▁abordando
▁estimamos
aciones
▁crearse
/2003
▁conducirá
▁tsunami
▁unirme
▁acordada
▁comparable
par
▁huellas
2,
▁transmite
▁ricas
rt
▁celebradas
▁tailandia
▁atravesando
▁persuadir
▁vota
▁escuchamos
doras
▁acusa
▁desarrollada
▁centralizado
▁supuesta
▁masivas
▁veterinarios
▁defienda
▁inconvenientes
▁atribuir
▁dimas
▁reaccionado
▁gitanos
▁respetuoso
▁excesivas
▁hallamos
▁círculos
▁existían
▁comprobación
▁hidrógeno
▁indiferencia
▁partículas
▁temprano
▁protocolos
▁pen
▁compuesto
▁difieren
▁solicitando
ry
ger
tur
▁caras
▁leona
▁mostrando
▁trasfondo
▁do
▁divergentes
▁aplicados
▁medias
▁destruido
▁arresto
▁gra
▁cuestiona
▁introduzcan
ke
▁porcentajes
▁anuncios
▁comp
▁ingeniería
▁multilingüismo
▁marginación
▁concentraciones
▁racionalización
▁protegido
▁emprendidas
▁alma
▁privar
▁estructurado
▁manejar
▁requerirá
▁analiza
lv
▁arabia
▁radiación
▁respondió
▁verhofstadt
▁castro
▁grados
▁pilas
▁distribuida
▁mostrarse
▁elaborados
▁rectificar
▁externo
▁dotado
▁mama
4/
04
▁63
▁piense
▁bancarios
▁transportar
▁unificada
▁advertido
▁dúmping
▁expresiones
▁presupone
▁quo
▁aportará
▁próspera
▁océano
▁llegaron
▁lama
▁encarcelados
arse
▁repartir
ag
▁carburantes
▁extraordinarias
ol
▁continuaremos
▁despertar
▁jerarquía
▁apelación
▁recomendado
▁extensa
▁senado
▁físicas
▁burocráticas
▁judíos
▁faciliten
▁contrarios
▁afecte
▁añadiría
▁satisfactorios
▁provocó
▁confrontación
▁sinceros
▁gestores
▁acordaron
▁escucha
▁rasero
▁selectiva
▁privilegiada
▁grasas
▁francos
▁fomentan
sp
▁promocionar
▁sano
▁asequibles
▁refuerzan
▁data
▁considerandos
▁nacionalistas
▁titular
▁vulnerabilidad
▁soja
▁enfrentar
▁procesales
▁exacto
▁transeuropea
▁tóxicos
▁cine
▁47
▁voluntariamente
▁pertenecer
▁llenar
▁cal
lin
▁celebrarán
▁valora
▁defenderse
▁argentina
▁contrapartida
▁decidieron
▁medición
▁2014
▁practica
▁excluido
▁razonablemente
▁contemplado
▁62
▁comprenda
&
▁apreciado
▁falsos
▁desearíamos
▁sterckx
▁síntesis
▁acompañamiento
▁pretendo
▁orgullosa
▁piel
▁componen
▁facilitando
▁cor
▁reforzarse
▁hacerla
▁enemigos
▁rocard
▁solemne
▁usando
▁vertederos
▁experto
▁ordenamiento
▁sepamos
▁ejes
can
omplementariedad
▁participando
▁centrada
ut
2001)
▁redoblar
▁59
▁rechazan
▁formada
entre
▁saudí
▁pusiera
▁ga
▁extremos
▁contemple
▁secundaria
▁nórdicos
▁provocada
▁debilita
▁pretenda
▁resuelve
▁mor
▁continental
▁policías
ld
▁mejorada
▁cisjordania
▁kazajstán
▁saneamiento
▁acumulación
▁quitar
▁exigirá
▁transmitido
▁eurodiputados
▁físico
▁fronteriza
▁ecosistema
▁invitados
▁cercana
▁abarcan
▁costumbres
cho
▁facultad
▁obtenga
▁administrar
▁respetarse
tt
▁novedad
▁cliente
▁schreyer
▁sentirnos
▁valle
▁giro
▁fiel
▁pieza
▁forzados
ner
▁establecerá
▁presidir
ab
▁acompaña
▁realizará
▁traído
▁relanzamiento
▁enmendar
cal
▁contento
▁elaborada
▁comprendan
▁involucrar
▁representamos
▁abordamos
▁sucederá
▁definen
▁financiadas
▁conduzca
▁juega
▁broek
▁imposibilidad
▁especificar
▁engañar
▁abrumadora
▁afrontan
▁conste
▁hacerles
▁lu
▁cubiertos
▁prudentes
▁presten
tenemos
▁diligencia
▁divorcio
▁décimo
▁sabiduría
▁sucesivas
▁surgió
▁suprimido
▁afán
▁pronunció
▁imaginación
▁nitratos
▁comprenden
▁anular
▁respetuosos
▁amianto
▁hezbolá
▁prescindir
▁seattle
▁supuso
▁sufragio
▁capacitación
▁procedo
▁cuerpos
▁asegurando
▁estrechas
▁enseñar
▁implicaría
▁trastornos
▁inmenso
▁atractiva
▁frágiles
eo
▁fuesen
▁provisionales
▁dirija
especificaciones
▁poderosos
▁arroz
▁desplegar
▁inversa
▁merced
▁prefiero
▁traducido
▁tripartito
▁jordania
▁wynn
▁recordarán
▁alcohólicas
▁desechos
▁laguna
▁impulsado
▁autopistas
▁reafirma
▁evitarse
▁identifica
▁centran
▁guardar
ki
▁incrementa
▁baringdorf
▁deforestación
▁ilusiones
▁maravilloso
▁enviando
▁karas
▁eliminando
▁concebido
▁inconveniente
▁esquema
▁negarse
▁103
▁añada
▁vigo
▁almunia
▁ganadería
▁trayectoria
▁jugadores
▁partidaria
▁denominaciones
▁neumáticos
▁factura
▁mixta
▁llevaron
▁consideraba
▁110
▁curar
▁opt
▁titley
▁tranquilidad
▁imagino
▁cachemira
▁trató
▁tropicales
▁operador
▁vacuna
▁consumen
▁titulado
▁persistente
via
▁tenerlo
ario
▁contraídos
▁violan
▁simbólica
▁eléctricas
▁singapur
▁drástica
▁beneficie
▁paisaje
gre
▁apoyemos
▁traten
▁acogerse
▁fabricar
▁anexos
▁individualmente
ió
▁contentos
▁14,
▁1991
reglamentaciones
▁1980
▁calzado
▁endeudamiento
▁setenta
▁dedicadas
▁oslo
▁eta
▁válidas
▁escándalos
▁susceptibles
▁po
▁ci
▁tic
▁tratadas
▁proviene
▁máximas
▁ocupamos
▁cualitativa
▁graefe
▁hautala
▁minucioso
▁osetia
▁respondiendo
▁actuamos
▁misiles
▁ubicación
▁presidido
▁solas
▁militarización
▁persisten
▁diariamente
▁decente
▁rebajar
▁ocasionado
▁duplicar
▁impongan
▁interesan
▁denuncias
▁petroleros
▁dedicados
ín
▁evite
▁concebir
▁alusión
▁berès
▁volatilidad
▁prisiones
ik
▁abismo
▁secciones
▁apelo
▁inventario
▁concedidas
eso
▁cuarteto
▁lentamente
▁mancha
▁subyacente
▁plataformas
▁aceptarlo
▁asesinado
▁urbanos
▁poderoso
▁cuenten
▁depósitos
▁superan
▁entrevista
▁conseguirse
▁dista
▁escuche
▁armonizadas
▁anuncia
▁valiosas
▁agravar
▁cashman
▁cualesquiera
▁dependiendo
▁kirguistán
▁pnb
▁apostar
▁patria
▁civilizaciones
▁eurodac
vamos
▁deliberada
▁analizando
▁tóxicas
nu
▁intervienen
▁moderado
▁mercancía
plan
▁engañosa
▁1995.
▁horario
▁declarada
▁intentaré
▁desempeñará
▁alterar
▁vería
▁ampliando
ton
▁continuas
▁sanos
sh
▁espectáculo
▁lamfalussy
▁telefonía
▁dossier
▁gatt
▁reorganización
▁desmantelar
▁densidad
▁cerebros
▁pautas
▁preguntan
▁propósitos
▁subestimar
▁condenas
▁represente
▁dijimos
▁estuvimos
▁impotencia
▁johanesburgo
▁mitchell
▁salmón
▁sábado
▁estriba
▁inspiración
▁anticipada
▁equipamiento
▁sello
▁socioeconómica
▁personalidades
▁reiterado
▁promuevan
▁practican
▁dotarse
▁biológicos
▁contará
▁desastrosas
▁velocidades
▁coordinadas
▁dignas
▁horarios
▁auténticas
▁apoyó
▁constituciones
▁informó
▁kaliningrado
▁lampedusa
▁recordando
▁solicite
▁ambigüedades
▁subsanar
19
▁causada
▁soviético
▁dividido
▁sospechas
▁contengan
▁plurianuales
▁ocupen
▁divisas
▁sumar
▁encuestas
▁dejarlo
▁hablaré
ö
▁objetividad
▁tripulación
▁aislar
▁compuesta
▁bonn
▁descentralizada
▁quedando
ip
ándola
▁afectando
ced
▁kenia
▁varía
ici
▁tac
▁equitativas
ez
▁reforzará
▁prefiere
tividad
▁torturas
▁obvia
▁dietas
▁encontraremos
▁derrota
▁desguace
▁empezamos
▁ortega
▁progresivo
▁vigencia
hi
▁indicio
▁intermedio
chi
▁porqué
▁condolencias
▁enfrentamiento
▁quiénes
▁proporcionada
▁aprobara
▁contingentes
▁existencias
▁ratifique
ou
▁blokland
▁desesperación
▁wallis
▁reutilización
▁centralizada
▁reiteradamente
▁z
ándoles
▁provenientes
▁forzada
▁eslovaco
▁iría
▁asociada
▁empresario
▁daré
▁tomaron
til
4-00
▁concentra
▁puestas
▁explorar
▁dr
▁racial
▁humo
▁pop
▁contemplados
▁exitosa
▁municiones
▁plus
▁reasentamiento
▁llevo
▁tenor
▁fundamentalista
▁protagonista
▁contraído
ísima
▁acometer
▁intermediarios
▁facilidades
▁consagrado
▁comportamientos
▁respalde
▁ruedas
▁señalando
▁concedemos
▁garantizados
▁denegación
▁expedición
▁tuviéramos
▁superación
▁daul
▁recíproca
ino
▁ratifiquen
▁seminario
▁dramático
▁aprecia
▁distribuido
▁promueven
▁destruye
▁prestada
▁quedaría
▁praga
▁aparecido
▁crudo
▁receptores
▁municipios
▁lácteo
▁consolidada
▁consideremos
▁muestren
▁cuántas
▁serbio
▁pronuncie
▁inherentes
▁perjudicados
▁asigna
▁contenga
▁supervisor
▁complicadas
▁ocasionar
▁multinacional
▁rango
▁malasia
▁colaborando
idos
▁incorrecta
▁guiar
▁paralela
▁reanudado
▁irreversible
▁brindado
val
▁bi
▁tienden
▁marcada
▁afirmando
▁imponerse
▁olvida
▁act
piensa
▁tejidos
▁reitera
mis
▁asistimos
▁aznar
comunitarización
▁fauna
▁ultramar
▁"¿
▁auditorías
▁miel
▁financieramente
▁cónyuges
▁descartes
▁millas
▁coordinadores
▁posibilitar
▁molesta
▁famosa
▁potente
▁veterinario
▁despido
ju
▁hábitats
▁chipriota
▁extenderse
▁enteras
tic
▁creía
▁contenta
▁envíe
▁terceras
▁deducir
▁suscribo
▁theato
▁revés
▁tardado
sión
responsabilidad
▁extenso
▁informativa
▁armonizada
▁bombardeos
▁orientados
▁67
▁empeorar
▁bandos
▁buscado
▁2015.
▁alarmantes
nia
▁orientales
▁presenciado
eros
▁bowis
▁consumir
▁despilfarro
▁enseguida
▁invenciones
▁solvit
▁abriendo
▁deprisa
▁minerales
▁solucionado
▁constatamos
▁interpretarse
▁bibliotecas
▁horizontales
▁rasgos
▁puro
▁costoso
▁varían
▁consigan
▁examinaremos
▁forme
▁colonial
▁haug
▁socioeconómicas
▁discute
▁saca
▁modalidad
▁lange
▁recuerdan
▁responsabilizar
▁jo
▁asumiendo
▁empobrecido
▁rompuy
▁jackson
▁subcomisión
▁colectivas
▁configurar
▁palestinas
▁pragmático
▁suplementaria
▁salvaje
▁defecto
▁climáticas
▁conserva
ste
▁caracterizan
▁corresponda
▁comprometa
▁moda
▁preconiza
▁inspira
▁satélites
interdependencia
▁gebhardt
▁perdieron
del
▁predecesor
▁crearía
▁vistazo
▁agilizar
▁óptica
▁táctica
▁demuestren
▁destacados
▁racionalizar
▁masas
ándolos
▁tibetanos
▁ganarse
▁cheque
▁respondan
▁competición
▁locura
▁norteamericanas
euro
▁estaré
▁oídos
▁llegados
▁bolsa
▁comparativa
▁salgan
▁provocados
tr
zi
▁68
▁sancionar
▁usarse
▁compuestos
▁cristianas
▁aprobemos
▁barbarie
▁disturbios
▁guatemala
▁remito
▁paradoja
▁dignos
▁adelantar
▁predominante
▁fao
▁labores
▁óptimo
▁acusar
▁educativa
▁culpar
▁granjas
▁acabará
▁78
▁debidas
▁harinas
▁presentara
▁imperativos
▁entienda
▁pedí
▁invirtiendo
▁recibieron
▁pirker
▁frío
▁promovido
▁distribuidores
▁profundos
▁sustenta
▁encontrará
▁denominador
▁favorecidas
▁dramáticas
▁ola
▁costo
▁espectacular
▁fracasar
▁poderosa
▁mencionaré
▁21.00
▁subvencionar
▁inscribe
▁aislados
▁agradecidos
▁encarga
om
▁checos
▁cairo
▁conectar
▁avanzadas
▁autónomas
▁deplorable
▁máquinas
ster
▁pudiese
tarjeta
▁dactilares
▁gitana
▁gradin
▁crecido
▁defiendo
▁guardiana
▁aspiran
▁bonos
▁manifestarse
▁automático
▁tarifa
ias
▁aseguren
▁felicita
▁ascienden
▁películas
▁celebran
nta
▁perseguidos
▁gestiona
▁prestarse
▁aviso
▁eventual
desde
▁fischer
▁lannoye
▁destacan
▁guste
▁montañosas
▁demostrada
ish
▁fitosanitarios
▁pareció
▁ignorando
▁diversificar
▁dictadores
▁electo
▁austriaco
▁entera
▁enfocar
rd
política
especialmente
▁cacao
▁primacía
▁pésame
▁solvencia
▁adición
▁cualidades
▁conozcan
▁provechoso
▁equivoca
▁afecten
▁imperialista
▁respetamos
oso
▁funcional
ib
▁incorpore
▁aproveche
reivindicaciones
▁aparente
▁frentes
▁récord
▁anoche
▁kallas
▁vocación
▁mencione
▁cometidas
▁pies
▁preliminares
sar
▁deseando
tin
▁problemáticas
▁cubierto
▁macroeconómico
▁ostenta
▁párrafos
▁medicinas
▁ignorado
▁indirectos
▁informales
▁ovino
▁dell
▁preveía
▁circulan
▁reunió
▁mandar
▁promete
▁bovina
▁curioso
▁dieciocho
▁gravámenes
▁remitido
▁aludido
gan
▁dictar
▁cultivar
▁harían
▁provienen
▁inútiles
▁cualitativo
▁vencer
▁pymes
amiento
▁prestará
▁collins
▁desafortunado
▁špidla
▁impulsando
▁apreciamos
▁disidentes
▁violando
▁muchísimas
▁asociar
▁abu
▁encontrarán
▁situada
▁limpios
▁agrarias
▁tratada
▁implicarse
▁sirvan
▁trae
▁cosecha
▁incluía
▁superficies
▁alemanas
▁urban
▁originalmente
▁concedió
▁tesis
▁feira
▁green
▁izquierdas
▁abogar
▁postre
▁cobro
▁adolescentes
▁agravado
▁derechas
▁trabajemos
▁omi
▁basura
▁horrible
▁autónomo
5/
▁asem
▁recibidas
▁armado
▁alegramos
▁coincidir
▁reconciliar
bar
▁recompensa
▁ponerlo
▁combustión
▁explícito
▁merluza
▁brittan
▁congelación
▁leinen
▁signatarios
▁firmaron
▁transponer
▁injustificada
▁temperatura
▁contenida
▁eléctrico
eta
▁realizamos
▁proporcionen
▁dedicarse
▁evaluado
▁is
izadas
▁piedras
▁costado
▁catalizador
▁conversación
▁medioambiente
▁savary
▁uganda
▁permanecido
▁reactivación
▁fu
▁puentes
35
▁inequívoco
udi
▁facilitan
▁cargar
▁tomarán
▁pierda
▁reconocerlo
▁debilitado
▁dalai
▁estupefacientes
▁groenlandia
▁magreb
▁ruanda
▁farsa
▁recaudación
▁tributo
▁intentemos
▁desviar
▁arbitraria
▁embarazo
▁16,
▁discrepancia
▁matanza
▁objetivamente
/2005
tanto
▁aceptarse
▁enumerar
▁multi
▁disminuye
▁manifiestan
▁regule
▁reclaman
▁bal
▁dopaje
▁nassauer
▁tributación
▁suyas
▁propusimos
▁adaptaciones
▁presento
▁rodean
▁61
▁mandatos
nacionalización
▁atribuye
▁separada
▁elogios
▁lingüístico
▁quedarnos
▁recalca
▁llaman
▁contemos
▁pasen
▁favorezca
▁confía
▁supere
▁valiosos
▁implicada
▁enriquecimiento
▁mckenna
▁pesticidas
▁provocación
▁ocurren
6/
versión
▁miramos
▁cerradas
▁mayoritario
▁reúnen
▁dudar
mento
▁cambian
▁ira
▁emplearse
▁roto
▁edades
rle
▁expresarle
▁decisivas
▁congratula
▁cabotaje
▁extinción
▁mutilación
▁siguió
▁agradecida
▁ignorancia
▁necesito
gas
50
▁introducirse
▁aviar
▁86
▁convocatoria
▁preventivo
▁distinguido
▁asumen
▁bloqueado
▁regulada
▁cambien
▁17,
▁horror
13
▁sueldos
lidad
▁emita
▁dirá
▁espiral
▁madurez
▁pabellón
▁arrogancia
▁malestar
▁constato
▁financiando
▁observando
▁1%
▁artificiales
▁agradece
▁bio
▁entregado
▁habitualmente
▁teme
▁cruce
▁complicados
▁incompatibles
legislar
▁convirtió
▁precoz
▁méndez
▁toque
▁supervisores
▁optimizar
▁vergonzosa
▁temática
▁modificarse
▁enseña
▁denunciado
▁ju
▁necesitar
▁prevalece
12
▁debata
ic
▁aprueban
▁convencional
able
▁priva
▁cualificado
▁encargadas
°
▁howitt
▁suspendido
▁seleccionar
▁gobernar
▁traducirse
▁82
▁recuerden
▁concertada
▁insuficiencia
▁indicativo
▁federalista
▁incertidumbres
▁ramas
▁históricamente
(2001)
puedo
▁organizados
▁2000-2006
▁arranque
▁haarder
▁inconcebible
▁izquierdo
▁microempresas
▁preámbulo
▁rostro
▁revisiones
▁350
mediados
▁opinan
▁soportan
▁caladeros
▁expresados
▁contestado
▁alimento
▁protejan
▁inscritos
▁parto
▁biológicas
▁extienda
▁felicitarnos
▁contenía
▁resolverá
▁informará
▁especificidad
▁1988
▁antisemitismo
▁credenciales
▁totalitarismo
▁divulgación
▁imparcialidad
▁atrevo
▁papa
▁árboles
▁viejas
▁asesores
▁restos
▁fijamos
▁ganan
▁98
14
▁recibida
5-00
mit
▁alcanzan
▁pagados
▁voluntarias
]
▁acercarse
▁conseguidos
▁arrojar
▁poli
ct
▁preside
▁ceremonia
▁clinton
▁escocés
▁napolitano
▁pánico
▁17.30
▁negación
▁intentó
▁anulación
▁aplicamos
▁alpes
▁rumores
▁necesitados
▁elementales
▁aprovechan
▁ilustrar
5-05
▁comprometan
▁asumidos
▁violar
▁caros
▁premisa
▁escaño
▁buscamos
▁farmacéuticos
▁deseados
▁evolucionar
ló
▁someterá
▁enfrentado
▁confirme
incluso
▁habilidad
▁eritrea
▁ineludible
▁sajarov
▁merecido
▁antidemocrática
▁complicaciones
▁turísticos
▁venimos
▁perfiles
▁iniciarse
▁entiendan
▁incorporen
▁aislada
▁estadístico
▁arena
▁encargar
▁verlo
▁representadas
")
bol
▁satisfactorias
▁apoyarse
▁adquisitivo
▁dayton
▁estupendo
▁morillon
▁tajani
▁suponía
▁volvió
▁normalidad
▁valoramos
▁encuentros
▁controlados
▁convincentes
▁rara
▁concederse
▁optimistas
▁austríaco
▁múltiple
▁respaldada
▁revista
osos
▁señalo
▁implicará
▁correctos
▁científicamente
toria
▁interviene
▁disipar
▁hi
existe
▁alexander
▁angustia
▁hidrocarburos
▁paternidad
▁veredicto
▁subsistencia
▁escape
▁motivado
▁pierdan
▁falla
▁destinan
▁doyle
▁escépticos
▁extensiva
▁delictivas
▁retrasado
▁aumentaría
▁derivada
▁favorecen
lí
▁concedan
ect
▁concurso
▁tri
▁concedidos
▁crowley
▁gibraltar
▁ludford
▁mantuvimos
▁resumiendo
▁sájarov
▁turkmenistán
▁vitivinícola
▁flora
▁farmacéuticas
▁afrontamos
▁involucradas
▁88
▁increíblemente
iéndose
▁excluidas
▁precaria
▁racista
6-02
multilateralismo
▁aborden
▁entenderse
▁autorizadas
▁someta
▁investigue
este
▁berg
▁detallados
▁airbus
▁aprobando
▁emitió
▁incorrecto
▁permitimos
▁repetición
▁helms
▁mantuvo
▁formuló
▁tratándose
▁debilitamiento
▁cuestores
▁abrirse
▁80%
▁ge
ion
▁habilidades
▁comprenderá
▁registran
▁complacido
▁talento
▁continuarán
tiendo
▁turística
ísimo
▁prohibida
▁protegida
▁firmados
iz
▁contradictorias
▁suelos
▁negociadora
▁reglamentarias
▁aventura
▁repetirse
▁traerá
▁liberado
▁zaire
▁concluyo
▁unesco
▁singular
▁experimentan
?"
▁reservar
ivo
▁nacido
▁masacre
▁sueldo
izados
▁intentaremos
▁polo
siones
▁distinguida
▁honestos
▁resaltado
▁137
▁puntual
▁anticipado
▁flynn
▁salafranca
▁subsahariana
▁influyen
▁silvestres
▁apuntado
▁neoliberales
▁equilibradas
▁ideológica
▁exagerado
▁causadas
▁próspero
▁psicológica
▁recordarlo
▁im
▁traslados
▁marginal
▁parque
áfrica
▁alojamiento
▁monnet
▁excesos
▁provocará
▁cooperaciones
▁tardía
▁fumadores
▁cooperando
▁cabezas
▁obedece
así
▁sostienen
▁femenino
▁adquirida
▁modesto
▁manifiestamente
▁celebraron
▁animado
▁cubano
▁escoger
illo
queremos
burton
▁eólica
▁mozambique
▁creído
▁omisión
▁col
▁calculado
▁cola
▁cámaras
▁situarse
▁2007-2013.
izando
▁darme
▁sustituido
▁transitoria
▁precipitada
▁inquietante
▁usado
▁citada
▁condenada
21
▁cop
▁erosión
▁finlandés
▁lanzó
▁signifique
▁sánchez
▁denegar
▁admiración
▁homologación
▁clarificación
vin
▁exponga
iente
▁controlan
▁3%
▁avanzamos
▁oportunamente
▁contingente
▁persiguen
aba
▁77
▁combina
▁formen
▁96
▁multifuncional
▁concediendo
▁holanda
▁macrofinanciera
▁restringe
▁especuladores
▁propondrá
▁memorando
zar
▁40%
▁consiguiendo
▁lanza
55
icas
▁encomiable
▁informática
▁probado
▁controvertida
▁trámite
▁típico
▁propugna
▁seguiré
▁detectado
▁gestionado
▁elaboren
▁procura
▁sitúan
▁prohibidas
▁64
▁reducidas
▁cortos
9/
▁hambruna
▁lamassoure
▁visitó
▁prolongación
▁lucro
▁marín
▁destruyendo
▁intracomunitari
▁mantenernos
fu
▁nominales
▁debilidades
▁estrechar
▁registradas
▁reglamentaria
▁desaparecidos
▁autorizada
▁cambiará
▁blanca
▁costosa
▁secundarios
▁adam
▁esconde
▁prometer
▁llevaría
▁utilizará
▁suave
▁grano
▁andersson
▁confederación
▁empecemos
▁martens
▁alegaciones
▁seae
algo
▁revelar
▁eventuales
▁ovejas
▁vengo
▁aprovechen
cido
▁atraviesan
▁perciben
▁refuercen
▁ideológico
▁viento
▁doméstico
▁experimento
▁exentos
▁cuantitativos
▁aumentarán
tina
▁calificado
▁escasas
▁unificar
▁separados
▁vendrá
▁internamente
tir
▁protegiendo
có
▁esterlinas
▁eventualmente
▁incitar
▁orgánicos
▁congelar
▁cerdos
▁intenten
▁fructífero
▁afgano
▁tor
▁creativa
▁cubren
▁extrañar
▁vengan
);
▁comprensibles
▁vacías
▁recopilar
▁allanar
▁percibe
▁consistía
▁tocar
▁socioeconómicos
▁superficial
▁buitenweg
▁desempeño
▁klaus
▁leader
▁pasión
▁indebido
▁llevarnos
imiento
▁llamo
▁tremendamente
ek
▁consagra
▁cooperen
pres
▁cha
▁continuos
▁900
▁dificultan
▁gastan
▁pasemos
ji
▁constitutivo
▁honesto
▁reiteradas
▁corral
▁continuamos
▁desbloquear
▁tirar
lia
▁instado
▁laboratorios
puesto
▁integra
▁consolidado
▁listo
▁facturas
▁intelectuales
▁reúna
▁firmada
ot
▁dührkop
▁grossetête
▁racimo
▁plantilla
▁recurriendo
▁nu
▁rec
▁impliquen
▁recíproco
▁ejecutiva
▁instante
▁necesitarán
▁parecería
▁dialogar
▁reunidos
▁necesite
▁pacíficas
▁difiere
▁imp
▁surja
▁3.
▁sencillos
▁edimburgo
▁explosión
▁superávit
▁trascendencia
▁culminación
▁liese
▁admirable
▁asesor
▁corredores
▁masivos
▁tomarnos
▁marinas
▁trágicas
▁asesinos
▁modesta
▁resueltos
▁vacía
▁sucesivos
▁comercializar
▁nacionalista
▁intensas
ño
▁inmediatos
▁permitirles
▁mueve
▁repite
▁cerrados
18
▁negociador
▁comparado
▁azucarera
▁fluctuaciones
▁indiscriminada
▁montón
▁superestado
▁hughes
▁oponernos
▁decae
▁granjeros
▁presidencial
▁influye
▁universitarios
▁rigurosamente
▁resuelta
▁escandalosa
▁oleada
▁interminable
▁tibetano
▁ensayo
▁producida
▁pasaje
ler
▁debatirá
▁adaptado
eg
▁reactivar
▁hicieran
▁pasadas
▁distinguidos
▁irlandesas
▁george
estados
▁ferber
▁gasóleo
▁pvc
▁solidez
▁atenerse
▁pluralidad
▁fatuzzo
▁productivas
▁residuales
▁huir
▁mirando
▁defina
▁embarazadas
▁directivos
▁legítimamente
▁entrando
▁impidan
▁finalización
▁negociada
▁pesado
1)
▁cooperativas
▁calendarios
▁importan
▁elimine
san
▁desembocar
▁cobra
▁diferenciar
▁consisten
▁turismos
estoy
▁acústica
▁concluyó
▁lealtad
▁trichet
▁mantendremos
▁abstenernos
▁indicó
▁regulados
▁incluyera
▁empeorado
▁estimula
07
cosa
eu
▁adquieren
▁totalitario
▁combinada
▁proclama
▁reduciría
▁ciencias
▁inversor
tienen
▁permitiera
rte
▁agradecerles
▁estatutos
smo
▁minsk
▁reuní
3/
1999
▁0
▁lucas
▁resumidas
▁cae
▁compatriotas
▁medicamento
▁importantísima
▁actualizada
alba
▁costera
gran
▁abandone
▁goce
wi
▁honesta
▁salvaguardias
▁impidiendo
▁schröder
▁whitehead
▁business
▁weber
▁oímos
▁productivos
▁deseada
▁montañas
▁alejadas
▁filas
▁regalo
▁variable
▁contradictorio
▁secundario
▁financiada
▁armada
01)
▁salvajes
▁virtual
▁trabajadora
▁colocado
▁enseñanzas
▁genuina
▁afluencia
▁café
▁multicultural
▁absorber
96
▁jubilados
▁huevos
▁modificadas
▁eu
▁descarga
▁resuelvan
▁inicia
▁medianos
▁llegara
▁nombramientos
▁resta
▁encierra
▁culminar
▁rector
▁desplazar
▁comisionado
▁filipinas
▁intencionada
▁península
▁actuemos
▁experimentación
▁atlántica
▁escrúpulos
▁estereotipos
▁dándole
▁dicta
▁encantada
▁invocar
▁repitan
▁fomenten
▁equilibrios
▁añadiré
▁plaza
▁trazar
▁tratara
▁examinen
▁inmunidades
▁anunciada
▁aisladas
▁lee
▁situadas
▁separadas
▁infantiles
▁valorado
▁obligue
▁encaja
▁colegislador
▁pasiva
▁stream
▁ámsterdam
▁abstenerse
▁imprescindibles
▁burla
▁desplazarse
08
▁genéricos
for
▁cites
▁amenazar
▁contando
▁exhorta
▁máquina
▁generados
▁amables
liza
▁asumió
▁bastan
5-06
▁instalar
mer
▁suplementarios
▁honestidad
▁participó
▁fundaciones
▁transbordadores
▁volar
▁dominar
torio
ible
▁tememos
▁facilitaría
▁canalizar
▁aproximar
▁existirá
▁reestructurar
▁resultas
▁financiarse
ificación
▁metales
▁divisa
▁ofrecemos
▁comienzan
▁suena
port
▁comparecer
▁saco
▁contradictorios
▁colmar
▁feder
ase
▁ob
ieran
▁aprovecharse
▁arduo
▁breyer
▁complicidad
▁antidemocrático
▁expresaron
▁negó
▁alianzas
▁quita
▁extraordinarios
▁codo
▁atrevería
▁destinatarios
▁reflejen
icos
▁leon
▁disfruta
▁pandemia
▁comparecencia
▁perseguido
▁decreto
▁terrestre
▁neto
▁empezaré
▁fijan
▁brindará
▁materializar
▁macroeconómicos
▁acompañados
▁72
▁cura
▁subyace
▁mantengo
pac
▁abogo
▁textualmente
▁válidos
▁oponentes
▁localización
▁alude
▁transmitiré
▁vacíos
cuando
▁69
▁vincula
▁agrava
rc
▁em
▁sinceras
▁aceptando
▁albanesa
▁generoso
▁billete
▁harina
▁primeramente
▁honra
▁ejecutivas
▁don
▁civilizada
▁moderados
▁construye
▁persiste
▁adherir
▁sospecho
▁admito
▁duisenberg
▁escribió
▁extensivo
▁frassoni
▁gustosamente
▁reintegración
▁cortar
▁derogaciones
▁olvido
▁polvo
▁liberalismo
▁excluya
▁analizamos
▁br
▁necesitaba
▁centrará
▁gestionan
▁guardan
cé
▁suceso
▁salta
▁botella
▁etnia
▁desagradable
▁asequible
▁restringido
▁ramos
▁intensos
▁creativas
▁conduciría
▁reza
unión
▁rebaja
▁goebbels
▁macao
▁identidades
▁1986
▁serviría
▁categóricamente
▁marroquíes
▁30%
▁firmantes
▁emite
▁especulativos
▁logren
▁requerido
▁académico
▁tormenta
▁bajada
▁especializado
▁engloba
▁reguladora
marco
▁sindical
▁cotidianas
▁preparadas
ov
▁deportes
▁emoción
▁impensable
▁triunfo
▁visité
▁superpotencia
▁sustento
▁dificultar
▁mg
▁porcino
▁dominado
▁pr
▁140
▁citados
▁controversias
if
▁noble
▁mentales
▁129
▁dioxinas
▁eventos
▁insignificante
▁colectivamente
▁motivar
▁duros
▁extremas
▁listos
▁cl
▁retirarse
▁fije
▁cercanos
▁alcalde
▁desesperada
▁insatisfactoria
▁jurisdiccional
▁maravillosa
▁remolacha
▁trakatellis
▁tristeza
▁eurogrupo
cie
▁pres
▁titulada
▁generará
▁moverse
▁publica
▁invierten
▁remotas
▁asesinadas
▁aceptados
▁efectuadas
institucionales
▁vigilantes
▁clásico
▁inestable
▁insulto
▁solidario
▁solicitante
▁drásticas
idi
▁complementa
▁otorgue
▁fracasos
▁elemental
gubernamentales
▁descendido
▁naufragio
▁orígenes
▁trimestre
▁culto
▁reagrupación
▁cancelación
▁aconsejable
▁flexiguridad
▁1985
▁campesinos
▁resultaba
▁rte
▁archivos
▁conllevan
▁lacra
▁carreras
▁amable
▁notar
90
▁concentrado
esa
▁arreglar
▁decidirse
▁adoptara
▁emprenda
▁dedique
▁reflejada
▁prevea
8(
▁burg
▁falsificaciones
▁habsburg
▁predecir
▁sjöstedt
▁tomlinson
▁pausa
▁vulneración
▁incitación
▁llam
▁incrementos
▁71
▁confían
▁contrasta
▁mataderos
▁fabricados
▁secreta
▁ordinario
▁retroceder
sesperadamente
▁tope
▁minar
émonos
▁libra
▁organizarse
▁evalúa
▁despierta
▁saldrá
▁reactor
▁recibí
todos
▁institutos
▁violentas
▁holandesa
▁incuestionable
▁infección
▁cinismo
▁acento
▁historias
▁peco
▁saludamos
▁alcanzará
▁revitalizar
▁1,5
▁lamentables
▁preferente
▁ardua
▁perjudican
▁traspaso
▁debíamos
▁inspirar
▁objetos
▁450
rra
▁modifican
▁objetivas
▁licitaciones
▁crueldad
▁agrupaciones
▁stalin
▁97
▁sabios
▁creadas
0/
▁empiecen
▁representaría
▁ilícito
▁desastrosa
▁nacionalidades
ly
▁respetados
▁apoyarlo
(1999)
▁encargue
herzegovina
▁educar
▁capas
▁dañar
▁irregular
▁sucesor
▁abjasia
▁cerveza
▁eurobarómetro
▁igualitario
▁thyssen
▁aplace
▁sinónimo
▁vicioso
op
▁fava
▁inquieta
▁llegaremos
▁nutricionales
▁disminuyendo
▁comprometernos
▁excusas
sestabilización
(2000)
hemos
▁fieles
nada
▁enfatizar
▁dirán
▁generando
cuánto
▁encontraban
▁expulsar
6-03
▁comprometen
▁acaben
▁inhumano
▁vis
▁privilegiado
▁totalitarios
▁pacíficamente
▁estaciones
▁físicos
▁invierte
▁americanas
▁jan
▁81
▁fomentará
▁senegal
▁piebalgs
▁tony
▁tocado
▁auditores
▁minuciosamente
▁prestados
pusimos
▁ocio
▁ignoran
▁provocaría
ser
▁representativa
▁facilitada
▁sueños
▁sugieren
▁generada
▁abren
▁fiscalía
▁mover
▁aparta
▁beijing
▁latinoamérica
▁comenzamos
▁belder
▁quiso
▁fraga
▁azote
▁eurocontrol
▁exporta
16
rar
▁apoyaré
▁sabíamos
▁proclamar
▁abandonados
▁profesionalidad
▁enérgicas
▁prematura
▁discutible
▁admitido
▁habitante
▁ocasiona
ef
▁dramáticos
ua
▁ueo
▁sustituya
continuación
▁mina
▁simultánea
▁corredor
▁clausura
▁abordará
▁domicilio
▁matriculación
▁rotundo
▁tenacidad
▁tobin
▁planteo
▁lancker
▁provechosa
▁eeuu
▁incrementando
▁males
▁ropa
▁presentarán
▁sumarse
transformaciones
▁juegan
jarán
▁plenos
▁plaga
▁portuarias
▁vivan
▁ajustan
▁logran
▁votarán
▁alimenticia
▁moderada
▁ajena
▁inherente
▁natal
▁especializada
ima
▁trazado
▁afganos
▁fo
▁debatirse
▁océanos
▁justificados
▁interregional
▁creyendo
▁fécula
▁johannesburgo
▁tayikistán
▁teherán
▁cotizaciones
dad
▁triple
▁4.
▁empleando
▁respetuosas
▁tramitar
▁injusticias
od
▁suyos
▁controladas
▁choque
▁laboristas
▁aproxima
▁nace
ling
▁formule
▁recabar
▁adoptarán
▁fortalece
▁reco
▁manual
debemos
▁paramilitares
▁intergrupo
▁60%
▁qua
▁inadecuadas
▁inevitables
▁reúnan
▁centralización
▁invit
▁retiren
▁contaminados
▁bolsillos
▁traslada
▁consultivos
▁ejecutivos
▁pondrán
▁casco
▁doloroso
▁iniciada
icen
▁eleva
▁estimada
▁destacada
ide
▁satisfaga
▁artesanal
▁distorsionar
▁biogás
▁cappato
▁imponible
▁inducir
▁precauciones
▁rendición
▁cometiendo
▁fijó
▁jornadas
▁108
▁pronuncia
▁ocupará
min
▁euroescépticos
▁hacerlas
▁minoritarios
gh
▁nocivas
▁controle
▁juveniles
espero
▁2007-2013,
▁reabrir
▁carecemos
▁veterinaria
▁precario
▁peaje
▁honorable
▁patata
▁ingente
▁estructurada
▁tratemos
▁abusar
▁refiera
▁capitalistas
▁saque
lista
sec
▁hundimiento
▁pabellones
▁partenariado
▁reunimos
▁temporada
▁comprobamos
▁derroche
▁paul
▁echelon
▁cortesía
▁colaboren
▁abandonan
▁mire
▁sufran
▁logrando
▁suspende
▁leo
▁atendiendo
ang
▁mini
▁deficiencia
▁mediador
ep
▁organizadas
▁cre
▁boicot
▁conozca
7/
▁gil
▁mccarthy
▁causó
▁columna
▁estambul
▁génova
▁rescatar
▁uniformidad
▁brinde
▁agotamiento
▁jugando
▁rotación
▁condeno
stru
▁vele
▁deportistas
▁encargarse
▁reparos
ral
▁recalcado
▁supermercados
▁durar
vers
▁prosperar
▁extendida
▁pasivo
▁laboratorio
▁susceptible
realmente
2(
▁tácticas
▁existiera
▁pague
vengo
feag
▁deroga
è
▁conciernen
▁aarhus
▁apéndice
▁pertenezco
▁xix
▁musulmán
▁pesd
▁progresando
▁volverán
▁europe
▁transformado
▁2050
▁lácteas
▁docenas
9(
▁ejercicios
▁ligeros
▁sensibilizar
▁santa
6(
▁enérgico
▁distrito
▁proteccionista
▁permitirían
▁pareja
▁tramo
70
▁ocasionados
▁fijarse
▁incremente
gó
▁macroeconómicas
▁consentir
▁holocausto
▁propuse
▁varsovia
▁debió
▁perú
▁sitúe
▁afirmaba
▁geográficos
▁recaer
▁llevarlo
av
▁1990.
▁determinan
▁trasladarse
dar
▁añaden
▁telefónicas
▁hectárea
cc
▁constituyó
▁embajadas
▁bienvenido
dia
▁22,
▁madura
▁adapte
▁prosiga
▁elaboradas
▁problemáticos
sco
▁parental
▁asistiendo
▁compañera
▁establecieron
▁jensen
▁manifestando
▁impulsa
▁realizaron
▁designados
▁origina
▁estudiará
▁posteriori
▁olvidamos
ñas
▁ordenar
▁representará
▁ilegalidad
rv
▁turcochipriotas
▁paneuropeo
24
▁frases
▁87
izan
árselo
▁enviados
▁genere
▁agrarios
▁ki
▁aumentó
▁talibán
▁bonito
fl
▁acnur
▁procesar
▁calurosamente
▁73
▁debatamos
▁becas
ega
▁corresponder
▁ulteriores
▁injustamente
▁prepararnos
▁durado
▁organiza
▁integre
▁impresionado
▁variedades
▁plasma
▁incoherente
▁multa
▁primario
▁acompañadas
▁ejecutado
▁consulte
▁vol
▁bando
illa
▁maniobras
ure
▁presentaré
▁enterado
az
▁manifieste
▁recupere
▁acertadas
▁recordará
▁padece
▁automovilístico
▁bolivia
▁contagio
▁oreja
▁perdió
▁precariedad
▁rasmussen
▁tutela
bre
▁paridad
▁enseñado
▁abandonen
▁embajadores
▁il
▁librar
▁mentes
▁torres
▁inicien
▁brutales
▁conferir
▁empleadas
▁agresiva
▁inocente
▁multiplicar
▁ligada
▁cri
▁transitorios
▁or
▁servirán
▁atañen
▁rendimientos
▁recoja
▁compara
▁secuestros
▁asunción
▁bagdad
▁cunha
▁esclavos
▁katiforis
▁menciono
▁schuman
▁lambert
▁urnas
▁empeoramiento
ier
▁compartidas
▁apoyos
▁detenerme
▁planteen
▁costará
▁92
▁severa
▁quedamos
▁asegurará
▁banderas
▁beneficiaría
▁debatiremos
▁paneuropea
▁rígida
▁remite
▁robo
ctor
▁masacres
▁definitivas
▁decepciona
▁exactos
▁simplifica
▁elabora
▁divide
▁demencia
cci
we
▁agresiones
▁demagogia
▁dirigió
▁dupuis
▁estragos
▁kroes
▁renault
▁manejo
▁ineficacia
▁opositores
▁emergencias
";
ers
▁contratantes
▁guarderías
▁introducidos
▁et
▁za
▁mostrarnos
▁denominar
▁acostumbrados
▁gobernador
▁mentiras
iva
▁meridionales
▁cuestionable
▁procurado
fin
▁federalistas
ap
▁condicionar
▁costosos
▁examinarse
▁llevarán
▁participarán
▁figure
están
▁disparidad
▁encontró
▁eurobonos
▁mundus
▁seppänen
▁transdniéster
▁adquiriendo
▁dureza
▁afines
▁legitimación
▁animo
▁aplicarlo
ff
▁brit
▁expulsados
▁caballeros
▁eviten
▁abran
log
▁iniciaron
▁aquéllas
die
▁detenidas
▁insisten
▁gabinete
▁preparatoria
nar
rec
▁muchísimos
▁modestos
▁producirán
▁rúbricas
▁ligeras
▁suprima
ircunscripciones
▁báltica
▁espongiforme
▁lobby
▁prontitud
▁sacconi
▁subrayó
▁traducciones
▁organizó
▁migraciones
▁millares
▁impresiones
▁revisarse
▁brotes
▁acreedores
▁satisfacen
▁pluralista
▁examinemos
ard
part
▁establezcamos
▁deficientes
▁geopolítica
▁divergencia
by
▁búlgaros
▁perjudicado
2003)
▁soluciona
▁bolsas
qu
▁76
▁reg
tinoamericanos
▁fijos
▁eur
▁anna
▁sufrimientos
nc
dado
▁inventar
▁ascenso
▁añadiendo
▁giscard
▁simpson
▁tregua
▁martínez
▁déjenme
▁financiaciones
ze
▁materialización
▁sp
▁identificados
▁1.000
▁planea
▁crueles
▁adversos
▁elles
▁intervengan
▁mata
▁cubiertas
▁transportan
▁cuidadosa
▁status
sproporcionado
▁indiferente
▁búlgaro
▁vecina
▁mari
uso
▁solicitada
▁elite
1(
consejo
▁determine
▁declare
▁literal
ak
▁compasión
▁defensiva
▁gollnisch
▁madagascar
▁tabaquismo
▁variaciones
▁abstenerme
▁investigando
▁hablé
▁seguidores
▁almacenar
▁genes
▁1987
▁integran
▁disfruten
▁acarrea
▁adapten
ológica
3(
▁orientarse
▁sobrepasar
▁celebremos
▁avancemos
▁negras
▁comunicarles
▁navales
▁caen
▁minoristas
▁sensatas
▁fse
▁desastroso
▁dolorosa
▁fundada
▁presentarles
▁publicada
▁acompañan
▁peajes
ah
▁secretas
▁on
▁desearle
▁ligado
▁participará
euromediterráneo
▁plenarias
▁prepare
▁cosechas
▁19,
▁matrimonios
cientos
▁disponía
weggen
▁adquisiciones
▁exilio
▁periferia
▁rigidez
▁rossa
▁schroedter
▁sellafield
▁recomendamos
▁vaga
▁panel
▁alimenta
▁kosovares
▁desfavorable
▁organizando
▁acude
▁cruzados
▁conformes
▁tenidas
▁cómplices
▁decían
var
▁suicidas
tando
▁embajada
▁carburante
▁diversa
▁violento
▁redactada
▁fijadas
bla
pas
▁concienciar
pondremos
▁violado
▁crearon
▁insista
enda
ándolas
▁mortal
▁genital
▁espaldas
▁atribución
▁caudron
▁discreción
▁encefalopatía
▁sufrió
▁perseverancia
▁mostramos
▁impuso
▁morgan
▁pongo
▁cultivadores
▁cadmio
▁tele
▁efd
▁bruta
form
)]
▁firmen
día
/2008
▁soporte
▁emprendan
▁83
▁vaca
▁médicas
▁familiarizados
▁gobernantes
▁rechacen
▁aplazado
▁cancelar
▁idénticas
▁avanzan
▁debatida
▁tonelada
▁informativo
▁tomara
▁agotar
▁generosos
▁tarda
dre
▁especializadas
▁hacían
▁rama
▁interpretado
▁ordenamientos
▁interpreta
▁180
▁tranquila
▁armonizados
▁dilación
▁kauppi
▁perfeccionar
▁preferimos
▁reinserción
▁wurtz
▁delimitación
▁1970
▁save
▁aplaudimos
▁montante
▁comiencen
▁luchas
▁comenzará
▁efectuarse
▁med
▁alabar
▁21,
▁atento
dec
▁aprovecha
02)
▁ministerios
▁considerarlo
▁permitía
▁tira
▁ocupada
▁publicará
▁france
▁injustificable
▁obligatoriedad
▁turmes
▁procedido
▁arbitraje
▁retener
▁dotaciones
▁demostrará
▁staes
▁provincias
▁notas
▁inspirado
▁repúblicas
▁destruyen
▁votan
▁pudiesen
-8
itos
▁terminaré
ev
▁procederá
▁comunicarse
▁maes
▁imposibles
▁restrictivo
▁película
▁dudoso
▁diferenciado
▁responderé
▁corra
▁analice
▁persistentes
▁cubra
▁subasta
▁minuciosa
▁priori
▁atribuciones
▁despertado
▁holandés
▁manuel
▁nicholson
▁uruguay
▁pretendido
▁cocina
▁señalaba
▁hídricos
isa
4-02
▁gramos
▁iter
95
▁eliminen
▁delictivos
cada
▁18,
▁confidencial
▁celebraremos
▁abandona
▁croatas
▁perdida
▁mixto
▁sindicato
▁plazas
▁ideológicas
▁necesitadas
▁eliminarse
▁suplementarias
▁corresponderá
▁comparta
▁brindan
▁formando
▁cot
▁avancen
▁reconsidere
▁alavanos
▁chichester
▁diamantopoulou
▁instituir
▁parálisis
▁pérez
▁silvicultura
▁ilimitada
▁duff
▁preguntó
▁markov
▁vo
▁contenedores
▁fármacos
▁disfrutado
▁oigo
▁consume
▁rechazaron
▁exportador
▁sensiblemente
▁armenio
▁apremiante
▁carente
▁preparatorias
▁dudosa
rea
▁repetirlo
▁procedemos
▁nació
▁yendo
▁alegre
▁dejarnos
stra
▁cajas
▁ansiedad
▁coreper
▁hitler
▁ineficaces
▁itinerancia
▁ribeiro
▁ilimitado
▁pesadilla
▁constituía
▁contestación
▁refundición
▁inadmisibles
▁maij
▁5%
▁liderar
▁injustas
▁acceda
▁transporta
▁gi
▁pedirá
▁escritas
tario
▁ejerzan
▁aliento
▁catastróficas
▁confuso
▁forzado
▁excedente
▁arrastre
uno
▁liberados
▁insuficiencias
▁albergar
▁sentados
▁afirmamos
pp
▁justifique
▁compar
▁confesar
▁decidiera
▁formidable
▁gallagher
▁incluyó
▁peijs
▁pragmatismo
▁emociones
▁residir
▁varela
▁manifestamos
▁confiado
▁decididas
▁daba
▁forjar
▁mostrada
▁novedades
▁definirse
▁erróneas
dera
▁berd
▁imagina
▁diarias
▁13.
▁inequívocamente
stre
▁reconozcamos
▁apoyadas
▁escapa
ist
pr
▁air
▁confusa
▁idóneo
▁croata
▁comprenderán
▁incendio
sería
▁arbitrarias
▁consagrados
▁cubanos
▁formulan
comisión
▁califica
▁autocar
▁muros
▁litigio
▁1991,
▁cianuro
▁desertización
▁hänsch
▁paradójico
▁protagonismo
▁tripulaciones
▁atroz
▁amabilidad
▁schmidt
china
▁renunciado
▁dejaron
▁clonados
pec
▁fortalecido
▁complementos
▁creadores
▁destinen
99
60
▁etiquetar
tis
▁rein
▁alcancemos
▁ridícula
▁enfermo
▁ganadero
▁exagerada
▁equipar
▁adaptada
▁solía
ski
▁alberga
▁busque
▁recuperado
▁disfrute
▁monterrey
▁panacea
▁solbes
▁sudanés
▁tannock
▁noroeste
▁afirme
▁podré
▁privatizaciones
▁budapest
▁valoraciones
gio
▁esfuerza
tación
▁posibilita
▁mezclar
▁síntomas
▁financian
▁observan
▁notificar
▁("
▁represivas
mó
sol
▁apariencia
▁polémico
▁mafia
▁expuesta
▁descubrimiento
▁reforzadas
▁read
inter
▁mat
▁nord
▁advierte
▁acelere
▁170
▁sha
▁trataremos
▁galeote
▁homofobia
▁inserción
▁participé
▁patentabilidad
▁progress
▁ofreció
▁utilizó
▁comparaciones
sc
▁burócratas
▁prest
▁estimación
▁25%
▁maximizar
▁encargará
▁sobrepasa
▁endurecer
▁proyecta
▁borrar
▁essen
▁emitidos
▁qui
estima
▁tremendo
▁muerta
▁asocia
▁ligados
dé
▁diarios
▁enteros
▁apela
▁condenadas
▁beneficiosos
▁trabajaremos
▁santo
▁+
▁bahía
▁comprobaciones
▁flandes
▁hiciese
▁nitrógeno
▁peatones
▁tractores
▁endurecimiento
▁desestabilizar
▁desviación
▁estímulos
▁mercantil
▁prestadores
▁sordos
▁wi
▁experimenta
▁redundará
▁lord
▁declarados
▁ojo
parlamentaria
▁autoritario
▁garante
▁usados
▁estipulado
▁suecas
▁lingüísticos
tte
▁divididos
▁tuviese
▁solucionarse
▁mencioné
▁motriz
sus
▁gravar
▁necesitado
met
▁decepcionados
▁times
▁cobrado
▁crearán
▁obligará
her
▁baratas
▁haríamos
▁iet
▁subidas
▁gigante
▁referida
▁diseñada
▁fomentado
▁prolongada
▁emana
▁incumplido
▁mayorías
▁repercute
▁human
▁carteras
ite
▁contraer
▁fascismo
▁infecciones
▁influido
▁linkohr
▁paasilinna
▁subsidiaridad
▁tindemans
▁wijsenbeek
▁minería
▁tapete
▁pcp
▁ponderación
▁siéndolo
▁recomendable
▁cogeneración
▁concedo
viva
▁compiten
▁100.000
▁argumentar
ándole
▁citaré
▁neutrales
▁felicitarla
▁regionalización
▁pm
cuántos
09
▁cuantitativa
▁enviada
▁preparatorio
▁estuviese
▁93
▁garantizarles
▁informativas
▁seminarios
▁comete
▁exponen
ales
▁prometedor
▁entornos
▁organice
▁trascendental
▁tabú
▁repercutir
▁reunirá
▁defensora
▁sahara
▁adherido
▁admisibilidad
▁contribuyó
▁cresson
▁diabetes
▁dirigimos
▁discrepo
▁exámenes
▁favoreciendo
▁idoneidad
▁nápoles
▁sufrieron
▁disolución
▁roure
▁pesa
▁incierto
▁equiparación
▁togo
▁levantado
▁huérfanos
▁pal
▁banca
▁entradas
▁intentará
▁74
▁ejemplares
▁limitando
▁mostraron
▁escenarios
▁concluiré
▁prestamos
▁reglamentar
▁camp
▁olvidarnos
ena
▁sensibilidades
▁pas
▁prohibidos
scu
▁anónima
▁hablen
▁brutalidad
▁instantes
93
izó
▁impera
▁talla
tales
▁hacerme
▁emp
▁censo
▁franjas
▁1979
▁bertens
▁directriz
▁hatzidakis
▁honduras
▁insolvencia
▁nicaragua
▁recapacitar
▁simboliza
▁ártica
▁ímpetu
▁consiguieron
▁pregunté
▁arrogante
▁frecuencias
▁conforman
▁che
▁especificidades
▁adversas
▁impedirá
▁colonias
▁miert
▁rep
▁rechazando
cida
▁exhaustivamente
▁wa
dra
▁vende
▁dogma
▁idéntico
▁inhumana
reci
▁académicos
▁andar
hor
▁corona
▁descansa
▁deliberar
▁ucranianos
▁clasificar
▁duraderas
apartado
ley
▁accidental
▁saberlo
▁condujo
▁edición
▁finlandeses
▁rodeos
▁teatro
▁solventar
▁cristal
▁visiones
▁zana
▁qaeda
▁dependemos
▁rato
▁esconder
▁explotan
▁blancos
▁microcréditos
▁convertirnos
▁carlos
▁luchamos
▁desempeñen
▁nazi
▁9.00
▁afianzar
▁comunica
▁hermanos
▁preparatorios
the
▁psicológico
▁sucesivo
▁depósito
▁sam
▁indio
▁motivados
26
▁citadas
estaing
▁permanezca
avier
cuántas
▁católica
▁diamandouros
▁kabul
▁pidieron
▁pretensiones
▁imperialismo
▁recambio
▁publicaciones
▁calado
▁pronunciarnos
▁unirnos
▁aspiramos
▁compartan
▁reclamado
▁artificialmente
cien
▁comenzaré
▁destine
▁tala
▁auditor
▁investigado
▁catastrófica
▁estimulante
▁agujero
▁planteará
▁aplauso
▁alejado
▁fijada
será
estado
repito
▁secular
▁trataría
▁mutuas
▁preferencial
▁antigüedad
▁fukushima
▁patrones
▁portavoces
▁radiaciones
▁opio
▁broma
▁trigo
▁reivindicación
▁facturación
▁perdedores
▁sintéticas
▁125
▁sopesar
▁lea
▁trabajará
▁campamentos
▁fri
▁utilicemos
gui
▁cuestionario
ata
▁impositivos
▁comenzaron
▁importador
fina
▁ambigua
▁entusiasta
▁rueda
▁viaja
▁dotada
▁regir
▁doctor
▁costosas
▁recuperarse
solidaridad
▁dejaría
▁originado
aria
▁analfabetismo
▁callejón
▁coartada
▁curiosidad
▁ecuatorial
▁eslabón
▁proteaginosas
▁reorientación
▁zelanda
▁1967
▁provengo
▁triángulo
»?
▁90%
▁gratificante
zona
▁complicar
▁aeroportuarias
▁inmersos
▁lin
▁quisieran
▁aceptará
▁mueven
▁milicias
▁usen
▁complementan
prim
▁permitamos
▁enmarca
▁respaldan
▁segregación
▁biológico
social
▁ofrecida
▁175
▁motivada
▁creativo
▁juzgado
▁caracterizada
▁aplicarla
▁representando
cultura
▁recaudar
▁contemplada
▁meter
▁distingue
▁establecía
▁prohíba
▁suprime
programa
▁amiga
▁merma
▁comprometieron
▁fragilidad
▁liechtenstein
▁orgánica
▁bonde
▁borrell
▁salió
▁89
▁colocación
▁predica
▁paulatinamente
▁subproductos
▁confidenciales
▁aleja
▁marginados
▁abogamos
▁aportando
▁evaluarse
▁pollos
▁coto
▁deteriorado
▁limiten
▁cuidadosos
▁destinarse
▁contemplarse
4(
▁acatar
▁irresponsables
▁cooperativa
▁deportivo
▁emplee
▁circula
▁basará
▁debatirlo
▁destinos
udo
torias
▁evalúe
▁consigna
▁huyen
▁campania
▁lagendijk
▁lópez
▁moldavia
▁pretensión
▁sudoriental
▁thors
▁acabó
▁gorda
▁adpic
▁vodka
▁manda
▁indebidamente
▁transmisibles
▁duma
▁liberia
▁adicionalidad
▁devastadores
▁centraré
▁represalias
▁verían
▁supranacionales
▁economistas
▁conllevará
▁impulse
▁x
▁10.000
▁crecen
▁tristemente
▁garantizaría
▁produciría
ear
▁vecinas
▁statu
zan
▁cambiante
▁reducirán
▁ideológicos
iano
jar
▁consagrar
▁neo
▁sedes
▁mejoraría
▁porvenir
▁espiritual
▁convertiría
europe
▁adopciones
▁aplaude
▁davies
▁dieciséis
▁hussein
▁implacable
▁instrucción
▁narcotráfico
▁ocalan
▁precisiones
▁sensatez
▁suplicatorio
▁enriquecido
▁weiler
▁subsidiaria
▁fabre
▁multiplicación
▁schmid
▁desintegración
▁pacificación
▁imperiosa
▁pelota
▁disuadir
▁ratificada
ft
▁inviertan
▁coger
▁opel
▁oaci
ert
▁quedara
▁perpetua
▁discriminar
/2000
▁tendentes
▁asientos
▁juzgados
llen
▁comportan
▁dependiente
▁brazo
▁trasladado
mt
▁hermano
▁saqueo
tio
▁pol
▁elaborará
▁informan
▁gentes
▁constructivos
▁presa
▁informadas
▁oscila
▁inmobiliaria
▁albanés
▁deprez
scott
▁enviamos
▁cepos
▁maaten
▁recordó
▁70%
sabe
▁cordialmente
▁incidental
▁formados
▁criticamos
▁contestarán
▁rogaría
arias
▁fragmentado
▁esperada
▁castigados
▁critican
▁agrupar
▁ali
▁sine
▁adaptadas
▁encabezada
▁olvidarse
▁conquista
ps
q
▁superflua
▁vertiente
▁emprendida
▁acumulado
▁apoyaron
▁promulgar
▁plantearon
▁recordaré
▁paralelas
7(
▁emiten
▁sac
▁%)
36
▁ambiguo
▁bolonia
▁equipaje
▁estrés
▁recordatorio
▁siguieron
▁spencer
▁tendido
▁desierto
▁marketing
▁enmalle
▁refirió
▁homosexualidad
▁sexta
▁ahern
▁saliente
año
▁bonitas
▁favorecerá
▁pactos
▁cuestionado
▁subsisten
line
▁exp
▁integrador
▁pilotos
▁perderán
▁ren
▁épocas
▁virtudes
▁referidas
▁periódica
▁tentativa
▁migratoria
▁contradictoria
▁cuantitativo
▁propietario
▁caballo
▁retiradas
38
▁garantizadas
▁secretaria
▁explican
▁1994.
▁chipriotas
▁er
ios
▁obrar
▁sufragar
▁trampas
▁equivocados
tig
▁enorgullece
▁elegibilidad
▁müller
▁spinelli
▁himno
▁contención
▁1975
▁espantoso
▁embarque
▁delegar
▁100%
▁obstaculiza
▁presidida
▁alcanzando
lá
▁busquen
▁109
▁adapta
▁duplicado
▁arroja
▁cobran
▁emisoras
▁integrantes
▁incrementará
▁arancelarios
▁planificado
▁sras
▁activar
ust
▁ideologías
▁asistí
▁reticencia
▁minoritaria
▁raro
▁producidas
▁equivocadas
▁llevarla
vert
▁confirmada
▁inf
▁condicionada
▁responderá
▁atribuido
▁audaz
▁concertado
▁gadafi
▁gröner
▁insatisfactorio
▁rastreabilidad
▁tripartita
▁eximir
▁impositiva
▁bomberos
▁terminología
▁facciones
▁perry
▁escucho
▁minusválidos
▁demográficas
▁federalismo
▁compradores
▁iniciamos
▁peter
▁afectaría
▁necesitemos
▁autocares
97
▁gastamos
iv
rie
▁limpiar
▁juristas
▁movilizado
▁compone
▁aires
▁subestima
▁manifestaron
▁eche
▁garantizarán
▁procesado
▁suponiendo
4-01
▁migratorias
▁apoyarla
▁terremotos
▁bos
▁responsabiliza
▁79
▁valencia
▁rin
▁inexistente
▁despacho
▁idéntica
▁indirecto
▁expectativa
small
▁26,
▁formaciones
▁negocia
clav
▁traduzca
▁proporcionadas
▁emocional
▁ofrecidos
▁ratifica
▁desencadenar
▁biocidas
▁cinematográfica
▁desacoplamiento
▁incontrolada
▁inocencia
▁mecánica
▁montreal
▁quinquenal
▁restitución
▁reunieron
▁interestatal
▁campeonato
▁fabrican
▁comparamos
▁ganadores
▁ecologistas
▁otorgan
"?
▁provocaron
▁abordemos
tras
▁condicionado
▁cap
▁mag
cta
▁peligrar
▁superen
▁someten
▁señalé
▁ataca
▁equilibrados
dura
▁depositado
▁argelino
▁incoherencia
▁obtenida
▁propicia
▁foco
▁musulmana
▁record
▁matanzas
▁cualitativos
▁austriacos
▁entrarán
▁chi
▁resolverlo
▁plural
▁ordenada
chen
▁aparezca
ique
▁138
▁inadecuados
▁asumimos
▁atenuar
▁buzek
▁ferreira
▁insatisfacción
▁japoneses
▁obsesión
▁papayannakis
▁persecuciones
▁universitaria
▁volúmenes
▁geografía
▁peace
▁purvis
▁flexibilización
▁enriquecer
▁utilizarán
▁procurando
▁evolucionado
red
▁adhieran
▁efectuados
2002)
▁probabilidades
▁utilizarlos
ty
▁intensificado
▁perros
▁semi
▁granja
▁incita
▁dictadas
▁subrayarlo
▁decretos
▁mentira
▁presionado
▁expira
▁consultados
▁adn
▁echado
▁bel
▁provocadas
cuarteto
jan
▁cumplirá
▁desempeñó
▁dirigiendo
▁felices
▁inusual
▁naranja
▁recinto
▁incesante
▁instó
▁encargo
▁auge
▁caliente
▁nuts
▁persistencia
▁examinó
▁expiración
▁balcánicos
▁regularse
donde
▁rondas
▁salvador
.500
▁favorezcan
▁subrayando
▁escuchen
hace
▁mejorarán
▁altener
▁prohíben
▁presenciar
▁flexibilizar
▁rígido
▁decisorio
▁inscrito
▁ruina
▁vigilante
▁variables
▁beneficiario
▁ongs
▁mont
▁actuará
!"
▁asombra
▁arsenal
▁aeronáutica
▁autosuficiencia
▁brown
▁custodia
▁extraído
▁permanencia
▁pertinencia
▁pinochet
▁igualitaria
▁comprueba
▁aplastante
▁160
▁sabor
▁universalidad
▁compensatorias
aban
00)
rado
▁paralizar
▁castiga
▁reconocerse
▁participamos
▁adolece
▁constituyan
▁toxicomanías
▁condenando
▁desacuerdos
▁subastas
mor
▁recortado
▁birmano
▁forzoso
▁egoísmo
fund
▁tienda
pues
0(
▁conseguirán
▁horribles
▁federales
▁actualizado
▁decentes
▁concuerda
▁adquiera
▁2003/
▁transversal
▁diseñados
▁cobre
aubrespy
▁1976
▁bjerregaard
▁exitoso
▁ftalatos
▁guardián
▁incluimos
▁insistió
▁paradigma
▁pesimismo
▁sarajevo
▁concreción
▁perdamos
▁tarificación
▁consternación
▁esforzándose
▁redonda
▁palanca
▁encanta
▁grato
▁vela
▁congratulamos
▁aceptaron
▁pobladas
ich
▁use
▁seguidas
▁adecuar
▁92/
▁ban
▁ciclos
▁dobles
▁primordialmente
2)
▁inhumanas
▁grava
▁devuelto
▁gratuito
▁parecida
▁típica
▁concursos
ian
▁impactos
▁reguladas
▁planteé
▁descarta
▁muere
▁sacan
▁hostil
▁busquin
▁dispersión
▁equivaldría
▁fantástico
▁lapidación
▁muriendo
▁puñado
▁quórum
▁respondiera
▁sangrienta
▁añado
▁equivalencia
▁peculiaridades
▁enlaces
▁empeorando
▁incluirán
▁eures
4-05
▁trasladan
derechos
▁aplaza
2000)
zca
▁abrirá
▁determinará
▁ejecuta
▁resultando
▁segmentos
sistema
▁alejados
▁sch
▁pediré
▁patatas
▁ecológicamente
▁sorprenderá
▁bill
▁clásica
▁petrolero
▁opta
▁detenerse
▁masivamente
▁demoras
▁abordados
▁amenazando
▁cordial
ará
debe
▁adhesiones
▁descontado
▁grosch
▁keyser
▁lynne
▁miguélez
▁destacó
▁voivodina
▁horarias
▁mitigación
▁alegando
▁paradójicamente
▁"¡
▁2.000
▁pasaría
▁orillas
▁llevaba
▁cualificadas
▁gestos
▁ofrecidas
nación
dio
itas
▁aprobaremos
▁tremenda
▁opinar
▁deportiva
art
5(
porten
berg
▁condicional
▁utilizarlo
▁decirme
sto
▁géneros
▁produjera
▁publique
▁devastador
▁transaccional
▁infundir
▁prolongados
š
▁angelilli
▁buttiglione
▁feoga
▁inercia
▁octavo
▁surgieron
▁söderman
▁arym
▁negamos
▁adicción
▁cerrando
▁abordó
▁admisibles
▁curiosamente
▁arcas
▁casaca
▁desaparecen
uk
▁gigantesco
▁coordinados
▁84
▁encantados
▁molestias
rga
▁describen
8%
▁leí
▁requerir
ció
▁llegarán
▁informático
▁152
▁fantasma
▁cedido
▁inflexible
▁justificarse
▁karl
▁gestionados
▁relaciona
▁cuestan
▁preocupe
cep
mercado
▁considerará
▁1992.
▁poseer
hoja
▁marroquí
▁encontrarnos
▁banotti
▁fanatismo
▁inestimable
▁japonés
▁litoral
▁mantequilla
▁muscardini
▁prometo
▁fortaleciendo
▁quinient
▁abundancia
▁recurrido
▁negando
▁despedir
▁llanamente
▁indefinidamente
▁subrayan
▁formalidades
▁anime
▁tejado
▁sequías
▁organizan
pide
▁transcurridos
▁procesados
▁reciclar
▁controlando
▁teórico
▁minorista
▁manifestada
▁turcochipriota
41
▁élite
▁parques
▁establecemos
▁atractivos
▁premisas
▁temáticas
(2002)
▁evitarlo
▁planteaba
▁reivindica
▁115
▁olvide
▁siguiera
▁tiro
cional
tengo
▁repentina
▁desprecia
▁polacas
▁empuje
▁exponencial
▁figueiredo
▁pkk
▁reclutamiento
bissau
▁revitalización
▁parish
▁asombroso
▁hostilidades
▁planeado
▁sindicalistas
▁devastadoras
▁focas
▁depositar
▁fraudulentas
▁funcionales
▁estudien
▁lograron
▁programado
▁dictado
▁evitará
▁publicadas
▁suavizar
▁marea
▁ami
▁afgana
▁gato
/2006
▁deseaban
▁riquezas
▁eslovacos
▁suceden
▁flor
▁prosigue
▁mensual
▁presentarnos
▁distorsionan
▁espléndido
▁murió
▁populismo
▁taoiseach
▁sorprendió
▁desarrollándose
▁pronk
▁rayo
▁fallado
▁new
▁vertebral
▁portuguesas
▁gastando
▁reclamando
▁constituida
▁entablado
▁invitamos
▁bovinos
▁convivir
▁distorsiona
und
▁entramos
tim
▁duraderos
▁abogan
▁envían
▁colombiano
▁ecu
▁suman
▁debidos
▁obtenidas
▁reprimir
▁especialización
▁fatal
estaría
▁mito
▁miedos
▁cabina
▁desconocido
▁químico
▁gar
▁adaptados
▁legitimar
▁inste
vil
▁maría
▁resume
▁opcional
▁desertificación
▁guardacostas
▁radioeléctrico
▁tiranía
▁interrelacionad
▁evaluando
▁porcina
▁irónico
▁escáneres
▁alegrarnos
▁promotores
▁pev
▁reproductivos
▁papeleo
▁penalización
▁exportan
paquete
▁permanezcan
▁denominamos
▁argumenta
▁invoca
▁alcanzamos
gel
▁evoluciona
▁reglamentada
▁debaten
▁excluyen
▁aplicarlas
▁mantenidas
▁sistemáticas
izaciones
▁asignadas
▁asumirá
▁reticencias
▁esbozado
tengan
▁sonar
▁agrupa
▁unitario
▁idónea
▁bolsillo
▁involucrado
▁hablará
▁felicitado
rí
▁turísticas
bos
venta
▁mutuos
▁conservadora
▁23,
▁controvertidos
▁ama
▁trivial
▁irracional
▁convertirlo
▁elegidas
▁antimisiles
▁correlación
▁descubrimos
▁encrucijada
▁equivoco
▁gargani
▁hielo
▁inapropiado
▁incidir
▁memorándum
▁níquel
▁silguy
▁thomas
▁refrán
(96)
▁94
▁organizadores
▁éramos
▁dote
▁menoscabar
▁eligen
▁cooperado
▁horrores
▁angulares
▁destacando
▁estudiaremos
▁céntimos
▁luche
af
▁libera
▁empuja
▁perpetrados
▁encargan
▁zo
▁descubrimientos
torios
ns
▁explotado
▁detenida
▁amistosa
▁tributaria
▁farmacéutico
▁acusada
est
▁supuestas
▁infra
▁desaparezca
rk
▁ter
iesen
▁contemporánea
▁genuino
▁literatura
▁oettinger
▁presunción
▁souchet
▁ahínco
▁atenernos
▁catania
▁kohl
▁kiev
▁continuemos
▁1984
▁moura
▁rack
▁sureste
▁corporales
▁desplazan
▁pensamientos
adores
▁epidemias
▁perjudicando
▁fiscalización
▁arias
▁líquidos
▁regulen
▁soliciten
▁gen
▁modificando
▁corruptos
▁evoluciones
▁enviará
▁aseguran
▁completas
▁dota
▁caballos
▁progresa
▁asiento
▁anunciadas
mba
▁austríacos
▁portal
▁abortos
▁ajusten
▁obvias
▁decepcionada
▁destruidos
▁dejo
entes
▁prevalezca
▁experimental
▁llame
▁th
▁oponga
▁diamantes
▁garriga
▁huracán
▁movido
▁patentar
▁repitiendo
▁schnellhardt
▁seychelles
▁zapatero
▁hermoso
▁verduras
▁obteniendo
▁schmitt
▁civilizado
mir
▁talleres
▁armamentos
▁niego
desea
▁pensé
▁diplomas
▁respaldando
ética
▁progresistas
quizás
▁cortas
▁sometan
▁perderá
▁orienta
▁petroleras
▁sentarse
▁revisen
▁exclusivas
▁gota
▁comerciar
ería
▁solidarios
▁convertirán
▁simplista
▁intensivo
▁impedimento
▁hábito
▁interminables
▁ajustado
▁mixtas
net
▁proclamado
▁merezca
▁entrañan
▁trataré
▁receptor
ás
▁vicepresidentes
esclerosis
▁cierne
▁eurlings
▁morgantini
▁schwaiger
▁sintonía
▁suscribe
▁james
▁meollo
▁sufrimos
▁unicef
▁flaco
▁norteamérica
▁estúpido
▁variar
▁culpabilidad
▁test
27
▁cruzan
▁sorprender
▁equiparar
▁elaboran
▁multiplicado
▁exactas
▁aficionados
porqué
▁clandestinos
▁pieles
▁0,7
-7
▁deliberado
▁procedan
▁aconsejar
fín
eri
2001
▁incompleta
▁rumana
▁telefónica
▁restante
▁controvertidas
▁cruzada
▁enfrentando
46
▁asignada
0)
▁significación
▁batallas
45
iana
▁detenga
▁calurosa
ún
▁acarrear
▁vaso
▁peculiar
ä
▁cribado
▁envejece
▁expulsiones
▁goldstone
▁inflexión
▁longitud
▁redefinir
▁reloj
▁ventajoso
▁watts
▁alusiones
▁gomes
▁michael
▁sucesión
▁farage
▁perdón
▁perdemos
▁auxiliares
▁91
▁inclina
▁exigiría
▁fielmente
▁publicados
▁fijarnos
▁reivindicar
▁duplica
▁obligando
▁convocado
▁prestemos
▁preparan
▁liberarse
▁quejan
▁normalizar
▁desfavorables
▁exhaustivos
▁pega
▁nulo
▁cuerno
▁académica
▁concebida
▁emitida
▁lanzada
quiere
▁financie
▁alienta
▁hostilidad
▁aquél
▁aplicaría
significa
▁abstenciones
▁convirtiéndose
▁escoceses
▁fractura
▁incompleto
▁kremlin
▁richard
▁terminó
▁éxodo
▁esforzamos
▁colom
▁subdesarrollo
▁proactiva
▁improbable
▁espectadores
▁marineros
▁deshacerse
▁comportarse
▁perdidos
▁citando
▁vivas
▁centremos
▁kok
▁acaecidos
▁importado
▁propiciado
▁bebés
▁representen
▁resuelven
▁sacrificados
▁completos
▁iniciará
cios
▁blak
▁cer
▁milagro
ali
▁despreciable
▁soldado
▁contaminante
▁esposa
▁infringir
▁representaba
▁fundamentada
▁recordarnos
▁alentadora
▁clarifica
erg
▁mapas
▁escribe
▁comunique
▁obtendrá
pyme
▁franca
▁inmoral
▁desarrollará
imi
▁alquiler
▁cabrol
▁concienzuda
▁confirmo
▁expiatorio
▁invención
▁morosidad
▁pasividad
▁propicio
▁rehén
▁sostenida
▁séptima
▁cometieron
▁tillich
▁vinci
▁llego
▁espada
▁embrionarias
cito
▁piratas
▁contribuyeron
▁contundentes
▁dominantes
pueden
▁predecesores
▁talante
▁acumular
9%
▁erróneamente
▁productoras
▁retenidos
▁justificable
▁explicarles
grad
▁localizar
▁pidan
▁desaparece
▁indios
▁mafias
reg
▁indiferentes
▁seguiría
▁evaluará
▁conductas
▁trayecto
▁fresco
▁mantenida
▁exento
▁recurrente
▁cubierta
ill
▁verdades
▁enumera
▁soporta
mil
▁notificado
▁sufra
▁ancho
▁opuesta
▁señale
▁informarle
▁116
▁invierta
and
▁rompe
▁adelantados
teniendo
▁libere
▁cuadra
▁mono
▁abrió
▁andalucía
▁comprometo
▁cínico
▁enésima
▁interconexiones
▁produciéndose
▁relucir
▁cristianismo
ancona
▁chivo
▁stevenson
▁veld
▁alentando
▁combinados
▁debilitada
▁forzosamente
syn
▁investiga
▁viajen
▁vivamente
▁llamando
▁gu
▁entable
6-
▁tensa
▁marcados
▁degrada
▁acogidos
▁suscitan
▁afganas
▁manifestadas
▁complica
▁limitamos
▁fundadas
▁discrimina
▁reafirmado
▁ligadas
▁tratarán
▁comenta
▁ucraniana
▁pasajes
▁precisamos
▁desembolso
▁insoportable
▁sustituto
▁acuciante
▁exhaustivas
▁relacionar
▁señalamos
ham
▁neta
▁cercanas
▁dispondrá
▁desorden
▁alentado
▁ahorra
pondré
▁adjunta
▁chávez
▁corregido
▁miguel
▁24,
▁persiguiendo
▁dispondremos
▁1956
▁quid
▁pri
uc
▁formulaciones
▁plantaciones
▁revocar
▁aerolíneas
▁vasto
▁obtengamos
▁encuadra
▁dedicamos
▁marcará
▁construirse
▁delantera
crofinanciación
▁conscientemente
▁demandantes
▁pagamos
▁ponía
▁explotados
▁constituyendo
▁constituirán
▁derribar
▁practicado
ting
▁elocuente
▁inmigrante
▁presenciando
▁perpetrado
▁impulsada
▁figuras
015
▁conmemorar
▁respetada
▁arrastra
▁levante
▁niegue
▁devuelva
▁ponerla
▁hipócritas
▁comunicados
▁consensuada
▁kabila
▁mágica
▁ottawa
▁patrón
▁stubb
▁ultimo
▁vinícola
▁condenó
▁necesitábamos
▁rastro
▁deportación
▁extrajudiciales
▁repugnante
▁inmuebles
▁alcanzaremos
▁puntuales
▁grecochipriotas
▁recibidos
▁flagrantes
▁repetiré
▁adversarios
▁sentía
▁cuna
irá
kin
▁brutalmente
▁105
▁interesaría
all
▁ejércitos
▁lluvias
▁anula
▁concederá
▁choca
▁objetar
▁conserve
▁distintivo
▁europeísta
▁cotidiano
▁escudo
▁autopista
▁prerrogativa
▁fiesta
▁manipular
▁examinada
▁intra
▁costar
▁enferma
lógico
ayuda
según
constitución
▁dictatorial
▁militarmente
▁recurren
▁presiona
▁subvenciona
▁arbitrariedad
▁cólera
▁mcnally
▁poeta
▁antidumping
▁ansia
▁debiéramos
▁aseguró
▁apunte
▁argumentación
▁colación
▁partimos
▁caldo
?»
▁marcó
▁je
pon
▁figuraba
▁2001/
▁alimentan
▁legalización
▁concentran
▁palo
▁católicos
▁terminan
▁.–
▁olvidan
pos
▁túneles
▁respalden
▁dual
uri
▁pistas
▁penaliza
▁santos
▁plantearle
▁incumplimientos
▁oculto
▁favorecido
▁evento
▁28,
▁ventana
▁representativo
iéndolo
▁poderosas
len
▁tolera
▁selectivas
▁indigna
▁característico
▁herzog
▁inscripción
▁napoletano
▁sucesivamente
▁prescripción
▁pericia
▁actuó
▁enuncia
▁administradores
▁sentí
▁2030
1/2001
▁reunirme
▁vitalidad
▁clínicos
contra
▁impulsos
pra
▁generen
▁ficha
▁fijen
▁colmo
▁perderemos
▁cooperan
▁ajenos
▁rod
▁conduzcan
tem
▁calific
▁cargado
▁alega
▁consideraban
▁tesoro
▁variado
▁judío
▁subsidio
▁estudiante
▁pasajero
▁arriesgar
▁querida
▁estación
▁enfrentados
▁consumido
▁esperaban
75
6-04
▁ignore
▁erigir
▁pedofilia
▁venecia
▁vestir
▁oiea
▁surgiendo
▁[...]
▁gps
▁recomendaría
▁banqueros
▁cuidadores
▁cometan
▁recurre
▁boel
▁guiado
▁limitarme
▁vasta
▁islamistas
▁contradicen
▁dinámicas
▁incorporan
▁rojos
▁pasaré
▁detecta
ux
rup
rica
▁aceptara
▁desafortunada
▁asiática
▁partidista
▁acabarán
dan
▁moralmente
▁metro
▁faltado
▁recetas
▁conformar
▁municipal
▁hotel
▁traducirá
▁ultra
▁bra
mann
▁apicultores
▁cataluña
▁convirtiera
▁correspondía
▁incurrir
▁jeggle
▁kratsa
▁neves
▁ocurriera
▁plooij
▁redactó
▁galería
▁turín
▁lejana
▁estallido
▁desarrolló
▁lahti
▁112
▁desviaciones
▁proclamación
▁seguía
▁sentada
▁mantuviera
▁elijan
▁29,
▁esfuerzan
▁formulamos
▁humor
▁colabora
og
▁mencionaba
▁semanal
ça
▁rumanas
▁sar
▁reflexione
▁requeriría
▁abriga
▁honorables
▁hija
▁transferido
▁subsiguiente
▁nacidos
▁salas
▁cierres
▁incumplir
▁añadirse
▁enfrente
▁pul
▁rotunda
▁cuencas
▁quedaba
▁holandeses
▁investidura
▁perfección
▁perseguimos
▁sturdy
▁padeciendo
▁tibetana
▁paralización
▁recomendó
▁centroamérica
▁aseguramiento
▁miranda
▁creces
ura
▁condene
▁turbulencias
▁infecciosas
▁traza
▁estadio
▁ganas
▁reglamentarios
▁infringen
▁desaparezcan
▁pasillos
▁preferenciales
▁palma
▁dominada
▁sufrirán
▁fibras
tió
▁pros
▁remunerado
▁centramos
▁1993.
▁localmente
▁diseñadas
▁implantado
▁comparecencias
▁reiterada
▁crónica
▁pantalla
▁impositivo
▁dioxina
▁ajeno
▁garanticemos
▁empeora
▁aceites
▁contextos
inas
▁engañosas
anza
▁fra
▁atracción
17
▁controlen
▁pasarán
▁declaran
democracia
▁implícita
▁dejaremos
ables
▁polémicas
▁daña
▁armoniosa
▁berisha
▁cobarde
▁contradecir
▁domiciliario
▁dondequiera
▁embrión
▁hernández
▁mcguinness
▁menrad
▁réplica
▁trauma
▁bushill
▁transpuesto
▁diesel
▁articulación
▁odm
▁radicalización
▁smet
▁solicitaba
▁antipersonas
▁incumplen
▁descuidar
lam
▁adquieran
▁encarcela
▁juan
▁partícipes
▁aseguremos
▁128
▁acelerada
▁bellas
▁nacer
▁perjudicaría
▁entregas
▁incorporadas
▁racionales
▁irse
▁pagará
▁contemplamos
▁saltar
▁nobles
▁adjudica
▁ingentes
▁originan
▁ruidos
▁desprenden
▁análoga
▁huella
▁interrogante
▁efectuada
▁indicativos
▁dictada
▁alcanzada
ología
▁fundador
hr
▁resultarán
económica
▁restar
▁autorice
▁explicara
lina
▁1408/71
▁academia
▁cayó
▁cederschiöld
▁comencemos
▁empobrecimiento
▁esclarecer
▁incluyo
▁libanés
▁pöttering
▁viceversa
▁cueste
▁probada
▁bbc
▁acudido
▁incrementarse
▁vigilando
▁apasionante
▁afirmativamente
▁terminales
▁atrapados
▁recupera
▁nazismo
▁asola
▁convenga
23
▁empleen
▁superando
▁escuchan
▁negros
▁acostumbra
▁criticada
▁sabían
▁gaste
▁centren
▁bastaría
▁reformado
▁ayudarle
▁contaminado
▁sta
▁gustan
▁vagas
▁vientos
▁acogió
▁indonesio
▁gravísimo
▁portuaria
▁consistiría
▁é
end
▁gill
▁atractivas
▁socialismo
▁sustentan
estrategia
explicación
insisto
▁asesina
▁fluvial
▁vertical
matthews
▁belleza
▁hiciéramos
▁ribereños
▁semejanza
▁autoritaria
▁subraye
▁alargar
▁ironía
▁inundación
▁aterrizaje
▁peste
▁cárteles
▁euromed
▁ilustración
▁anne
▁emisores
▁vitaminas
▁rothe
▁enfermeras
usz
▁controladores
▁aprovechemos
-00
xi
▁jaulas
▁alcaldes
▁saldrán
▁facetas
▁africanas
▁asignan
▁dispensa
▁felizmente
▁chechenos
▁valorización
▁reflejarse
▁proporcionarles
▁periódicas
▁jugado
▁completarse
▁episodio
▁delictiva
▁olímpico
▁restringida
▁introducirá
▁votada
▁ultimar
▁divulgar
▁universalmente
sch
ahora
▁inscribir
▁hor
▁ceñir
▁boeing
▁camerún
▁concordancia
▁entendida
▁infierno
▁jöns
▁pormenorizado
▁menoscabo
▁demografía
▁serenidad
▁consistirá
▁valen
▁adjunto
▁slim
▁rectificación
▁humillación
▁puntualización
▁dominación
▁sabremos
▁íntimamente
▁posterioridad
mentos
▁ofrecerle
▁val
▁identificadas
▁sobrepeso
▁bloc
▁definan
▁acortar
▁baza
▁sufridos
col
▁notado
▁permitidas
▁defiendan
)].
▁amplíen
▁debieran
▁espaciales
▁llevara
▁contaminadas
▁beneficiosas
cado
ira
▁preocupar
▁demostraron
▁destacamos
▁relajar
ei
▁nazis
▁detalla
▁mejorarlo
▁empezaron
▁díaz
▁ciega
▁fre
▁irrelevante
▁canadiense
▁pauta
▁excluida
▁abs
▁golpeado
▁automáticos
▁2,5
uf
▁elaborarse
▁generalización
▁encarna
28
directiva
▁africa
▁33,
▁fundamentado
▁desborda
”
▁caspio
▁cívica
▁prosecución
▁schüssel
▁utopía
▁dulce
▁condonación
▁confiando
▁mollar
▁abordarlo
▁relevo
bel
▁devaluación
▁extendiendo
▁remita
▁regeneración
▁aspirantes
▁propusieron
▁deseábamos
▁localidad
▁barril
▁colaboran
▁excluyendo
▁originar
▁infectadas
▁atribuirse
▁explosivos
▁integren
▁habita
▁consejeros
▁fomentarse
▁preferiblemente
▁transmiten
▁bloqueos
▁aceptemos
ador
▁sem
▁contaba
guen
▁explota
fan
▁altera
▁indicaba
▁arriesgado
▁revolucionario
▁drástico
▁bombardeo
▁suicida
▁gracia
▁sospechoso
▁injustificadas
▁aquélla
▁identificarse
▁cuidadoso
▁proporcionaría
▁infringe
▁celo
▁trabaj
▁árbol
▁ahorrado
69
▁coordine
▁substancial
erfeccionamiento
▁abusivo
▁compruebo
▁disuasorio
▁feroz
▁fertilizantes
▁inexistencia
▁internalización
▁niebler
▁prevalecido
▁árbitro
▁acentuar
▁aplicó
▁venganza
▁síndrome
▁anulado
▁privación
▁mainstreaming
ular
▁copias
▁cohetes
▁agudiza
▁puntualmente
29
▁obtendrán
▁substancias
▁cuartas
▁lentos
▁apartar
1/
char
▁seleccionados
▁seguirse
▁implantes
▁reembolsos
▁rosado
ds
▁terminará
▁obstaculizado
▁primordiales
▁afrontado
▁decisivamente
▁marques
▁frena
▁trasplante
▁segmento
▁cerebro
▁introducida
▁encarcelado
▁temperaturas
▁acostumbrado
▁terapia
▁comparativas
▁traspasar
▁asfixia
usted
tán
▁fortalezca
▁restablezca
▁intensifique
▁corrija
▁progrese
▁esperados
▁estudia
▁hábil
▁gris
▁exigió
▁füle
▁giansily
▁heroína
▁matices
▁mcmillan
▁preponderante
▁rabia
▁rapkay
▁schwab
▁apicultura
▁encontrando
▁obtenemos
▁derramamiento
▁sharia
▁agitación
▁corriendo
▁reservados
▁facilitarán
▁rectificativa
▁bowe
▁matando
▁felicidades
▁guarde
▁periféricos
▁afrontando
▁protegerá
ónica
▁encubierta
▁humillante
tti
▁esconden
▁resolverlos
▁122
▁conservan
▁ayudemos
▁beneficiados
▁canadienses
▁partidistas
mada
/3
▁armoniza
▁169
▁subrayamos
▁baste
nuevo
▁disciplinas
▁representativas
▁peres
lis
▁catastrófico
»;
▁ponerle
tric
▁leyla
▁formará
65
▁cínica
▁teórica
quiero
▁influencias
▁apremia
▁brilla
▁audaces
▁certidumbre
▁chernobil
▁decidiendo
▁desalentar
▁espionaje
▁inseparable
▁mccartin
▁olímpica
▁plutonio
▁smith
▁socrates
▁ukip
▁atroces
▁concepciones
ivoire
8/98
▁revisando
▁contrapeso
▁«¿
▁resistencias
▁comercializan
▁elaboramos
▁suspenda
▁3.000
▁reunirnos
▁alergias
▁formulando
▁aseguradoras
▁37,
▁aguda
▁presentaba
▁colores
▁calificarse
▁allana
▁emas
▁pagadas
▁populistas
▁cena
▁asisten
▁ministeriales
▁gui
▁informativos
ial
▁bienvenidos
▁someti
(1)
▁contesta
▁fila
▁obsoleto
▁molestia
▁percibido
▁alejada
▁prevalecen
▁golpes
▁bat
org
▁entenderlo
justicia
▁compruebe
▁acerque
▁intermodal
▁complete
▁consular
▁escuché
▁ahtisaari
▁avalancha
▁corazones
▁côte
▁innovar
▁jouyet
▁kirkhope
▁permitieron
▁recuento
▁respondo
▁índico
▁devastación
▁posguerra
▁silva
▁desaceleración
▁penetración
▁andré
▁fernandes
▁eminentemente
▁supervivientes
▁50.000
▁15%
▁ordenado
▁coordinen
▁marginales
▁riendas
▁seor
▁precipitado
▁destruidas
▁seguidamente
éis
▁depresión
▁arraigada
▁cubanas
▁mantendrán
▁suizos
▁oportunos
▁renacionaliza
▁respetos
▁preguntaba
▁reinante
▁afectarán
▁semanales
minado
▁impediría
▁190
▁supongan
▁alzar
▁maria
íes
▁plástico
▁saharaui
▁ayuntamiento
▁emplazamiento
▁kilómetro
ning
▁registrada
cons
▁aceptarla
▁arrancar
34
greg
▁tomé
empleo
▁efectúa
▁exigía
scentralizadas
▁absurdas
▁abominable
▁brinkhorst
▁bucarest
▁capitán
▁entristece
▁klaß
▁ocupó
▁petersberg
▁previsibilidad
▁rumiantes
▁álvarez
▁abbás
▁irrenunciable
▁radwan
▁hueco
▁formulé
▁despacio
▁fabra
▁empleabilidad
▁engañemos
mal
▁acabaría
▁complacencia
▁dispares
▁oiga
▁asusta
▁peticionarios
▁honestamente
▁evitemos
▁practicando
▁popularidad
▁lance
▁ocasionan
▁miller
▁dediquen
▁transmitirá
▁escapan
▁emb
▁apasionado
▁flores
▁envíen
vino
▁envíos
91
▁promoverá
▁egipcios
▁admiten
▁concluyan
▁secuestrados
▁litros
017
▁desearían
▁físicamente
▁caracterizar
▁superarse
▁dependa
▁querríamos
▁llenos
▁idénticos
▁lograda
▁recon
signe
ben
▁geopolítico
▁abusiva
▁lluvia
▁represiva
ug
▁destacadas
▁atacado
▁hacerlos
▁gestionada
▁adónde
▁pata
ere
▁tramos
nse
▁domina
▁acogen
eran
▁encabezado
▁defendible
▁ingenua
▁interfiere
▁prometida
▁rühle
▁sabiendas
▁sagrado
▁caprino
▁imprudente
▁redacte
▁redondo
▁camión
▁enjuiciamiento
▁apartheid
▁combatientes
▁envasado
nic
▁marque
muy
▁leve
▁sorprendernos
▁helicópteros
▁mostraba
▁derivarse
▁comportado
▁we
▁reiteramos
▁ingenieros
▁aparezcan
?¿
▁hablaremos
▁sufridas
▁necesitando
ego
▁sospechosas
▁pidamos
▁empleador
▁castigos
▁mezclas
tz
▁adoptaran
▁concluidos
▁acercamos
▁existiría
▁choques
▁tolerante
bien
▁exagerar
▁enfocado
▁pionero
▁rasgo
▁apreciable
▁vigila
▁litro
7/98
tel
▁saldo
▁fundar
seguridad
▁disculpe
­
▁arancel
▁felicidad
▁contraviene
▁simplificados
▁concluida
▁difamación
▁gazprom
▁gutiérrez
▁impidió
▁ingleses
▁pristina
▁viceprimer
▁wolf
▁conferido
▁fluorados
▁zaga
▁tanques
▁conmemoración
▁alteraciones
▁ganó
▁mandela
uj
▁supervisando
▁anteayer
▁formamos
▁atravesar
▁bloqueando
explotación
tiza
▁devastado
▁96/
▁prestara
▁suizo
▁gobernadores
▁desemboca
▁escritor
▁fijando
▁vago
▁comportar
▁correspondan
▁barrios
endo
▁vii
▁transformarse
▁drásticos
▁beber
▁geográficamente
▁opuestas
▁intolerables
▁estiman
▁indicando
fue
▁disculpa
▁privilegiados
▁resueltas
▁garantizamos
▁inalienable
▁cabal
▁candidata
▁ligero
▁alrededores
▁oye
▁globalizada
▁consideraría
▁coincida
▁adhiera
militar
▁acordes
países
▁incansable
uz
▁abstracto
▁aelvoet
▁descubrió
▁multilingüe
▁nutrición
▁redistribuir
▁registró
▁vejez
▁vídeo
▁experta
▁ternera
▁correría
▁lyon
▁pinta
▁paralizado
▁encontraron
▁promovida
▁penosa
»)
▁rezagados
▁omisiones
▁librarse
▁irregulares
posición
▁determinantes
▁superficiales
▁lino
▁chocante
▁estime
▁conllevar
▁eliminan
▁formularios
▁miran
▁remunerados
▁pedían
mbre
▁750
▁formalizar
rum
▁alertar
▁propongan
▁carentes
pone
▁motors
▁contó
▁leemos
▁forzosa
▁pelea
▁organizativa
▁empleada
▁arrestos
pareció
▁interferencias
▁bern
▁repercutirá
▁candidaturas
▁cuartel
▁espléndida
▁intransigente
▁pésima
▁someto
▁virrankoski
▁dimitir
▁encargó
▁ecología
▁suplente
▁intervino
▁encantaría
▁comunicó
▁manifesté
▁ahoga
3%
▁cierran
▁aprendan
▁motocicletas
▁32,
▁estallar
▁pma
▁comercializados
▁expresarles
▁dedicando
▁edit
▁hume
▁anomalías
▁examinan
▁convenido
▁force
▁limitará
int
▁aferra
▁ayudamos
pan
▁salvado
▁precarios
rico
▁terriblemente
nov
▁maneja
mpa
▁intentaron
▁inviable
▁fallecimiento
▁ingenuo
one
▁pista
▁matan
▁app
▁34,
▁dejaré
▁aplicara
030
▁pakistaní
▁íntegra
▁bastará
▁afirmo
▁baviera
▁cinturón
▁gauzès
▁goepel
▁inapropiada
▁inexplicable
▁kovács
▁lewandowski
▁máxime
▁pormenores
▁regresión
▁siderúrgica
▁unísono
▁confíe
▁cometió
▁puntualizar
▁fifa
▁perturbaciones
▁acondicionado
▁reservada
▁ballenas
▁3,5
▁fascinante
▁creíamos
▁aproximado
▁235
▁callar
▁evalúen
▁pronunciadas
▁reclamamos
▁marcan
rin
▁expresen
▁descargar
▁diferenciada
▁cen
▁favorecidos
▁separan
▁felicite
▁quedarían
▁consolide
▁pedidos
▁promociona
desarrollo
▁georgianos
▁nam
▁subordinada
▁frenado
▁rígidas
▁revelador
▁alejar
▁ilustran
▁agravada
8/97
▁comprado
▁presione
ración
trans
▁133
▁ofrecernos
▁derrotar
ético
▁but
▁secuestrado
ij
▁residente
▁trasera
▁agro
▁vidal
▁elija
▁efectúe
▁sacrifica
hacia
▁ocultan
virtieron
▁augurio
▁bahréin
▁comandante
▁dimitrakopoulos
▁hieronymi
▁hübner
▁llegué
▁opuso
▁polledo
▁surgimiento
▁svensson
▁vallés
▁court
▁haciéndose
▁infame
▁incumpliendo
▁severidad
▁audición
▁expuso
▁federaciones
▁destaque
▁merecía
▁1945
▁paulsen
▁motivaciones
▁interpol
▁incompetencia
▁recompensar
▁olvidarlo
▁intentaba
▁viii
6/97
▁operen
▁abandonando
▁constituyente
▁fracasa
▁compensatorios
▁merecer
traproducentes
▁rectores
▁ramo
▁obstaculizan
▁elige
▁solemnemente
▁repercuten
▁acercarnos
▁sobrepasado
▁gigantes
cap
▁musulmanas
acciones
▁estrellas
▁36,
▁oponer
▁suprimirse
▁marie
▁gal
▁sustituida
▁represivo
▁tendente
▁selva
▁atreve
▁respaldadas
▁consiguientes
▁consecuentes
gracias
▁reanudará
▁marcadas
▁solicitados
nueva
punto
▁aptitud
▁afiliación
▁alfombra
▁gahrton
▁imbeni
▁noruego
▁oleaginosas
▁tanzania
▁fuéramos
▁grueso
▁destaco
▁asalto
▁inauguración
▁nafo
▁especulaciones
▁cadáveres
▁mc
▁articular
▁poos
▁rebasa
▁décima
▁racionalidad
▁carteles
▁fluviales
ller
▁tranquilamente
▁­
2004)
▁transportados
▁agudo
▁impunes
▁equipados
▁alcanzaron
▁sutil
200
▁costeros
incluidos
▁aceptarlas
cat
sky
▁evitan
▁ampliará
▁explicarnos
▁nigeriano
pera
▁inspiran
▁traducen
▁opuestos
▁pretendían
▁2004/
▁alentadoras
▁respetadas
▁hall
bio
▁equivocan
cita
▁mostrará
▁sabia
▁metal
▁chequeo
▁tom
▁urgencias
▁tranquilo
▁implante
▁escéptico
▁comen
▁280
▁planificada
▁hábitat
▁contaminada
▁mario
▁concluirá
▁43,
▁coopere
▁domésticas
▁provoque
▁gobierna
▁requiera
▁escatimar
▁concederle
▁proporcionados
▁procesal
▁paulatina
▁bárbara
▁cumplimos
▁cálida
▁karamanou
▁papúa
▁pimenta
▁tsatsos
▁world
▁wulf
▁íbamos
▁egeo
▁obtendremos
▁bernard
▁circo
▁disociación
▁ecuación
▁maltrato
▁deprimente
▁derrocar
▁reasignación
lk
▁centrándose
▁proyectar
▁denunciamos
▁atrevido
▁recordaba
▁sary
▁finaliza
▁hoteles
▁preserva
▁asignen
guard
▁dientes
dez
▁militantes
▁expresarlo
▁sondeos
▁nombra
▁resistentes
▁derogar
▁instando
▁gratuitamente
▁42,
▁factibles
▁valga
▁hipotecas
▁deseosos
▁informarnos
ai
▁terapias
▁cede
▁salidas
ins
▁imputa
deros
▁ofrecería
▁veía
▁dolorosas
▁multiplicador
▁apliquemos
▁conllevaría
▁oficio
▁lituano
mino
▁retoma
ticos
ibles
▁anda
▁perro
37
▁pot
▁pesan
▁ofrecía
▁llamaría
tendrá
▁esforzar
grafía
quadras
wolski
▁ascendente
▁diluir
▁encontré
▁estupenda
▁ghilardotti
▁intacta
▁klamt
▁kuwait
▁ocurría
▁pionera
▁proyección
▁durban
▁noveno
▁prescripciones
▁consultiva
▁referidos
▁mojado
▁polar
▁basó
▁limítrofes
▁500.000
▁justificaciones
▁gallinas
▁distan
▁gobiernan
▁federados
▁surgirán
▁restaurantes
▁comprendidas
▁decidamos
▁recelos
2003
▁pormenorizada
▁circuitos
▁invite
▁permanecerá
▁exijan
▁obsoletas
▁captar
▁extienden
▁trasplantes
ías
▁oí
▁imaginarse
0/2001
▁entrara
▁liber
▁invent
iéndola
quizá
incluido
▁integradora
▁rosa
cción
▁miren
▁anticuada
▁museo
▁gravísima
▁transplante
▁genéticas
▁consagrada
▁declaradas
▁veras
▁instrumental
47
▁vigile
israel
nacional
▁viera
▁kilo
▁amarga
▁formulados
▁bauer
▁castillo
▁establecimos
▁incipiente
▁kindermann
▁marshall
▁netanyahu
▁predecible
▁reveló
▁rights
▁solapamiento
▁wijkman
▁nexo
▁requería
▁descentralizado
▁yugo
▁insertar
▁gravamen
▁comparabilidad
▁harms
▁elevación
zu
▁protegerlos
▁procure
▁apuestas
▁ganador
▁serbias
▁involucrarse
▁figuren
▁lecheras
beneficio
▁fotografías
▁temáticos
▁come
▁imparciales
▁kar
▁socavan
▁presuntos
▁nervioso
▁oscuros
uro
forma
▁cotidianos
▁recorta
▁bin
▁alegrado
86
▁conquistas
▁debatidas
▁aprobarlo
▁merecería
▁prejuicio
▁pesimista
▁ilícita
▁nocivo
▁derivar
▁grasa
acuerdo
▁prometedora
rías
▁honrada
vic
▁ausentes
▁descubre
▁previsibles
juventud
véase
▁importada
▁querrá
▁ágil
▁ferviente
▁it
▁idear
▁diligente
dörfler
▁añadidura
▁añadimos
▁blottnitz
▁bondad
▁cambió
▁escogido
▁indulgencia
▁kozloduy
▁redujo
▁rotterdam
▁asienta
▁saldría
▁kreissl
▁metten
▁autoasistencia
▁acapara
▁evacuación
▁guardianes
provisionamiento
hampton
▁reflexionando
▁recreo
▁alarde
▁digitalización
▁originariamente
▁optamos
▁prendas
▁magistrados
rat
▁indignante
▁olvidando
▁socavando
izo
▁atrae
▁ref
▁relator
▁alentadores
él
▁recibamos
5/2001
▁consorcios
éndose
▁preocupaba
▁dicte
43
▁bor
ifique
▁examinadas
poniendo
▁designa
▁denominan
▁apoyados
78
▁indebida
▁marcador
▁divisoria
tendiendo
▁grito
▁diferenciadas
▁abonar
▁bloqueada
▁señalados
▁planos
ores
▁asignarse
▁incumple
cooperación
▁deshacer
▁jubil
mathies
▁admiro
▁incierta
▁interrupciones
▁piecyk
▁prometieron
▁reproducir
▁suprimiendo
▁wiersma
▁apuros
▁manders
▁gucht
▁marset
▁listón
▁international
▁billones
▁patrocinio
▁espina
▁voggenhuber
▁explicó
▁alinea
▁hiper
▁louis
▁provan
▁quejarse
▁consistencia
▁arrastrar
▁meteorológicas
up
dc
▁fanáticos
▁gane
▁residenciales
▁huida
▁adoptase
▁chicas
▁colegisladores
▁dotarnos
▁preparamos
▁inspire
▁realizara
▁inseguros
2/2001
▁dam
▁aceptarán
▁escritos
alta
pri
▁abundantes
human
bc
▁ucraniano
▁parecidas
.10
europea
▁anticipa
▁precioso
▁encarar
▁delimitar
▁insignificantes
▁desagradables
31
▁canaliza
▁adquiridas
▁esbozar
▁necesitaban
▁contencioso
▁folleto
▁espantosa
▁genético
▁concluyente
▁harto
▁formularle
▁convence
spo
▁prejuzgar
▁asegurada
▁padecer
▁generosas
rresponsabilidad
▁caiga
figura
sign
▁utilizaron
▁posicion
▁191
▁supo
▁automoción
▁caótica
▁consensuado
▁diecisiete
▁filósofo
▁färm
▁hoppenstedt
▁incontrolado
▁nairobi
▁paralelismo
▁prolongue
▁proverbio
▁príncipe
▁reinfeldt
▁rodríguez
▁sumergida
margallo
▁definió
▁myller
▁interceptación
▁judía
▁estalinista
▁agregar
▁representó
▁huido
rez
▁desaparecidas
grupo
▁cooperativo
▁concentrarme
▁vivían
▁imprevistos
sproporcionadas
▁alegato
▁ur
▁arbitrariamente
▁encabeza
nci
▁continentales
▁infringido
▁etiquetados
▁explicando
▁renuncie
▁vincule
▁equitativamente
▁fragmentada
▁prof
▁lituanos
▁conforma
▁1999/
demos
▁encauzar
▁subsiguientes
▁utilizarla
▁impedimentos
gur
kov
▁ilustrado
▁ánimos
7/2001
▁cautelar
▁mantenidos
quí
eras
▁andre
▁honrar
▁nula
▁fallecido
▁abundante
▁debatirán
▁ventanilla
▁pollo
▁decidirán
▁reflejadas
▁ajustada
▁reprocha
▁discuta
rom
▁estableciera
protección
▁estructurar
▁desestabiliza
▁visual
▁presunta
▁q
▁convertirla
▁agroalimentario
▁anfitrión
▁armamentística
▁disfunciones
▁jurisdicciones
▁lalumière
▁perniciosa
▁sagrada
▁sakellariou
▁televisiva
▁tonelaje
▁eligió
▁desarmar
▁introdujeron
▁albertini
▁propondría
▁incumbencia
▁atribuyen
▁turba
▁intensificando
▁proveer
▁examinados
▁frustrante
ectromagnéticos
▁gante
▁enfrentará
▁fortalecerá
ársele
▁resueltamente
▁escandinavos
▁sustituirá
▁codificada
▁revisadas
▁liberen
tismo
▁cubran
▁adicionalmente
▁formalidad
▁2%
▁requerimientos
▁navidades
▁biotecnológicas
▁fundado
▁huesos
▁exentas
▁faltar
▁subvencionados
▁añadidos
▁valía
vier
▁modifiquen
▁ayuntamientos
▁emplazamientos
▁ciegas
▁desacreditar
podríamos
5-001
▁cuestione
▁gratuitos
▁piso
▁0,5
39
▁silenciar
▁respetará
▁plagas
▁reformada
ram
▁vulnera
▁solucione
▁abd
▁originaria
rada
▁toxicomanía
▁biblioteca
▁víspera
▁delegado
▁acredita
▁gan
our
▁win
▁perpetuar
tú
▁observarse
▁perdería
▁antiterroristas
▁113
▁volviera
chequeo
deuda
▁patronal
robles
▁coyuntural
▁plasmado
▁advierto
▁afectó
▁catalán
▁cornelissen
▁defendió
▁desconocimiento
▁donnelly
▁inoportuno
▁perplejidad
▁supremacía
▁desconcertante
▁munich
▁bajura
▁conmoción
▁formaba
▁concediera
▁alejamiento
▁1973
▁deliberación
▁cotización
▁conteste
▁75%
▁leyendo
▁almacena
▁iniciando
▁cobrando
cina
▁especulativas
▁extensamente
▁playas
▁cpi
▁satisfagan
ducida
▁interrogar
▁informarse
▁identifican
▁complementarse
▁sobrecarga
▁compararse
▁retrasa
▁premios
▁charla
▁ilícitas
▁llegaría
▁indirectas
▁solicitaron
▁dominan
▁proporcionales
▁poseemos
));
just
▁trayectos
mbo
▁exceder
▁acusadas
▁embarcado
▁comoras
▁desastrosos
▁pregunte
▁salva
▁inestables
▁proseguirá
▁plantearía
▁ocurran
acp
▁calificada
▁suicidio
▁nanotecnología
▁respetable
▁potentes
▁rogarle
▁expresaba
hecho
▁vegetal
▁lineal
euroescepticismo
▁analítico
▁bancarrota
▁cayendo
▁colonización
▁detractores
▁flautre
▁judicatura
▁lituana
▁maccormick
▁ofensivo
▁ortodoxa
▁perplejo
▁refrigeración
▁rugova
▁schörling
▁fracase
▁jerga
▁autocrítica
▁calibre
▁samland
▁tumba
▁negoció
▁exploración
▁demostremos
▁raya
▁arriesgamos
▁emprendedores
▁deseables
▁300.000
▁participativa
▁examinarlo
▁recurra
▁teóricamente
▁cuantificables
▁credo
▁congelado
▁paralelos
▁abordarán
▁infectados
▁unánimes
▁reflexionen
▁financien
▁reacios
▁pecado
▁ocupemos
▁servirnos
ejo
ami
▁difundido
▁descuida
▁exigidos
▁denuncian
▁tablas
ult
▁informaré
▁pensaban
▁gritos
▁tranquilos
▁obsoletos
▁imaginable
▁episodios
▁pantallas
▁faenan
▁proeuropeo
▁focos
▁cars
▁chris
▁armenios
▁apresurada
osas
▁indicativa
▁respaldados
▁concilia
.45
▁llamarse
▁negociados
▁predomina
3)
▁candente
▁radiactiva
▁céntimo
▁condolencia
▁(200
▁mark
!»
▁esquemas
▁demandante
▁interprete
▁impulsados
▁123
tta
▁monta
▁impondrá
▁coopera
turismo
ker
▁cultiva
▁pared
▁desaparecerá
▁asistieron
▁cornillet
▁corpus
▁desapariciones
▁distinciones
▁inclusivo
▁indemnizar
▁interrumpa
▁macartney
▁papoutsis
▁pudiésemos
▁refundida
▁rwanda
▁shalit
▁suscitó
▁wortman
▁desfase
▁asumo
▁haider
▁trecho
▁accesorias
▁sustantivo
▁esquina
kool
▁formulo
▁1974
▁solicité
▁subcontratación
▁zanahoria
▁relajación
▁convenza
▁oicvm
▁silenciosa
▁evolucionando
▁acreedor
▁coordina
ificar
▁venía
5/98
▁requieran
▁discriminados
▁separatistas
▁metano
▁perseguidas
▁exime
eño
▁aplasta
▁gasoductos
▁registrarse
▁basaba
▁cuestionan
ambi
▁centrando
▁requeridas
▁tomaran
▁septentrionales
▁contaminar
▁borg
▁navegan
▁incoherencias
▁estrella
ándome
▁restrictivos
▁supondrán
▁mías
▁bru
▁ordinarios
▁das
ska
▁censurar
▁discutirlo
▁ste
▁recauda
▁defendida
▁bielorruso
▁cuello
▁requerida
▁asiste
▁danesas
▁honrado
existen
▁tranquiliza
▁liquidar
▁someterlo
▁pesadas
▁protegernos
▁identifique
▁desplaza
televisión
grandes
omc
▁lavado
▁experimentados
▁durará
▁humilde
▁agroalimentaria
▁amberes
▁aprendices
▁armonioso
▁blasfemia
▁gorsel
▁iceberg
▁nisticò
▁ofensa
▁solitario
▁tiburones
▁vehemencia
▁watch
▁intromisión
▁sometiendo
▁emancipación
▁pensábamos
▁adaptabilidad
▁posicionamiento
▁charles
▁martín
▁unilateralismo
▁tardará
▁programada
▁enmendado
▁inco
▁200.000
privadas
▁arquitectos
▁dibujos
▁preferentemente
▁sucesores
▁wim
▁cenizas
▁traduzcan
eva
▁ampara
tizar
▁nefastas
▁exigidas
▁operando
▁obviar
▁gobernado
▁desplegados
igo
▁ventanillas
▁folletos
▁transmitirles
▁influya
▁amplían
▁causaron
▁monitor
▁concluyen
▁loables
67
▁consistentes
▁derrocha
▁adelanta
llan
▁moviliza
▁hipoteca
▁triunfar
▁empezará
▁asegurarme
▁cómoda
▁coordinarse
▁preventivos
▁vernos
▁injustificado
▁populista
▁compatriota
▁intermedios
▁conquistar
▁docena
▁demostrarlo
▁perjudique
▁reproche
▁dure
▁usual
▁curiosa
▁rechazarse
-97/0
verde
▁inserta
▁amalgama
▁célebre
▁descendente
▁empeore
▁encomendado
▁espinoso
▁expedido
▁fantasía
▁google
▁juegue
▁modificó
▁nietos
▁petersburgo
▁potestad
▁costó
▁monjes
▁estrela
▁reapertura
▁kuhne
▁fabrica
▁coacción
▁revocación
▁fund
▁transita
erto
▁incómoda
▁generalizar
▁cemento
▁retrasando
▁constructores
▁velando
▁desembocado
▁sustituyendo
▁hostiles
▁barómetros
▁capturar
▁acercan
▁informando
▁deteriora
▁críticamente
▁asambleas
48
▁dejara
012
▁dramas
▁incentiva
▁consolida
ppe
▁contemplen
▁cesado
▁beneficiando
▁ejercerá
▁ku
▁terminen
▁pens
▁uu
▁enlaza
orient
▁creativos
▁autoritarios
▁roca
▁injustos
▁contaremos
▁controlarse
▁afianza
▁perdonar
▁prospera
nis
▁emigrar
▁distribuye
▁empujar
▁remontan
▁pelo
basta
▁artística
▁nocturno
▁checheno
▁transportista
▁asesino
▁severo
▁instalado
poder
▁cubana
▁perjudicada
▁308
▁impresionantes
▁reflexiona
▁crezca
▁verificado
tendría
▁lógicas
▁mejoradas
▁retrase
▁famosos
▁espontánea
▁irregularidad
▁analizarse
▁eficientemente
▁verbal
▁huelgas
6/2001
post
▁adhiero
▁barbecho
▁cinturones
▁despoblación
▁floreciente
▁geoestratégica
▁hierro
▁logotipo
▁obtuvieron
▁pinheiro
▁rnb
▁santini
▁televisiones
▁toulouse
▁recobrar
▁definiendo
▁pasty
▁brian
▁compartiendo
▁isler
▁guión
▁desinformación
▁regresado
▁pensó
▁liderado
▁equivocación
▁apreciaciones
▁formarán
▁agravando
▁implícitamente
4-1
▁basarnos
medidas
▁padecido
▁localidades
▁dependan
▁combatirse
▁atreven
▁contraposición
▁clasificados
▁incrementen
▁publican
▁nacen
▁repiten
ferencia
▁mediano
▁debatan
4/98
debería
▁vendedor
mico
▁fundamentar
▁cuellos
uci
▁reprochar
lp
▁reflejados
▁perjudicadas
000
▁fijas
▁sanas
▁debatidos
2000
▁299
▁banal
▁debilitan
▁eee
jos
▁condenan
¿
▁violados
▁anuncian
▁apoyaría
49
▁suministra
▁apoyarlas
amato
▁torre
▁miremos
▁terapéutica
▁lucrativo
▁sistémico
▁obsoleta
▁arbitrario
▁influyente
▁sumado
▁47,
▁bajado
▁revisa
▁west
ight
▁acuda
▁reformarse
siempre
super
▁afortunada
▁elogia
▁derrumba
▁acidificación
▁anastassopoulos
▁debilite
▁denegado
▁discutió
▁fracasó
▁lucidez
▁mcmahon
▁mediática
▁ortuondo
▁persuasión
▁prohibiendo
▁prospecto
▁reintroducir
▁revoluciones
▁sarnez
▁secuencia
▁medianoche
▁destilación
▁agravamiento
▁centró
▁prets
▁ayudó
▁contentarnos
▁facultativa
▁aprendamos
▁exhorto
▁potencialidades
▁multiplican
▁indefensos
▁ocurriría
5-000
▁cumplirán
▁cultivan
▁mensuales
▁ke
▁encontradas
▁confisca
▁artesanales
▁olviden
▁recuperen
▁velo
▁causará
▁asegurados
▁fortalecida
formación
▁tigres
abo
▁tenerla
▁coronas
▁eva
▁presentase
▁conducto
▁iniciadas
▁húngaras
sten
▁incoar
▁prolonga
▁discrepar
lm
▁vendido
▁cercanía
▁egipcio
▁cómplice
▁juguete
▁emergente
▁arraigado
▁marido
▁encontrados
▁seguidos
tándose
mat
presentación
▁monte
▁antipopular
▁categórica
ance
▁aceptaremos
scripciones
▁atraído
▁connivencia
▁cotonou
▁cumplió
▁gahler
▁helmut
▁indiscriminado
▁inyección
▁predominio
▁reorientar
▁vendiendo
▁laborioso
▁eslogan
▁vendría
▁accedido
▁pronunciamiento
▁ahorradores
▁saliendo
▁box
▁alteración
▁lidiar
▁refiriéndome
rão
▁socorro
▁ofreciera
▁violen
▁librando
▁inscribirse
▁entorpecer
▁sistemáticos
▁resumido
km
▁votara
▁entrañar
▁oficios
▁reorganizar
▁justifiquen
▁transforma
▁procedamos
":
▁reses
▁directorios
▁porto
▁elefantes
▁vendrán
▁doblemente
▁carecer
▁lean
▁originarios
▁arbitrarios
▁genéticos
▁represivos
▁comportará
▁luis
▁mide
▁silencia
▁bot
▁asimilar
▁agota
▁ajenas
▁reforzaría
▁refrendar
▁acreditado
▁jug
nova
▁establecerán
dt
ísimos
▁felicitarles
bieron
▁acumulada
▁dude
▁retome
▁interese
▁anomalía
▁hombro
▁oscuro
▁arancelario
▁excede
▁administra
▁cuánta
▁perseverar
(97)
▁2050.
▁influirá
▁104
▁infravalorar
niza
▁uefa
ej
▁descartado
sólo
▁ber
▁andreasen
▁avícola
▁engorde
▁erdogan
▁habilitar
▁ibrahim
▁infractores
▁langenhagen
▁moscovici
▁palabrería
▁pudiendo
▁stihler
▁sugirió
▁travesía
▁perversa
▁seveso
▁multimedia
▁delfines
▁aplicándose
▁1957
finidad
▁colonialismo
▁acreditación
▁agrupación
▁andina
feder
▁paralizada
nato
▁eurozona
▁terneros
▁referirnos
marca
▁abarcará
▁caigan
▁acogidas
▁regido
▁compensa
▁intensifiquen
▁incluiría
▁largamente
▁dinámicos
▁legisla
▁opongan
▁presentaría
▁demandan
▁entrante
4-06
▁peligrosamente
▁emitidas
▁plasmar
▁combates
▁entabla
▁tentativas
▁vara
▁entenderá
▁eliminará
▁miro
▁seríamos
shi
▁extrae
▁2)
▁impartir
▁condiciona
▁haberla
1999)
2002
puesta
▁superfluo
▁explosiva
▁documentado
▁herida
▁originario
▁universitario
▁desplazado
▁destacable
▁infla
▁finalidades
▁reembolsar
▁irrita
▁ces
usa
▁estimule
▁repetidos
▁esfuerce
▁acoja
económico
nosotros
acepta
▁indefinida
▁impulsará
iéndole
▁conecta
▁inund
▁refiriéndo
▁fértil
bowman
▁asentimiento
▁bienintencionad
▁burbuja
▁béguin
▁despiadada
▁especifique
▁fiori
▁fluido
▁indulgente
▁intencionado
▁intransigencia
▁nagorno
▁nomenclatura
▁transmitió
▁trautmann
▁validación
▁vries
▁coloque
▁pidiera
▁ovina
▁combatiendo
▁dijk
▁asimilación
▁brennero
▁preparó
▁colaboraciones
▁inacción
▁convergen
▁financial
▁carcinógenas
▁filiales
▁distanciamiento
▁resolverán
▁engendra
▁lanzando
▁elegibles
▁consulares
▁hallazgos
▁destinará
▁plantación
▁perfila
44
▁querrán
▁albergan
▁transeuropeo
▁ultraliberal
junto
▁acabemos
ies
▁saluda
▁cur
▁ciegos
▁milán
▁declaramos
▁propagar
▁20.000
reforma
liberalizaciones
▁contaminan
▁despachos
▁complacería
5-07
▁inequívocas
▁sustentar
▁intensifica
▁char
▁habitan
▁gestione
▁exacerbar
lógica
▁gestionarse
▁selectivo
▁nórdico
▁paraíso
▁dañado
▁elmar
▁salvaguardas
▁fabricado
▁iniciados
▁socavado
▁oc
uti
▁prósperas
▁131
▁discrecional
▁alivia
▁divididas
▁normativos
▁presentarla
▁conocía
▁misterio
▁apoyarán
aire
▁parecidos
▁abreviada
▁audacia
▁conociendo
▁desenfrenada
▁emitiendo
▁fernández
▁fluida
▁ingenuidad
▁mongolia
▁potočnik
▁secretismo
▁whisky
▁cabaña
▁fallido
▁endeudados
▁sadc
▁salvamento
▁debatieron
▁mantenía
bal
▁precipitación
harris
▁reflexionado
▁reiterando
terra
lim
4/2001
▁disparate
▁dañan
▁afirmativa
▁coloniales
▁desiguales
▁sos
▁normalizado
▁decepcionantes
▁tristes
▁variadas
▁pon
+2
▁ucranios
▁realizarán
▁lidera
▁insistiré
▁requerirán
▁indiquen
▁facilitarles
85
casi
brado
▁crónicas
▁intensivos
▁sorprendentes
▁transformados
pm
▁tormentas
▁cortes
▁pasaron
▁acercado
▁dormir
▁equivalen
▁acogi
gal
▁aguarda
tendamos
▁escocesa
▁palpable
▁descrita
▁desplegado
▁matadero
▁forzadas
▁sacrificado
▁soportado
▁cofinanciar
-1
▁secundarias
▁rodeado
4)
incompatibilidad
▁privatizar
▁tr
/92
peter
▁generaría
▁testimonios
▁concentre
▁proporcionarán
bon
▁verifica
▁desembolsar
▁negocian
▁asombro
▁caduca
▁auschwitz
tsagaropoulou
à
▁catherine
▁cerciorarnos
▁competiciones
▁despegue
▁estévez
▁gasòliba
▁inocuidad
▁konrad
▁llave
▁lucrativa
▁mubarak
▁pittella
▁renegociar
▁south
▁srebrenica
▁sudamérica
▁toxicidad
▁vencimiento
▁íntegro
▁agilidad
▁desapareciendo
▁remitida
ámonos
▁contrataciones
pel
▁anticipación
▁subido
▁estudiarse
▁kedo
▁intermodalidad
▁jia
▁tapar
▁fervientemente
▁ocasionando
▁verticales
▁superioridad
▁suministran
▁predicar
▁public
▁dañada
▁efectúan
▁rogar
▁trabajaban
-2010
▁intervalos
▁dañinas
▁imprevisibles
▁dispara
▁cruda
33
▁simon
▁arrestados
cudió
▁estuviéramos
▁1)
▁dirijan
fle
▁cosechar
5-003
▁apreciada
▁míos
▁publicarse
tres
▁articulado
(2003)
▁perdura
▁aesa
▁ejecutados
▁preocupadas
▁inhumanos
▁analizará
▁mesas
tratado
derecho
3/2001
▁desembolsado
▁diese
▁corrobora
▁evolucione
▁síntoma
▁láctea
▁activista
▁incluirlo
▁intermediario
▁tratase
▁detenta
▁aseguraremos
▁cerrarse
▁comparti
▁definitivos
▁sh
▁traslade
▁persiga
010
ñi
▁casual
israelí
▁sombras
cripción
▁maat
▁anarquía
▁atendido
▁augura
▁auxilio
▁benceno
▁bontempi
▁castigue
▁detergentes
▁epígrafe
▁incontables
▁laperrouze
▁micrófono
▁perceptible
▁preserve
▁reajuste
▁siembra
▁voluntarista
▁socave
▁kivu
▁18.30
▁antonio
▁copresidente
▁confiscación
▁disculparme
▁concibe
▁task
▁cazadores
▁elegante
▁negándose
▁escolarización
▁ras
▁discutamos
considerando
▁casualmente
▁caña
▁suscritos
▁cárnicos
▁192
▁petrolíferas
▁cd
▁ejecutadas
▁dirigirnos
jó
▁infundadas
cionista
▁acabando
▁explicarlo
▁tuviesen
▁sobrepesca
pc
9/97
▁selectivos
▁alimentados
▁acogería
▁destacaría
▁legalizar
▁asigne
▁decisorios
▁proporcionarnos
▁distritos
▁encamina
▁probados
▁inquietantes
▁mantenerlo
▁bloqueados
▁remedios
▁preguntando
▁cercas
▁ventajosa
▁agresivo
▁anticuado
▁corrupto
▁gobernante
▁remunerada
▁estancado
▁islamista
▁evitaría
▁fascista
▁desempeñarán
▁incorporada
▁pir
▁permitidos
▁induce
▁nombrados
▁replantear
▁primar
▁lloyd
▁afecto
▁créanme
▁decírselo
▁escribí
▁expandir
▁irrefutable
▁lesbianas
▁moratinos
▁pablo
▁provisiones
▁repentino
▁fachada
▁rezagada
▁stockmann
▁concisa
▁reintroducción
▁autogobierno
▁esforzando
▁renegociación
▁insularidad
▁exposiciones
▁aclararse
▁ralentización
▁royo
03):
▁dalli
▁rotatoria
▁consolidando
▁comunico
▁residan
▁hun
▁experimentales
▁traje
▁imprevistas
▁severamente
▁penoso
▁subordinar
▁contratistas
▁preferiríamos
▁reforme
▁obligaría
▁02
▁indeseables
▁óxidos
ili
▁investiguen
▁comprando
87
▁contratados
▁despejar
▁tomados
4-03
▁cho
▁encabezar
▁emprende
ast
▁correspondería
▁relacionan
▁tem
4%
▁estimulará
▁desencadenado
▁reflejará
▁tardan
lucha
▁oleadas
▁modestas
▁ken
▁contribuiremos
¡
▁inaugurar
▁matado
▁adaptarlo
▁destinatario
▁tabla
▁envase
▁expulsa
▁cable
▁prescribe
▁ch
▁contarán
▁cambiarse
▁juzgará
myanmar
dentro
▁comunican
ársela
▁insular
▁esforzará
▁óptimas
▁philip
▁diametralmente
▁ecuánime
▁estupidez
▁exterminio
▁infiltra
▁mosaico
▁orbán
▁predicciones
▁prominente
▁remitió
▁sicilia
▁sirvió
▁stauner
▁suspenso
▁venideras
▁colonos
▁opacidad
▁carecía
▁andadura
▁producimos
▁remuneraciones
▁proposición
▁facilitó
▁reparaciones
▁deseadas
▁simula
▁ingenio
▁house
▁discrepamos
▁deniega
▁gordon
▁insistentemente
▁plantar
▁tuviésemos
▁deploramos
▁aconseja
▁regularización
▁incorporando
▁alzado
▁mineros
▁sumisión
▁estimulado
▁aceleren
▁balances
ojo
▁publicitarias
▁formulen
▁monumentos
▁asolado
▁pez
▁activación
▁diversificada
mont
ólogos
▁incrementan
▁equi
▁absolutos
▁comente
hl
▁suscribimos
▁regresan
▁cee
▁transmitan
firma
▁costaría
▁grata
▁rechazados
▁señaladas
▁136
▁agujeros
▁supervisa
▁ries
rop
▁cierren
▁pagarán
▁admitidos
▁ilícitos
▁deposita
▁requeridos
▁cata
▁volvería
▁recomiendan
▁austral
▁descuidado
▁prohibirse
▁recíprocas
▁homogéneo
▁fraudulenta
▁homólogo
▁asentamiento
▁parámetro
▁engañoso
rdón
nk
▁cerdo
▁reconocía
▁protector
▁encubrir
▁place
▁supervise
guerra
▁colabore
▁370
▁antidúmping
▁añadió
▁brujas
▁codicia
▁deploro
▁fantástica
▁gdansk
▁harrison
▁jungla
▁novedoso
▁precedida
▁reiteró
▁skinner
▁stenmarck
▁térmica
▁veinticuatro
▁villiers
▁vinieron
▁afrenta
▁confieso
▁atravesamos
▁berthu
▁confiemos
▁desvinculación
▁cerr
▁mostremos
▁1950
▁metido
▁terminación
▁debilitando
▁recortando
▁necesitaríamos
bat
▁pertenezcan
▁secuelas
▁apelamos
▁caridad
vu
▁comprobarlo
▁posponga
▁apoyé
▁rele
▁animamos
▁650
▁analicen
▁impulsora
▁mineras
▁guardias
▁inspeccionar
▁incalculables
▁preocupamos
▁incluían
▁pescan
émoslo
▁priorizar
▁transatlánticos
▁pesimistas
▁alcanzarán
▁comprometidas
▁conmemora
▁dudan
▁carnes
▁preguntarme
▁escrupulosa
▁obtenerse
▁concebidas
vas
▁gatos
▁cuantificar
▁intimidar
▁importamos
▁condenable
▁desconoce
▁considerara
▁resultara
europeos
▁botellas
▁verla
(1).
▁alegraría
▁caminar
▁revisará
▁tergiversa
▁consecutivo
▁permitida
▁extremista
▁orilla
▁alimentado
tuvo
▁extensas
▁arrojado
▁blanc
▁espere
▁centradas
▁ave
2006
▁implanta
educación
liberal
nunca
breve
▁democratizar
▁respaldará
2010
▁presentarlo
asuntos
▁felicitarse
▁archipiélago
▁conjunción
▁consistido
▁contundencia
▁fourtou
▁friedrich
▁hagámoslo
▁múnich
▁obligó
▁poquito
▁retiró
▁saddam
▁winkler
▁cook
▁deducción
▁indigno
▁propicie
▁mediático
▁apego
▁ficción
▁rutinaria
▁cortina
▁entrenamiento
▁optimización
▁vigésimo
▁hermange
▁euroviñeta
▁busk
▁especificación
▁moraes
▁tamiles
▁defrauda
poul
▁vendedores
▁regresen
▁12.30
▁celebraciones
▁lisi
▁reconociera
95/
▁conserven
▁alabanzas
▁sentirán
infrautilización
▁determinen
▁supriman
▁bacterias
▁valoran
▁tomates
▁compren
lio
▁insostenibles
▁escollos
▁mediocre
▁torturados
▁aviv
▁marcharse
▁fascistas
▁expliquen
▁kilos
▁impregna
▁novo
▁abusa
ender
▁quiebras
▁ruinas
▁psicológicos
▁coherentemente
▁dudosas
ant
▁acontecido
anti
▁hunde
▁pasivos
sé
▁lograrán
▁ubicado
▁reporta
▁lecturas
▁descritos
▁ésas
▁responderle
»:
▁rol
▁japonesa
▁tacógrafo
▁búlgara
▁hermosa
▁adverso
▁directivo
▁astillero
▁alimenticio
▁tigre
▁inspirada
valor
▁sc
cop
▁acuerda
▁disminuya
alguien
▁aceptaría
tima
▁tímida
▁intrínseca
▁alterado
▁deplora
▁heaton
quaak
▁1951
▁almuerzo
▁atletas
▁disuasión
▁ecopuntos
▁encomendar
▁ertms
▁escriba
▁hökmark
▁inducido
▁intencional
▁molucas
▁nítida
▁reequilibrar
▁schleicher
▁simplicidad
▁sembrar
▁1049/2001
▁bullmann
▁reserve
▁mediciones
▁interpela
▁arenque
▁bioética
▁urss
▁abolido
▁andorra
▁utilizarlas
▁incómodo
▁coincidido
▁tnp
▁ratificaciones
▁pasarela
▁rivales
▁aprovechamos
▁correctivas
▁niña
▁arduamente
▁escuchas
▁xenófobos
84
▁tamaños
▁especialidades
▁negaron
▁prosigan
▁aptos
▁145
viv
▁baterías
▁beneficiarían
▁carnero
▁capturados
▁formularse
▁sobrepasan
▁vendidos
▁imperante
▁equipara
▁vector
scribiendo
▁ple
▁abusivas
▁cite
▁idóneas
▁egoísmos
▁camina
venir
luc
▁estimar
▁arruinar
-10
▁mejorarla
▁afuera
▁eet
mentar
incluida
▁147
▁esloveno
▁impotente
▁presunto
▁seleccionado
▁llamas
▁llamaba
cidad
▁intentarlo
acción
▁acomoda
▁reforzados
bei
▁otorgada
lum
▁lejanos
▁solucionarlo
▁aprobarla
▁asesinar
parlamentario
▁aumentaron
▁envidia
č
▁anhela
▁coexistir
▁contemporáneo
▁abrigo
▁aligerar
▁angela
▁antoja
▁azucarero
▁beneficiándo
▁boogerd
▁conceptual
▁cushnahan
▁desglose
▁desvío
▁discordia
▁escéptica
▁expresé
▁ifop
▁ignalina
▁kuneva
▁manchester
▁negligente
▁resurgimiento
▁schierhuber
▁sugerimos
▁yacimientos
▁égida
▁haitiano
▁parangón
neyra
▁exclusiones
▁harkin
▁walter
▁sommer
▁abordada
▁colorantes
▁siberia
▁pandora
▁subordinación
▁conciso
▁desama
▁mencionarse
▁mayer
▁infinitamente
▁viajado
▁vinculan
ern
▁30.000
▁devuelvan
▁necesitaría
▁vacilante
ive
▁belarusos
▁desechar
▁subyacen
temos
▁inaugural
mini
▁involucra
▁ejecutan
▁tunecinos
▁adultas
▁explicaré
extraterritorial
▁comparada
▁sanciona
▁121
▁encajar
▁perfilar
▁variados
5-006
▁conduciendo
▁desencadena
▁mante
▁cambiantes
vent
▁sensatos
áis
reduc
▁incumpli
▁carro
▁juzga
▁concluirse
▁ime
▁regalos
▁acercando
▁combinadas
mov
▁1991.
▁homogénea
▁genérica
▁intacto
▁variante
▁logístico
▁petrolera
▁diverso
ris
▁indicados
▁paisajes
▁reemplaza
▁formulario
▁enumerado
traterritoriales
▁comunicarle
▁fuma
▁acuerde
derecha
durante
▁concernientes
▁acelera
▁despojar
▁202
tín
puntualizaciones
▁retrospectiva
▁taiwan
▁acentúa
▁christodoulou
▁confeccionar
▁cumpleaños
▁cáñamo
▁ilegítima
▁indefinido
▁kouchner
▁kyprianou
▁metálico
▁oscuridad
▁permitiese
▁profundice
▁progresión
▁tempus
▁holm
▁mantendría
▁posei
▁hecke
▁suprema
▁presido
▁1977
▁imitar
illas
tología
▁invertimos
▁hundir
▁casta
▁rodante
▁penalizaciones
▁ecall
▁promoverse
▁conciencias
▁compitan
▁valenciana
▁deriven
▁enfrentaremos
▁enmendada
▁extenderme
▁rex
▁deudor
▁aumentarse
▁cesa
▁criar
▁encerrar
kar
▁torna
▁bello
▁adaptarnos
cardiovasculares
▁proactivo
▁tolerable
▁saquen
▁8%
▁disminuyen
▁autóctonas
▁doblar
▁aldeas
▁146
▁ejecutarse
▁haberle
▁arriesgan
▁persistir
▁foto
▁abordadas
▁moderniza
▁referían
▁rígidos
▁leales
▁correrá
▁milagrosa
▁polémicos
▁robar
aci
▁pediremos
▁dependerán
▁divida
▁sirio
▁inimaginable
▁ángulo
▁adulta
▁ucranio
▁ingrediente
▁sabio
▁talentos
▁convenientes
din
▁citas
▁zanjar
▁cómodo
5-009
▁participante
▁estarlo
▁intermedias
cent
▁pretextos
gráfica
▁disminuirá
rov
▁estafa
▁calculan
▁antipersonal
cuya
▁cometa
ige
▁homologa
italia
▁abastecer
▁aeroespacial
▁concienzudo
▁funcionó
▁histeria
▁hulten
▁inalcanzable
▁klinz
▁lágrimas
▁muestro
▁observó
▁predisposición
▁prerrequisito
▁restrinja
▁subcontratistas
▁theorin
▁wiebenga
▁yugoslavo
▁restringiendo
▁egnos
▁amargo
▁depuración
▁expire
▁minimis
▁tenaz
▁europeización
▁city
▁neoliberalismo
▁conlleve
▁encarceladas
▁frene
▁revolucionaria
▁aplicabilidad
▁400.000
▁kg
▁alcoholismo
▁surtir
▁deudores
▁reflexionemos
▁querrían
▁explotando
▁evidencias
▁sexualidad
▁vendan
▁viñedos
▁mesura
▁atrasados
▁estudian
▁inventado
▁will
▁pluri
▁efectúen
▁registrando
▁techos
▁denunciando
▁substituir
▁asociarse
▁egipcias
▁espectaculares
▁eliminados
▁héroes
▁comentaré
▁olvidadas
▁ofrecerán
▁capitalización
▁declararon
▁egoístas
▁convencernos
éramos
▁emitan
▁condado
▁gays
front
gestión
ob
elli
▁concierto
▁nanotecnologías
▁cama
▁119
▁ingenuos
▁procederemos
lex
▁imponemos
▁importadas
▁cesen
▁opusieron
▁visitamos
poner
itud
▁asesora
▁supondrían
▁oleoducto
tiv
▁tunecino
▁molesto
▁proveniente
▁comparativo
▁legitima
ding
▁mac
tracción
▁perjudicará
izarse
▁soñ
▁prudencial
▁consideraron
▁investigador
deberíamos
centrándonos
▁apellido
▁ashraf
▁asistió
▁ceuta
▁corolario
▁decadencia
▁desemboque
▁desequilibrada
▁jové
▁libaneses
▁recaiga
▁telemática
▁tokio
▁transmitiendo
▁šefčovič
▁concejal
▁deportaciones
▁multiétnico
▁vaticano
▁resonancia
▁sostengo
(98)0
▁nordmann
▁legible
▁noreste
▁reforestación
▁verle
▁rompa
▁criadores
▁nieve
▁funk
▁falconer
▁reevaluación
▁vaciar
▁roche
▁fax
▁operatividad
▁fama
▁prescribir
▁1.500
▁asocie
52
▁edd
▁modificará
▁vascos
▁experimentamos
▁sospechar
▁criticando
▁cordero
▁amablemente
▁vacantes
▁marginadas
▁parientes
▁comúnmente
▁exportados
▁surgidas
▁supervisado
▁cosechado
▁llenas
▁negociables
▁terapéuticos
▁relaja
▁animarles
▁combatirlo
▁supervisoras
▁dramáticamente
▁desarrollemos
▁ganará
▁solares
▁elogiado
▁ocupantes
traron
▁remuneradas
▁aclaran
▁buscarse
▁adecua
▁corro
logía
▁transferirse
▁aguantar
▁pioneros
▁clasifica
▁acuciantes
▁golpear
ph
▁disparado
▁comprador
▁dudosos
▁agresivas
nie
desa
▁inyectar
▁discutirá
cup
▁solicitadas
▁rechazarla
▁soviéticos
▁ciego
▁energéticamente
▁diferenciados
▁omite
▁senador
claude
algunos
▁organizará
parecieron
▁castigado
india
▁aplazada
roma
▁calibrar
▁conseguida
▁consuelo
▁corbey
▁descendientes
▁dibuja
▁disolventes
▁féin
▁ilusorio
▁maravilla
▁mauricio
▁mutilaciones
▁orlando
▁radiactividad
▁rellenar
▁rincones
▁resolviendo
▁davos
▁sucediera
▁precise
▁franz
▁gratis
▁honda
▁duró
▁alpina
▁vulneraciones
▁gál
▁cerró
▁manipula
▁vasca
▁neutralizar
▁fisuras
▁gobernada
▁frontal
▁conservando
▁integrando
▁comunicarnos
▁dispondrán
▁recíprocamente
▁interpretan
▁comparan
▁sab
har
▁hipotecarios
▁funda
▁oscuras
▁incluyeron
▁ilustrativo
▁ocupaba
ub
▁die
▁casadas
▁reunirán
▁intercambia
▁injustificados
▁ceda
▁extraiga
▁adoptaremos
▁facilitados
▁llamarlo
▁formularon
▁pav
▁kerr
▁desconocidos
▁devueltos
▁inclinar
▁aportaría
oil
▁militarista
ático
▁actualizados
▁veterinarias
▁engaña
normal
▁manifestarle
▁igualar
▁rse
▁borra
▁teorías
▁substitu
▁dol
▁adelanto
▁perverso
▁circuito
▁bebida
▁degradante
▁jurista
▁tenida
▁uva
▁inmensos
▁pesos
▁acudier
▁enunciado
producto
▁exportadora
▁rutina
ku
▁conservado
ire
▁femeninas
iones
▁derrotado
▁ida
▁paradójica
▁equal
▁indicarle
▁sanders
▁emocionante
▁hidroeléctrica
▁nocturna
▁afloja
▁anuncie
▁apropiación
▁contribuimos
▁desequilibrado
▁emprendiendo
▁hegemonía
▁interrelación
▁interventor
▁mathieu
▁meditada
▁olsson
▁patronos
▁reafirmó
▁rotundidad
▁salmonela
▁transcurre
▁contestó
▁adhirieron
▁cariño
▁alvaro
▁pastel
▁reducimos
▁involuntaria
▁pospuesto
▁presentemos
▁falsea
▁congratularnos
▁decencia
▁descuido
▁cesión
▁repuesto
▁resistido
▁humilla
▁optó
▁cumplían
▁ratificados
▁macro
▁suelta
▁imperativa
66
▁emitirá
▁220
▁filtros
▁disfrutando
▁prevalezcan
▁orquesta
zer
▁pronósticos
▁complacen
▁decepcionar
▁estilos
▁preparen
▁cumplidos
mut
▁evoca
▁permitieran
▁cauces
▁separarse
▁distantes
▁cuida
▁comparativos
▁aguardan
▁permitirle
▁camara
▁saharauis
▁consumidoras
▁suaviza
▁respetemos
▁referéndums
▁enviadas
▁exageradas
▁voluntades
▁oírle
▁instaría
▁ral
▁estancada
cristiano
▁reaccione
▁entrevistas
▁simplificará
▁144
▁free
▁upe
▁contemplaba
▁cei
▁guerrilla
▁variada
▁retenido
▁campamento
▁tóxico
▁arancelaria
▁consumado
▁barrio
▁desaprovechar
▁subsana
▁recelo
▁practicada
▁vislumbra
▁gru
▁tramita
▁sobrecargar
▁ascender
▁horizontes
▁exhortar
▁contratado
▁sentiría
▁reanude
estructura
▁debilitaría
▁bella
comparte
▁aprobase
▁attwooll
▁bastidores
▁disolver
▁duplicidad
▁eisma
▁eriksson
▁euronews
▁hundido
▁húmedas
▁intervinientes
▁intrínseco
▁masculina
▁mavrommatis
▁musharraf
▁plusvalía
▁reafirme
▁salvaguarde
▁suanzes
▁moderar
▁cabía
▁deportados
▁estigma
▁daniel
▁procediendo
▁tardanza
▁desorienta
▁tinta
▁habana
▁prevemos
▁comodidad
▁soñar
▁manejan
▁atreverse
▁rodado
▁imprimir
bir
▁abusan
4-04
▁posean
▁distribuyen
opt
▁tabúes
▁erróneos
▁recta
▁enteramos
▁trasladen
▁considerarla
▁abocados
▁organicen
▁georgiano
▁desaparecerán
▁135
▁destinarán
▁&
▁reintegrar
▁enfermas
▁pertenecemos
▁esperanzador
▁hombros
53
▁confieren
▁contemplando
▁censurable
▁reconocerá
▁heredado
▁realicemos
▁traen
▁cambiarlo
▁programar
▁dirigiéndo
▁protectora
▁vueltas
▁disparar
▁esboza
▁trasladados
▁anónimas
▁cuantitativas
mejor
58
▁aplicarlos
▁criticable
42
▁frustrar
▁satisfechas
let
mic
▁plata
▁luna
▁entregados
sub
▁escollo
▁unieron
▁exenta
▁out
▁coordinadora
▁asistente
▁143
▁subvencionado
▁rechazara
▁solemnes
▁noches
▁dotados
▁10.00
▁considerarán
▁negocie
urg
▁106
▁desecha
▁distorsionada
economía
pnr
▁opere
▁antecesor
▁rev
▁desvel
▁ahogar
▁enjuiciar
cabe
▁suponemos
▁terminada
’
carpegna
▁acicate
▁alfabetización
▁autenticidad
▁desilusión
▁díez
▁flemming
▁herbáceos
▁impredecible
▁instituye
▁melilla
▁nepad
▁preescolar
▁premura
▁rogamos
▁terrón
▁traición
▁valdría
▁nosotras
▁totalitaria
▁blando
▁sustantiva
med
▁masacra
▁trasvase
▁hermanamiento
▁(...)
▁frustraciones
▁aceh
▁riis
▁redactando
▁national
dependientes
ines
▁gnss
▁planeando
(95)
▁desconocemos
▁trabajaron
▁desempleadas
▁fortalecerse
▁estimulando
▁presuntamente
▁transfieren
▁pakistaníes
▁aplicaran
▁analicemos
▁bene
▁ejecuten
▁explicarse
▁remolques
▁seguían
▁desesperados
▁capacitados
liberando
▁recojan
▁revueltas
▁plato
▁clínicas
▁discuten
▁empeña
buena
▁degradantes
▁ejecute
▁severos
▁calmar
autoridad
icismo
▁medirse
▁reproches
▁transplantes
▁coreanos
▁conseguiría
▁descansar
▁estacional
▁ofreciéndole
▁supervisada
▁dictados
▁valenciano
lita
▁desviado
▁repasar
▁azota
▁secundar
▁detallar
▁dirigí
orden
▁ofrecerse
▁leerlo
▁clásicos
cú
▁sustituirse
▁escandalosas
▁rebasar
▁precarias
▁arenas
▁ofender
▁evalu
5.000
▁implicando
▁miserable
▁acalorado
▁delhi
▁simplificada
▁permitiremos
▁sumamos
▁rap
▁transforme
nuestro
empresa
pic
48/
▁esforz
▁front
▁ocultado
▁1968
▁contagiosas
▁delicadeza
▁dogmática
▁endémica
▁galardonado
▁hipotética
▁implícito
▁krehl
▁mantuvieron
▁manufacturera
▁nelson
▁neyts
▁paréntesis
▁sapard
▁siderurgia
▁srpska
▁toubon
▁yihad
▁paraguas
▁ecuador
▁llaga
▁reconocieron
▁guíe
▁centroafricana
▁proeuropea
▁gay
hacer
▁faro
▁1960
▁exceptuando
▁enológicas
▁colaterales
▁fallar
▁simplificando
▁pex
▁ponencia
▁propugnan
▁profundiza
▁bosnios
▁pisa
▁gráfica
▁devuelve
toma
interpreta
▁mitos
▁aseguramos
▁impulsan
▁apasionada
▁defectuosos
▁remitirse
▁dañinos
▁reticentes
rac
▁encierran
▁bloquea
▁pisotea
▁fijaron
▁visiblemente
▁estipulan
eado
▁empa
▁sucia
▁cargue
▁especular
▁financiará
▁prestarles
▁garantes
▁alinear
▁concederles
▁cens
uma
9/2001
▁hablara
▁xi
▁obstaculizada
▁atrac
▁capacitar
▁firmamos
▁comenzarán
▁informáticas
habl
▁adaptarla
▁2000/2
far
▁revistas
▁enmarcar
aquí
▁neerlandesas
▁evaluados
pf
▁irreversibles
▁zar
▁aclarara
▁itinerario
▁anhelo
▁impreso
▁clínica
▁subterránea
▁deplorar
▁humanista
▁anteponer
▁motiva
▁soberanas
nche
▁jar
▁incendia
▁cumplía
cláusula
lli
▁semestral
▁facilitarse
▁reforz
▁subcontrata
▁eufor
▁amistoso
▁aparcamiento
▁atolladero
▁cosmética
▁giovanni
▁henderson
▁holte
▁incongruencia
▁intervine
▁khadraoui
▁libanesa
▁lienemann
▁luxemburgués
▁microentidades
▁multiétnica
▁proporcionó
▁pugna
▁quisieron
▁ratificó
▁saakashvili
▁sacrédeus
▁white
▁eplp
▁contratiempos
▁reunida
▁secchi
▁sintético
▁cercena
▁1982
▁compense
▁graduación
▁vondra
▁interponer
▁camisa
▁progenitores
▁cork
▁conformarnos
-014
▁estabilizadores
.(1)
▁damas
dicó
▁organizamos
▁especialista
▁disuasorias
▁102
▁sugeriría
ks
▁usamos
▁turnos
▁indicada
kh
▁llegaran
nunciaron
▁empleamos
▁126
▁subsiste
▁instaurado
▁maestros
▁falle
▁hablarse
.600
▁trataron
▁ponderado
▁someterla
ila
▁analizan
ung
▁alertas
▁combinarse
▁causantes
espera
▁101
▁geopolíticos
▁acuse
▁ron
▁llevaban
▁formarse
77
▁imaginado
▁pagarse
▁supeditar
▁excluirse
2%
▁entusiastas
▁recaen
▁motivadas
▁desperdiciar
▁its
▁desvía
▁protectorado
lie
...»
▁fusionar
▁propugnar
▁hablarles
ecieron
▁290
3/98)
▁antidiscrimina
ient
▁confronta
▁rinde
▁asumida
▁masculino
▁bonita
▁pensada
▁reaccionario
▁enfocada
▁familiarizado
▁industrializada
▁expulsado
▁eventualidad
▁halle
capacit
▁lobo
▁wo
▁barro
ní
▁visite
▁posea
▁iso
▁ze
▁interesar
▁nutricional
▁intensivas
▁aeronáutico
▁apícola
▁asumiera
▁concedieron
▁cánones
▁entramado
▁fayot
▁ibérica
▁midlands
▁mohamed
▁moreira
▁movemos
▁permitiéndoles
▁policy
▁renacimiento
▁nicole
▁infringiendo
▁honradez
▁estudiantil
▁concertar
▁botón
▁mauro
▁garantizo
▁surtido
▁humanismo
▁euforia
▁notificaciones
▁vacilaciones
▁114
▁fundamentan
▁volátiles
▁entrelaza
▁acumulan
▁peligrosidad
▁pierre
▁distorsionado
▁registren
▁pronunciarme
▁lesiona
▁dom
▁sufrirá
▁abstengan
▁dictatoriales
▁imposibilita
▁zapatos
▁velará
▁esfuercen
2/98)
▁competen
▁dirigirá
▁coreana
▁luc
▁conectados
▁quejado
▁comprometemos
▁asistirá
▁confirmara
▁obliguen
condicionamiento
▁cuidan
▁perversos
▁imponerles
▁creían
icamente
▁bre
wer
▁levantarse
ken
▁olas
▁invalida
73
▁argelinos
▁implicaba
▁exacerba
▁manipulado
▁avergonzado
▁vulnerar
▁controlable
▁pasara
▁estadios
▁desesperadas
▁llegase
▁entregue
▁retrasados
ponga
▁prorroga
▁abordaré
▁inesperada
▁dona
▁fresca
▁poblado
▁birmana
▁destructiva
▁incalculable
▁delincuente
▁supermercado
▁economista
▁vencido
dicho
cola
▁emisora
▁abundan
▁apoyaba
tener
▁odioso
risas
▁inicios
bce
impuesto
vivos
creciente
▁competidor
▁tropical
▁fidel
▁asista
fen
▁admitimos
▁artesanía
▁california
▁cartagena
▁comparezca
▁corporaciones
▁cálido
▁deduzco
▁fourçans
▁gräßle
▁inoportuna
▁pcb
▁reaccionó
▁volkswagen
▁waddington
▁ţicău
▁abrimos
▁informatizado
▁orwell
▁suprimida
▁désir
▁fiyi
▁redunde
▁otorgó
▁remisión
▁exageración
▁asombrosa
▁berger
▁explotadores
▁damasco
▁subiendo
▁inactividad
▁guiarnos
▁«¡
▁reforzarán
▁busquemos
▁atiende
▁agotan
▁defendía
▁erosiona
▁disfrutamos
▁regirse
▁foca
▁avisar
propuestas
56
49/
▁suavemente
▁pregunten
▁dueños
▁atreva
▁levanten
▁declarando
▁divid
▁reservarse
▁trágicamente
▁continuando
▁ponderada
▁inscriben
▁desarrollamos
▁otorgamos
▁avalar
▁contenciosos
▁honrados
▁dejaba
▁surgidos
tábamos
▁reavivar
▁votadas
▁presenciamos
▁soslayar
gué
▁ocultas
▁determinarán
▁modificarlo
▁kha
▁mediar
▁dotadas
▁colocan
▁letras
▁prolongadas
▁promotor
▁perdidas
▁echan
▁intensificarse
▁cielos
▁veda
▁entenderán
▁arriesga
▁representaban
▁argumentado
▁matiz
▁avanzaremos
▁señalarlo
▁exhib
▁prósperos
▁plantearán
▁aterroriza
▁asma
▁present
▁secos
▁reacciona
gia
▁saliera
▁proporcionarse
▁modal
▁invento
▁ordinaria
▁transmitida
▁sumido
▁exigida
▁favorecida
▁distorsione
▁numerosa
▁traiga
▁examinarán
▁aval
▁usada
▁abordarla
▁abordaremos
▁especificado
cro
▁107
5-005
▁proyectada
▁111
▁causante
▁simplifique
▁obtendría
energía
salud
capital
▁leen
▁residual
▁corri
▁cari
▁balkenende
▁biblia
▁bonificaciones
▁böhm
▁camisón
▁ciclistas
▁creyentes
▁critique
▁decisoria
▁dehaene
▁estalinismo
▁hidráulica
▁humildad
▁invadir
▁lejanía
▁mexicana
▁scheele
▁tardío
▁thatcher
▁vassiliou
▁vitícola
▁zagreb
▁ribera
▁globo
▁solvente
▁demostramos
▁introducimos
▁jubilaciones
▁chiste
▁joseph
▁duele
▁wibe
▁audy
▁kfor
▁psico
▁instaure
▁exponiendo
▁viticultores
▁alineación
▁aludir
▁fundó
▁concrete
▁engañando
▁complaciente
▁colma
▁ganadora
▁pirineos
▁patio
▁transfieran
▁revelación
▁promulga
▁observen
▁maquinistas
▁incansablemente
▁generadores
▁gestor
▁atascos
▁desconocen
▁certificar
▁vieran
▁culturalmente
▁historiadores
▁retomado
▁concebirse
▁atribuidas
▁construyen
▁301
▁prevean
▁atípicos
▁asumamos
▁sangrientos
cab
▁irreal
▁fuel
▁168
▁ayudaron
▁/
partido
▁hermosas
▁confirmando
▁usadas
▁describirse
▁incumben
▁reemplazado
▁thi
▁mencionando
▁ocultos
▁unió
▁élites
bé
▁agita
▁cultivado
▁muertas
sing
▁apremiantes
nuncié
▁sostuv
▁interpretada
▁rece
▁creador
▁proporcionamos
▁descargas
▁constitutivos
▁articula
▁incorporados
▁sustituidos
▁acompañe
beneficios
age
▁convocada
cus
▁monstruo
▁fal
▁adopt
▁opte
▁preguntarles
▁vigorosa
▁quedaban
▁inmobiliario
▁siniestro
▁férrea
▁asimetría
▁consorcio
▁bebé
▁organizativo
▁pasarse
▁hueso
▁menoscaba
▁designada
▁4,5
▁toro
xtracomunitarios
▁instiga
▁tratarlo
▁incide
▁anunciados
▁0,9
▁precursor
▁cartel
▁rivalidad
▁ferrer
▁sentará
▁siniestra
▁abstracta
▁admitió
▁adriático
▁airways
▁anonimato
▁busuttil
▁chechena
▁győri
▁herczog
▁insignia
▁instituido
▁inteligible
▁korhola
▁lipietz
▁malversación
▁milósevic
▁modestia
▁recrudecimiento
▁repercuta
▁tropieza
▁unívoca
▁zappalà
▁amenace
▁brasileña
▁omitido
▁impondría
▁desdeñable
▁desarrollarán
▁jurado
▁estratos
▁expondrá
▁consultó
▁reelección
▁enviemos
shire
▁propondremos
▁urbanización
▁imaginen
▁islamismo
▁michelin
▁concluyeron
▁consiguiera
▁escapado
▁apagar
▁autóctonos
hoy
▁filtrado
▁modernizado
▁potenciación
▁recibía
▁enterrar
▁defraudar
▁neuro
▁alpino
▁lamentado
▁explotadas
pura
▁combatirla
▁suprimen
▁oralmente
▁conflictivos
▁abandonadas
▁contestadas
▁proximidades
▁combat
▁revis
▁publicitarios
▁cac
▁estructuración
▁centrados
▁liu
▁precede
▁centralismo
▁suplir
▁concuerdo
▁dedicará
▁perturba
▁sistémicos
▁atacan
▁aclaren
▁gravísimas
▁prestigioso
▁prometedoras
▁transferidos
▁dudamos
licen
tac
▁parezcan
▁nigeriana
▁perturbar
scribimos
rich
▁combinan
ota
57
▁chu
▁insultos
60/
▁ram
▁culmina
▁biotecnologías
evo
▁concertadas
▁sucedería
geni
▁pragmáticos
▁geo
▁coro
▁navegar
▁concebidos
▁compensada
▁añadida
▁autóctona
▁clandestino
▁recorre
▁abriría
▁aprobarán
▁relato
▁intenté
▁contabiliza
▁afronte
representa
▁prohibe
▁carezca
▁confunde
político
libertad
además
concretamente
ucrania
informe
podrá
necesitamos
▁centenar
▁rival
▁antisocial
▁st
▁má
▁pseudo
▁veinti
▁brigada
▁confesión
▁deficitaria
▁describió
▁enarbola
▁externalización
▁incompetente
▁inviolabilidad
▁kaufmann
▁lambsdorff
▁rebelión
▁redefinición
▁redoble
▁sobradamente
▁comicios
▁hidrológico
▁ésos
▁expedir
▁riego
▁monuc
▁vivida
▁interviniendo
▁salieron
▁incorporó
▁stop
▁aromas
▁dover
▁faena
▁utilizo
▁colaborador
▁indnr
▁curva
▁fugas
▁trabajaba
▁karabaj
▁colectividades
▁vencedores
▁precursores
▁combatido
▁llevaremos
▁bebe
▁rijan
▁tap
▁reul
▁estipular
▁audita
▁submarinos
▁aduciendo
▁aclararlo
▁nieguen
▁enviaría
▁complementado
▁procuraremos
▁5.000
▁ocuparemos
▁ocurridas
▁desconocidas
ika
▁nicho
▁invitada
▁epizootias
▁molestar
tercer
maz
▁mejoramiento
▁dijese
▁indiscutibles
▁divulga
▁tranquilizadora
▁limitaría
▁tard
▁rota
▁bloquean
nita
▁alcanzadas
▁eliminaría
nismo
▁inexistentes
▁dirigía
▁respirar
▁dogmas
ricos
pesc
▁grita
▁cua
dada
▁ejerci
▁nombrada
▁prestaremos
sproporcionados
▁163
▁mínimamente
▁incomprensibles
▁abocada
▁mare
aco
▁polos
▁arruinado
▁golpea
▁dispar
europeo
▁gravan
▁bicicleta
▁cauce
▁elefante
▁batería
▁intérprete
▁pesquería
▁gigantesca
▁archivo
▁arriesgada
▁privilegiadas
▁interroga
▁pin
▁2000»
▁valorizar
▁elector
traré
jørgensen
asia
▁mencionarlo
sz
▁virgin
▁birregional
▁cumplieron
▁desconozco
▁desfasado
▁despierte
▁devoluciones
▁divertido
▁equitable
▁erupción
▁escandinavia
▁franquicia
▁garrido
▁ilustre
▁knesset
▁maystadt
▁mccartney
▁modus
▁mombaur
▁produjese
▁troya
▁variación
▁venezolano
▁asemeja
▁demagógica
▁lactancia
▁noroccidental
▁albergo
▁multiplicidad
▁esforzándonos
▁asignatura
▁presupuestación
▁insensible
▁ineficiencia
▁promulgación
▁salón
▁salvación
▁exalta
▁inmiscuirse
▁inclinación
▁jacob
ámoslo
▁vacunados
▁confiada
▁engañarnos
▁constan
▁agravan
▁recopila
▁asesorar
▁borda
▁provocaciones
▁soportando
▁afirmarse
▁acudan
▁prometedores
▁tú
▁provoquen
0/96
▁destinando
▁decidí
▁condujeron
▁mediadores
▁manifiesten
▁solían
▁patrocinado
▁protectoras
▁búlgaras
▁condados
▁apaciguar
▁bielorrusos
▁selvas
▁candidatas
hard
▁leña
▁ayudarse
▁afirmaron
▁rebajas
▁gastarse
▁superfluas
▁comercia
▁christ
▁151
▁coma
▁hallado
▁850
▁fosa
7/2006
▁enfatiza
▁defraudado
iento
▁típicos
▁blancas
▁permitirme
ión
▁emprendidos
mante
▁convenir
▁adapt
▁informara
▁sentenciado
▁simplificarse
▁unimos
▁disociar
▁discutida
▁sangriento
▁biotecnológica
▁eurodiputado
▁indígena
▁arrestado
▁fibra
▁sali
▁millardo
▁navega
▁preso
▁brillantes
▁educa
013
fort
▁combine
después
habrá
declaración
vacas
rlamentarios
▁menospreciar
▁dificultado
▁centralizar
▁ocupándo
▁bradbourn
▁ceguera
▁churchill
▁cobardía
▁determinó
▁estandarización
▁eufemismo
▁frankfurt
▁hutchinson
▁informo
▁inmersa
▁kittelmann
▁matriz
▁nogueira
▁níger
▁protecciones
▁qatar
▁reelegido
▁teverson
▁tripulantes
▁equilibro
▁inmune
▁conmovido
▁baraja
▁enfrentándose
▁ruiz
▁captación
▁queiró
▁retroactivo
▁genoma
▁limito
▁comarca
▁manipulaciones
▁anule
▁cohesionada
íl
▁lapso
▁estimulación
▁profesorado
▁criminalización
▁letones
▁grandeza
▁descontrolada
98
▁anunciarles
▁exigirse
▁neg
▁fundamentarse
▁conglomerados
▁conozcamos
▁adecuarse
▁abstenga
▁liberaliza
▁paneles
▁3)
▁siguieran
▁publiquen
▁culminado
▁prohíban
▁hermanas
▁confundirse
▁dividen
▁mostrarles
▁socavaría
▁-¿
▁diferencial
sil
integra
0/98)
▁contrarresta
▁aplicase
▁cambiamos
▁asimetrías
▁rup
2/2002
▁asumidas
004
▁aportadas
▁figuraban
▁230
▁tar
▁fallecidos
▁malgasta
▁acomodar
▁afectaron
somos
▁ocuparán
▁desvincular
▁conducirán
▁retrasada
▁atestigua
mus
▁tremendos
▁recibiremos
▁idóneos
▁162
▁corregirse
▁notoria
▁etnias
▁bomb
▁confundido
▁figurará
omi
▁psicológicas
▁respira
▁convocatorias
▁creara
▁supeditado
▁dispus
▁azotado
▁venda
ual
▁suplemento
▁irreparable
▁fotografía
▁milicia
▁delictivo
▁residuo
▁temático
▁latente
▁distante
▁pragmáticas
▁exclusivos
▁emprenderse
▁promov
▁mol
mine
cam
▁ocupante
proyecto
▁transmitirle
▁razas
▁atienda
▁armonice
▁burlar
iniciativa
verdad
▁cancela
▁infinita
▁pronuncian
▁volcán
▁acuñ
▁bélica
▁deshonesto
▁incisiva
▁multianual
▁pernicioso
▁birdal
▁bofetada
▁corporativa
▁diferir
▁disgusto
▁existiese
▁fatiga
▁fluidez
▁jartum
▁mantuve
▁mbeki
▁mobutu
▁papastamkos
▁pidiéndole
▁resentimiento
▁subsistir
▁system
▁thomsen
▁tjce
▁trozo
▁vallelersundi
▁antaño
▁mengua
▁destreza
▁gerente
▁desvíe
▁relojería
▁entromet
▁doris
▁figel
▁jemer
▁coincidiendo
-98/0
trayendo
▁cuasi
▁mandamiento
▁sanear
▁cariz
▁1978
▁fíjense
▁pulso
▁eterno
▁miope
▁brie
▁clama
▁editores
▁bank
▁introductoria
▁pedófilos
▁permanecie
▁adaptando
▁resisten
▁atacando
▁animará
▁colaboramos
▁dini
▁aplaudido
▁sabiamente
▁distanciarse
▁sobrevalora
tengamos
independiente
teros
▁sonora
▁aldea
▁repentinamente
▁animando
▁amortiguar
▁propugnamos
▁interesarse
▁robles
▁señalarse
▁disculpen
99):
▁aproximarse
▁regulatorio
servicios
▁hierbas
▁casini
▁abonos
▁previsiblemente
▁sucio
▁sto
▁enfrentadas
▁transcurrir
bueno
7/97)
▁disimular
▁consumados
▁enunciados
▁demorar
▁descritas
▁confirmaron
74
▁gobernados
▁mermar
cogiendo
▁bazas
efecto
ilia
▁conmocionado
▁acata
▁vil
▁tributarias
▁corrie
señora
parlamentarias
▁despilfarra
giendo
▁empezarán
▁canto
▁oficiosa
▁apareciendo
▁radican
▁ciber
▁privatiza
▁utilizaremos
▁uniones
gl
▁invisible
▁cónyuge
▁portuario
▁artista
▁célula
▁descarte
▁remota
▁esperanzadora
pongan
tuviesen
1/2002
▁admita
91/
▁atrev
▁construidos
▁perderse
presidente
crisis
▁18.00
▁complemente
▁merecedora
▁elude
▁ayudarlos
▁editorial
ć
▁acquis
▁agropecuario
▁alexandr
▁amplió
▁aparecía
▁atribuible
▁batzeli
▁cisterna
▁concebible
▁desnutrición
▁discreta
▁emblemático
▁fehaciente
▁geometría
▁moviendo
▁plebiscito
▁proclive
▁reprocesamiento
▁sugiriendo
▁topolánek
▁difusa
▁mostar
▁colisión
▁preciado
▁powell
▁unmik
▁eulex
▁laureles
▁hospitalario
▁1,8
▁misteriosa
▁islámicas
▁percatado
▁desafiar
▁inactiva
▁homeopáticos
▁hallam
▁acumulando
▁embarcarse
▁surgirá
▁contentarse
▁rindan
▁fijemos
preguntas
▁implementadas
▁atrasadas
▁disciplinarias
▁oprimidos
▁discriminadas
▁virtualmente
▁reafirmamos
▁abogando
▁chicos
▁preocupen
▁financiamos
▁retirados
▁docentes
▁optan
1/1999
▁repartidos
▁limitemos
▁tributarios
▁despiertan
▁ayudaremos
▁pá
ui
toxi
▁obedecer
vieron
▁cruza
▁birmanas
▁destructivas
▁mentalidades
▁rojas
▁masculinos
▁manipulados
▁vincularse
▁corrige
▁celebrara
todas
▁propiciará
▁cercanías
▁espantosas
▁imputable
▁museos
▁embarazos
71/
▁arregla
▁implementa
▁exacerbado
▁catastróficos
▁legitimado
▁prop
▁esposas
▁copiar
▁cumplamos
▁roba
▁practicable
▁incluirla
▁valorarse
▁mantenerla
▁vertientes
▁farc
ciudadanos
▁redundaría
▁mixtos
▁garantizarle
▁lanzarse
tia
▁tel
hol
posiciones
2/2000
▁aportarán
▁inaugura
cip
▁exigirán
▁sesar
▁pronunciará
▁pico
▁implementado
▁administran
vive
dice
▁notorio
▁arrasa
▁nudo
▁magníficos
▁escenas
ece
▁127
▁incurrido
▁consejero
▁faceta
▁coeficiente
▁destruida
▁ganadera
▁raseros
▁reaccionaria
▁predecesora
▁óxido
▁servirse
▁reasignar
▁desaprovecha
▁construya
▁causaría
insta
▁ayud
▁patriarca
óxido
tiempo
objetivo
▁empujado
▁retrocesos
▁conocí
▁tamil
▁eterna
otan
▁anticip
jakob
tergeneracional
▁agradecérselo
▁bilbao
▁campeones
▁consecutiva
▁criticó
▁desesperanza
▁eutanasia
▁fallida
▁fatah
▁fosfatos
▁gaélico
▁homicidio
▁imperfecciones
▁imperfecto
▁matrícula
▁nepotismo
▁olivo
▁pirámide
▁pomés
▁redujera
▁romeva
▁sintomático
▁sortear
▁sudafricana
▁telkämper
▁vertidas
▁obstrucción
▁visionario
▁pistola
▁clavo
▁sarlis
▁morris
▁lenz
▁obrera
▁newton
▁acababa
▁aleatoria
▁obstinación
▁1983
▁irradiación
▁imagínense
▁previó
▁imaginemos
▁interpreto
fondo
▁deteriorando
▁facultativo
▁planetaria
▁reafirmación
▁sumida
▁coordinando
▁descaradamente
▁94/
▁acortada
ity
▁dha
creen
3/97)
▁resucitar
▁insultante
▁prematuramente
▁gozado
▁mezquitas
1/97)
▁recomendadas
▁señalización
▁dispusiera
▁defendidos
▁seísmos
▁generosamente
▁sabría
▁reconsideren
pacto
▁cuadros
▁incorporaron
▁inscritas
▁protegemos
▁fluye
▁explicarme
▁logísticos
▁exij
▁impotentes
▁doctorado
▁lucrativos
▁cuestionarse
▁rinda
▁menosprecia
▁materializa
▁modificarla
▁minimiza
▁hablaron
▁ventanas
▁93/
▁prs
▁absurdos
4/97)
▁rechazarlo
agua
▁decidiremos
jes
▁redactadas
▁recuerdos
▁equitativos
▁discutibles
▁roo
▁directora
▁iremos
▁reglamentado
▁defenderá
▁negociadoras
▁constituirse
▁demostraría
▁ubicar
▁evidenciado
servicio
▁crecerá
▁ocupadas
▁anticipadas
eco
▁inspecciona
▁impaciente
▁inscrita
▁epizootia
▁embarazada
▁trastorno
▁prisionero
ack
▁valla
▁prisas
▁listado
▁dividendo
▁denomin
▁normalizada
▁infrautiliza
▁comporte
comercio
mujeres
resulta
▁atípico
drogodependencia
▁abogacía
▁acrecentar
▁bowles
▁dominó
▁fertilidad
▁fragmento
▁gaulle
▁inscriba
▁karzai
▁parafrasea
▁pompidou
▁rendido
▁rompecabezas
▁sacudido
▁flote
▁maltés
▁emprendió
▁cogido
▁aprendiendo
hmud
▁desgarra
▁torpe
▁pittsburgh
▁volvieron
▁entrañe
▁reequilibrio
▁kellett
▁respaldó
▁empero
▁aletas
▁sucedía
▁autorizó
ónico
▁agregado
▁detectadas
▁parche
▁consista
▁240
caja
▁mueran
▁ejecutando
▁procuremos
-30
▁participaciones
▁complementen
▁apartarse
▁bienvenidas
▁formo
▁exorbitantes
érselo
▁esconderse
▁perjudiquen
▁materializarse
▁protestantes
▁atrever
mark
▁arco
▁conflictivas
▁extrañas
▁repartirse
▁protejamos
▁-¡
▁anticiparse
▁instrumentaliza
▁blandas
▁emprendedor
▁otorguen
eur
▁alcanzarlos
▁respondería
▁anticuados
▁ferri
▁horrorizado
▁orientan
▁penetrar
▁dilucidar
menos
▁expo
▁vagos
▁coca
▁tranquilizador
▁saldos
▁just
▁amistosas
▁exigirle
29/
▁firman
▁she
▁saga
▁pod
▁203
▁geopolíticas
2/97)
▁europass
▁increíbles
▁daban
▁condicionan
▁arreglos
▁caprichos
▁provocadora
air
▁detectados
▁precipitar
side
▁mayoritarios
▁inequívocos
▁destroza
▁desalentador
▁andor
ológicos
▁parta
▁cívico
▁publicitario
▁municipio
▁pensionista
▁reformista
▁nube
▁abonado
▁entraría
▁far
media
▁anulada
▁superada
▁fructíferas
▁actuaron
▁diseños
espacio
turquía
▁malla
▁terminal
▁exceptua
▁monopoliza
▁intolerante
▁irrisorio
▁literaria
▁acentuado
▁artesanos
▁ascendía
▁avilés
▁balcánica
▁caluroso
▁cannabis
▁capoulas
▁convenimos
▁desconcierto
▁dybkjær
▁excedido
▁exclusividad
▁gelatina
▁hulthén
▁kurdistán
▁matsakis
▁multipolar
▁pastrana
▁plausible
▁respondieron
▁sainjon
▁saldremos
▁sistémica
▁subrepticia
▁vatanen
▁záborská
▁analogía
▁belfast
#
▁agradezca
▁portabilidad
▁recogía
▁ardiente
▁anexa
▁reclamo
▁subvencionables
▁ciem
▁regala
▁anejo
▁sorprendida
▁neil
▁opaca
▁transportadas
▁asentar
▁benchmarking
▁suministradores
▁canción
▁apelando
▁154
▁argumentando
▁claude
▁paliativos
dispone
▁beneficiarnos
▁gestionen
▁cautos
▁rebaños
▁dispersa
▁obreros
latinoamericana
▁invertirse
▁subvencionadas
▁comuniquen
▁hidro
ística
▁retornar
▁restablecido
▁lisa
▁flamencos
▁velen
▁eliminadas
cide
▁camboyano
▁abrumador
▁rebatir
▁marchan
▁suicidios
▁plenario
▁gestionadas
▁frescos
▁crucero
▁enfoca
▁forzosos
/08
▁mejorados
▁presas
▁visitan
19/
▁europeana
quiénes
▁valore
▁presupuestado
▁colga
libra
▁fort
77/
▁vencedor
▁significaba
▁defenderlos
▁denota
▁permitiré
▁1,7
▁señalaré
▁inmensas
▁especifican
▁quebranta
enmienda
▁cambiarán
▁tímido
▁construida
▁manzana
▁atraso
▁oscura
▁requerimiento
▁comprendida
▁libio
▁radiactivo
▁adulto
▁adversario
▁ocasione
▁especulativo
▁maestro
▁guardería
▁desregular
▁asesinada
▁vacila
▁profesa
jándose
▁locos
▁intensificará
▁tax
▁aproximada
▁introduj
83
▁emisor
eti
▁perdone
▁supervisora
pienso
apoya
viniendo
▁colectividad
▁operacional
▁mineral
0/97)
alái
▁mediterráneas
å
▁alyssandrakis
▁armónico
▁buitenen
▁collado
▁construimos
▁contingencia
▁desenlace
▁empecé
▁empiezo
▁engranaje
▁fidedigna
▁frahm
▁gloria
▁heterogénea
▁insuperable
▁leguminosas
▁medvedev
▁namibia
▁octava
▁oportunismo
▁paraguay
▁podestà
▁prohibió
▁pronostica
▁recomiende
▁rehabilitar
▁saudita
▁schlyter
▁simultáneo
▁street
▁wathelet
▁cicaa
▁cuerda
▁elegimos
▁numérica
▁denuncie
▁adquirió
▁abstengo
▁audiciones
▁ofrecimiento
▁grech
▁dunn
▁reparta
▁ariane
▁pretendida
▁enumeración
▁acallar
▁uigures
▁preservando
▁mejoremos
▁enterrado
▁rectifique
▁conmemoramos
▁absorbido
▁solucionará
▁pastor
▁trajo
▁apretado
▁guy
▁viniendo
▁incineradoras
▁alimentando
▁acceden
▁cuantiosas
▁veteranos
▁accidentales
▁fracasan
35/
▁lamentando
▁15.000
otro
▁concluyendo
▁coincidan
▁raramente
▁nano
▁evolucionan
▁andrews
▁iniciemos
▁personajes
▁raciales
▁acertados
▁asimétricos
▁derrama
▁soviéticas
▁conducirnos
▁cautelosos
▁vietnamitas
▁comidas
▁primarias
▁plagado
▁atribuy
▁hallaba
▁lecho
▁involucre
2,5
▁tv
▁ocupaciones
▁añadan
▁atentar
▁inútilmente
▁felicitarlo
▁nocturnos
038
▁dignamente
▁gm
▁organizativas
▁mayoritarias
1/2006
▁maternal
▁oua
▁representativos
▁sobrecargado
▁ratificarlo
▁explora
▁completará
▁continuaré
▁llamativo
stein
▁afrontarlo
▁enérgicos
▁fomentaría
▁ahondar
▁situará
▁tre
▁pala
▁distribuidos
▁cargamento
▁parti
▁planeada
▁celebr
▁aprecian
▁destructivo
▁punible
▁tontería
▁egoísta
▁indeseable
▁católico
▁represalia
▁aditivo
▁señalarle
▁ganancia
▁cruzado
egada
adero
▁enlazar
▁preferir
▁superará
▁trasciende
▁adhiere
▁regrese
regiones
terrorismo
▁manifest
principio
mediante
▁medieval
▁auxiliar
▁homosexual
▁bas
▁inciden
▁librado
▁disemina
▁forja
▁incitan
▁ilumin
▁subdesarrollado
▁berenguer
▁caspary
▁cediendo
▁comisaría
▁desembarque
▁ebner
▁embalaje
▁espinosa
▁eurócratas
▁inquebrantable
▁junker
▁karadzic
▁lícito
▁minimalista
▁pulmón
▁queroseno
▁quienquiera
▁renuencia
▁restituir
▁revertir
▁trílogo
▁ultranza
▁umbilical
▁esbozo
▁eligieron
▁abstendré
▁laschet
▁agcs
▁computa
▁formó
▁sentando
▁gilad
▁descrédito
▁diseminación
▁lotería
▁ayala
▁practicaje
▁alejarnos
sección
▁realizable
▁recuperando
▁procedimentales
▁ei
modern
▁estudiamos
▁cumplieran
▁negociamos
▁alejarse
▁grises
▁revelaciones
cier
▁nicola
▁6%
▁confunden
▁asistan
▁opondrá
▁convencerles
▁enfrenten
▁argelinas
▁xenófobas
▁favorecería
▁sudafricanos
▁reparado
▁absolutas
▁sustituyan
▁sobreproducción
nzamos
▁prometen
sf
▁incluyeran
▁instalados
1/98)
▁radiactivas
▁antepone
▁practic
▁anticuadas
▁agravará
7/2000
▁impulsor
▁sorprendidos
▁marchado
nsamente
▁atacados
▁vacilar
▁tru
▁rebajado
▁fijará
▁atacada
▁inclinado
▁apropiadamente
▁investigados
▁desmesurada
▁abona
4/2002
▁paneuropeos
▁repo
▁recíprocos
▁kim
▁viaj
▁tempranas
viéndose
▁actualizadas
▁codificado
▁instaura
▁0,3
▁tribu
▁supeditada
▁achacar
▁transmitidos
▁bielorrusa
▁cumplida
▁muchísima
▁emple
▁inseguro
▁paradero
▁cumplirlos
▁disciplinario
▁finalizada
mail
▁ayudarlas
▁confiscar
7-00
▁program
▁conciliador
mí
ement
▁prospere
71
dumping
tiero
▁1981
▁defensivo
▁estúpida
▁filosófico
▁keynes
▁abrieron
▁ainardi
▁anexión
▁aproxime
▁cautelosa
▁clarísimo
▁commonwealth
▁doorn
▁fjellner
▁gbagbo
▁honorarios
▁ilegítimo
▁inaccesible
▁kinshasa
▁majestad
▁meticuloso
▁monoparentales
▁murphy
▁participo
▁polinización
▁presumiblemente
▁prisma
▁propusiera
▁pureza
▁rainsy
▁reuniendo
▁sobresaliente
▁sucinta
▁vanhanen
▁apostando
▁conversar
▁reexaminar
▁sembrado
▁bioenergía
▁descalifica
▁exceda
▁convertida
▁espejo
▁aportó
▁saint
▁luchó
▁titularidad
▁profundizando
▁labios
▁escuda
▁portadores
▁icd
▁destin
▁viet
▁petrolíferos
▁transformando
▁temible
▁finalizó
▁extractivas
▁intrínsecamente
ile
▁refinerías
▁mejorable
▁veraz
▁introdujera
▁peca
▁identifiquen
▁votarse
discrecionalidad
▁proporcionarle
▁ascenderá
paga
▁concuerdan
▁prestarle
▁comportaría
▁pedíamos
▁detenernos
▁otorgando
invest
▁frustrados
▁creadoras
▁redacta
▁análogos
▁disciplinarios
▁gasten
oit
miti
▁dividendos
▁ordinarias
▁inminentes
tieron
saben
▁baj
▁1948
▁arruina
▁1,2
▁concretarse
ix
▁concentrada
▁dirían
▁respetables
▁apoyarnos
▁serena
▁venderse
▁lucharon
▁generarán
▁movilizarse
▁perdona
▁montar
▁inspirador
▁transformadora
ong
ges
▁existirán
▁acelerará
▁dialoga
▁explícitas
▁asimila
▁convoque
▁alegar
▁terminarán
▁reflejando
..."
personal
▁dolorosos
▁moderadas
▁mencionamos
▁debilitará
▁cepa
▁cancelado
▁199
▁invocado
▁ovinos
▁reform
▁quitarle
▁silla
▁famosas
▁propician
▁encajan
▁discutirse
▁adjudicar
▁sustituirlo
irán
dios
▁sorprenden
cero
▁forraje
▁aprecie
▁afortunado
▁volcánica
▁oveja
traigan
▁semilla
▁traba
▁coponente
▁ampliarlo
▁tolerado
▁baremo
mático
▁desarrollaron
real
▁supli
▁emprenderá
▁comercializa
▁destruya
crecimiento
agenda
▁rija
▁corría
▁chileno
▁amputa
▁sirios
▁apoyándose
▁arquitectónico
▁asumieron
▁autoritarismo
▁cajón
▁ciclón
▁desaprobación
▁expuse
▁flagelo
▁huhne
▁irrevocable
▁obtuvimos
▁ofendido
▁rambouillet
▁rincón
▁siderúrgico
▁sofisticada
▁tambalea
▁vandalismo
▁veracidad
▁vertiginosa
ë
▁indiqué
▁mafioso
▁patentable
▁irremediable
▁nicolaï
▁templo
▁respiratorias
▁retarda
▁pornográfico
▁radioactivos
▁compartía
▁adecue
▁transpuesta
▁disponiendo
▁larive
▁oporto
▁concern
▁jacta
▁ignoro
▁medalla
▁trasatlántico
▁preveo
▁hahn
▁sharm
▁oponerme
▁2018
▁radicalismo
▁basamos
bashir
▁internamiento
▁privando
▁moralidad
▁boicotear
▁seleccionadas
▁edulcorantes
▁dediquemos
▁escucharle
▁vulneran
solo
▁esperen
▁disculpar
▁crezcan
▁sobrevivido
▁instalarse
▁traspasa
▁desatado
▁propaga
▁introduzcamos
▁sometemos
▁budistas
▁arrojan
▁sugeridas
izándose
▁incrementaría
▁habiéndose
▁tunecinas
rate
▁protestado
▁remo
▁transmitidas
▁poblados
▁invertidos
ete
▁bastar
▁predominan
iev
▁contendrá
▁veían
▁falto
▁concluyentes
cielo
▁secretariado
▁gravísimos
2008
▁lamentan
▁117
▁cruzadas
▁lanzadas
▁sorpresas
▁separe
▁iniciarán
▁escritores
▁mitiga
▁preverse
stituyó
▁trip
▁desacredita
▁educada
vocó
▁enriquecedor
▁resultarían
▁milagros
▁fructíferos
▁facilitadas
▁pad
▁criminalizar
▁apoyarle
59
▁118
▁extensos
▁cubrirá
diente
calla
▁eminente
▁preocupando
▁resolvería
ama
▁ácido
▁indivisible
▁reticente
▁monumento
▁tributario
▁nefasta
▁microcrédito
▁comerciante
▁desperdicio
100
▁estudiada
▁lima
▁preparará
▁usarlo
▁ultima
▁obvios
▁fuegos
▁tratarlos
▁movilice
▁juzgue
▁transfiere
chipriota
tendremos
tendré
muchas
hom
▁ritual
▁inspector
tch
▁vehemente
▁señalaron
▁incaut
−
▁advirtió
▁ascendió
▁battisti
▁cansancio
▁cassidy
▁colajanni
▁confesiones
▁defectuosa
▁encomendada
▁escrupuloso
▁eslabones
▁estiércol
▁habilitado
▁inamovible
▁inclusiva
▁incomprensión
▁intervinieron
▁lindqvist
▁munición
▁norcoreano
▁oddy
▁oligarquía
▁organigrama
▁oxígeno
▁parkinson
▁parlamentarismo
▁percibo
▁prestatarios
▁repoblación
▁significó
▁sucedáneo
▁telefónico
▁transigir
▁yeltsin
▁bombillas
▁carlotti
▁destructor
▁flete
▁estimó
▁inclino
▁inculpa
▁fracción
▁papeletas
▁amordaza
▁imponía
▁trío
▁that
▁rdc
▁letona
▁abeba
▁philippe
▁north
4-07
▁beneficiarias
▁continuó
▁queriendo
▁ilógico
▁baña
▁responderán
▁dialogando
▁ruidosos
▁acelerando
▁digámoslo
▁compro
▁porcentuales
▁cooperamos
▁destrozado
sreglamentación
▁2025
▁silvi
▁supedita
▁destruyan
▁carcinógenos
▁mobiliarios
▁navieras
▁estipuladas
▁alegrarse
▁atraen
▁renuncien
▁calificativo
▁havel
6/98)
▁maestras
▁maltratado
pretende
▁estonios
▁evaluadas
▁declaren
▁evalúan
▁forrajes
tarse
▁administrado
nunció
▁materializado
▁influenciar
▁acusan
▁novel
▁controlamos
▁perturbado
▁inspiradas
▁ocupara
▁acosado
▁bloqueadas
▁consagradas
▁recicla
way
▁oyen
▁fiestas
▁recurrentes
ston
▁versan
-6
umer
▁medido
▁procesa
▁alcanzarlo
king
▁gritar
4-010
▁manejado
▁faltaba
posito
▁arduas
▁19.00
▁desat
▁acuerden
ificada
seguro
▁reportar
ary
▁mora
▁garantizaremos
▁mary
▁aprobaran
▁ostentan
▁menciones
regula
mm
áticos
▁introducirán
▁by
▁mostr
legal
▁acarreará
▁quemado
(2)
▁diciéndole
▁emblemática
▁artístico
▁análogo
▁equiparable
▁imprecisa
▁anticipo
▁juzgada
▁involucrada
▁blanda
▁enclave
▁relegada
▁aliada
▁esquí
80/
▁protagoniz
▁degenera
cic
américa
evaluación
libre
▁calcul
▁descarada
▁cereal
▁proyectado
9/98)
▁desmorona
scentralizados
▁quisthoudt
intervencionismo
urodegenerativas
▁apetito
▁arrendamiento
▁colegiado
▁comestibles
▁cuantiosos
▁desbloqueo
▁desinterés
▁dorsal
▁encubierto
▁fraternidad
▁greenpeace
▁helmer
▁inconsciente
▁inextricable
▁jospin
▁járóka
▁legisle
▁marrakech
▁mcintosh
▁meijer
▁milinkevich
▁originó
▁papadimoulis
▁psíquica
▁regateo
▁videojuegos
▁previendo
▁remarcar
▁salvedad
▁suspendió
▁asentado
▁meritorio
▁emotivo
▁pasiones
▁envié
▁1958
▁asumí
▁addis
▁kgb
▁confrontados
▁irritación
▁volante
▁incumplan
▁movernos
▁toxicómanos
▁operacionales
▁tolerando
▁stoa
▁severin
▁perfectas
▁posibilitará
▁molde
▁protectores
▁invitaciones
▁cancerígenas
▁forest
▁reaccionan
▁anglo
▁concesionarios
▁pancartas
▁anunciando
▁negocien
▁sky
▁sacamos
▁up
▁denominarse
▁exigían
▁sorprenda
▁matemáticas
▁impulsen
▁caricaturas
▁avala
▁aptas
▁eminentes
▁sopla
▁imaginativa
▁procuran
▁absorbe
▁reducirlo
▁impresos
▁ofrezcamos
▁ps
medio
▁examinara
▁influyentes
lga
▁rectifica
▁linda
▁englobar
▁éticamente
▁informaron
▁insistente
▁inflexibles
▁indicadas
▁bou
▁colombiana
▁suposición
▁mezclado
[...]
